<unk>	0
<s>	0
</s>	0
<pad>	0
<system>	0
<user>	0
<assistant>	0
<0x00>	0
<0x01>	0
<0x02>	0
<0x03>	0
<0x04>	0
<0x05>	0
<0x06>	0
<0x07>	0
<0x08>	0
<0x09>	0
<0x0A>	0
<0x0B>	0
<0x0C>	0
<0x0D>	0
<0x0E>	0
<0x0F>	0
<0x10>	0
<0x11>	0
<0x12>	0
<0x13>	0
<0x14>	0
<0x15>	0
<0x16>	0
<0x17>	0
<0x18>	0
<0x19>	0
<0x1A>	0
<0x1B>	0
<0x1C>	0
<0x1D>	0
<0x1E>	0
<0x1F>	0
<0x20>	0
<0x21>	0
<0x22>	0
<0x23>	0
<0x24>	0
<0x25>	0
<0x26>	0
<0x27>	0
<0x28>	0
<0x29>	0
<0x2A>	0
<0x2B>	0
<0x2C>	0
<0x2D>	0
<0x2E>	0
<0x2F>	0
<0x30>	0
<0x31>	0
<0x32>	0
<0x33>	0
<0x34>	0
<0x35>	0
<0x36>	0
<0x37>	0
<0x38>	0
<0x39>	0
<0x3A>	0
<0x3B>	0
<0x3C>	0
<0x3D>	0
<0x3E>	0
<0x3F>	0
<0x40>	0
<0x41>	0
<0x42>	0
<0x43>	0
<0x44>	0
<0x45>	0
<0x46>	0
<0x47>	0
<0x48>	0
<0x49>	0
<0x4A>	0
<0x4B>	0
<0x4C>	0
<0x4D>	0
<0x4E>	0
<0x4F>	0
<0x50>	0
<0x51>	0
<0x52>	0
<0x53>	0
<0x54>	0
<0x55>	0
<0x56>	0
<0x57>	0
<0x58>	0
<0x59>	0
<0x5A>	0
<0x5B>	0
<0x5C>	0
<0x5D>	0
<0x5E>	0
<0x5F>	0
<0x60>	0
<0x61>	0
<0x62>	0
<0x63>	0
<0x64>	0
<0x65>	0
<0x66>	0
<0x67>	0
<0x68>	0
<0x69>	0
<0x6A>	0
<0x6B>	0
<0x6C>	0
<0x6D>	0
<0x6E>	0
<0x6F>	0
<0x70>	0
<0x71>	0
<0x72>	0
<0x73>	0
<0x74>	0
<0x75>	0
<0x76>	0
<0x77>	0
<0x78>	0
<0x79>	0
<0x7A>	0
<0x7B>	0
<0x7C>	0
<0x7D>	0
<0x7E>	0
<0x7F>	0
<0x80>	0
<0x81>	0
<0x82>	0
<0x83>	0
<0x84>	0
<0x85>	0
<0x86>	0
<0x87>	0
<0x88>	0
<0x89>	0
<0x8A>	0
<0x8B>	0
<0x8C>	0
<0x8D>	0
<0x8E>	0
<0x8F>	0
<0x90>	0
<0x91>	0
<0x92>	0
<0x93>	0
<0x94>	0
<0x95>	0
<0x96>	0
<0x97>	0
<0x98>	0
<0x99>	0
<0x9A>	0
<0x9B>	0
<0x9C>	0
<0x9D>	0
<0x9E>	0
<0x9F>	0
<0xA0>	0
<0xA1>	0
<0xA2>	0
<0xA3>	0
<0xA4>	0
<0xA5>	0
<0xA6>	0
<0xA7>	0
<0xA8>	0
<0xA9>	0
<0xAA>	0
<0xAB>	0
<0xAC>	0
<0xAD>	0
<0xAE>	0
<0xAF>	0
<0xB0>	0
<0xB1>	0
<0xB2>	0
<0xB3>	0
<0xB4>	0
<0xB5>	0
<0xB6>	0
<0xB7>	0
<0xB8>	0
<0xB9>	0
<0xBA>	0
<0xBB>	0
<0xBC>	0
<0xBD>	0
<0xBE>	0
<0xBF>	0
<0xC0>	0
<0xC1>	0
<0xC2>	0
<0xC3>	0
<0xC4>	0
<0xC5>	0
<0xC6>	0
<0xC7>	0
<0xC8>	0
<0xC9>	0
<0xCA>	0
<0xCB>	0
<0xCC>	0
<0xCD>	0
<0xCE>	0
<0xCF>	0
<0xD0>	0
<0xD1>	0
<0xD2>	0
<0xD3>	0
<0xD4>	0
<0xD5>	0
<0xD6>	0
<0xD7>	0
<0xD8>	0
<0xD9>	0
<0xDA>	0
<0xDB>	0
<0xDC>	0
<0xDD>	0
<0xDE>	0
<0xDF>	0
<0xE0>	0
<0xE1>	0
<0xE2>	0
<0xE3>	0
<0xE4>	0
<0xE5>	0
<0xE6>	0
<0xE7>	0
<0xE8>	0
<0xE9>	0
<0xEA>	0
<0xEB>	0
<0xEC>	0
<0xED>	0
<0xEE>	0
<0xEF>	0
<0xF0>	0
<0xF1>	0
<0xF2>	0
<0xF3>	0
<0xF4>	0
<0xF5>	0
<0xF6>	0
<0xF7>	0
<0xF8>	0
<0xF9>	0
<0xFA>	0
<0xFB>	0
<0xFC>	0
<0xFD>	0
<0xFE>	0
<0xFF>	0
▁d	-0
on	-1
er	-2
▁c	-3
▁s	-4
▁p	-5
▁a	-6
re	-7
to	-8
in	-9
ta	-10
en	-11
ti	-12
la	-13
▁di	-14
ri	-15
el	-16
ra	-17
li	-18
▁e	-19
te	-20
le	-21
an	-22
un	-23
▁m	-24
▁i	-25
ro	-26
zi	-27
▁in	-28
▁n	-29
si	-30
he	-31
▁del	-32
or	-33
ia	-34
▁f	-35
▁un	-36
es	-37
ca	-38
▁v	-39
▁per	-40
▁con	-41
one	-42
▁la	-43
lo	-44
os	-45
▁al	-46
qu	-47
▁g	-48
om	-49
▁t	-50
▁il	-51
ar	-52
co	-53
▁che	-54
ci	-55
al	-56
men	-57
et	-58
di	-59
▁qu	-60
do	-61
▁ri	-62
▁S	-63
ma	-64
▁o	-65
zione	-66
no	-67
▁C	-68
so	-69
za	-70
▁su	-71
gi	-72
▁b	-73
▁l	-74
▁è	-75
ere	-76
▁pro	-77
▁P	-78
vi	-79
ol	-80
tu	-81
▁da	-82
mp	-83
▁le	-84
▁de	-85
▁si	-86
mo	-87
▁I	-88
▁L	-89
sa	-90
va	-91
gli	-92
bi	-93
▁com	-94
oni	-95
▁an	-96
▁A	-97
▁M	-98
ono	-99
ch	-100
da	-101
ter	-102
tto	-103
ce	-104
che	-105
as	-106
pp	-107
▁una	-108
tà	-109
▁h	-110
▁se	-111
▁della	-112
▁pre	-113
ni	-114
▁ca	-115
tra	-116
vo	-117
▁re	-118
▁nel	-119
mi	-120
tti	-121
▁ma	-122
▁pi	-123
na	-124
io	-125
▁non	-126
ve	-127
de	-128
era	-129
se	-130
fi	-131
is	-132
ina	-133
▁D	-134
▁so	-135
mente	-136
ona	-137
ggi	-138
▁po	-139
ran	-140
uo	-141
▁1	-142
sp	-143
▁2	-144
tro	-145
ano	-146
cia	-147
▁G	-148
▁fa	-149
▁T	-150
zza	-151
▁dal	-152
ten	-153
▁sta	-154
▁B	-155
bb	-156
▁R	-157
eri	-158
▁sp	-159
▁(	-160
▁vi	-161
tta	-162
▁tra	-163
▁tu	-164
▁F	-165
▁N	-166
▁ha	-167
ver	-168
▁ques	-169
ga	-170
mento	-171
▁par	-172
ini	-173
zioni	-174
▁dei	-175
ui	-176
▁ci	-177
▁E	-178
tre	-179
ssi	-180
enti	-181
▁u	-182
▁sono	-183
po	-184
tan	-185
▁te	-186
ff	-187
ine	-188
▁lo	-189
cc	-190
▁più	-191
ali	-192
ente	-193
▁do	-194
tori	-195
tri	-196
▁gi	-197
ino	-198
▁dell	-199
▁es	-200
▁pa	-201
enza	-202
▁ra	-203
ru	-204
▁alla	-205
con	-206
▁V	-207
▁anche	-208
▁sul	-209
ani	-210
pa	-211
▁mi	-212
go	-213
▁La	-214
ul	-215
▁mo	-216
hi	-217
mb	-218
▁delle	-219
▁ne	-220
sti	-221
▁pos	-222
▁come	-223
▁me	-224
▁“	-225
chi	-226
me	-227
▁Il	-228
pi	-229
sta	-230
anno	-231
tura	-232
..	-233
lu	-234
ale	-235
▁20	-236
▁cos	-237
du	-238
ero	-239
zz	-240
ando	-241
gg	-242
etto	-243
▁pri	-244
▁ad	-245
rio	-246
▁U	-247
▁co	-248
bili	-249
are	-250
uto	-251
▁for	-252
▁sc	-253
▁pu	-254
ven	-255
▁In	-256
▁li	-257
gu	-258
▁gli	-259
tare	-260
ria	-261
▁all	-262
bile	-263
▁imp	-264
ggio	-265
▁comp	-266
cu	-267
tali	-268
sso	-269
▁ar	-270
etti	-271
▁av	-272
▁du	-273
▁O	-274
▁quel	-275
glio	-276
▁no	-277
▁prop	-278
ene	-279
▁fi	-280
00	-281
cco	-282
iamo	-283
zia	-284
▁inter	-285
tte	-286
▁app	-287
gna	-288
▁ed	-289
▁ess	-290
ziona	-291
dere	-292
▁questo	-293
▁Ma	-294
us	-295
tato	-296
▁ai	-297
sione	-298
per	-299
▁gra	-300
uni	-301
esso	-302
fica	-303
menti	-304
▁nella	-305
ele	-306
gni	-307
ne	-308
▁alle	-309
▁ti	-310
▁3	-311
▁Q	-312
▁sa	-313
ing	-314
▁-	-315
gno	-316
▁chi	-317
▁"	-318
for	-319
▁col	-320
▁mol	-321
tico	-322
▁essere	-323
▁ris	-324
zio	-325
▁ta	-326
▁nos	-327
▁ter	-328
▁cor	-329
▁nuo	-330
▁H	-331
▁201	-332
mpo	-333
gra	-334
glia	-335
▁–	-336
tel	-337
ffi	-338
▁semp	-339
etta	-340
▁pres	-341
anti	-342
ana	-343
▁gior	-344
▁va	-345
▁tro	-346
ren	-347
▁Qu	-348
▁parte	-349
▁to	-350
▁pers	-351
cor	-352
cca	-353
▁cui	-354
lare	-355
ze	-356
res	-357
▁Ca	-358
▁gio	-359
▁at	-360
cio	-361
▁Per	-362
bo	-363
pe	-364
▁vol	-365
um	-366
▁ba	-367
▁suo	-368
▁lavo	-369
▁hanno	-370
der	-371
dia	-372
▁Le	-373
uro	-374
essi	-375
cato	-376
ese	-377
ron	-378
esti	-379
▁ser	-380
▁Con	-381
▁ver	-382
zzo	-383
▁dis	-384
▁pas	-385
▁dalla	-386
ba	-387
▁tutti	-388
tru	-389
▁bi	-390
uti	-391
endo	-392
il	-393
ge	-394
ur	-395
▁Com	-396
▁anni	-397
▁na	-398
▁por	-399
▁degli	-400
▁vo	-401
bbli	-402
▁due	-403
mma	-404
▁prima	-405
tore	-406
ante	-407
tica	-408
▁disp	-409
▁Se	-410
enta	-411
vol	-412
▁Al	-413
bbe	-414
▁ven	-415
▁4	-416
▁solo	-417
▁Pa	-418
ss	-419
ena	-420
ppo	-421
▁An	-422
tiva	-423
lan	-424
▁acc	-425
).	-426
▁possi	-427
fa	-428
▁risp	-429
ello	-430
▁stato	-431
▁5	-432
▁Si	-433
dio	-434
sid	-435
▁sempre	-436
▁questa	-437
),	-438
tivo	-439
mbi	-440
anto	-441
▁or	-442
ché	-443
▁molto	-444
▁cre	-445
ste	-446
▁gran	-447
▁loro	-448
▁ve	-449
gia	-450
cqu	-451
ura	-452
ess	-453
pera	-454
▁men	-455
▁cer	-456
▁mon	-457
▁W	-458
tante	-459
▁qual	-460
man	-461
rà	-462
▁pun	-463
rin	-464
▁sua	-465
▁sia	-466
▁gen	-467
▁esp	-468
bilità	-469
elli	-470
cora	-471
ie	-472
▁en	-473
▁abb	-474
ella	-475
essa	-476
lizza	-477
▁ro	-478
▁dire	-479
▁spe	-480
gn	-481
▁Mi	-482
▁uno	-483
▁tutto	-484
arà	-485
▁Re	-486
forma	-487
ento	-488
ad	-489
ffer	-490
▁via	-491
at	-492
tin	-493
▁ste	-494
cch	-495
cer	-496
mm	-497
▁tempo	-498
▁servi	-499
esta	-500
▁cons	-501
▁può	-502
▁ho	-503
▁quali	-504
▁sulla	-505
▁indi	-506
▁man	-507
”.	-508
▁ga	-509
ette	-510
▁uti	-511
▁pubbli	-512
▁w	-513
▁diver	-514
une	-515
vità	-516
zie	-517
▁ogni	-518
ltre	-519
▁dopo	-520
tt	-521
▁sca	-522
▁persona	-523
▁ch	-524
ttura	-525
▁au	-526
indi	-527
▁stra	-528
▁fare	-529
▁car	-530
inis	-531
▁bas	-532
▁Di	-533
mpi	-534
tale	-535
talia	-536
...	-537
uta	-538
▁secon	-539
zzi	-540
▁nei	-541
▁conf	-542
via	-543
sc	-544
ttu	-545
rie	-546
▁senza	-547
que	-548
▁J	-549
osa	-550
tter	-551
ccia	-552
▁pia	-553
età	-554
zionale	-555
▁poi	-556
ggiun	-557
▁dall	-558
▁contro	-559
ck	-560
zo	-561
ggia	-562
▁ancora	-563
ranno	-564
▁sarà	-565
!!	-566
▁cen	-567
▁fo	-568
▁far	-569
vare	-570
▁19	-571
gui	-572
▁pen	-573
tati	-574
▁sos	-575
sto	-576
▁alc	-577
▁fatto	-578
rare	-579
cen	-580
▁vis	-581
▁can	-582
▁Gi	-583
anza	-584
▁atti	-585
osi	-586
▁K	-587
pri	-588
ico	-589
▁forma	-590
▁os	-591
▁nell	-592
mer	-593
▁Un	-594
▁Non	-595
▁lib	-596
alizza	-597
▁6	-598
▁dove	-599
▁prodo	-600
clu	-601
▁sotto	-602
inter	-603
▁prog	-604
▁bu	-605
▁mar	-606
▁proprio	-607
olo	-608
▁parti	-609
▁stu	-610
▁Mar	-611
▁altri	-612
▁Pro	-613
▁modo	-614
rante	-615
▁dov	-616
amo	-617
ed	-618
▁quello	-619
▁vita	-620
vano	-621
▁prof	-622
▁comple	-623
sse	-624
▁regi	-625
st	-626
▁euro	-627
▁arri	-628
razione	-629
mina	-630
▁cir	-631
tamente	-632
▁già	-633
lità	-634
▁miglio	-635
orto	-636
ssa	-637
elle	-638
▁chia	-639
▁nelle	-640
pra	-641
cchi	-642
vere	-643
care	-644
almente	-645
▁lavoro	-646
▁quando	-647
▁sin	-648
tanti	-649
▁tec	-650
▁stori	-651
▁così	-652
ord	-653
▁stru	-654
▁Ri	-655
▁tratta	-656
tivi	-657
▁perché	-658
ho	-659
anta	-660
▁dom	-661
▁quanto	-662
▁ini	-663
tua	-664
onda	-665
▁tre	-666
pre	-667
esto	-668
20	-669
▁era	-670
▁itali	-671
▁casa	-672
lla	-673
enze	-674
▁sco	-675
▁Na	-676
▁sal	-677
▁questi	-678
▁grande	-679
tive	-680
ble	-681
▁Vi	-682
ett	-683
▁Da	-684
▁Ci	-685
ciale	-686
assi	-687
line	-688
elo	-689
▁fino	-690
rato	-691
zien	-692
ure	-693
▁ul	-694
asi	-695
▁impor	-696
▁mondo	-697
▁cal	-698
ostra	-699
▁Lo	-700
▁Po	-701
▁rapp	-702
tiche	-703
▁poss	-704
▁giu	-705
▁nostro	-706
oma	-707
osta	-708
▁num	-709
lmente	-710
▁el	-711
▁ten	-712
ort	-713
▁Sa	-714
▁acqu	-715
▁10	-716
ggior	-717
▁7	-718
com	-719
usi	-720
▁stata	-721
▁spa	-722
▁sopra	-723
▁primo	-724
stra	-725
▁sol	-726
gono	-727
▁sicu	-728
ane	-729
tor	-730
▁fu	-731
▁dai	-732
▁tuo	-733
denti	-734
▁tras	-735
▁cli	-736
▁nuovo	-737
▁quindi	-738
ulti	-739
▁fun	-740
vato	-741
▁mom	-742
▁tutte	-743
▁oltre	-744
eni	-745
sioni	-746
▁sti	-747
tui	-748
unque	-749
gani	-750
▁z	-751
▁Do	-752
▁gu	-753
▁auto	-754
tazione	-755
tina	-756
ttà	-757
mbre	-758
▁Pi	-759
▁sen	-760
▁volta	-761
gina	-762
▁legg	-763
fatti	-764
▁ore	-765
▁bene	-766
▁dalle	-767
▁lu	-768
▁on	-769
▁ave	-770
esa	-771
▁informa	-772
▁De	-773
tano	-774
▁caso	-775
▁inf	-776
▁aff	-777
tenza	-778
colo	-779
▁rip	-780
▁quella	-781
▁deci	-782
▁fin	-783
▁condi	-784
ok	-785
▁possibile	-786
ghi	-787
ell	-788
tanto	-789
▁partico	-790
▁nec	-791
▁colo	-792
▁siste	-793
cita	-794
”,	-795
▁potre	-796
tici	-797
▁«	-798
▁picco	-799
▁persone	-800
▁oggi	-801
▁comuni	-802
gione	-803
▁mili	-804
▁Mo	-805
▁consi	-806
rsi	-807
▁fra	-808
ard	-809
▁passa	-810
▁scri	-811
▁giorno	-812
▁capi	-813
col	-814
▁ese	-815
▁lun	-816
oso	-817
▁ricer	-818
mpa	-819
▁Fa	-820
▁Co	-821
chia	-822
feri	-823
▁San	-824
▁risul	-825
osto	-826
▁poli	-827
▁ora	-828
▁ben	-829
▁giorni	-830
▁eff	-831
am	-832
▁fami	-833
▁off	-834
cere	-835
▁realizza	-836
▁attra	-837
edi	-838
▁foto	-839
vin	-840
▁produ	-841
▁8	-842
▁des	-843
▁Italia	-844
it	-845
▁mani	-846
▁maggio	-847
▁conos	-848
▁allo	-849
ber	-850
ome	-851
torio	-852
cip	-853
tten	-854
▁mer	-855
▁contin	-856
tion	-857
▁cla	-858
▁quale	-859
▁200	-860
lazione	-861
cina	-862
etro	-863
▁richi	-864
dare	-865
▁mis	-866
ture	-867
usa	-868
ON	-869
erie	-870
▁tor	-871
omo	-872
lica	-873
▁città	-874
dente	-875
▁dello	-876
▁Li	-877
ssione	-878
▁visi	-879
▁opera	-880
▁fine	-881
▁Ar	-882
▁possono	-883
lia	-884
pen	-885
▁secondo	-886
▁cu	-887
▁cosa	-888
▁proble	-889
▁sito	-890
uno	-891
▁momento	-892
glie	-893
and	-894
▁esi	-895
▁min	-896
▁So	-897
▁9	-898
cci	-899
trib	-900
▁uni	-901
▁k	-902
verso	-903
▁Pre	-904
llo	-905
▁assi	-906
cre	-907
una	-908
lato	-909
erà	-910
sie	-911
▁Ra	-912
▁giorna	-913
ER	-914
▁altre	-915
use	-916
ffici	-917
tata	-918
▁nuova	-919
qui	-920
ssimo	-921
▁posi	-922
▁cara	-923
▁colle	-924
tr	-925
▁cas	-926
ha	-927
▁sempli	-928
rezza	-929
vece	-930
▁succ	-931
lari	-932
▁utilizza	-933
▁ele	-934
vilu	-935
mato	-936
cce	-937
cipa	-938
arti	-939
▁nostra	-940
▁perm	-941
▁bamb	-942
lano	-943
ganizza	-944
omi	-945
▁contra	-946
▁go	-947
▁loca	-948
▁viene	-949
▁segui	-950
▁las	-951
▁sui	-952
cità	-953
▁stesso	-954
▁Nel	-955
▁mentre	-956
▁ricerca	-957
tando	-958
▁infatti	-959
gine	-960
teria	-961
▁agli	-962
imp	-963
vero	-964
guar	-965
▁Una	-966
val	-967
▁15	-968
▁disponi	-969
▁scel	-970
▁don	-971
▁mai	-972
tanza	-973
dì	-974
▁numero	-975
▁diven	-976
inistra	-977
▁grazie	-978
vento	-979
▁progra	-980
▁stati	-981
dica	-982
▁invece	-983
▁cri	-984
▁fil	-985
▁Tu	-986
logi	-987
▁ren	-988
▁super	-989
▁ricor	-990
▁tecni	-991
▁sistema	-992
dre	-993
gre	-994
▁centro	-995
▁pe	-996
▁Su	-997
▁scor	-998
sidente	-999
▁circa	-1000
▁svilu	-1001
▁stan	-1002
▁abbiamo	-1003
▁ulti	-1004
▁Ro	-1005
▁prin	-1006
▁servizio	-1007
TA	-1008
▁fe	-1009
".	-1010
venti	-1011
gen	-1012
▁durante	-1013
▁No	-1014
▁noi	-1015
all	-1016
▁0	-1017
ttore	-1018
▁punto	-1019
▁Mon	-1020
cri	-1021
▁ori	-1022
gh	-1023
▁Tra	-1024
onale	-1025
ei	-1026
▁prodotti	-1027
▁giov	-1028
mar	-1029
▁avere	-1030
orta	-1031
vole	-1032
▁Ho	-1033
dita	-1034
smo	-1035
zienda	-1036
labo	-1037
▁Z	-1038
fer	-1039
▁rispetto	-1040
mpio	-1041
▁liv	-1042
ppa	-1043
ranti	-1044
rica	-1045
▁.	-1046
ser	-1047
▁asp	-1048
mon	-1049
▁incon	-1050
▁Roma	-1051
▁conten	-1052
gio	-1053
fo	-1054
▁Fran	-1055
ciali	-1056
▁fre	-1057
▁disposi	-1058
▁terri	-1059
▁conta	-1060
ut	-1061
▁Ba	-1062
▁setti	-1063
vvero	-1064
ute	-1065
▁suoi	-1066
▁presso	-1067
▁soli	-1068
▁natura	-1069
▁and	-1070
▁tele	-1071
▁È	-1072
▁anno	-1073
esi	-1074
▁18	-1075
▁alcuni	-1076
dono	-1077
▁dati	-1078
eb	-1079
▁sulle	-1080
▁meno	-1081
▁attività	-1082
▁qualche	-1083
▁tutta	-1084
▁attraverso	-1085
▁aver	-1086
▁rappres	-1087
▁r	-1088
▁gesti	-1089
▁medi	-1090
iore	-1091
ea	-1092
▁Fi	-1093
sieme	-1094
corso	-1095
gere	-1096
▁aggiun	-1097
▁qualità	-1098
lio	-1099
▁base	-1100
▁ambi	-1101
eno	-1102
▁er	-1103
▁continu	-1104
▁vin	-1105
rebbe	-1106
uoi	-1107
ccio	-1108
▁però	-1109
ttutto	-1110
▁progetto	-1111
esse	-1112
eli	-1113
ultura	-1114
este	-1115
▁asso	-1116
ddi	-1117
▁mod	-1118
▁opp	-1119
▁musi	-1120
▁bo	-1121
▁soci	-1122
▁altro	-1123
▁qui	-1124
▁gru	-1125
▁raga	-1126
▁edi	-1127
▁,	-1128
▁crea	-1129
app	-1130
▁necessa	-1131
anda	-1132
▁porta	-1133
▁corso	-1134
▁scon	-1135
▁servizi	-1136
lore	-1137
bito	-1138
▁presenta	-1139
ccu	-1140
▁storia	-1141
tari	-1142
▁conse	-1143
anni	-1144
gliere	-1145
▁professi	-1146
▁compa	-1147
▁genera	-1148
▁rela	-1149
dini	-1150
▁biso	-1151
▁12	-1152
▁ide	-1153
▁us	-1154
mbra	-1155
esco	-1156
▁Par	-1157
▁tipo	-1158
stica	-1159
uzione	-1160
quad	-1161
▁programma	-1162
▁soprattutto	-1163
cro	-1164
▁nostri	-1165
▁fas	-1166
▁Come	-1167
▁diri	-1168
etri	-1169
▁Lu	-1170
▁cres	-1171
▁rin	-1172
▁evi	-1173
▁fer	-1174
▁raggiun	-1175
▁trova	-1176
▁forni	-1177
▁Car	-1178
mbia	-1179
bre	-1180
▁sare	-1181
▁organizza	-1182
▁posto	-1183
▁fon	-1184
▁particolare	-1185
▁faci	-1186
▁saranno	-1187
▁dice	-1188
▁cam	-1189
▁gui	-1190
▁pes	-1191
▁classi	-1192
versi	-1193
▁informazioni	-1194
usto	-1195
▁racc	-1196
▁svol	-1197
▁Ne	-1198
deo	-1199
▁entra	-1200
poli	-1201
▁val	-1202
▁pren	-1203
▁arti	-1204
▁ag	-1205
▁Chi	-1206
▁molti	-1207
▁Questo	-1208
zionali	-1209
▁insieme	-1210
bbero	-1211
000	-1212
ose	-1213
▁lega	-1214
sidera	-1215
▁situa	-1216
▁citta	-1217
sare	-1218
▁atten	-1219
▁the	-1220
mana	-1221
fici	-1222
▁Cas	-1223
EN	-1224
▁Ga	-1225
cente	-1226
cono	-1227
▁previ	-1228
ty	-1229
▁otti	-1230
▁otten	-1231
meno	-1232
▁ass	-1233
▁fuo	-1234
AN	-1235
ssima	-1236
arsi	-1237
ghe	-1238
▁semplice	-1239
gue	-1240
tino	-1241
▁speci	-1242
▁serie	-1243
uso	-1244
▁film	-1245
▁Gra	-1246
▁materia	-1247
orre	-1248
fini	-1249
rata	-1250
▁rice	-1251
▁meglio	-1252
▁econ	-1253
▁pra	-1254
▁mio	-1255
▁deve	-1256
tate	-1257
▁tua	-1258
▁Uni	-1259
▁nor	-1260
▁negli	-1261
▁inizia	-1262
cazione	-1263
lar	-1264
spon	-1265
▁poco	-1266
▁line	-1267
▁possibilità	-1268
tar	-1269
».	-1270
▁appro	-1271
ton	-1272
▁ospi	-1273
gua	-1274
▁tito	-1275
ciato	-1276
30	-1277
▁rego	-1278
▁Ch	-1279
dato	-1280
▁perio	-1281
▁op	-1282
veni	-1283
tente	-1284
tenti	-1285
▁queste	-1286
▁ins	-1287
ettore	-1288
▁prote	-1289
▁luo	-1290
▁ann	-1291
▁cura	-1292
TI	-1293
ettere	-1294
▁fina	-1295
▁collabo	-1296
▁importante	-1297
cchia	-1298
▁squad	-1299
▁sull	-1300
▁offer	-1301
▁caratter	-1302
ll	-1303
▁siamo	-1304
moni	-1305
▁sor	-1306
▁diversi	-1307
car	-1308
▁term	-1309
iega	-1310
▁ami	-1311
▁Bi	-1312
enzi	-1313
▁qualc	-1314
rico	-1315
▁aveva	-1316
▁società	-1317
▁musica	-1318
▁verso	-1319
uole	-1320
▁utili	-1321
isce	-1322
▁aper	-1323
cano	-1324
▁massi	-1325
▁perf	-1326
▁costi	-1327
eter	-1328
▁confer	-1329
▁30	-1330
▁minuti	-1331
TO	-1332
▁Sp	-1333
▁Gli	-1334
▁For	-1335
▁tri	-1336
tuale	-1337
▁trovare	-1338
ass	-1339
mministra	-1340
AR	-1341
▁Ti	-1342
▁gratui	-1343
▁acquis	-1344
▁potrebbe	-1345
▁propri	-1346
▁livello	-1347
▁tanto	-1348
▁vos	-1349
acqu	-1350
▁bambini	-1351
chio	-1352
▁interna	-1353
bbi	-1354
cino	-1355
▁am	-1356
▁partecipa	-1357
▁mesi	-1358
▁conte	-1359
▁online	-1360
unta	-1361
▁16	-1362
stitu	-1363
▁mercato	-1364
ttamente	-1365
▁sue	-1366
interno	-1367
▁grandi	-1368
▁quo	-1369
▁senti	-1370
▁Sono	-1371
▁abi	-1372
erienza	-1373
LI	-1374
oste	-1375
▁Me	-1376
mite	-1377
▁Go	-1378
▁fonda	-1379
▁segna	-1380
▁nas	-1381
▁prodotto	-1382
rre	-1383
sce	-1384
▁grado	-1385
logia	-1386
▁spesso	-1387
erra	-1388
▁cambia	-1389
▁sembra	-1390
▁mese	-1391
▁milioni	-1392
ggiorna	-1393
▁inten	-1394
▁cultura	-1395
terà	-1396
iori	-1397
▁struttura	-1398
lli	-1399
▁Cor	-1400
▁territorio	-1401
▁sera	-1402
▁lavora	-1403
▁ban	-1404
▁Y	-1405
▁raccon	-1406
▁Milano	-1407
▁velo	-1408
▁mia	-1409
▁lin	-1410
▁11	-1411
▁esempio	-1412
▁imma	-1413
▁video	-1414
▁propria	-1415
vamente	-1416
trice	-1417
terna	-1418
▁veri	-1419
▁of	-1420
ger	-1421
▁gia	-1422
est	-1423
stico	-1424
posi	-1425
cati	-1426
▁prezzo	-1427
In	-1428
▁14	-1429
▁volte	-1430
▁affi	-1431
201	-1432
th	-1433
gini	-1434
ner	-1435
▁ecc	-1436
▁sicurezza	-1437
▁quasi	-1438
ciare	-1439
▁ricon	-1440
▁im	-1441
▁paga	-1442
cin	-1443
denza	-1444
▁gruppo	-1445
▁mor	-1446
▁impe	-1447
vesti	-1448
▁Euro	-1449
▁seconda	-1450
▁problema	-1451
▁as	-1452
bietti	-1453
stenza	-1454
min	-1455
onato	-1456
▁visto	-1457
▁Val	-1458
▁vari	-1459
sato	-1460
▁settore	-1461
▁famiglia	-1462
vono	-1463
▁Sal	-1464
fia	-1465
▁racco	-1466
tario	-1467
▁quelli	-1468
▁campo	-1469
sia	-1470
▁paro	-1471
uola	-1472
▁Ta	-1473
▁inte	-1474
▁campi	-1475
Italia	-1476
▁tradi	-1477
▁vista	-1478
▁prece	-1479
▁Gio	-1480
▁nuovi	-1481
▁17	-1482
▁apri	-1483
▁gioco	-1484
▁Dopo	-1485
▁pubblico	-1486
rati	-1487
ke	-1488
verno	-1489
▁riguar	-1490
▁effet	-1491
eria	-1492
▁piano	-1493
▁sf	-1494
▁presidente	-1495
▁prepa	-1496
ede	-1497
▁mas	-1498
▁davvero	-1499
▁punti	-1500
▁den	-1501
ossi	-1502
▁mostra	-1503
nova	-1504
▁pron	-1505
▁zona	-1506
▁ru	-1507
▁poter	-1508
▁vedere	-1509
▁migliori	-1510
tag	-1511
roni	-1512
gle	-1513
▁web	-1514
acc	-1515
▁subito	-1516
▁X	-1517
▁rius	-1518
▁inol	-1519
▁25	-1520
cchio	-1521
▁corre	-1522
▁24	-1523
ft	-1524
▁Bo	-1525
las	-1526
▁Ha	-1527
▁detto	-1528
▁ciò	-1529
▁causa	-1530
▁strada	-1531
▁media	-1532
atti	-1533
▁lui	-1534
rire	-1535
ccasione	-1536
▁13	-1537
▁Du	-1538
▁defini	-1539
▁sci	-1540
▁sce	-1541
▁impre	-1542
tero	-1543
▁capa	-1544
ccupa	-1545
▁commer	-1546
▁proc	-1547
▁Te	-1548
▁nuove	-1549
▁cap	-1550
gnifica	-1551
▁diverse	-1552
▁confron	-1553
▁quelle	-1554
cos	-1555
▁garanti	-1556
▁tecno	-1557
chè	-1558
vata	-1559
▁detta	-1560
▁differ	-1561
▁noti	-1562
anzia	-1563
au	-1564
fiche	-1565
▁desi	-1566
ordina	-1567
opera	-1568
▁periodo	-1569
▁bian	-1570
▁io	-1571
▁personale	-1572
-1	-1573
mia	-1574
▁bra	-1575
▁Ad	-1576
altro	-1577
▁dare	-1578
cendo	-1579
▁favo	-1580
fico	-1581
▁supp	-1582
▁real	-1583
▁En	-1584
zze	-1585
▁contrib	-1586
ly	-1587
▁guida	-1588
ulla	-1589
uma	-1590
▁ruo	-1591
mane	-1592
OR	-1593
▁tanti	-1594
▁uffi	-1595
scri	-1596
vvi	-1597
spi	-1598
▁alcune	-1599
....	-1600
ES	-1601
▁seguito	-1602
▁sosten	-1603
▁inoltre	-1604
▁cuo	-1605
mentare	-1606
▁scelta	-1607
▁sette	-1608
▁modi	-1609
▁giovani	-1610
coli	-1611
▁stagione	-1612
telli	-1613
dice	-1614
par	-1615
dine	-1616
▁stessa	-1617
▁anti	-1618
▁lungo	-1619
▁dichia	-1620
lori	-1621
ssimi	-1622
be	-1623
net	-1624
▁Ver	-1625
▁nome	-1626
▁ani	-1627
ttori	-1628
▁To	-1629
ramente	-1630
bri	-1631
vati	-1632
▁is	-1633
attro	-1634
▁princip	-1635
▁ness	-1636
IN	-1637
rea	-1638
▁giornata	-1639
ambi	-1640
▁mano	-1641
▁Ber	-1642
▁fuori	-1643
▁settimana	-1644
ppe	-1645
▁legge	-1646
tuali	-1647
media	-1648
La	-1649
▁spiega	-1650
▁cin	-1651
esp	-1652
▁rappresenta	-1653
▁significa	-1654
▁sarebbe	-1655
▁popo	-1656
dro	-1657
siasi	-1658
lle	-1659
▁vengono	-1660
dendo	-1661
tendo	-1662
bbiamo	-1663
▁fis	-1664
▁conclu	-1665
ph	-1666
▁respon	-1667
▁registra	-1668
cher	-1669
mai	-1670
▁blo	-1671
▁squadra	-1672
",	-1673
cche	-1674
stri	-1675
▁esa	-1676
▁mini	-1677
▁dato	-1678
▁fron	-1679
▁successo	-1680
▁realtà	-1681
▁bar	-1682
▁quest	-1683
▁ex	-1684
ordo	-1685
▁stre	-1686
▁studio	-1687
▁‘	-1688
▁Cos	-1689
▁provin	-1690
▁ali	-1691
torno	-1692
▁Anche	-1693
▁norma	-1694
▁viaggio	-1695
▁Pu	-1696
versa	-1697
▁comune	-1698
▁forte	-1699
IA	-1700
▁inizi	-1701
▁coin	-1702
turo	-1703
▁sei	-1704
▁qualsiasi	-1705
▁considera	-1706
▁esclu	-1707
▁vero	-1708
cando	-1709
pu	-1710
▁comunque	-1711
ann	-1712
▁21	-1713
tere	-1714
▁terra	-1715
▁sap	-1716
▁europe	-1717
▁Ser	-1718
▁aggiorna	-1719
▁presente	-1720
altra	-1721
▁presenti	-1722
▁Cen	-1723
▁percorso	-1724
centi	-1725
▁trasp	-1726
▁avvi	-1727
▁offre	-1728
▁artico	-1729
ddis	-1730
▁tramite	-1731
auto	-1732
▁responsa	-1733
▁primi	-1734
lata	-1735
▁Questa	-1736
▁pare	-1737
▁ada	-1738
▁tran	-1739
▁moda	-1740
EL	-1741
▁dif	-1742
ork	-1743
▁rivol	-1744
▁otto	-1745
ato	-1746
len	-1747
▁vera	-1748
▁prom	-1749
▁dagli	-1750
▁sele	-1751
▁Gu	-1752
▁acco	-1753
▁funziona	-1754
▁App	-1755
▁Pri	-1756
▁docu	-1757
eo	-1758
▁'	-1759
▁ni	-1760
▁Tor	-1761
▁sviluppo	-1762
ciazione	-1763
alla	-1764
▁dol	-1765
▁messa	-1766
orti	-1767
▁nu	-1768
▁tema	-1769
▁nazionale	-1770
ziende	-1771
▁presenza	-1772
▁cose	-1773
▁italiano	-1774
▁spazio	-1775
▁riconos	-1776
▁hai	-1777
tagoni	-1778
▁fini	-1779
▁proce	-1780
▁telef	-1781
ppi	-1782
asso	-1783
▁torna	-1784
▁libro	-1785
▁disposizione	-1786
▁(1	-1787
.000	-1788
▁2017	-1789
book	-1790
▁preci	-1791
ws	-1792
▁riferi	-1793
▁state	-1794
▁2018	-1795
▁successi	-1796
▁spetta	-1797
▁produzione	-1798
▁Bar	-1799
▁troppo	-1800
▁presen	-1801
bato	-1802
▁dedica	-1803
enica	-1804
yo	-1805
▁sinda	-1806
ggetti	-1807
▁atte	-1808
▁scorso	-1809
▁senso	-1810
▁pote	-1811
▁bre	-1812
bra	-1813
vera	-1814
▁compi	-1815
▁partire	-1816
▁spor	-1817
▁limi	-1818
▁Col	-1819
dino	-1820
▁invi	-1821
▁origina	-1822
▁problemi	-1823
rono	-1824
ari	-1825
▁bisogno	-1826
zzazione	-1827
▁km	-1828
▁almeno	-1829
▁para	-1830
▁peso	-1831
IC	-1832
▁ultimi	-1833
▁importanti	-1834
ondi	-1835
▁dim	-1836
dina	-1837
ppia	-1838
mio	-1839
▁fos	-1840
▁migliore	-1841
▁100	-1842
▁quattro	-1843
ultimo	-1844
▁proprie	-1845
??	-1846
ts	-1847
uri	-1848
cata	-1849
▁deter	-1850
Il	-1851
voli	-1852
▁donne	-1853
▁2016	-1854
▁rif	-1855
erci	-1856
▁condivi	-1857
mati	-1858
▁gara	-1859
▁applica	-1860
▁coinvol	-1861
▁clienti	-1862
▁fotogra	-1863
▁pol	-1864
▁riso	-1865
genza	-1866
▁Bu	-1867
missione	-1868
▁data	-1869
ttare	-1870
▁elet	-1871
▁luogo	-1872
▁annun	-1873
den	-1874
▁pelle	-1875
ware	-1876
50	-1877
▁pla	-1878
▁rete	-1879
▁oppure	-1880
ficazione	-1881
teri	-1882
▁necessario	-1883
dra	-1884
unale	-1885
▁pagina	-1886
bilmente	-1887
tezza	-1888
▁preve	-1889
▁Fo	-1890
▁protagoni	-1891
▁diff	-1892
▁deli	-1893
▁avuto	-1894
diamo	-1895
tello	-1896
mare	-1897
cenza	-1898
▁50	-1899
▁risultati	-1900
biettivo	-1901
▁potra	-1902
▁disponibili	-1903
▁raccol	-1904
▁aziende	-1905
▁qualcosa	-1906
alle	-1907
▁stile	-1908
▁&	-1909
▁Comune	-1910
more	-1911
anze	-1912
▁vuole	-1913
▁ener	-1914
▁diffici	-1915
▁gestione	-1916
▁Che	-1917
▁meri	-1918
▁condizioni	-1919
▁sfi	-1920
ompa	-1921
▁pochi	-1922
azienda	-1923
2,	-1924
▁ridu	-1925
▁prezzi	-1926
cura	-1927
▁corpo	-1928
RA	-1929
tego	-1930
▁manif	-1931
▁situazione	-1932
▁resta	-1933
▁finale	-1934
▁continua	-1935
IS	-1936
▁testa	-1937
▁Inter	-1938
ide	-1939
gato	-1940
▁fru	-1941
▁collaborazione	-1942
bu	-1943
ir	-1944
▁vendita	-1945
▁The	-1946
▁nove	-1947
essione	-1948
tture	-1949
▁formazione	-1950
▁lan	-1951
▁cucina	-1952
▁Franc	-1953
LE	-1954
zzare	-1955
▁singo	-1956
▁giugno	-1957
lati	-1958
▁scuola	-1959
▁donna	-1960
▁riusci	-1961
ficare	-1962
▁compren	-1963
▁erano	-1964
▁futuro	-1965
arta	-1966
▁economi	-1967
▁posizione	-1968
vanti	-1969
▁valore	-1970
uire	-1971
▁finanzia	-1972
tidi	-1973
▁titolo	-1974
▁linea	-1975
▁affron	-1976
▁investi	-1977
▁piu	-1978
mica	-1979
▁Ale	-1980
gente	-1981
▁Man	-1982
▁andare	-1983
mano	-1984
▁dia	-1985
▁ottenere	-1986
▁inclu	-1987
▁letto	-1988
▁molte	-1989
TE	-1990
▁integra	-1991
lina	-1992
segna	-1993
▁vanta	-1994
naio	-1995
▁Cer	-1996
▁Sta	-1997
mata	-1998
▁amici	-1999
▁direttamente	-2000
Uni	-2001
gare	-2002
▁cittadini	-2003
▁matt	-2004
omini	-2005
▁inseri	-2006
▁preno	-2007
▁visita	-2008
▁consul	-2009
▁soddis	-2010
▁indivi	-2011
▁turi	-2012
▁Grazie	-2013
▁:	-2014
▁piace	-2015
▁siano	-2016
!!!	-2017
▁file	-2018
van	-2019
▁azienda	-2020
▁termine	-2021
▁tipi	-2022
▁pratica	-2023
▁trattamento	-2024
telle	-2025
cal	-2026
▁fisi	-2027
▁puoi	-2028
RE	-2029
▁mezzo	-2030
▁lascia	-2031
unto	-2032
pia	-2033
▁nego	-2034
bbra	-2035
▁caratteris	-2036
mu	-2037
▁settembre	-2038
▁creare	-2039
titu	-2040
▁parole	-2041
ardi	-2042
▁/	-2043
truzione	-2044
▁Ino	-2045
cale	-2046
▁temp	-2047
▁dimostra	-2048
cra	-2049
dustri	-2050
omma	-2051
▁maggior	-2052
versità	-2053
▁ormai	-2054
▁tempi	-2055
▁utenti	-2056
onali	-2057
▁buona	-2058
▁tale	-2059
▁Nella	-2060
unità	-2061
▁riguarda	-2062
▁marzo	-2063
▁2019	-2064
▁gioca	-2065
▁ragazzi	-2066
rito	-2067
▁destina	-2068
▁disponibile	-2069
▁permette	-2070
▁cio	-2071
▁centra	-2072
▁anima	-2073
▁Inoltre	-2074
▁2015	-2075
▁san	-2076
simo	-2077
ostante	-2078
ee	-2079
▁Consi	-2080
orse	-2081
▁hotel	-2082
▁autori	-2083
wn	-2084
▁effetti	-2085
▁Giu	-2086
▁spi	-2087
▁presta	-2088
ora	-2089
▁1.	-2090
rando	-2091
▁vostro	-2092
▁fronte	-2093
▁risultato	-2094
▁fanno	-2095
cial	-2096
pro	-2097
▁ur	-2098
▁Napoli	-2099
gne	-2100
eti	-2101
▁forse	-2102
▁luce	-2103
▁italiana	-2104
▁dedi	-2105
▁necessi	-2106
▁versione	-2107
id	-2108
azione	-2109
▁perchè	-2110
▁pari	-2111
ggiare	-2112
▁Ste	-2113
▁insta	-2114
▁nostre	-2115
▁arre	-2116
▁DI	-2117
▁dipen	-2118
anis	-2119
▁controllo	-2120
2.	-2121
ww	-2122
menta	-2123
▁interess	-2124
▁Ter	-2125
▁mare	-2126
ultima	-2127
▁acca	-2128
entale	-2129
▁digi	-2130
▁pur	-2131
▁accesso	-2132
toni	-2133
mentale	-2134
▁richiesta	-2135
▁voi	-2136
OS	-2137
▁sede	-2138
ttere	-2139
▁alta	-2140
▁cuore	-2141
▁moder	-2142
▁ce	-2143
▁catego	-2144
vate	-2145
▁stampa	-2146
▁cro	-2147
▁prossimo	-2148
ttan	-2149
lando	-2150
▁dicembre	-2151
dici	-2152
▁ottobre	-2153
ki	-2154
▁casi	-2155
▁macch	-2156
▁Dis	-2157
▁forza	-2158
▁generale	-2159
▁affer	-2160
acqua	-2161
▁assolu	-2162
tenzione	-2163
10	-2164
▁sto	-2165
up	-2166
arte	-2167
rale	-2168
▁offerte	-2169
▁notte	-2170
▁rica	-2171
▁italiani	-2172
▁piccolo	-2173
▁disa	-2174
late	-2175
▁luglio	-2176
▁esperienza	-2177
duto	-2178
▁199	-2179
umi	-2180
▁Secon	-2181
▁buon	-2182
▁crescita	-2183
▁carta	-2184
omia	-2185
▁possa	-2186
▁puli	-2187
▁gennaio	-2188
▁manten	-2189
▁Tri	-2190
▁lavori	-2191
▁amministra	-2192
▁ruolo	-2193
▁ospiti	-2194
▁Ni	-2195
1,	-2196
▁ado	-2197
OM	-2198
taria	-2199
▁valori	-2200
dito	-2201
tana	-2202
▁belle	-2203
ficato	-2204
vimento	-2205
▁impa	-2206
▁politica	-2207
▁Or	-2208
▁design	-2209
▁appena	-2210
▁compet	-2211
▁Quando	-2212
▁parla	-2213
mmi	-2214
osti	-2215
▁colore	-2216
▁fir	-2217
▁avven	-2218
▁costo	-2219
▁Gran	-2220
mbo	-2221
▁modello	-2222
▁locali	-2223
ree	-2224
ssioni	-2225
des	-2226
zzato	-2227
samente	-2228
▁frequ	-2229
▁paese	-2230
▁23	-2231
▁soluzione	-2232
ffica	-2233
▁processo	-2234
▁giornali	-2235
utare	-2236
▁promo	-2237
sola	-2238
▁dimen	-2239
zzando	-2240
▁acqua	-2241
area	-2242
▁accompa	-2243
ggetto	-2244
▁die	-2245
tis	-2246
▁vac	-2247
▁scegliere	-2248
mail	-2249
ume	-2250
logie	-2251
▁rega	-2252
toria	-2253
gge	-2254
▁misura	-2255
gano	-2256
▁internazionale	-2257
▁fase	-2258
▁quanti	-2259
▁fran	-2260
▁coper	-2261
od	-2262
▁entro	-2263
▁resi	-2264
▁be	-2265
▁interessa	-2266
▁scar	-2267
▁cine	-2268
▁voglia	-2269
▁costr	-2270
▁sociale	-2271
▁eventi	-2272
genze	-2273
cle	-2274
▁totale	-2275
▁facile	-2276
icolo	-2277
ellu	-2278
▁segu	-2279
gico	-2280
▁sensi	-2281
dida	-2282
mmo	-2283
▁ov	-2284
▁novembre	-2285
coltà	-2286
▁€	-2287
mentazione	-2288
▁partita	-2289
▁genere	-2290
▁deciso	-2291
illa	-2292
lie	-2293
▁camere	-2294
▁esclusi	-2295
▁passato	-2296
▁rapporto	-2297
▁mettere	-2298
▁proba	-2299
▁colori	-2300
▁conto	-2301
▁nulla	-2302
▁vicino	-2303
▁illu	-2304
▁specia	-2305
mart	-2306
▁quad	-2307
▁iscri	-2308
▁certo	-2309
bbraio	-2310
▁2014	-2311
▁IN	-2312
AS	-2313
▁dovrebbe	-2314
▁scena	-2315
trimoni	-2316
▁capo	-2317
▁immagini	-2318
▁prova	-2319
▁nello	-2320
▁riferimento	-2321
▁civi	-2322
rere	-2323
▁guar	-2324
▁quotidi	-2325
prire	-2326
volo	-2327
▁sani	-2328
▁pensi	-2329
▁certi	-2330
gica	-2331
▁lon	-2332
▁aprile	-2333
tal	-2334
▁provincia	-2335
▁Gia	-2336
▁22	-2337
ZI	-2338
▁piccoli	-2339
▁rapi	-2340
▁capacità	-2341
vio	-2342
bar	-2343
▁set	-2344
su	-2345
rlo	-2346
▁emer	-2347
▁risto	-2348
uito	-2349
ry	-2350
▁domenica	-2351
/201	-2352
▁maggiore	-2353
▁manifesta	-2354
▁Giov	-2355
ker	-2356
▁capire	-2357
gom	-2358
▁volon	-2359
▁j	-2360
▁manu	-2361
▁istitu	-2362
▁belli	-2363
▁alto	-2364
▁bella	-2365
isto	-2366
▁fanta	-2367
▁verrà	-2368
▁individu	-2369
▁metri	-2370
etter	-2371
▁ieri	-2372
uomo	-2373
rate	-2374
gnato	-2375
ai	-2376
▁emo	-2377
▁rischio	-2378
▁pubblica	-2379
omina	-2380
▁locale	-2381
▁rappresen	-2382
▁camera	-2383
▁dunque	-2384
data	-2385
▁occasione	-2386
▁effettua	-2387
▁professioni	-2388
0,	-2389
▁fosse	-2390
mos	-2391
ista	-2392
▁collega	-2393
▁faccia	-2394
▁Can	-2395
tenzi	-2396
ex	-2397
onna	-2398
▁testi	-2399
▁diritto	-2400
ssime	-2401
▁devono	-2402
uzioni	-2403
▁pazi	-2404
▁governo	-2405
rano	-2406
▁profi	-2407
son	-2408
gazione	-2409
▁allora	-2410
▁salute	-2411
▁rile	-2412
▁massimo	-2413
▁cele	-2414
sità	-2415
▁Vene	-2416
▁part	-2417
dotto	-2418
stiche	-2419
monia	-2420
▁principali	-2421
metri	-2422
fe	-2423
▁diffi	-2424
▁Hotel	-2425
tazioni	-2426
attività	-2427
▁male	-2428
▁pot	-2429
AL	-2430
▁utilizzare	-2431
mbio	-2432
ka	-2433
ori	-2434
▁Ru	-2435
mico	-2436
▁rispon	-2437
▁imprese	-2438
OL	-2439
diale	-2440
▁strate	-2441
▁sugg	-2442
▁elettri	-2443
▁even	-2444
▁varie	-2445
▁invia	-2446
damento	-2447
▁conc	-2448
▁riconosci	-2449
▁meto	-2450
▁Secondo	-2451
▁progetti	-2452
▁letter	-2453
▁Regione	-2454
1.	-2455
▁distrib	-2456
▁giovane	-2457
▁post	-2458
ettare	-2459
lay	-2460
▁recu	-2461
▁ade	-2462
▁40	-2463
▁tuoi	-2464
▁conn	-2465
▁mal	-2466
tur	-2467
▁sche	-2468
▁divi	-2469
dos	-2470
3,	-2471
▁atta	-2472
ket	-2473
/0	-2474
derà	-2475
▁difficile	-2476
▁tar	-2477
▁sicuramente	-2478
rai	-2479
▁scritto	-2480
▁Via	-2481
ffa	-2482
▁usci	-2483
▁Francesco	-2484
▁stabili	-2485
▁Itali	-2486
ande	-2487
▁rifle	-2488
ris	-2489
▁atto	-2490
▁esper	-2491
mani	-2492
▁potrà	-2493
▁febbraio	-2494
▁determina	-2495
▁maniera	-2496
▁sapere	-2497
larmente	-2498
▁esigenze	-2499
▁bagno	-2500
vendo	-2501
▁Jo	-2502
▁innova	-2503
onati	-2504
inizio	-2505
▁consegu	-2506
lub	-2507
▁prov	-2508
▁aiuta	-2509
▁uomini	-2510
An	-2511
▁veloce	-2512
▁stanno	-2513
▁2.	-2514
▁Dal	-2515
trimonio	-2516
▁raggiungere	-2517
enso	-2518
▁edizione	-2519
▁breve	-2520
vista	-2521
▁+	-2522
▁simi	-2523
rendi	-2524
▁amp	-2525
▁cinque	-2526
▁avrebbe	-2527
viamente	-2528
▁ries	-2529
▁note	-2530
enne	-2531
▁uomo	-2532
remo	-2533
essore	-2534
▁rive	-2535
▁Vo	-2536
dità	-2537
vazione	-2538
logo	-2539
zion	-2540
anna	-2541
RO	-2542
▁prevede	-2543
▁prendere	-2544
▁posti	-2545
latti	-2546
▁lei	-2547
▁occupa	-2548
▁domanda	-2549
▁spazi	-2550
▁compre	-2551
▁arriva	-2552
▁vas	-2553
▁attenzione	-2554
cipale	-2555
▁equi	-2556
▁impi	-2557
▁yo	-2558
ct	-2559
▁ritro	-2560
▁minis	-2561
ment	-2562
▁psi	-2563
▁regionale	-2564
▁valuta	-2565
▁maga	-2566
▁Spa	-2567
▁prose	-2568
▁nota	-2569
▁comin	-2570
▁prime	-2571
▁segre	-2572
▁perfetta	-2573
▁Pia	-2574
lini	-2575
▁bal	-2576
lin	-2577
▁All	-2578
Ar	-2579
ader	-2580
▁como	-2581
▁avanti	-2582
RI	-2583
ftware	-2584
▁tal	-2585
tella	-2586
▁Poli	-2587
▁Ecco	-2588
▁fondo	-2589
ondo	-2590
dale	-2591
chite	-2592
▁sola	-2593
▁Maria	-2594
▁28	-2595
▁th	-2596
omico	-2597
utili	-2598
▁anzi	-2599
▁rep	-2600
▁portare	-2601
▁spia	-2602
terno	-2603
▁perdere	-2604
▁ric	-2605
▁tecnico	-2606
pren	-2607
fort	-2608
▁arrivare	-2609
cola	-2610
▁leggere	-2611
▁caratteri	-2612
▁sale	-2613
▁storico	-2614
▁facendo	-2615
▁abbia	-2616
5,	-2617
cana	-2618
▁raff	-2619
▁meta	-2620
land	-2621
av	-2622
▁asse	-2623
edere	-2624
▁lingua	-2625
▁sabato	-2626
▁cliente	-2627
▁Cal	-2628
mila	-2629
▁26	-2630
genti	-2631
▁caratteristiche	-2632
▁associa	-2633
estival	-2634
ogle	-2635
▁completamente	-2636
rente	-2637
▁riman	-2638
▁unico	-2639
▁riser	-2640
tini	-2641
centra	-2642
▁precedente	-2643
▁ingre	-2644
▁naturale	-2645
▁Cla	-2646
ticolo	-2647
ttoria	-2648
▁effica	-2649
▁vostra	-2650
▁stessi	-2651
ay	-2652
▁Ris	-2653
gri	-2654
▁supera	-2655
▁fatti	-2656
▁siti	-2657
▁mattina	-2658
▁piazza	-2659
▁distanza	-2660
▁contempo	-2661
▁pass	-2662
▁necessità	-2663
idea	-2664
▁Mol	-2665
mere	-2666
▁preferi	-2667
▁regola	-2668
▁famiglie	-2669
tualmente	-2670
▁modalità	-2671
rus	-2672
▁sottoline	-2673
▁discu	-2674
▁figu	-2675
▁speciali	-2676
teriore	-2677
esperienza	-2678
▁strumenti	-2679
ms	-2680
▁vali	-2681
nno	-2682
3.	-2683
11	-2684
▁Cri	-2685
▁possiamo	-2686
eranno	-2687
▁memo	-2688
▁opere	-2689
▁Mas	-2690
▁Pal	-2691
▁27	-2692
▁fal	-2693
alisi	-2694
▁studenti	-2695
▁bianco	-2696
▁risposta	-2697
rno	-2698
ang	-2699
ps	-2700
▁tante	-2701
hotel	-2702
contro	-2703
▁ufficiale	-2704
cebook	-2705
▁sindaco	-2706
▁immedia	-2707
▁Ju	-2708
iscono	-2709
▁stand	-2710
▁campa	-2711
▁agosto	-2712
▁evitare	-2713
ortunità	-2714
▁Consiglio	-2715
itori	-2716
▁Dom	-2717
▁tess	-2718
▁cm	-2719
▁scoper	-2720
▁Stato	-2721
▁trov	-2722
▁Ora	-2723
▁passo	-2724
SA	-2725
▁vede	-2726
resso	-2727
▁difficoltà	-2728
▁Pe	-2729
tiene	-2730
▁Io	-2731
▁bus	-2732
▁pom	-2733
▁conoscere	-2734
lici	-2735
200	-2736
colare	-2737
phone	-2738
▁corri	-2739
,5	-2740
cini	-2741
▁collo	-2742
▁calcio	-2743
▁resid	-2744
▁concor	-2745
orsa	-2746
mera	-2747
▁potranno	-2748
▁vivere	-2749
dri	-2750
▁conser	-2751
▁imm	-2752
▁trasforma	-2753
▁libera	-2754
▁indica	-2755
▁consigli	-2756
▁comunicazione	-2757
▁usa	-2758
gioni	-2759
▁Stati	-2760
▁Pala	-2761
▁Oggi	-2762
▁rispar	-2763
▁potenzi	-2764
▁novità	-2765
▁pal	-2766
etra	-2767
▁seguire	-2768
▁davanti	-2769
▁recen	-2770
ire	-2771
▁identi	-2772
inte	-2773
ardo	-2774
▁piedi	-2775
sivo	-2776
berto	-2777
ons	-2778
▁ero	-2779
▁pensa	-2780
aren	-2781
▁x	-2782
▁vole	-2783
▁agg	-2784
▁soluzioni	-2785
vid	-2786
▁sho	-2787
creto	-2788
▁dedicato	-2789
▁bio	-2790
estra	-2791
▁Gen	-2792
▁colpi	-2793
▁Gior	-2794
duzione	-2795
▁libri	-2796
▁giusto	-2797
sci	-2798
▁Ven	-2799
▁trovato	-2800
▁ascol	-2801
uter	-2802
rone	-2803
▁favore	-2804
▁basso	-2805
▁recente	-2806
▁tempera	-2807
▁mette	-2808
▁rendere	-2809
erdì	-2810
mobili	-2811
▁aspetta	-2812
▁Centro	-2813
▁cerca	-2814
▁scher	-2815
stici	-2816
▁Th	-2817
▁rima	-2818
▁sole	-2819
mici	-2820
▁smart	-2821
▁proprietà	-2822
▁malatti	-2823
▁Pas	-2824
CI	-2825
▁modelli	-2826
▁cia	-2827
▁percor	-2828
▁realizzazione	-2829
art	-2830
▁inca	-2831
AM	-2832
▁ideale	-2833
bbia	-2834
llare	-2835
▁consenti	-2836
▁cellu	-2837
ld	-2838
▁supporto	-2839
▁occhi	-2840
lib	-2841
ccato	-2842
▁materiali	-2843
▁Paese	-2844
▁parlare	-2845
▁sper	-2846
eso	-2847
▁piccola	-2848
▁tea	-2849
matica	-2850
▁consente	-2851
cine	-2852
▁giro	-2853
▁interventi	-2854
▁Tro	-2855
▁amm	-2856
▁garan	-2857
duta	-2858
▁Andre	-2859
▁Marco	-2860
▁Giovanni	-2861
▁Tre	-2862
▁cic	-2863
▁voce	-2864
▁Torino	-2865
▁software	-2866
untamento	-2867
▁Be	-2868
9,	-2869
▁categoria	-2870
▁effettu	-2871
▁luoghi	-2872
▁seleziona	-2873
▁messo	-2874
▁mos	-2875
▁materiale	-2876
▁Mer	-2877
▁Sco	-2878
ttima	-2879
▁Paolo	-2880
▁rifi	-2881
evento	-2882
▁proveni	-2883
meri	-2884
▁risorse	-2885
▁social	-2886
op	-2887
▁ricev	-2888
glior	-2889
onte	-2890
▁estre	-2891
▁tecnologia	-2892
▁Ogni	-2893
▁sviluppa	-2894
▁chiu	-2895
▁alb	-2896
▁piatta	-2897
▁31	-2898
▁principale	-2899
ast	-2900
▁concer	-2901
▁viol	-2902
▁Gre	-2903
▁comunità	-2904
▁incontra	-2905
ania	-2906
dersi	-2907
▁compon	-2908
mone	-2909
▁classifica	-2910
II	-2911
alità	-2912
obiettivo	-2913
din	-2914
▁serata	-2915
catore	-2916
▁tecnica	-2917
▁Tutti	-2918
▁Casa	-2919
▁contenuti	-2920
▁elementi	-2921
▁descri	-2922
▁nonostante	-2923
▁partecipazione	-2924
▁Ex	-2925
▁personali	-2926
ati	-2927
gie	-2928
▁batter	-2929
▁partner	-2930
▁metà	-2931
wi	-2932
▁portato	-2933
▁motivo	-2934
▁incontri	-2935
ettato	-2936
▁Ger	-2937
▁ameri	-2938
arci	-2939
▁terzo	-2940
cali	-2941
▁...	-2942
rizzo	-2943
▁Prima	-2944
▁utile	-2945
▁Stu	-2946
80	-2947
ko	-2948
aria	-2949
date	-2950
▁partecip	-2951
▁Presidente	-2952
lora	-2953
essere	-2954
60	-2955
bora	-2956
▁comporta	-2957
▁campionato	-2958
▁antici	-2959
▁schi	-2960
orso	-2961
gliato	-2962
cole	-2963
▁Servi	-2964
▁pagamento	-2965
▁straordina	-2966
▁infer	-2967
▁avre	-2968
▁gol	-2969
▁morte	-2970
tone	-2971
▁crisi	-2972
▁legno	-2973
▁bigli	-2974
▁macchina	-2975
cilia	-2976
▁realizzare	-2977
▁studi	-2978
▁complessi	-2979
estre	-2980
▁realizzato	-2981
▁Europa	-2982
▁abbas	-2983
anche	-2984
isi	-2985
erop	-2986
▁completa	-2987
mbe	-2988
▁interpre	-2989
▁dettagli	-2990
▁esegui	-2991
▁Win	-2992
ONE	-2993
▁convin	-2994
▁costante	-2995
ght	-2996
▁speciale	-2997
tesi	-2998
▁incontro	-2999
▁ovvero	-3000
lazioni	-3001
▁alterna	-3002
teriori	-3003
dizione	-3004
ky	-3005
▁osser	-3006
5.	-3007
ambiente	-3008
▁inci	-3009
▁Cre	-3010
▁incre	-3011
▁dip	-3012
razioni	-3013
▁micro	-3014
▁gri	-3015
▁soggior	-3016
dati	-3017
fondi	-3018
▁obbli	-3019
troppo	-3020
.,	-3021
▁farma	-3022
▁sport	-3023
inda	-3024
▁eserci	-3025
▁intro	-3026
ettroni	-3027
ranea	-3028
enda	-3029
lizzato	-3030
▁massima	-3031
▁pubblicato	-3032
▁acce	-3033
9.	-3034
▁aree	-3035
ficio	-3036
▁conosci	-3037
▁giar	-3038
cy	-3039
▁Fer	-3040
zzano	-3041
▁Fin	-3042
presa	-3043
▁Google	-3044
by	-3045
▁strumento	-3046
▁pomeri	-3047
▁superiore	-3048
▁feli	-3049
▁Ja	-3050
arlo	-3051
▁presti	-3052
▁bambino	-3053
!!!!	-3054
entra	-3055
▁testo	-3056
ent	-3057
▁resto	-3058
▁2020	-3059
ambito	-3060
▁soddisfa	-3061
tera	-3062
▁Bra	-3063
▁fondamentale	-3064
ricare	-3065
riamo	-3066
bina	-3067
▁rilas	-3068
▁risol	-3069
tonio	-3070
▁giochi	-3071
gnia	-3072
umo	-3073
▁tecniche	-3074
▁questione	-3075
▁eli	-3076
ccare	-3077
ete	-3078
udi	-3079
mate	-3080
▁Poi	-3081
▁dubbi	-3082
turi	-3083
▁bri	-3084
ssand	-3085
▁settimane	-3086
▁gratuito	-3087
utilizzo	-3088
▁lunga	-3089
end	-3090
▁consiglio	-3091
▁team	-3092
Euro	-3093
tanze	-3094
▁diritti	-3095
▁pericolo	-3096
▁Monte	-3097
▁lista	-3098
▁comunale	-3099
ster	-3100
ingra	-3101
▁Ros	-3102
erazione	-3103
▁reali	-3104
▁ge	-3105
vra	-3106
rand	-3107
▁Mich	-3108
▁bisogna	-3109
.00	-3110
gante	-3111
occasione	-3112
▁Dio	-3113
▁dedicata	-3114
bblica	-3115
▁mino	-3116
renti	-3117
▁sezione	-3118
renze	-3119
▁impegna	-3120
▁niente	-3121
▁dimenti	-3122
▁scom	-3123
▁liber	-3124
▁dovre	-3125
▁professionale	-3126
▁telefono	-3127
▁diretta	-3128
▁navi	-3129
▁contatto	-3130
zzur	-3131
unica	-3132
▁dovrà	-3133
▁figli	-3134
arto	-3135
▁provve	-3136
▁sali	-3137
▁multi	-3138
fano	-3139
▁perdita	-3140
und	-3141
IM	-3142
▁filo	-3143
▁classe	-3144
▁protagonista	-3145
amore	-3146
▁potrebbero	-3147
▁giudi	-3148
ung	-3149
▁lavorare	-3150
▁Siamo	-3151
▁garantire	-3152
aper	-3153
▁nero	-3154
▁confronti	-3155
anca	-3156
ttivo	-3157
▁zu	-3158
ill	-3159
▁strutture	-3160
▁migliorare	-3161
▁rende	-3162
▁basta	-3163
▁sistemi	-3164
mministrazione	-3165
useo	-3166
▁fam	-3167
tch	-3168
▁industri	-3169
truttura	-3170
▁proposta	-3171
▁fres	-3172
▁funzione	-3173
genzia	-3174
▁sm	-3175
4,	-3176
LA	-3177
eremo	-3178
▁capelli	-3179
▁trasferi	-3180
▁29	-3181
sco	-3182
▁figlio	-3183
▁Giuse	-3184
▁Sul	-3185
rti	-3186
▁Lui	-3187
verna	-3188
▁coloro	-3189
dimento	-3190
▁sala	-3191
▁visu	-3192
mentari	-3193
▁previsto	-3194
▁consegna	-3195
ins	-3196
▁elettroni	-3197
▁60	-3198
▁ripor	-3199
▁Imp	-3200
tus	-3201
▁numerosi	-3202
▁uso	-3203
▁assicu	-3204
▁epi	-3205
Le	-3206
ssociazione	-3207
▁dimensioni	-3208
ada	-3209
▁termini	-3210
fra	-3211
▁condu	-3212
▁verde	-3213
▁centrale	-3214
lino	-3215
Al	-3216
▁aperto	-3217
▁regione	-3218
▁vanno	-3219
▁aspetti	-3220
camente	-3221
▁installa	-3222
▁ritorno	-3223
▁presto	-3224
▁Fe	-3225
tela	-3226
▁economico	-3227
▁bel	-3228
sca	-3229
▁fatta	-3230
▁miei	-3231
▁femm	-3232
8,	-3233
▁relazione	-3234
▁raccolta	-3235
▁New	-3236
▁nessuno	-3237
▁maggiori	-3238
ppure	-3239
12	-3240
anco	-3241
▁presentato	-3242
▁Sc	-3243
▁Oltre	-3244
▁diventare	-3245
▁inse	-3246
▁originale	-3247
▁usare	-3248
▁internet	-3249
:00	-3250
▁direttore	-3251
zzata	-3252
▁Nazionale	-3253
▁pubblici	-3254
▁sba	-3255
▁inda	-3256
▁Minis	-3257
▁gro	-3258
▁ingle	-3259
DI	-3260
▁passione	-3261
▁sicuro	-3262
ciano	-3263
▁diventa	-3264
non	-3265
▁qualcuno	-3266
▁piacere	-3267
.30	-3268
ttiva	-3269
▁scelto	-3270
▁procedu	-3271
▁propone	-3272
▁posso	-3273
▁pensare	-3274
▁tranqu	-3275
▁facilmente	-3276
onia	-3277
▁consa	-3278
▁spese	-3279
▁durata	-3280
▁lettera	-3281
tivamente	-3282
▁giocare	-3283
▁fri	-3284
▁concentra	-3285
▁preso	-3286
▁vittoria	-3287
gan	-3288
▁pieno	-3289
▁On	-3290
ttosto	-3291
▁completo	-3292
▁genitori	-3293
▁formato	-3294
▁Facebook	-3295
rci	-3296
scono	-3297
▁tue	-3298
▁leader	-3299
sh	-3300
▁costitu	-3301
ple	-3302
▁piani	-3303
▁adatta	-3304
▁miglior	-3305
▁Giuseppe	-3306
▁capito	-3307
▁conoscenza	-3308
%.	-3309
▁scopo	-3310
imma	-3311
ologna	-3312
lancio	-3313
▁case	-3314
onare	-3315
lante	-3316
▁lavoratori	-3317
arri	-3318
trici	-3319
siva	-3320
▁differenza	-3321
ressi	-3322
ddo	-3323
▁intra	-3324
▁animali	-3325
▁Nuo	-3326
▁addi	-3327
40	-3328
▁scoprire	-3329
▁Cia	-3330
▁soggetti	-3331
ET	-3332
▁Spe	-3333
▁Medi	-3334
▁Fra	-3335
pero	-3336
99	-3337
▁ultime	-3338
▁TV	-3339
▁1,	-3340
▁Abbiamo	-3341
▁intorno	-3342
▁codice	-3343
▁soggiorno	-3344
▁scuole	-3345
ensa	-3346
▁Dire	-3347
artamento	-3348
▁#	-3349
▁preo	-3350
venire	-3351
▁Alla	-3352
endere	-3353
▁dovuto	-3354
dano	-3355
▁soltanto	-3356
▁cercare	-3357
ermo	-3358
▁vir	-3359
▁partenza	-3360
▁Fed	-3361
▁campagna	-3362
ranza	-3363
enziale	-3364
▁Alessand	-3365
▁spettacolo	-3366
Ho	-3367
uovere	-3368
▁consuma	-3369
▁pomeriggio	-3370
bal	-3371
▁Sca	-3372
▁oggetti	-3373
cella	-3374
-2	-3375
mba	-3376
▁bru	-3377
▁test	-3378
▁danni	-3379
▁terre	-3380
▁reale	-3381
anora	-3382
▁prossimi	-3383
▁rosso	-3384
▁offrire	-3385
▁Cro	-3386
load	-3387
▁contratto	-3388
8.	-3389
▁ispi	-3390
▁sfru	-3391
anzi	-3392
▁metodo	-3393
▁superfici	-3394
unedì	-3395
▁esperi	-3396
▁né	-3397
▁mera	-3398
▁adesso	-3399
▁giocatori	-3400
▁età	-3401
▁avrà	-3402
▁particolarmente	-3403
▁modu	-3404
7,	-3405
▁mondiale	-3406
iness	-3407
▁risposte	-3408
▁affrontare	-3409
▁smartphone	-3410
▁tradizione	-3411
bio	-3412
▁pan	-3413
fficiente	-3414
teo	-3415
▁Andrea	-3416
▁Santa	-3417
ersi	-3418
▁Bas	-3419
▁magari	-3420
▁paesi	-3421
4.	-3422
6,	-3423
▁ricevere	-3424
▁zone	-3425
▁Yo	-3426
▁Europe	-3427
▁passare	-3428
▁interesse	-3429
▁tren	-3430
▁allena	-3431
Qu	-3432
▁televi	-3433
fferta	-3434
▁|	-3435
▁Lon	-3436
uncia	-3437
▁veramente	-3438
▁protezione	-3439
detto	-3440
▁fort	-3441
▁avete	-3442
▁composto	-3443
ction	-3444
▁Villa	-3445
alto	-3446
▁Qual	-3447
work	-3448
tuto	-3449
▁appar	-3450
▁?	-3451
▁semplicemente	-3452
▁glo	-3453
▁gusto	-3454
CA	-3455
▁riten	-3456
▁diretto	-3457
▁piuttosto	-3458
▁culturale	-3459
▁velocità	-3460
▁Tutto	-3461
Università	-3462
vale	-3463
▁disco	-3464
lizzazione	-3465
▁dallo	-3466
▁Cu	-3467
▁soste	-3468
▁presentazione	-3469
sima	-3470
▁professionisti	-3471
ffe	-3472
▁competi	-3473
▁acquistare	-3474
▁ovviamente	-3475
»,	-3476
▁deri	-3477
▁venerdì	-3478
▁accompagna	-3479
▁padre	-3480
▁Qui	-3481
ya	-3482
▁varia	-3483
▁fur	-3484
NA	-3485
riera	-3486
▁effettuare	-3487
ettono	-3488
▁merito	-3489
▁vet	-3490
liare	-3491
▁roman	-3492
▁direzione	-3493
▁esperti	-3494
▁memb	-3495
▁Antonio	-3496
▁passe	-3497
▁dietro	-3498
▁chiaro	-3499
▁miliardi	-3500
into	-3501
ttato	-3502
stente	-3503
▁qua	-3504
▁mus	-3505
MA	-3506
incontro	-3507
▁conqu	-3508
▁scola	-3509
▁idee	-3510
VI	-3511
▁Durante	-3512
venzione	-3513
▁nega	-3514
▁cercando	-3515
▁om	-3516
▁cond	-3517
liano	-3518
▁trovano	-3519
▁articolo	-3520
▁Luca	-3521
inizia	-3522
miche	-3523
▁vuoi	-3524
▁domande	-3525
isco	-3526
▁corsi	-3527
ordine	-3528
▁pagine	-3529
▁lar	-3530
▁azioni	-3531
dite	-3532
estro	-3533
▁appassi	-3534
▁Au	-3535
▁Del	-3536
▁manifestazione	-3537
▁Bologna	-3538
▁labora	-3539
▁Va	-3540
▁Uniti	-3541
▁italiane	-3542
gimento	-3543
▁rico	-3544
minare	-3545
▁nonché	-3546
▁dichiarato	-3547
▁piena	-3548
▁gente	-3549
▁2013	-3550
▁fortuna	-3551
▁Wi	-3552
▁studia	-3553
▁ripro	-3554
▁cinema	-3555
▁ordina	-3556
▁mobili	-3557
▁vacanza	-3558
enna	-3559
mentato	-3560
▁dentro	-3561
▁coordina	-3562
▁Perché	-3563
▁sociali	-3564
golo	-3565
▁attre	-3566
▁computer	-3567
▁stelle	-3568
▁Firenze	-3569
Non	-3570
▁evento	-3571
▁Camp	-3572
inf	-3573
▁ir	-3574
▁demo	-3575
ting	-3576
▁festa	-3577
▁consape	-3578
ggere	-3579
▁rim	-3580
▁danno	-3581
▁conferma	-3582
▁standard	-3583
▁operatori	-3584
rori	-3585
▁precedenti	-3586
▁apprezza	-3587
▁dispositivo	-3588
▁responsabilità	-3589
▁quota	-3590
▁Dani	-3591
evi	-3592
▁premi	-3593
posito	-3594
▁potete	-3595
▁[	-3596
▁meravi	-3597
▁splen	-3598
dows	-3599
bini	-3600
▁utilizzato	-3601
▁Bor	-3602
▁momenti	-3603
▁numeri	-3604
▁assicura	-3605
▁Is	-3606
▁piccole	-3607
iniziativa	-3608
▁mila	-3609
▁movimento	-3610
▁Natale	-3611
▁partecipare	-3612
impor	-3613
▁particolari	-3614
VA	-3615
▁Vin	-3616
▁notizia	-3617
▁fen	-3618
▁pure	-3619
▁sostegno	-3620
▁tenere	-3621
▁Ben	-3622
▁Scar	-3623
▁digitale	-3624
▁Don	-3625
▁Men	-3626
▁madre	-3627
▁massa	-3628
▁cata	-3629
▁prossima	-3630
▁probabilmente	-3631
▁198	-3632
SI	-3633
wnload	-3634
ers	-3635
▁bellezza	-3636
▁speri	-3637
▁passi	-3638
ruppo	-3639
▁cioè	-3640
▁guerra	-3641
▁sugli	-3642
▁rimane	-3643
▁fuoco	-3644
▁este	-3645
▁intervento	-3646
▁livelli	-3647
6.	-3648
gata	-3649
▁medio	-3650
tiamo	-3651
▁perfetto	-3652
▁Così	-3653
fare	-3654
▁tenta	-3655
▁farlo	-3656
▁feste	-3657
esca	-3658
▁pad	-3659
▁blog	-3660
▁prefer	-3661
cone	-3662
▁ripa	-3663
▁abbastanza	-3664
mamente	-3665
▁scienti	-3666
▁coppia	-3667
done	-3668
▁libero	-3669
eroporto	-3670
▁mecc	-3671
les	-3672
▁articoli	-3673
▁quarti	-3674
acquisto	-3675
▁bello	-3676
▁voluto	-3677
▁responsabile	-3678
▁iP	-3679
vamo	-3680
▁serve	-3681
quisi	-3682
▁vicen	-3683
▁Super	-3684
uale	-3685
▁ottimo	-3686
▁personaggi	-3687
▁fol	-3688
▁Vol	-3689
▁provo	-3690
▁attesa	-3691
▁gamma	-3692
raggio	-3693
pol	-3694
▁bol	-3695
ducia	-3696
▁memoria	-3697
▁visualizza	-3698
▁Ed	-3699
▁tera	-3700
iss	-3701
▁dise	-3702
▁Fonda	-3703
▁noto	-3704
▁ama	-3705
▁ferro	-3706
▁trasm	-3707
▁impianti	-3708
▁progetta	-3709
▁gratis	-3710
▁conso	-3711
dibile	-3712
▁negozi	-3713
scina	-3714
▁inglese	-3715
▁organi	-3716
im	-3717
▁diverti	-3718
▁verranno	-3719
▁eventuali	-3720
▁moni	-3721
▁lato	-3722
▁ottimi	-3723
mentali	-3724
▁ambiente	-3725
dy	-3726
-0	-3727
▁giusti	-3728
▁intera	-3729
▁Carlo	-3730
▁distin	-3731
pubblica	-3732
▁blu	-3733
▁infine	-3734
▁fornire	-3735
▁parola	-3736
▁Sil	-3737
ua	-3738
▁medico	-3739
▁interno	-3740
forte	-3741
▁sud	-3742
ciata	-3743
▁richieste	-3744
unti	-3745
▁messaggio	-3746
▁3.	-3747
▁Quindi	-3748
▁avvia	-3749
lice	-3750
ppare	-3751
▁ciasc	-3752
▁ragione	-3753
▁desidera	-3754
usura	-3755
▁misure	-3756
▁ringra	-3757
▁commerciali	-3758
▁compagnia	-3759
▁forme	-3760
▁moto	-3761
▁legi	-3762
7.	-3763
▁LA	-3764
asp	-3765
▁tru	-3766
TU	-3767
▁mangia	-3768
▁domani	-3769
▁sinistra	-3770
guard	-3771
▁sfida	-3772
IL	-3773
▁approfondi	-3774
▁nasce	-3775
▁pronto	-3776
▁eccell	-3777
volta	-3778
▁Provin	-3779
▁fed	-3780
▁consiglia	-3781
▁rispetti	-3782
▁dolore	-3783
▁dra	-3784
▁vino	-3785
▁prestazioni	-3786
associazione	-3787
pore	-3788
▁DEL	-3789
verti	-3790
▁comba	-3791
▁Ang	-3792
▁ecco	-3793
▁chilo	-3794
▁vantaggio	-3795
▁2012	-3796
▁proposte	-3797
tani	-3798
▁Cha	-3799
tutto	-3800
cese	-3801
▁canz	-3802
▁solito	-3803
▁bor	-3804
▁tornare	-3805
▁trasporto	-3806
IO	-3807
damente	-3808
▁amore	-3809
ap	-3810
▁migliora	-3811
▁quei	-3812
▁link	-3813
▁espri	-3814
▁cambiare	-3815
▁decisione	-3816
minazione	-3817
▁quantità	-3818
▁Emi	-3819
▁accor	-3820
▁assolutamente	-3821
rom	-3822
▁Festival	-3823
▁Ge	-3824
▁piattaforma	-3825
▁camm	-3826
grafia	-3827
can	-3828
▁giusta	-3829
guardo	-3830
vedì	-3831
▁mente	-3832
▁fenom	-3833
▁poche	-3834
▁Massi	-3835
▁riti	-3836
▁riesce	-3837
cate	-3838
ganizzazione	-3839
▁naturali	-3840
gnano	-3841
▁femmini	-3842
▁sé	-3843
▁agi	-3844
▁costruzione	-3845
▁Cons	-3846
eto	-3847
▁mezzi	-3848
▁efficace	-3849
sazione	-3850
▁urb	-3851
▁carico	-3852
▁energe	-3853
CO	-3854
lizzata	-3855
▁fan	-3856
mazione	-3857
▁dieci	-3858
hone	-3859
▁rie	-3860
onica	-3861
Europa	-3862
▁assistenza	-3863
▁by	-3864
mini	-3865
▁promozione	-3866
vola	-3867
▁sve	-3868
▁capitale	-3869
▁alber	-3870
▁avevano	-3871
rla	-3872
▁Lega	-3873
▁bro	-3874
▁pul	-3875
fficio	-3876
▁chiesto	-3877
▁passaggio	-3878
mpe	-3879
▁interessante	-3880
▁venti	-3881
licazione	-3882
▁vie	-3883
▁banca	-3884
▁Tutta	-3885
▁Nico	-3886
▁fiori	-3887
▁Sh	-3888
▁estra	-3889
▁stare	-3890
▁iniziative	-3891
▁vinci	-3892
▁confronto	-3893
dire	-3894
▁et	-3895
▁alcun	-3896
▁contributo	-3897
▁CON	-3898
▁Venezia	-3899
toriale	-3900
▁2,	-3901
▁Internet	-3902
usione	-3903
▁riuni	-3904
▁Tea	-3905
▁res	-3906
▁Chia	-3907
gro	-3908
ces	-3909
▁ecce	-3910
ciu	-3911
▁Ferra	-3912
▁panora	-3913
▁gre	-3914
▁adegua	-3915
▁lunghe	-3916
▁cambio	-3917
ciamo	-3918
▁risulta	-3919
offerta	-3920
▁gruppi	-3921
▁Soci	-3922
stituto	-3923
▁div	-3924
▁sosteni	-3925
▁pio	-3926
immagine	-3927
ot	-3928
▁inizio	-3929
▁iniziato	-3930
▁aere	-3931
estate	-3932
▁entrambi	-3933
verà	-3934
▁avanza	-3935
gin	-3936
vali	-3937
fera	-3938
▁Gro	-3939
▁provare	-3940
▁soldi	-3941
bus	-3942
▁forti	-3943
▁auton	-3944
▁carica	-3945
▁collezione	-3946
get	-3947
▁devi	-3948
▁specie	-3949
zzati	-3950
▁Bri	-3951
rittura	-3952
▁appare	-3953
posizione	-3954
▁secolo	-3955
CH	-3956
▁perso	-3957
ettendo	-3958
▁tan	-3959
▁economica	-3960
mania	-3961
▁premio	-3962
ppio	-3963
▁idea	-3964
▁lettura	-3965
▁contenuto	-3966
lus	-3967
▁costitui	-3968
ziale	-3969
▁mu	-3970
▁riguard	-3971
▁monta	-3972
▁numer	-3973
ond	-3974
▁giardino	-3975
70	-3976
▁parche	-3977
▁mantenere	-3978
ted	-3979
▁politiche	-3980
▁aperta	-3981
▁semplici	-3982
▁Cosa	-3983
▁lasciare	-3984
▁decora	-3985
eek	-3986
SO	-3987
dali	-3988
▁artisti	-3989
▁diverso	-3990
▁motore	-3991
▁Palazzo	-3992
Associazione	-3993
tività	-3994
▁linee	-3995
▁modifica	-3996
▁destra	-3997
▁abband	-3998
▁cur	-3999
▁conce	-4000
ith	-4001
▁finalmente	-4002
);	-4003
▁Ve	-4004
▁nessun	-4005
▁protagonisti	-4006
▁Nell	-4007
▁Rom	-4008
keting	-4009
▁obietti	-4010
articolo	-4011
▁impegno	-4012
▁El	-4013
90	-4014
▁compagni	-4015
▁Geno	-4016
▁squadre	-4017
▁Windows	-4018
conomia	-4019
▁Palermo	-4020
▁opportunità	-4021
▁Uno	-4022
lamento	-4023
chiamo	-4024
▁partecipanti	-4025
▁civile	-4026
ED	-4027
▁temi	-4028
▁lunedì	-4029
▁treno	-4030
▁edu	-4031
▁reli	-4032
mble	-4033
▁Rai	-4034
forme	-4035
▁abbi	-4036
45	-4037
unt	-4038
▁guada	-4039
▁Inf	-4040
▁aggiunto	-4041
▁Nord	-4042
allo	-4043
▁*	-4044
▁tali	-4045
▁Sci	-4046
▁At	-4047
stro	-4048
▁acquisi	-4049
attenzione	-4050
cla	-4051
▁fiducia	-4052
gati	-4053
▁Gian	-4054
▁ottima	-4055
▁ulteriori	-4056
isola	-4057
▁utilizzando	-4058
▁zucch	-4059
▁sepa	-4060
poca	-4061
onalità	-4062
ssia	-4063
operazione	-4064
▁credo	-4065
mando	-4066
rina	-4067
▁70	-4068
▁negozio	-4069
▁inti	-4070
▁appli	-4071
▁vogli	-4072
▁ricevuto	-4073
▁dolce	-4074
▁Repubblica	-4075
ciando	-4076
▁Francia	-4077
▁energia	-4078
▁Piazza	-4079
▁internazionali	-4080
etwork	-4081
spetti	-4082
▁racconta	-4083
▁oggetto	-4084
▁marchio	-4085
▁som	-4086
erale	-4087
leggio	-4088
▁vio	-4089
▁tecnici	-4090
Ma	-4091
tria	-4092
▁club	-4093
▁Interna	-4094
▁segno	-4095
▁scaricare	-4096
ley	-4097
shi	-4098
▁Sport	-4099
binieri	-4100
▁minimo	-4101
▁selezione	-4102
veri	-4103
▁confi	-4104
▁Stra	-4105
ud	-4106
▁francese	-4107
inare	-4108
BI	-4109
▁partite	-4110
liari	-4111
▁aggiunge	-4112
▁verifica	-4113
▁pazienti	-4114
Or	-4115
▁email	-4116
ccup	-4117
org	-4118
▁4.	-4119
▁strade	-4120
cante	-4121
▁liqui	-4122
▁dina	-4123
▁volo	-4124
▁forze	-4125
▁possibili	-4126
▁aumento	-4127
▁stimo	-4128
▁tari	-4129
▁pensato	-4130
▁Milan	-4131
renza	-4132
▁candida	-4133
▁Ce	-4134
▁(2	-4135
▁Sar	-4136
▁appuntamento	-4137
gendo	-4138
▁nato	-4139
▁Av	-4140
▁addirittura	-4141
▁difesa	-4142
▁regole	-4143
▁mobile	-4144
▁concre	-4145
lab	-4146
▁archite	-4147
▁indipen	-4148
▁2010	-4149
stare	-4150
▁muo	-4151
▁viaggi	-4152
▁terza	-4153
▁superficie	-4154
▁vive	-4155
tional	-4156
▁immobili	-4157
ding	-4158
▁Sud	-4159
▁ab	-4160
▁clima	-4161
▁Stefano	-4162
▁dispositivi	-4163
dotta	-4164
▁sì	-4165
▁vostri	-4166
cs	-4167
impre	-4168
▁vale	-4169
▁Matte	-4170
▁esperienze	-4171
▁entrare	-4172
▁carriera	-4173
▁alti	-4174
▁ministro	-4175
cel	-4176
teca	-4177
▁cibo	-4178
▁paura	-4179
//	-4180
sio	-4181
ffè	-4182
stato	-4183
▁recensioni	-4184
▁organizzato	-4185
sias	-4186
cur	-4187
▁www	-4188
terni	-4189
▁sottop	-4190
Con	-4191
▁35	-4192
erato	-4193
▁punta	-4194
▁cento	-4195
cipi	-4196
▁Lom	-4197
▁PER	-4198
rendo	-4199
▁Lazio	-4200
▁bordo	-4201
▁reso	-4202
ndo	-4203
▁occ	-4204
mmeno	-4205
▁desider	-4206
▁strani	-4207
▁vesti	-4208
▁potere	-4209
boli	-4210
▁miglia	-4211
▁tuttavia	-4212
▁porte	-4213
▁centri	-4214
▁dimin	-4215
EG	-4216
▁lì	-4217
▁chiave	-4218
▁ipo	-4219
▁accedere	-4220
int	-4221
▁corrispon	-4222
oro	-4223
▁provenienti	-4224
▁Regi	-4225
▁mina	-4226
▁libertà	-4227
▁benessere	-4228
▁chiedere	-4229
▁vorre	-4230
▁formu	-4231
US	-4232
gore	-4233
▁soff	-4234
▁indos	-4235
▁unica	-4236
stono	-4237
▁Tos	-4238
://	-4239
▁viaggia	-4240
▁effetto	-4241
▁gestire	-4242
▁calo	-4243
▁profilo	-4244
%,	-4245
15	-4246
▁500	-4247
rne	-4248
▁necessaria	-4249
▁motivi	-4250
zioso	-4251
▁Andro	-4252
▁rischi	-4253
▁Ama	-4254
▁Questi	-4255
▁Chiesa	-4256
vel	-4257
▁cari	-4258
cani	-4259
▁figura	-4260
enco	-4261
bas	-4262
▁semi	-4263
▁inn	-4264
▁apparten	-4265
▁visione	-4266
mme	-4267
▁scarpe	-4268
▁europea	-4269
▁dà	-4270
▁ordine	-4271
tine	-4272
▁corsa	-4273
▁Za	-4274
▁Bene	-4275
▁Edi	-4276
▁pala	-4277
▁traccia	-4278
missioni	-4279
▁Lib	-4280
▁documento	-4281
▁Apple	-4282
▁creato	-4283
▁AL	-4284
▁basa	-4285
▁devo	-4286
▁Ele	-4287
▁tagli	-4288
accordo	-4289
▁ottenuto	-4290
fie	-4291
stenti	-4292
▁eletto	-4293
▁Ins	-4294
lizzati	-4295
▁potuto	-4296
▁chiede	-4297
▁Tuttavia	-4298
▁asciu	-4299
applicazione	-4300
▁obiettivi	-4301
▁influ	-4302
▁continuare	-4303
ja	-4304
▁brand	-4305
▁commerciale	-4306
▁cook	-4307
▁accessori	-4308
▁cul	-4309
▁assa	-4310
titui	-4311
▁ristorante	-4312
▁Ai	-4313
coledì	-4314
ZIONE	-4315
Fi	-4316
▁..	-4317
arda	-4318
▁tecnologie	-4319
▁Cara	-4320
▁iniziare	-4321
▁prende	-4322
▁concorso	-4323
▁polizia	-4324
▁Auto	-4325
▁esiste	-4326
▁popolazione	-4327
pedale	-4328
▁programmi	-4329
▁schermo	-4330
▁combina	-4331
▁dipendenti	-4332
blio	-4333
▁garanzia	-4334
▁Colo	-4335
▁dura	-4336
▁costru	-4337
▁funzioni	-4338
▁tur	-4339
▁Teatro	-4340
▁piatto	-4341
▁costa	-4342
▁episo	-4343
▁numerose	-4344
bale	-4345
mità	-4346
▁disponibilità	-4347
dazione	-4348
▁arrivato	-4349
ende	-4350
inta	-4351
▁radio	-4352
▁luci	-4353
ong	-4354
▁potrai	-4355
▁temperatura	-4356
▁giocatore	-4357
▁tv	-4358
dienti	-4359
utente	-4360
▁discip	-4361
▁singolo	-4362
ler	-4363
▁gas	-4364
▁attualmente	-4365
we	-4366
▁fia	-4367
▁Comuni	-4368
▁Android	-4369
▁caldo	-4370
issimo	-4371
▁chiusura	-4372
orno	-4373
):	-4374
▁Infatti	-4375
▁gratuita	-4376
organizzazione	-4377
▁associazioni	-4378
▁tour	-4379
▁sostitu	-4380
▁nomina	-4381
Per	-4382
▁aprire	-4383
ence	-4384
▁Pari	-4385
▁morbi	-4386
▁inser	-4387
▁peggio	-4388
▁visitare	-4389
uli	-4390
▁malattia	-4391
▁controlla	-4392
minato	-4393
▁rifiuti	-4394
▁vincere	-4395
▁spesa	-4396
▁villa	-4397
▁pagare	-4398
ici	-4399
▁conquis	-4400
▁nemmeno	-4401
▁dele	-4402
▁Sicilia	-4403
▁privato	-4404
▁valutazione	-4405
▁Serie	-4406
▁accogli	-4407
▁vogliono	-4408
-3	-4409
mpia	-4410
▁sconfi	-4411
▁laure	-4412
▁aiutare	-4413
▁Blu	-4414
▁Fondazione	-4415
raneo	-4416
▁olio	-4417
unico	-4418
▁area	-4419
▁privati	-4420
▁sequ	-4421
▁aggiungere	-4422
▁2011	-4423
cchie	-4424
▁artigi	-4425
▁componenti	-4426
nata	-4427
▁perfor	-4428
▁raggiunto	-4429
▁rispondere	-4430
▁pie	-4431
▁90	-4432
▁analisi	-4433
icoli	-4434
▁oli	-4435
logico	-4436
▁ricetta	-4437
ergia	-4438
▁dollari	-4439
ue	-4440
▁sedi	-4441
cento	-4442
▁piscina	-4443
▁imprendi	-4444
▁augu	-4445
intervento	-4446
intera	-4447
ensi	-4448
▁tavolo	-4449
▁orari	-4450
▁mie	-4451
▁audio	-4452
▁dobbiamo	-4453
▁aspetto	-4454
rmi	-4455
▁partito	-4456
▁Roberto	-4457
▁offerta	-4458
▁consapevole	-4459
▁Matteo	-4460
▁tutela	-4461
▁rinno	-4462
▁colazione	-4463
▁riguardo	-4464
▁Colle	-4465
▁musicale	-4466
▁psicolo	-4467
▁contesto	-4468
pposi	-4469
▁nazionali	-4470
tedì	-4471
▁preoccupa	-4472
onico	-4473
▁facili	-4474
▁credito	-4475
▁relativi	-4476
▁obiettivo	-4477
▁opzioni	-4478
▁illustra	-4479
▁extra	-4480
▁complesso	-4481
▁pale	-4482
fre	-4483
▁stiamo	-4484
▁ridurre	-4485
voro	-4486
▁manutenzione	-4487
▁business	-4488
▁nord	-4489
▁lontano	-4490
▁competenze	-4491
▁comm	-4492
▁stazione	-4493
hn	-4494
▁fondi	-4495
▁0,	-4496
accesso	-4497
▁Ul	-4498
▁metter	-4499
▁Gui	-4500
matico	-4501
▁colla	-4502
▁preventi	-4503
▁Musi	-4504
▁applicazioni	-4505
asse	-4506
▁usato	-4507
▁mono	-4508
▁Mario	-4509
▁pilo	-4510
wer	-4511
▁nar	-4512
▁Capi	-4513
▁umani	-4514
▁Ka	-4515
simi	-4516
▁prosegui	-4517
autore	-4518
▁utilizzo	-4519
▁volume	-4520
▁tradizionale	-4521
▁Sky	-4522
rore	-4523
▁ampio	-4524
▁ricos	-4525
▁dubbio	-4526
▁spiegato	-4527
tusias	-4528
▁Acc	-4529
▁ucci	-4530
Un	-4531
▁notizie	-4532
ffico	-4533
▁potrete	-4534
▁fle	-4535
▁moglie	-4536
▁197	-4537
▁possano	-4538
▁apposi	-4539
zionato	-4540
▁dan	-4541
▁sostitui	-4542
▁imb	-4543
▁sconto	-4544
▁teatro	-4545
▁specifico	-4546
▁monito	-4547
▁dettaglio	-4548
enziali	-4549
▁bon	-4550
▁you	-4551
ras	-4552
▁atle	-4553
▁Semp	-4554
▁reddi	-4555
osso	-4556
▁utilizzati	-4557
▁chiama	-4558
▁versa	-4559
ranzo	-4560
▁creazione	-4561
▁rosa	-4562
▁afferma	-4563
▁Alle	-4564
Mi	-4565
▁argom	-4566
dor	-4567
▁quadro	-4568
▁sentire	-4569
▁parlato	-4570
▁ricorda	-4571
▁Cli	-4572
PA	-4573
erare	-4574
spe	-4575
/1	-4576
eff	-4577
▁Germania	-4578
▁aumen	-4579
▁località	-4580
▁forno	-4581
▁normale	-4582
▁Alessandro	-4583
▁Commissione	-4584
▁Solo	-4585
▁chiamato	-4586
rli	-4587
▁lum	-4588
rovvi	-4589
stere	-4590
sano	-4591
▁siete	-4592
▁storie	-4593
▁Noi	-4594
lack	-4595
▁sub	-4596
▁farà	-4597
▁preparazione	-4598
▁Paesi	-4599
rur	-4600
▁vento	-4601
▁rientra	-4602
▁mille	-4603
▁collabora	-4604
ves	-4605
▁inferiore	-4606
▁classico	-4607
▁paio	-4608
▁Conf	-4609
▁affa	-4610
▁esplo	-4611
▁scelte	-4612
▁Pietro	-4613
▁sosp	-4614
inato	-4615
▁recupera	-4616
▁politico	-4617
▁europeo	-4618
▁lava	-4619
▁gravi	-4620
anismo	-4621
iego	-4622
▁paesa	-4623
▁testimoni	-4624
▁simile	-4625
▁Grande	-4626
▁with	-4627
▁Infine	-4628
▁é	-4629
▁nutri	-4630
ortare	-4631
▁sullo	-4632
▁metro	-4633
ttica	-4634
▁rivi	-4635
▁vice	-4636
▁dover	-4637
▁situazioni	-4638
▁lotta	-4639
▁star	-4640
▁anticipa	-4641
ZA	-4642
intero	-4643
parto	-4644
DA	-4645
Se	-4646
asto	-4647
▁viss	-4648
stalla	-4649
▁Museo	-4650
erta	-4651
▁Sch	-4652
▁bici	-4653
▁torn	-4654
rali	-4655
▁uscita	-4656
▁spiaggia	-4657
▁respi	-4658
▁costre	-4659
▁recupero	-4660
▁operazioni	-4661
vando	-4662
monte	-4663
UN	-4664
entemente	-4665
gici	-4666
▁carattere	-4667
zon	-4668
▁!	-4669
hia	-4670
▁Prop	-4671
▁fabb	-4672
▁chilometri	-4673
▁interessanti	-4674
▁giovedì	-4675
▁permesso	-4676
▁condizione	-4677
▁pasta	-4678
▁giallo	-4679
ziato	-4680
▁solle	-4681
▁buoni	-4682
▁ambientale	-4683
▁Ciao	-4684
,00	-4685
▁Camera	-4686
▁Sarà	-4687
Istituto	-4688
▁purtroppo	-4689
▁latte	-4690
teranno	-4691
▁IL	-4692
▁ristruttura	-4693
▁cittadino	-4694
come	-4695
▁gare	-4696
▁Tren	-4697
utato	-4698
▁Lin	-4699
▁contemporanea	-4700
nia	-4701
ggiato	-4702
▁PC	-4703
▁ogn	-4704
▁volontà	-4705
▁esten	-4706
▁sogno	-4707
vizz	-4708
▁funzionalità	-4709
tena	-4710
▁vigi	-4711
itato	-4712
▁Mis	-4713
▁poiché	-4714
▁196	-4715
ress	-4716
▁Acqu	-4717
▁lasciato	-4718
dotti	-4719
▁aumentare	-4720
▁ricco	-4721
▁ricordo	-4722
▁ragazza	-4723
▁Nei	-4724
▁ciclo	-4725
▁dovranno	-4726
▁traffico	-4727
▁propon	-4728
▁caffè	-4729
▁parco	-4730
rvi	-4731
▁esposi	-4732
▁immediatamente	-4733
dari	-4734
▁patrimonio	-4735
▁beni	-4736
▁manc	-4737
ttime	-4738
▁vinto	-4739
▁capace	-4740
▁sfor	-4741
cni	-4742
▁PD	-4743
diti	-4744
▁Assi	-4745
▁scrivere	-4746
▁corte	-4747
mine	-4748
king	-4749
▁tif	-4750
▁vacanze	-4751
▁quotidiana	-4752
▁oro	-4753
xi	-4754
▁succe	-4755
▁annunciato	-4756
aming	-4757
▁gener	-4758
▁affida	-4759
ggiata	-4760
▁Lombar	-4761
▁sfo	-4762
▁carte	-4763
nio	-4764
▁decreto	-4765
▁presa	-4766
Re	-4767
▁matrimonio	-4768
▁documenti	-4769
▁stesse	-4770
▁esclusivamente	-4771
oo	-4772
gento	-4773
▁slo	-4774
▁cottura	-4775
ctor	-4776
▁aiuto	-4777
▁azione	-4778
qua	-4779
▁pezzi	-4780
vis	-4781
▁Fu	-4782
▁tratti	-4783
▁Gruppo	-4784
sis	-4785
▁rapporti	-4786
▁Pd	-4787
▁calda	-4788
bur	-4789
▁Prof	-4790
▁risa	-4791
▁match	-4792
orld	-4793
ciuto	-4794
▁occa	-4795
▁	-4796
i	-4797
e	-4798
a	-4799
o	-4800
n	-4801
t	-4802
r	-4803
l	-4804
s	-4805
c	-4806
d	-4807
u	-4808
p	-4809
m	-4810
g	-4811
v	-4812
,	-4813
z	-4814
.	-4815
f	-4816
h	-4817
b	-4818
q	-4819
S	-4820
’	-4821
I	-4822
C	-4823
A	-4824
à	-4825
0	-4826
L	-4827
è	-4828
P	-4829
1	-4830
M	-4831
2	-4832
'	-4833
E	-4834
T	-4835
R	-4836
D	-4837
N	-4838
G	-4839
B	-4840
O	-4841
:	-4842
F	-4843
-	-4844
)	-4845
k	-4846
(	-4847
y	-4848
V	-4849
3	-4850
5	-4851
U	-4852
ù	-4853
"	-4854
4	-4855
w	-4856
9	-4857
!	-4858
“	-4859
”	-4860
8	-4861
6	-4862
7	-4863
?	-4864
ò	-4865
H	-4866
Q	-4867
x	-4868
/	-4869
ì	-4870
–	-4871
é	-4872
;	-4873
W	-4874
K	-4875
J	-4876
%	-4877
Z	-4878
»	-4879
j	-4880
«	-4881
X	-4882
Y	-4883
È	-4884
&	-4885
°	-4886
­	-4887
+	-4888
‘	-4889
€	-4890
*	-4891
_	-4892
#	-4893
=	-4894
>	-4895
[	-4896
|	-4897
]	-4898
@	-4899
′	-4900
á	-4901
•	-4902
́	-4903
$	-4904
®	-4905
Ã	-4906
^	-4907
—	-4908
ü	-4909
	-4910
\	-4911
ó	-4912
<	-4913
í	-4914
а	-4915
`	-4916
о	-4917
â	-4918
ö	-4919
е	-4920
и	-4921
·	-4922
ä	-4923
с	-4924
н	-4925
ç	-4926
©	-4927
р	-4928
ú	-4929
к	-4930
̈	-4931
т	-4932
ñ	-4933
É	-4934
À	-4935
в	-4936
×	-4937
л	-4938
м	-4939
у	-4940
ê	-4941
ô	-4942
ã	-4943
ë	-4944
д	-4945
й	-4946
	-4947
п	-4948
Г	-4949
~	-4950
	-4951
č	-4952
←	-4953
Â	-4954
š	-4955
›	-4956
ь	-4957
ā	-4958
я	-4959
£	-4960
⁄	-4961
Р	-4962
ß	-4963
ы	-4964
	-4965
г	-4966
б	-4967
з	-4968
ć	-4969
→	-4970
ł	-4971
ï	-4972
î	-4973
ø	-4974
å	-4975
ا	-4976
„	-4977
ă	-4978
α	-4979
י	-4980
¬	-4981
	-4982
μ	-4983
û	-4984
¿	-4985
🙂	-4986
Ø	-4987
ч	-4988
С	-4989
æ	-4990
	-4991
ʼ	-4992
ō	-4993
ο	-4994
Á	-4995
ι	-4996
Ö	-4997
●	-4998
ν	-4999
ş	-5000
ž	-5001
ш	-5002
х	-5003
ī	-5004
Ё	-5005
ı	-5006
ر	-5007
Ù	-5008
ר	-5009
Č	-5010
ε	-5011
τ	-5012
️	-5013
ل	-5014
Ì	-5015
ב	-5016
ж	-5017
	-5018
Š	-5019
‚	-5020
ו	-5021
В	-5022
λ	-5023
Ђ	-5024
œ	-5025
Ü	-5026
ת	-5027
ה	-5028
눇	-5029
【	-5030
ș	-5031
К	-5032
ρ	-5033
ц	-5034
】	-5035
😉	-5036
±	-5037
§	-5038
−	-5039
}	-5040
	-5041
	-5042
ū	-5043
♥	-5044
κ	-5045
↑	-5046
ς	-5047
✅	-5048
★	-5049
Ò	-5050
¡	-5051
א	-5052
ي	-5053
Б	-5054
ب	-5055
ę	-5056
σ	-5057
Ă	-5058
😀	-5059
π	-5060
‐	-5061
ý	-5062
̄	-5063
Ð	-5064
М	-5065
❤	-5066
ю	-5067
ל	-5068
ś	-5069
ی	-5070
‟	-5071
ń	-5072
ř	-5073
η	-5074
¢	-5075
ن	-5076
눉	-5077
Å	-5078
А	-5079
О	-5080
中	-5081
日	-5082
س	-5083
ğ	-5084
ة	-5085
ż	-5086
П	-5087
‡	-5088
У	-5089
م	-5090
Т	-5091
‬	-5092
β	-5093
本	-5094
►	-5095
の	-5096
ф	-5097
ف	-5098
ē	-5099
ț	-5100
̶	-5101
ά	-5102
و	-5103
‹	-5104
ד	-5105
ع	-5106
■	-5107
υ	-5108
√	-5109
✓	-5110
文	-5111
ש	-5112
語	-5113
ί	-5114
ą	-5115
Д	-5116
ě	-5117
Ä	-5118
ت	-5119
ע	-5120
Ç	-5121
נ	-5122
פ	-5123
ω	-5124
מ	-5125
Ñ	-5126
ð	-5127
ʿ	-5128
Н	-5129
◆	-5130
ό	-5131
	-5132
щ	-5133
	-5134
δ	-5135
د	-5136
ン	-5137
ー	-5138
õ	-5139
γ	-5140
Ž	-5141
Ó	-5142
Л	-5143
ס	-5144
і	-5145
ח	-5146
ᐅ	-5147
ƒ	-5148
ё	-5149
ї	-5150
÷	-5151
І	-5152
Ë	-5153
‪	-5154
‒	-5155
한	-5156
Ā	-5157
ḥ	-5158
🌟	-5159
ṣ	-5160
≥	-5161
¦	-5162
Í	-5163
İ	-5164
э	-5165
ק	-5166
†	-5167
ъ	-5168
국	-5169
	-5170
Ł	-5171
И	-5172
ן	-5173
ė	-5174
З	-5175
✔	-5176
¤	-5177
어	-5178
Ε	-5179
Е	-5180
כ	-5181
😂	-5182
χ	-5183
ه	-5184
‰	-5185
¥	-5186
Ú	-5187
̀	-5188
θ	-5189
ή	-5190
♦	-5191
φ	-5192
خ	-5193
έ	-5194
‭	-5195
▸	-5196
、	-5197
Ω	-5198
ṇ	-5199
▷	-5200
ţ	-5201
ص	-5202
ق	-5203
ṛ	-5204
⇒	-5205
Î	-5206
ə	-5207
ˆ	-5208
ệ	-5209
➡	-5210
	-5211
ύ	-5212
ế	-5213
ů	-5214
ų	-5215
ˈ	-5216
⭐	-5217
ź	-5218
̧	-5219
Х	-5220
ג	-5221
ท	-5222
ト	-5223
ش	-5224
Ш	-5225
▫	-5226
い	-5227
ッ	-5228
	-5229
↓	-5230
ĕ	-5231
Α	-5232
☆	-5233
イ	-5234
	-5235
ج	-5236
≤	-5237
▔	-5238
的	-5239
≈	-5240
😊	-5241
ő	-5242
Ч	-5243
ם	-5244
ň	-5245
Ś	-5246
ե	-5247
צ	-5248
▪	-5249
た	-5250
な	-5251
ス	-5252
国	-5253
油	-5254
ย	-5255
─	-5256
▶	-5257
に	-5258
ク	-5259
ル	-5260
ʻ	-5261
Φ	-5262
܀	-5263
်	-5264
‧	-5265
・	-5266
다	-5267
̃	-5268
Δ	-5269
ไ	-5270
で	-5271
と	-5272
Ş	-5273
ǎ	-5274
は	-5275
￼	-5276
😍	-5277
Σ	-5278
ξ	-5279
Э	-5280
Я	-5281
ز	-5282
া	-5283
ṁ	-5284
ќ	-5285
أ	-5286
☎	-5287
人	-5288
Æ	-5289
ˮ	-5290
Ι	-5291
ա	-5292
ז	-5293
し	-5294
る	-5295
大	-5296
̊	-5297
Π	-5298
Ф	-5299
ح	-5300
ک	-5301
◊	-5302
ラ	-5303
🔴	-5304
ώ	-5305
∴	-5306
コ	-5307
ド	-5308
는	-5309
Ō	-5310
Κ	-5311
Τ	-5312
њ	-5313
ט	-5314
フ	-5315
	-5316
Ė	-5317
ħ	-5318
ط	-5319
―	-5320
😛	-5321
	-5322
ÿ	-5323
Đ	-5324
Ÿ	-5325
ն	-5326
ั	-5327
て	-5328
스	-5329
🙁	-5330
Ġ	-5331
ἀ	-5332
ἐ	-5333
☺	-5334
す	-5335
を	-5336
カ	-5337
ロ	-5338
	-5339
	-5340
Ê	-5341
ġ	-5342
ɛ	-5343
Ж	-5344
ր	-5345
ذ	-5346
ा	-5347
ာ	-5348
▬	-5349
♡	-5350
シ	-5351
景	-5352
	-5353
Ô	-5354
đ	-5355
ĭ	-5356
ζ	-5357
Ц	-5358
յ	-5359
ง	-5360
ร	-5361
า	-5362
မ	-5363
ი	-5364
ṅ	-5365
《	-5366
》	-5367
リ	-5368
所	-5369
竪	-5370
니	-5371
🇮	-5372
🇹	-5373
🚫	-5374
	-5375
¶	-5376
ŕ	-5377
ŭ	-5378
Ż	-5379
Μ	-5380
Ρ	-5381
ў	-5382
غ	-5383
‍	-5384
あ	-5385
グ	-5386
パ	-5387
区	-5388
新	-5389
石	-5390
精	-5391
	-5392
👍	-5393
😁	-5394
😯	-5395
Þ	-5396
ŏ	-5397
̣	-5398
Ο	-5399
ى	-5400
پ	-5401
ी	-5402
∆	-5403
➖	-5404
➤	-5405
が	-5406
れ	-5407
二	-5408
市	-5409
自	-5410
	-5411
👉	-5412
👏	-5413
Ï	-5414
Ν	-5415
Қ	-5416
қ	-5417
Հ	-5418
՚	-5419
्	-5420
ব	-5421
ি	-5422
་	-5423
რ	-5424
❗	-5425
ま	-5426
り	-5427
タ	-5428
可	-5429
이	-5430
🏻	-5431
🔥	-5432
	-5433
ư	-5434
ǐ	-5435
ʾ	-5436
ψ	-5437
ك	-5438
र	-5439
น	-5440
ม	-5441
န	-5442
ა	-5443
ლ	-5444
∙	-5445
∞	-5446
⚽	-5447
✿	-5448
ん	-5449
ョ	-5450
愛	-5451
車	-5452
🎨	-5453
💯	-5454
🙄	-5455
Õ	-5456
ľ	-5457
ɑ	-5458
̆	-5459
Ь	-5460
ল	-5461
င	-5462
း	-5463
ြ	-5464
თ	-5465
უ	-5466
ქ	-5467
↔	-5468
◦	-5469
☞	-5470
❀	-5471
➥	-5472
。	-5473
っ	-5474
ア	-5475
ダ	-5476
作	-5477
十	-5478
夜	-5479
山	-5480
我	-5481
最	-5482
海	-5483
环	-5484
省	-5485
	-5486
💪	-5487
📌	-5488
	-5489
þ	-5490
ť	-5491
ː	-5492
̨	-5493
Υ	-5494
ئ	-5495
ہ	-5496
न	-5497
ว	-5498
Ḥ	-5499
ṭ	-5500
ố	-5501
ồ	-5502
‛	-5503
⃣	-5504
⋅	-5505
⚠	-5506
「	-5507
」	-5508
か	-5509
こ	-5510
ら	-5511
ウ	-5512
ザ	-5513
バ	-5514
プ	-5515
メ	-5516
一	-5517
入	-5518
出	-5519
县	-5520
로	-5521
에	-5522
	-5523
📲	-5524
ǔ	-5525
ɔ	-5526
Γ	-5527
ף	-5528
ि	-5529
র	-5530
த	-5531
ம	-5532
்	-5533
ఀ	-5534
ห	-5535
เ	-5536
ᄀ	-5537
∠	-5538
⏰	-5539
◀	-5540
♣	-5541
⟵	-5542
ⵣ	-5543
『	-5544
』	-5545
さ	-5546
オ	-5547
ズ	-5548
ナ	-5549
ブ	-5550
会	-5551
地	-5552
宝	-5553
布	-5554
支	-5555
月	-5556
船	-5557
行	-5558
고	-5559
구	-5560
리	-5561
습	-5562
을	-5563
	-5564
	-5565
🌸	-5566
🍻	-5567
😅	-5568
😦	-5569
	-5570
Ć	-5571
Œ	-5572
ɪ	-5573
ָ	-5574
প	-5575
্	-5576
ி	-5577
ు	-5578
ป	-5579
อ	-5580
ะ	-5581
ိ	-5582
ḍ	-5583
ạ	-5584
ῖ	-5585
∨	-5586
⌘	-5587
║	-5588
□	-5589
☕	-5590
❓	-5591
き	-5592
ケ	-5593
ソ	-5594
チ	-5595
ヒ	-5596
上	-5597
前	-5598
家	-5599
形	-5600
歯	-5601
私	-5602
그	-5603
드	-5604
우	-5605
의	-5606
	-5607
😘	-5608
ȓ	-5609
Λ	-5610
إ	-5611
ض	-5612
द	-5613
म	-5614
ह	-5615
ং	-5616
ণ	-5617
ু	-5618
ழ	-5619
ု	-5620
დ	-5621
ា	-5622
ờ	-5623
∼	-5624
≫	-5625
│	-5626
☀	-5627
✽	-5628
❌	-5629
❚	-5630
➢	-5631
く	-5632
そ	-5633
つ	-5634
め	-5635
ィ	-5636
ォ	-5637
ジ	-5638
ゼ	-5639
デ	-5640
ミ	-5641
モ	-5642
个	-5643
乡	-5644
力	-5645
合	-5646
年	-5647
是	-5648
有	-5649
法	-5650
用	-5651
粵	-5652
있	-5653
💰	-5654
💻	-5655
🔝	-5656
🕥	-5657
😄	-5658
😋	-5659
😱	-5660
	-5661
ņ	-5662
˗	-5663
Χ	-5664
Ѐ	-5665
Є	-5666
Ю	-5667
ѐ	-5668
۞	-5669
ర	-5670
ด	-5671
ล	-5672
ศ	-5673
ี	-5674
ར	-5675
ṡ	-5676
Ἀ	-5677
ἰ	-5678
ὶ	-5679
※	-5680
₺	-5681
≪	-5682
▹	-5683
♀	-5684
♰	-5685
❄	-5686
❯	-5687
だ	-5688
ど	-5689
も	-5690
ェ	-5691
キ	-5692
ポ	-5693
レ	-5694
们	-5695
分	-5696
場	-5697
夕	-5698
女	-5699
房	-5700
洲	-5701
相	-5702
立	-5703
財	-5704
金	-5705
가	-5706
대	-5707
운	-5708
지	-5709
하	-5710
호	-5711
	-5712
	-5713
🇧	-5714
📍	-5715
📱	-5716
😆	-5717
😎	-5718
🤣	-5719
🤩	-5720
	-5721
Ř	-5722
ű	-5723
ǧ	-5724
ʃ	-5725
ˋ	-5726
˳	-5727
̓	-5728
Ί	-5729
Η	-5730
Ы	-5731
ӑ	-5732
ठ	-5733
ल	-5734
े	-5735
য	-5736
ల	-5737
จ	-5738
พ	-5739
ํ	-5740
ས	-5741
ခ	-5742
ရ	-5743
្	-5744
Ṣ	-5745
ὑ	-5746
ὕ	-5747
ὰ	-5748
‽	-5749
℧	-5750
⇧	-5751
∧	-5752
≡	-5753
⊙	-5754
◇	-5755
☼	-5756
♂	-5757
♚	-5758
♫	-5759
❥	-5760
➠	-5761
え	-5762
お	-5763
け	-5764
み	-5765
サ	-5766
ツ	-5767
ハ	-5768
体	-5769
全	-5770
夷	-5771
小	-5772
彼	-5773
扣	-5774
棠	-5775
欧	-5776
武	-5777
治	-5778
炎	-5779
特	-5780
田	-5781
百	-5782
者	-5783
联	-5784
華	-5785
西	-5786
要	-5787
赛	-5788
道	-5789
醉	-5790
高	-5791
기	-5792
나	-5793
를	-5794
시	-5795
전	-5796
합	-5797
	-5798
	-5799
🌪	-5800
🌹	-5801
🍷	-5802
🔍	-5803
😜	-5804
🛒	-5805
􀂄	-5806
	-5807
ģ	-5808
Ǝ	-5809
Ƨ	-5810
ɡ	-5811
ʊ	-5812
̯	-5813
Θ	-5814
ϝ	-5815
Й	-5816
ј	-5817
स	-5818
ম	-5819
়	-5820
ী	-5821
ఎ	-5822
త	-5823
ీ	-5824
ം	-5825
മ	-5826
യ	-5827
ല	-5828
ള	-5829
ാ	-5830
บ	-5831
ุ	-5832
က	-5833
ည	-5834
တ	-5835
ပ	-5836
ယ	-5837
လ	-5838
ေ	-5839
ត	-5840
ḩ	-5841
ứ	-5842
ᾥ	-5843
ῶ	-5844
‖	-5845
⁃	-5846
∇	-5847
∫	-5848
⋆	-5849
▲	-5850
◄	-5851
☑	-5852
♪	-5853
✨	-5854
✮	-5855
✱	-5856
➜	-5857
➞	-5858
➷	-5859
ⴰ	-5860
ⴻ	-5861
ⵍ	-5862
ⵔ	-5863
ⵢ	-5864
う	-5865
テ	-5866
マ	-5867
ュ	-5868
ヴ	-5869
万	-5870
三	-5871
五	-5872
京	-5873
公	-5874
其	-5875
内	-5876
加	-5877
動	-5878
北	-5879
古	-5880
天	-5881
好	-5882
州	-5883
平	-5884
式	-5885
性	-5886
感	-5887
提	-5888
水	-5889
江	-5890
游	-5891
王	-5892
目	-5893
神	-5894
苏	-5895
見	-5896
设	-5897
语	-5898
车	-5899
这	-5900
都	-5901
里	-5902
銀	-5903
风	-5904
공	-5905
도	-5906
매	-5907
사	-5908
살	-5909
아	-5910
와	-5911
으	-5912
인	-5913
일	-5914
	-5915
	-5916
	-5917
	-5918
	-5919
🇪	-5920
🇬	-5921
🌍	-5922
🍃	-5923
🎤	-5924
📅	-5925
📝	-5926
📸	-5927
🔸	-5928
🛀	-5929
🥇	-5930
Û	-5931
Ē	-5932
Ī	-5933
ǜ	-5934
ǫ	-5935
̕	-5936
Έ	-5937
Β	-5938
Щ	-5939
џ	-5940
ҷ	-5941
ְ	-5942
ֹ	-5943
ּ	-5944
ך	-5945
ء	-5946
آ	-5947
ث	-5948
گ	-5949
۩	-5950
ज	-5951
त	-5952
प	-5953
भ	-5954
य	-5955
ষ	-5956
మ	-5957
్	-5958
ನ	-5959
฀	-5960
ก	-5961
฿	-5962
๑	-5963
ລ	-5964
າ	-5965
ང	-5966
သ	-5967
ព	-5968
រ	-5969
Ḩ	-5970
ẽ	-5971
ῆ	-5972
ῦ	-5973
⁠	-5974
℗	-5975
╮	-5976
╰	-5977
█	-5978
▻	-5979
◐	-5980
◾	-5981
✌	-5982
✒	-5983
✚	-5984
✪	-5985
➔	-5986
⤝	-5987
エ	-5988
ネ	-5989
ペ	-5990
ム	-5991
ャ	-5992
ヨ	-5993
㄀	-5994
主	-5995
了	-5996
住	-5997
信	-5998
光	-5999
净	-6000
利	-6001
南	-6002
友	-6003
受	-6004
名	-6005
和	-6006
园	-6007
國	-6008
在	-6009
太	-6010
学	-6011
安	-6012
宿	-6013
尔	-6014
干	-6015
当	-6016
很	-6017
投	-6018
折	-6019
振	-6020
服	-6021
机	-6022
楼	-6023
民	-6024
沙	-6025
注	-6026
猫	-6027
理	-6028
琛	-6029
生	-6030
癡	-6031
白	-6032
盆	-6033
知	-6034
社	-6035
稿	-6036
章	-6037
第	-6038
經	-6039
舒	-6040
草	-6041
计	-6042
通	-6043
阿	-6044
風	-6045
馃	-6046
뀐	-6047
미	-6048
박	-6049
산	-6050
수	-6051
신	-6052
자	-6053
제	-6054
주	-6055
집	-6056
톱	-6057
파	-6058
했	-6059
	-6060
	-6061
	-6062
	-6063
	-6064
🇸	-6065
🌱	-6066
🌺	-6067
🎁	-6068
🎮	-6069
🎯	-6070
🏆	-6071
👩	-6072
👶	-6073
💃	-6074
💙	-6075
💡	-6076
💥	-6077
💸	-6078
🔎	-6079
😈	-6080
😭	-6081
😮	-6082
😳	-6083
🤔	-6084
🤗	-6085
	-6086
ď	-6087
ĝ	-6088
ĺ	-6089
Ľ	-6090
ŋ	-6091
ŝ	-6092
Ź	-6093
ɒ	-6094
ɣ	-6095
ɲ	-6096
ʀ	-6097
ʒ	-6098
ʽ	-6099
ˇ	-6100
ˌ	-6101
̋	-6102
̸	-6103
͡	-6104
Ώ	-6105
ϋ	-6106
є	-6107
ћ	-6108
ҡ	-6109
ӣ	-6110
ַ	-6111
،	-6112
ّ	-6113
ु	-6114
ौ	-6115
শ	-6116
ে	-6117
ਜ	-6118
ਪ	-6119
ਬ	-6120
ਾ	-6121
ੀ	-6122
ੰ	-6123
గ	-6124
య	-6125
ా	-6126
ె	-6127
ഀ	-6128
ธ	-6129
ส	-6130
ู	-6131
่	-6132
ວ	-6133
ະ	-6134
ི	-6135
ོ	-6136
ྒ	-6137
ဘ	-6138
ီ	-6139
ᜀ	-6140
ក	-6141
ខ	-6142
ម	-6143
ᨀ	-6144
ṃ	-6145
ấ	-6146
ễ	-6147
ộ	-6148
ἄ	-6149
ἔ	-6150
ὀ	-6151
ὁ	-6152
⇑	-6153
∂	-6154
∪	-6155
☛	-6156
♋	-6157
♠	-6158
♭	-6159
⚡	-6160
⛔	-6161
➏	-6162
⟩	-6163
ぎ	-6164
ち	-6165
べ	-6166
よ	-6167
わ	-6168
ガ	-6169
セ	-6170
ノ	-6171
ビ	-6172
ヘ	-6173
ベ	-6174
ボ	-6175
东	-6176
事	-6177
交	-6178
代	-6179
你	-6180
便	-6181
停	-6182
傳	-6183
克	-6184
制	-6185
劇	-6186
化	-6187
卍	-6188
原	-6189
台	-6190
周	-6191
喜	-6192
回	-6193
城	-6194
外	-6195
央	-6196
子	-6197
完	-6198
宗	-6199
定	-6200
就	-6201
居	-6202
岩	-6203
工	-6204
巨	-6205
度	-6206
庫	-6207
徒	-6208
必	-6209
恋	-6210
您	-6211
拉	-6212
持	-6213
指	-6214
接	-6215
数	-6216
方	-6217
星	-6218
朋	-6219
木	-6220
来	-6221
杨	-6222
株	-6223
格	-6224
機	-6225
歌	-6226
浪	-6227
深	-6228
港	-6229
湖	-6230
火	-6231
热	-6232
焼	-6233
版	-6234
现	-6235
男	-6236
皇	-6237
示	-6238
禅	-6239
篇	-6240
編	-6241
红	-6242
羅	-6243
聖	-6244
能	-6245
興	-6246
色	-6247
花	-6248
茅	-6249
萌	-6250
蓮	-6251
藤	-6252
覺	-6253
走	-6254
輔	-6255
輪	-6256
钱	-6257
開	-6258
间	-6259
霉	-6260
面	-6261
音	-6262
餐	-6263
駅	-6264
게	-6265
과	-6266
꽃	-6267
녀	-6268
돌	-6269
러	-6270
려	-6271
마	-6272
무	-6273
문	-6274
바	-6275
부	-6276
비	-6277
서	-6278
세	-6279
소	-6280
심	-6281
안	-6282
여	-6283
은	-6284
장	-6285
조	-6286
친	-6287
해	-6288
히	-6289
	-6290
	-6291
	-6292
	-6293
	-6294
	-6295
	-6296
	-6297
🇦	-6298
🇷	-6299
🇺	-6300
🌷	-6301
🌻	-6302
🍁	-6303
🍂	-6304
🎐	-6305
🎬	-6306
🏋	-6307
🏖	-6308
🏼	-6309
💀	-6310
💐	-6311
💔	-6312
💝	-6313
💠	-6314
💲	-6315
📋	-6316
🖱	-6317
😃	-6318
😒	-6319
🛍	-6320
	-6321
	-6322
ĉ	-6323
ļ	-6324
Ń	-6325
Ő	-6326
Ť	-6327
Ƈ	-6328
Ɛ	-6329
ƚ	-6330
Ƭ	-6331
ȏ	-6332
ȗ	-6333
Ƞ	-6334
ɐ	-6335
ʌ	-6336
ʎ	-6337
̇	-6338
Ή	-6339
Ζ	-6340
ϊ	-6341
ϛ	-6342
ѕ	-6343
գ	-6344
ի	-6345
ո	-6346
տ	-6347
ւ	-6348
ִ	-6349
ץ	-6350
ظ	-6351
ـ	-6352
ٍ	-6353
ُ	-6354
چ	-6355
ډ	-6356
ے	-6357
ە	-6358
ܐ	-6359
ܘ	-6360
ं	-6361
ग	-6362
ब	-6363
व	-6364
ष	-6365
ो	-6366
জ	-6367
ভ	-6368
ய	-6369
ை	-6370
ం	-6371
ఆ	-6372
న	-6373
బ	-6374
ಕ	-6375
ಡ	-6376
್	-6377
ค	-6378
ช	-6379
ภ	-6380
ื	-6381
แ	-6382
้	-6383
ຊ	-6384
ເ	-6385
ໄ	-6386
ༀ	-6387
ཁ	-6388
མ	-6389
འ	-6390
ལ	-6391
ུ	-6392
ེ	-6393
ྫ	-6394
စ	-6395
္	-6396
ျ	-6397
ှ	-6398
გ	-6399
ო	-6400
ᄂ	-6401
ᄄ	-6402
ᑎ	-6403
ᒃ	-6404
ᔀ	-6405
ច	-6406
ជ	-6407
ស	-6408
េ	-6409
់	-6410
ᠡ	-6411
ᴇ	-6412
Ḕ	-6413
ḳ	-6414
ṯ	-6415
ậ	-6416
ắ	-6417
ẵ	-6418
ị	-6419
ἶ	-6420
Ἰ	-6421
ὐ	-6422
ῥ	-6423
ῷ	-6424
‣	-6425
‿	-6426
∅	-6427
∈	-6428
⊕	-6429
⏩	-6430
⏭	-6431
⏱	-6432
␍	-6433
○	-6434
◮	-6435
☊	-6436
☘	-6437
☝	-6438
☠	-6439
☽	-6440
☾	-6441
♐	-6442
♕	-6443
⚘	-6444
⛄	-6445
⛲	-6446
✎	-6447
✗	-6448
✦	-6449
✰	-6450
❖	-6451
❝	-6452
❱	-6453
➊	-6454
➋	-6455
➌	-6456
➍	-6457
➎	-6458
➐	-6459
➑	-6460
➒	-6461
➙	-6462
➽	-6463
⟨	-6464
⤑	-6465
⤽	-6466
Ⱄ	-6467
⸀	-6468
〈	-6469
〰	-6470
ご	-6471
じ	-6472
ず	-6473
せ	-6474
び	-6475
ぶ	-6476
ゃ	-6477
や	-6478
ろ	-6479
ゾ	-6480
ニ	-6481
ピ	-6482
ホ	-6483
ユ	-6484
ワ	-6485
㐀	-6486
㠀	-6487
丁	-6488
与	-6489
世	-6490
久	-6491
也	-6492
于	-6493
云	-6494
井	-6495
享	-6496
今	-6497
他	-6498
令	-6499
以	-6500
伝	-6501
位	-6502
佐	-6503
何	-6504
供	-6505
俺	-6506
值	-6507
僧	-6508
元	-6509
写	-6510
别	-6511
到	-6512
功	-6513
又	-6514
发	-6515
句	-6516
史	-6517
吵	-6518
吾	-6519
告	-6520
味	-6521
品	-6522
善	-6523
嘆	-6524
団	-6525
土	-6526
埃	-6527
塔	-6528
士	-6529
妙	-6530
妹	-6531
宅	-6532
实	-6533
実	-6534
客	-6535
察	-6536
对	-6537
寺	-6538
导	-6539
将	-6540
少	-6541
层	-6542
屋	-6543
屏	-6544
属	-6545
岛	-6546
川	-6547
己	-6548
巴	-6549
店	-6550
律	-6551
後	-6552
徐	-6553
得	-6554
志	-6555
悠	-6556
情	-6557
意	-6558
成	-6559
戦	-6560
手	-6561
才	-6562
搒	-6563
改	-6564
旗	-6565
早	-6566
昆	-6567
明	-6568
晚	-6569
普	-6570
智	-6571
曼	-6572
會	-6573
望	-6574
朝	-6575
李	-6576
村	-6577
松	-6578
栋	-6579
桜	-6580
梦	-6581
森	-6582
様	-6583
欢	-6584
氏	-6585
気	-6586
氣	-6587
汉	-6588
河	-6589
泉	-6590
济	-6591
温	-6592
灌	-6593
灰	-6594
煲	-6595
物	-6596
犬	-6597
現	-6598
疆	-6599
真	-6600
着	-6601
矇	-6602
碁	-6603
祁	-6604
祖	-6605
祠	-6606
秋	-6607
空	-6608
笍	-6609
简	-6610
素	-6611
継	-6612
繁	-6613
维	-6614
置	-6615
群	-6616
脿	-6617
良	-6618
茶	-6619
莎	-6620
菜	-6621
营	-6622
萬	-6623
蒙	-6624
藏	-6625
蘭	-6626
解	-6627
設	-6628
説	-6629
読	-6630
論	-6631
话	-6632
该	-6633
调	-6634
貌	-6635
転	-6636
農	-6637
过	-6638
近	-6639
适	-6640
那	-6641
部	-6642
重	-6643
野	-6644
鉄	-6645
鋤	-6646
鏤	-6647
链	-6648
镇	-6649
门	-6650
陈	-6651
隠	-6652
雅	-6653
静	-6654
项	-6655
香	-6656
體	-6657
鸡	-6658
麦	-6659
黄	-6660
개	-6661
경	-6662
골	-6663
교	-6664
근	-6665
까	-6666
년	-6667
노	-6668
님	-6669
되	-6670
라	-6671
류	-6672
르	-6673
명	-6674
버	-6675
베	-6676
변	-6677
보	-6678
삭	-6679
설	-6680
숙	-6681
순	-6682
었	-6683
연	-6684
왔	-6685
요	-6686
용	-6687
움	-6688
절	-6689
접	-6690
정	-6691
좋	-6692
처	-6693
천	-6694
첫	-6695
출	-6696
치	-6697
키	-6698
터	-6699
테	-6700
통	-6701
팅	-6702
폐	-6703
학	-6704
화	-6705
후	-6706
	-6707
	-6708
	-6709
	-6710
	-6711
	-6712
	-6713
	-6714
	-6715
	-6716
	-6717
	-6718
	-6719
︎	-6720
𒆠	-6721
𒋀	-6722
🇩	-6723
🇫	-6724
🌼	-6725
🍇	-6726
🍎	-6727
🍝	-6728
🍳	-6729
🎃	-6730
🎉	-6731
🎥	-6732
🏃	-6733
🏘	-6734
🏫	-6735
🐍	-6736
👨	-6737
👻	-6738
💊	-6739
💕	-6740
💜	-6741
💳	-6742
📊	-6743
📷	-6744
🔋	-6745
🔜	-6746
🔵	-6747
🔷	-6748
🖤	-6749
🗻	-6750
😇	-6751
😌	-6752
😑	-6753
😔	-6754
😙	-6755
😥	-6756
🙏	-6757
🚙	-6758
🚧	-6759
🤒	-6760
🤓	-6761
🥀	-6762
🥰	-6763
🥳	-6764
🦋	-6765
🧜	-6766
􀂃	-6767
	-6768
	-6769
	-6770
	-6771
Ę	-6772
Ě	-6773
Ğ	-6774
ĩ	-6775
Ĭ	-6776
ĵ	-6777
ķ	-6778
Ĺ	-6779
Ū	-6780
ŵ	-6781
Ə	-6782
ơ	-6783
ǒ	-6784
ǵ	-6785
ǻ	-6786
ȃ	-6787
Ș	-6788
Ʌ	-6789
ɘ	-6790
ɤ	-6791
ɫ	-6792
ɯ	-6793
ɴ	-6794
ʍ	-6795
ʏ	-6796
ʝ	-6797
ʦ	-6798
ʧ	-6799
ʹ	-6800
ˁ	-6801
̉	-6802
̎	-6803
̏	-6804
̔	-6805
̵	-6806
̷	-6807
͂	-6808
Ά	-6809
Ѓ	-6810
Ї	-6811
Љ	-6812
ѣ	-6813
ґ	-6814
Ү	-6815
ҳ	-6816
Ҷ	-6817
Ҹ	-6818
һ	-6819
Ӏ	-6820
ӧ	-6821
Ө	-6822
ӯ	-6823
Ԁ	-6824
ԉ	-6825
Ա	-6826
Ի	-6827
Կ	-6828
Ռ	-6829
Ս	-6830
Ք	-6831
զ	-6832
ը	-6833
թ	-6834
լ	-6835
խ	-6836
հ	-6837
չ	-6838
պ	-6839
վ	-6840
ք	-6841
֩	-6842
ֻ	-6843
ֽ	-6844
ׁ	-6845
ׂ	-6846
؟	-6847
ؤ	-6848
ً	-6849
َ	-6850
ِ	-6851
ْ	-6852
ٔ	-6853
٠	-6854
ڌ	-6855
ۊ	-6856
۴	-6857
܉	-6858
ܝ	-6859
ܡ	-6860
ܪ	-6861
ࠂ	-6862
ࠠ	-6863
ࠣ	-6864
आ	-6865
औ	-6866
क	-6867
ख	-6868
ध	-6869
फ	-6870
অ	-6871
উ	-6872
গ	-6873
চ	-6874
দ	-6875
ন	-6876
ফ	-6877
স	-6878
ো	-6879
ગ	-6880
જ	-6881
ત	-6882
ર	-6883
ા	-6884
ી	-6885
ુ	-6886
଀	-6887
ଆ	-6888
ଓ	-6889
ଡ	-6890
଼	-6891
ି	-6892
இ	-6893
ண	-6894
ல	-6895
ள	-6896
అ	-6897
ఖ	-6898
చ	-6899
ట	-6900
డ	-6901
ద	-6902
ప	-6903
వ	-6904
శ	-6905
ే	-6906
ై	-6907
ో	-6908
ข	-6909
ฉ	-6910
ฒ	-6911
ต	-6912
์	-6913
ງ	-6914
ຍ	-6915
ດ	-6916
ຖ	-6917
ທ	-6918
ນ	-6919
ບ	-6920
ປ	-6921
ມ	-6922
ສ	-6923
ອ	-6924
ີ	-6925
ື	-6926
ູ	-6927
ག	-6928
ད	-6929
བ	-6930
ཡ	-6931
ྩ	-6932
ဆ	-6933
ထ	-6934
ဖ	-6935
ဲ	-6936
ွ	-6937
ვ	-6938
ს	-6939
ტ	-6940
შ	-6941
ማ	-6942
ር	-6943
ኛ	-6944
አ	-6945
ᐃ	-6946
ᑐ	-6947
ᑦ	-6948
ᑲ	-6949
ᓄ	-6950
ᕕ	-6951
ᗚ	-6952
ង	-6953
ណ	-6954
ធ	-6955
ភ	-6956
ិ	-6957
ុ	-6958
ែ	-6959
ោ	-6960
ំ	-6961
ះ	-6962
៍	-6963
ᠬ	-6964
ᠯ	-6965
ᥙ	-6966
ᴀ	-6967
ᴅ	-6968
ᴏ	-6969
ᴢ	-6970
᷈	-6971
ḗ	-6972
ḫ	-6973
Ṃ	-6974
Ṗ	-6975
Ṭ	-6976
ẓ	-6977
ả	-6978
ẫ	-6979
ặ	-6980
ề	-6981
ỉ	-6982
ủ	-6983
ữ	-6984
ự	-6985
ỳ	-6986
ἃ	-6987
ἅ	-6988
Ἁ	-6989
Ἄ	-6990
Ἅ	-6991
ἑ	-6992
Ἔ	-6993
ἡ	-6994
ἣ	-6995
Ἠ	-6996
Ἡ	-6997
ἱ	-6998
ἷ	-6999
ὄ	-7000
Ὃ	-7001
Ὑ	-7002
ὠ	-7003
ὤ	-7004
ὴ	-7005
ὸ	-7006
ὼ	-7007
ᾶ	-7008
Ῥ	-7009
ῲ	-7010
⁦	-7011
⁩	-7012
₩	-7013
₭	-7014
₴	-7015
₹	-7016
₽	-7017
℮	-7018
⇨	-7019
∁	-7020
≠	-7021
⊥	-7022
⏬	-7023
⏳	-7024
⏺	-7025
├	-7026
╗	-7027
▭	-7028
▼	-7029
▾	-7030
◉	-7031
◎	-7032
◘	-7033
◙	-7034
☄	-7035
☔	-7036
☜	-7037
☮	-7038
☹	-7039
♈	-7040
♊	-7041
♖	-7042
♜	-7043
♤	-7044
♬	-7045
⚒	-7046
⚓	-7047
⚪	-7048
⚫	-7049
⛅	-7050
⛈	-7051
⛏	-7052
⛵	-7053
⛺	-7054
✇	-7055
✈	-7056
✋	-7057
✘	-7058
✝	-7059
✞	-7060
✤	-7061
✶	-7062
❎	-7063
❘	-7064
❶	-7065
❷	-7066
❸	-7067
❹	-7068
❺	-7069
➀	-7070
➁	-7071
➂	-7072
➓	-7073
➟	-7074
➨	-7075
⠀	-7076
⦁	-7077
⪚	-7078
⬅	-7079
Ⰲ	-7080
Ⰽ	-7081
Ⰾ	-7082
Ⱀ	-7083
Ⱁ	-7084
Ⱏ	-7085
Ⱐ	-7086
Ⱑ	-7087
々	-7088
〇	-7089
〉	-7090
ぐ	-7091
ぬ	-7092
ね	-7093
ば	-7094
ひ	-7095
ほ	-7096
む	-7097
ょ	-7098
゚	-7099
ァ	-7100
ゥ	-7101
ゴ	-7102
ヤ	-7103
ヵ	-7104
㒚	-7105
㞡	-7106
下	-7107
不	-7108
两	-7109
並	-7110
丰	-7111
为	-7112
丽	-7113
之	-7114
九	-7115
书	-7116
乳	-7117
予	-7118
争	-7119
亚	-7120
些	-7121
产	-7122
亲	-7123
从	-7124
付	-7125
价	-7126
伊	-7127
伎	-7128
休	-7129
伟	-7130
传	-7131
但	-7132
低	-7133
佛	-7134
來	-7135
例	-7136
侘	-7137
依	-7138
価	-7139
俗	-7140
保	-7141
俠	-7142
俳	-7143
偏	-7144
偵	-7145
偶	-7146
催	-7147
先	-7148
共	-7149
兵	-7150
具	-7151
典	-7152
册	-7153
准	-7154
几	-7155
刀	-7156
切	-7157
刑	-7158
划	-7159
则	-7160
刚	-7161
初	-7162
別	-7163
剎	-7164
剣	-7165
务	-7166
动	-7167
助	-7168
勝	-7169
包	-7170
區	-7171
千	-7172
半	-7173
协	-7174
卫	-7175
卷	-7176
历	-7177
参	-7178
叉	-7179
及	-7180
双	-7181
反	-7182
叔	-7183
取	-7184
口	-7185
只	-7186
叫	-7187
右	-7188
司	-7189
吉	-7190
同	-7191
后	-7192
含	-7193
吴	-7194
吹	-7195
呼	-7196
問	-7197
啤	-7198
嘉	-7199
嘘	-7200
器	-7201
噶	-7202
嚘	-7203
嚪	-7204
四	-7205
図	-7206
園	-7207
圣	-7208
圳	-7209
坡	-7210
垂	-7211
域	-7212
基	-7213
堅	-7214
增	-7215
壌	-7216
复	-7217
夏	-7218
多	-7219
夢	-7220
头	-7221
奇	-7222
奠	-7223
奪	-7224
她	-7225
始	-7226
威	-7227
娘	-7228
字	-7229
孝	-7230
宁	-7231
它	-7232
守	-7233
宋	-7234
宣	-7235
宪	-7236
害	-7237
宵	-7238
寂	-7239
寶	-7240
寻	-7241
対	-7242
將	-7243
尋	-7244
尝	-7245
展	-7246
屬	-7247
峡	-7248
嵐	-7249
巻	-7250
希	-7251
帕	-7252
帖	-7253
带	-7254
師	-7255
帮	-7256
帯	-7257
常	-7258
帽	-7259
幸	-7260
庁	-7261
広	-7262
床	-7263
库	-7264
应	-7265
底	-7266
庙	-7267
庚	-7268
府	-7269
座	-7270
庭	-7271
建	-7272
引	-7273
弫	-7274
弾	-7275
彦	-7276
彩	-7277
影	-7278
役	-7279
往	-7280
待	-7281
徹	-7282
心	-7283
快	-7284
念	-7285
态	-7286
思	-7287
急	-7288
怪	-7289
恥	-7290
恭	-7291
惊	-7292
惠	-7293
愉	-7294
慨	-7295
慷	-7296
戌	-7297
戏	-7298
户	-7299
戸	-7300
批	-7301
承	-7302
技	-7303
把	-7304
护	-7305
抦	-7306
抯	-7307
抲	-7308
拥	-7309
拼	-7310
按	-7311
掌	-7312
探	-7313
控	-7314
揃	-7315
揈	-7316
揌	-7317
揚	-7318
揟	-7319
搜	-7320
摘	-7321
撃	-7322
政	-7323
教	-7324
散	-7325
整	-7326
敵	-7327
料	-7328
斯	-7329
施	-7330
既	-7331
昉	-7332
易	-7333
暁	-7334
暦	-7335
暴	-7336
曲	-7337
更	-7338
朗	-7339
末	-7340
材	-7341
杞	-7342
条	-7343
杷	-7344
枇	-7345
林	-7346
果	-7347
栄	-7348
校	-7349
根	-7350
桂	-7351
案	-7352
梅	-7353
棒	-7354
楞	-7355
業	-7356
概	-7357
樂	-7358
樹	-7359
橋	-7360
檃	-7361
止	-7362
正	-7363
歧	-7364
歩	-7365
殺	-7366
母	-7367
毕	-7368
气	-7369
永	-7370
求	-7371
汐	-7372
決	-7373
沟	-7374
沢	-7375
沼	-7376
泊	-7377
波	-7378
泥	-7379
洁	-7380
洋	-7381
洹	-7382
流	-7383
涟	-7384
淮	-7385
測	-7386
湛	-7387
準	-7388
溪	-7389
漫	-7390
潟	-7391
潢	-7392
瀝	-7393
灣	-7394
災	-7395
炮	-7396
烏	-7397
無	-7398
照	-7399
爆	-7400
爱	-7401
片	-7402
牛	-7403
独	-7404
狸	-7405
狼	-7406
猶	-7407
玉	-7408
玲	-7409
玻	-7410
珍	-7411
球	-7412
琉	-7413
璃	-7414
璨	-7415
環	-7416
由	-7417
町	-7418
畅	-7419
界	-7420
留	-7421
疾	-7422
皆	-7423
盂	-7424
盟	-7425
盤	-7426
盲	-7427
直	-7428
眉	-7429
看	-7430
眺	-7431
眼	-7432
短	-7433
砲	-7434
确	-7435
確	-7436
碼	-7437
磐	-7438
祝	-7439
祥	-7440
禪	-7441
离	-7442
秀	-7443
科	-7444
移	-7445
稀	-7446
穫	-7447
窠	-7448
站	-7449
答	-7450
管	-7451
節	-7452
篮	-7453
簞	-7454
米	-7455
紀	-7456
結	-7457
統	-7458
絶	-7459
総	-7460
緒	-7461
縒	-7462
績	-7463
繕	-7464
續	-7465
约	-7466
纳	-7467
经	-7468
绘	-7469
罐	-7470
羊	-7471
羌	-7472
美	-7473
義	-7474
肉	-7475
育	-7476
背	-7477
脽	-7478
腕	-7479
臘	-7480
臣	-7481
臨	-7482
致	-7483
舜	-7484
航	-7485
般	-7486
舰	-7487
艺	-7488
节	-7489
芳	-7490
若	-7491
药	-7492
获	-7493
菌	-7494
蒂	-7495
蔵	-7496
蛇	-7497
蝦	-7498
術	-7499
衡	-7500
袍	-7501
被	-7502
裂	-7503
製	-7504
視	-7505
觀	-7506
视	-7507
览	-7508
角	-7509
触	-7510
討	-7511
試	-7512
認	-7513
誕	-7514
誦	-7515
識	-7516
護	-7517
让	-7518
记	-7519
误	-7520
谢	-7521
谷	-7522
賊	-7523
賢	-7524
購	-7525
贛	-7526
财	-7527
贵	-7528
赫	-7529
趙	-7530
足	-7531
跟	-7532
路	-7533
辅	-7534
边	-7535
迎	-7536
返	-7537
连	-7538
迤	-7539
迹	-7540
途	-7541
逦	-7542
進	-7543
邊	-7544
邦	-7545
郡	-7546
郭	-7547
酅	-7548
配	-7549
酒	-7550
鈥	-7551
鈴	-7552
鈿	-7553
鉃	-7554
銃	-7555
錢	-7556
錫	-7557
鍾	-7558
鎧	-7559
鎮	-7560
鏡	-7561
鑑	-7562
钓	-7563
铎	-7564
铜	-7565
银	-7566
锘	-7567
长	-7568
間	-7569
関	-7570
闘	-7571
闲	-7572
队	-7573
阳	-7574
陋	-7575
降	-7576
陣	-7577
陳	-7578
陵	-7579
随	-7580
際	-7581
集	-7582
雛	-7583
雷	-7584
電	-7585
需	-7586
霧	-7587
靜	-7588
非	-7589
靠	-7590
鞘	-7591
韵	-7592
響	-7593
頂	-7594
顗	-7595
页	-7596
顶	-7597
预	-7598
额	-7599
飛	-7600
食	-7601
飯	-7602
飼	-7603
飽	-7604
餃	-7605
饭	-7606
饱	-7607
饲	-7608
饺	-7609
馆	-7610
馨	-7611
験	-7612
马	-7613
驰	-7614
验	-7615
骑	-7616
魏	-7617
魔	-7618
鮮	-7619
鯉	-7620
鱼	-7621
鲍	-7622
鳴	-7623
鷖	-7624
鹿	-7625
龍	-7626
龙	-7627
간	-7628
감	-7629
갔	-7630
갤	-7631
거	-7632
것	-7633
계	-7634
곳	-7635
관	-7636
귀	-7637
균	-7638
길	-7639
깃	-7640
깝	-7641
꿨	-7642
내	-7643
낸	-7644
너	-7645
네	-7646
늑	-7647
데	-7648
돈	-7649
돕	-7650
동	-7651
됐	-7652
된	-7653
됩	-7654
두	-7655
등	-7656
랑	-7657
랜	-7658
램	-7659
럭	-7660
레	-7661
렛	-7662
련	-7663
렴	-7664
루	-7665
룰	-7666
륭	-7667
만	-7668
맛	-7669
망	-7670
머	-7671
먹	-7672
며	-7673
모	-7674
목	-7675
방	-7676
배	-7677
뱀	-7678
복	-7679
볼	-7680
분	-7681
브	-7682
블	-7683
빙	-7684
삶	-7685
삼	-7686
상	-7687
샷	-7688
선	-7689
성	-7690
셀	-7691
송	-7692
술	-7693
씨	-7694
않	-7695
알	-7696
암	-7697
액	-7698
앱	-7699
약	-7700
얀	-7701
양	-7702
엄	-7703
없	-7704
엔	-7705
엘	-7706
옆	-7707
오	-7708
완	-7709
왜	-7710
울	-7711
워	-7712
원	-7713
월	-7714
위	-7715
음	-7716
입	-7717
잏	-7718
잘	-7719
재	-7720
저	-7721
적	-7722
종	-7723
줄	-7724
중	-7725
증	-7726
째	-7727
쪽	-7728
창	-7729
최	-7730
추	-7731
침	-7732
카	-7733
칸	-7734
쾌	-7735
크	-7736
타	-7737
토	-7738
트	-7739
티	-7740
편	-7741
푸	-7742
피	-7743
할	-7744
항	-7745
행	-7746
헴	-7747
환	-7748
훌	-7749
	-7750
	-7751
	-7752
	-7753
	-7754
	-7755
	-7756
	-7757
	-7758
	-7759
	-7760
	-7761
	-7762
	-7763
	-7764
	-7765
	-7766
	-7767
	-7768
	-7769
	-7770
	-7771
	-7772
	-7773
	-7774
	-7775
	-7776
	-7777
	-7778
	-7779
	-7780
	-7781
	-7782
	-7783
	-7784
	-7785
	-7786
	-7787
	-7788
	-7789
	-7790
	-7791
	-7792
	-7793
	-7794
	-7795
	-7796
	-7797
	-7798
	-7799
	-7800
	-7801
	-7802
	-7803
	-7804
	-7805
	-7806
	-7807
	-7808
	-7809
	-7810
	-7811
	-7812
	-7813
	-7814
	-7815
	-7816
	-7817
﴾	-7818
﴿	-7819
～	-7820
𒀊	-7821
𒀕	-7822
🆕	-7823
🆚	-7824
🇨	-7825
🇱	-7826
🇵	-7827
🇿	-7828
🌈	-7829
🌊	-7830
🌎	-7831
🌐	-7832
🌙	-7833
🌝	-7834
🌞	-7835
🌲	-7836
🌿	-7837
🍀	-7838
🍌	-7839
🍔	-7840
🍞	-7841
🍣	-7842
🍽	-7843
🎀	-7844
🎂	-7845
🎅	-7846
🎊	-7847
🎟	-7848
🎧	-7849
🎫	-7850
🎭	-7851
🎴	-7852
🎻	-7853
🎾	-7854
🏈	-7855
🏊	-7856
🏗	-7857
🏝	-7858
🏥	-7859
🏳	-7860
🏴	-7861
🏽	-7862
🐛	-7863
🐦	-7864
🐳	-7865
👄	-7866
👇	-7867
👎	-7868
👑	-7869
👗	-7870
👟	-7871
👦	-7872
👰	-7873
💁	-7874
💆	-7875
💋	-7876
💌	-7877
💖	-7878
💗	-7879
💘	-7880
💛	-7881
💢	-7882
💣	-7883
💧	-7884
💩	-7885
💬	-7886
💴	-7887
💶	-7888
💷	-7889
📄	-7890
📈	-7891
📉	-7892
📕	-7893
📖	-7894
📚	-7895
📞	-7896
📢	-7897
📣	-7898
📦	-7899
🔔	-7900
🔙	-7901
🔫	-7902
🔹	-7903
🔻	-7904
🕑	-7905
🕷	-7906
🖼	-7907
🗣	-7908
😏	-7909
😕	-7910
😚	-7911
😞	-7912
😟	-7913
😡	-7914
😢	-7915
😣	-7916
😬	-7917
😶	-7918
😷	-7919
😼	-7920
🙃	-7921
🙋	-7922
🚁	-7923
🚕	-7924
🚗	-7925
🚚	-7926
🚨	-7927
🚽	-7928
