<unk>	0
<s>	0
</s>	0
<pad>	0
<system>	0
<user>	0
<assistant>	0
<0x00>	0
<0x01>	0
<0x02>	0
<0x03>	0
<0x04>	0
<0x05>	0
<0x06>	0
<0x07>	0
<0x08>	0
<0x09>	0
<0x0A>	0
<0x0B>	0
<0x0C>	0
<0x0D>	0
<0x0E>	0
<0x0F>	0
<0x10>	0
<0x11>	0
<0x12>	0
<0x13>	0
<0x14>	0
<0x15>	0
<0x16>	0
<0x17>	0
<0x18>	0
<0x19>	0
<0x1A>	0
<0x1B>	0
<0x1C>	0
<0x1D>	0
<0x1E>	0
<0x1F>	0
<0x20>	0
<0x21>	0
<0x22>	0
<0x23>	0
<0x24>	0
<0x25>	0
<0x26>	0
<0x27>	0
<0x28>	0
<0x29>	0
<0x2A>	0
<0x2B>	0
<0x2C>	0
<0x2D>	0
<0x2E>	0
<0x2F>	0
<0x30>	0
<0x31>	0
<0x32>	0
<0x33>	0
<0x34>	0
<0x35>	0
<0x36>	0
<0x37>	0
<0x38>	0
<0x39>	0
<0x3A>	0
<0x3B>	0
<0x3C>	0
<0x3D>	0
<0x3E>	0
<0x3F>	0
<0x40>	0
<0x41>	0
<0x42>	0
<0x43>	0
<0x44>	0
<0x45>	0
<0x46>	0
<0x47>	0
<0x48>	0
<0x49>	0
<0x4A>	0
<0x4B>	0
<0x4C>	0
<0x4D>	0
<0x4E>	0
<0x4F>	0
<0x50>	0
<0x51>	0
<0x52>	0
<0x53>	0
<0x54>	0
<0x55>	0
<0x56>	0
<0x57>	0
<0x58>	0
<0x59>	0
<0x5A>	0
<0x5B>	0
<0x5C>	0
<0x5D>	0
<0x5E>	0
<0x5F>	0
<0x60>	0
<0x61>	0
<0x62>	0
<0x63>	0
<0x64>	0
<0x65>	0
<0x66>	0
<0x67>	0
<0x68>	0
<0x69>	0
<0x6A>	0
<0x6B>	0
<0x6C>	0
<0x6D>	0
<0x6E>	0
<0x6F>	0
<0x70>	0
<0x71>	0
<0x72>	0
<0x73>	0
<0x74>	0
<0x75>	0
<0x76>	0
<0x77>	0
<0x78>	0
<0x79>	0
<0x7A>	0
<0x7B>	0
<0x7C>	0
<0x7D>	0
<0x7E>	0
<0x7F>	0
<0x80>	0
<0x81>	0
<0x82>	0
<0x83>	0
<0x84>	0
<0x85>	0
<0x86>	0
<0x87>	0
<0x88>	0
<0x89>	0
<0x8A>	0
<0x8B>	0
<0x8C>	0
<0x8D>	0
<0x8E>	0
<0x8F>	0
<0x90>	0
<0x91>	0
<0x92>	0
<0x93>	0
<0x94>	0
<0x95>	0
<0x96>	0
<0x97>	0
<0x98>	0
<0x99>	0
<0x9A>	0
<0x9B>	0
<0x9C>	0
<0x9D>	0
<0x9E>	0
<0x9F>	0
<0xA0>	0
<0xA1>	0
<0xA2>	0
<0xA3>	0
<0xA4>	0
<0xA5>	0
<0xA6>	0
<0xA7>	0
<0xA8>	0
<0xA9>	0
<0xAA>	0
<0xAB>	0
<0xAC>	0
<0xAD>	0
<0xAE>	0
<0xAF>	0
<0xB0>	0
<0xB1>	0
<0xB2>	0
<0xB3>	0
<0xB4>	0
<0xB5>	0
<0xB6>	0
<0xB7>	0
<0xB8>	0
<0xB9>	0
<0xBA>	0
<0xBB>	0
<0xBC>	0
<0xBD>	0
<0xBE>	0
<0xBF>	0
<0xC0>	0
<0xC1>	0
<0xC2>	0
<0xC3>	0
<0xC4>	0
<0xC5>	0
<0xC6>	0
<0xC7>	0
<0xC8>	0
<0xC9>	0
<0xCA>	0
<0xCB>	0
<0xCC>	0
<0xCD>	0
<0xCE>	0
<0xCF>	0
<0xD0>	0
<0xD1>	0
<0xD2>	0
<0xD3>	0
<0xD4>	0
<0xD5>	0
<0xD6>	0
<0xD7>	0
<0xD8>	0
<0xD9>	0
<0xDA>	0
<0xDB>	0
<0xDC>	0
<0xDD>	0
<0xDE>	0
<0xDF>	0
<0xE0>	0
<0xE1>	0
<0xE2>	0
<0xE3>	0
<0xE4>	0
<0xE5>	0
<0xE6>	0
<0xE7>	0
<0xE8>	0
<0xE9>	0
<0xEA>	0
<0xEB>	0
<0xEC>	0
<0xED>	0
<0xEE>	0
<0xEF>	0
<0xF0>	0
<0xF1>	0
<0xF2>	0
<0xF3>	0
<0xF4>	0
<0xF5>	0
<0xF6>	0
<0xF7>	0
<0xF8>	0
<0xF9>	0
<0xFA>	0
<0xFB>	0
<0xFC>	0
<0xFD>	0
<0xFE>	0
<0xFF>	0
▁d	-0
on	-1
er	-2
▁c	-3
▁s	-4
▁p	-5
▁a	-6
re	-7
to	-8
in	-9
ta	-10
en	-11
ti	-12
la	-13
▁di	-14
ri	-15
el	-16
ra	-17
li	-18
▁e	-19
te	-20
le	-21
an	-22
un	-23
▁m	-24
▁i	-25
ro	-26
zi	-27
▁in	-28
▁n	-29
si	-30
he	-31
▁del	-32
or	-33
ia	-34
▁f	-35
▁un	-36
es	-37
ca	-38
▁v	-39
▁per	-40
▁con	-41
one	-42
▁la	-43
lo	-44
os	-45
▁al	-46
qu	-47
▁g	-48
om	-49
▁t	-50
ar	-51
▁il	-52
co	-53
▁che	-54
ci	-55
al	-56
men	-57
et	-58
di	-59
▁qu	-60
do	-61
▁ri	-62
▁S	-63
ma	-64
zione	-65
▁o	-66
▁C	-67
no	-68
so	-69
za	-70
▁su	-71
gi	-72
▁b	-73
▁l	-74
▁è	-75
ere	-76
▁pro	-77
▁P	-78
vi	-79
ol	-80
▁da	-81
tu	-82
▁le	-83
▁si	-84
mp	-85
▁de	-86
mo	-87
▁I	-88
▁L	-89
va	-90
sa	-91
gli	-92
bi	-93
▁com	-94
oni	-95
▁an	-96
▁A	-97
▁M	-98
ono	-99
ch	-100
da	-101
ter	-102
tto	-103
ce	-104
che	-105
as	-106
pp	-107
▁una	-108
tà	-109
▁h	-110
▁se	-111
▁della	-112
▁pre	-113
ni	-114
▁ca	-115
tra	-116
vo	-117
▁nel	-118
▁re	-119
mi	-120
tti	-121
▁ma	-122
▁pi	-123
io	-124
na	-125
▁non	-126
ve	-127
de	-128
era	-129
se	-130
fi	-131
is	-132
ina	-133
▁D	-134
▁so	-135
mente	-136
ggi	-137
ona	-138
▁po	-139
ran	-140
uo	-141
sp	-142
▁1	-143
▁2	-144
tro	-145
ano	-146
cia	-147
▁G	-148
▁T	-149
▁fa	-150
zza	-151
▁dal	-152
ten	-153
▁sta	-154
▁B	-155
bb	-156
▁R	-157
eri	-158
▁sp	-159
▁(	-160
▁vi	-161
tta	-162
▁tra	-163
▁tu	-164
▁F	-165
▁N	-166
▁ha	-167
ver	-168
▁ques	-169
ga	-170
mento	-171
▁par	-172
zioni	-173
ini	-174
▁ci	-175
▁dei	-176
▁E	-177
ui	-178
tre	-179
enti	-180
▁u	-181
▁sono	-182
ssi	-183
po	-184
tan	-185
▁te	-186
ff	-187
ine	-188
▁lo	-189
cc	-190
▁più	-191
ali	-192
ente	-193
▁do	-194
tori	-195
tri	-196
▁gi	-197
ino	-198
▁dell	-199
▁es	-200
▁pa	-201
enza	-202
▁ra	-203
ru	-204
▁V	-205
▁alla	-206
con	-207
▁anche	-208
▁sul	-209
ani	-210
▁mi	-211
go	-212
pa	-213
▁La	-214
hi	-215
ul	-216
▁mo	-217
mb	-218
sti	-219
▁delle	-220
▁ne	-221
▁pos	-222
▁come	-223
chi	-224
▁me	-225
me	-226
▁“	-227
▁Il	-228
sta	-229
pi	-230
anno	-231
tura	-232
lu	-233
..	-234
▁cos	-235
ale	-236
du	-237
▁20	-238
ero	-239
zz	-240
ando	-241
gg	-242
etto	-243
▁pri	-244
▁ad	-245
rio	-246
▁U	-247
bili	-248
▁co	-249
are	-250
uto	-251
▁for	-252
▁sc	-253
▁pu	-254
ven	-255
▁In	-256
▁li	-257
gu	-258
▁gli	-259
ria	-260
tare	-261
▁all	-262
bile	-263
ggio	-264
▁imp	-265
▁comp	-266
cu	-267
tali	-268
sso	-269
etti	-270
▁ar	-271
▁av	-272
▁O	-273
▁du	-274
▁quel	-275
glio	-276
▁no	-277
▁prop	-278
ene	-279
▁fi	-280
00	-281
cco	-282
iamo	-283
zia	-284
▁inter	-285
tte	-286
▁app	-287
gna	-288
▁ed	-289
▁ess	-290
ziona	-291
▁questo	-292
dere	-293
▁Ma	-294
us	-295
tato	-296
▁ai	-297
sione	-298
uni	-299
▁gra	-300
per	-301
fica	-302
esso	-303
menti	-304
ele	-305
▁nella	-306
gni	-307
ne	-308
▁alle	-309
▁ti	-310
▁3	-311
▁-	-312
ing	-313
▁Q	-314
▁sa	-315
▁chi	-316
gno	-317
▁"	-318
for	-319
▁mol	-320
▁col	-321
tico	-322
▁essere	-323
▁ris	-324
zio	-325
▁nos	-326
▁ta	-327
▁ter	-328
▁H	-329
▁cor	-330
▁nuo	-331
▁201	-332
mpo	-333
glia	-334
gra	-335
tel	-336
ffi	-337
▁semp	-338
etta	-339
▁pres	-340
▁–	-341
anti	-342
ana	-343
▁va	-344
▁gior	-345
▁tro	-346
▁Qu	-347
ren	-348
▁to	-349
▁parte	-350
cor	-351
▁pers	-352
cca	-353
▁cui	-354
▁Ca	-355
lare	-356
ze	-357
res	-358
▁gio	-359
cio	-360
▁Per	-361
▁at	-362
bo	-363
▁vol	-364
um	-365
▁suo	-366
▁ba	-367
pe	-368
▁hanno	-369
dia	-370
der	-371
▁lavo	-372
▁Le	-373
uro	-374
cato	-375
essi	-376
ron	-377
ese	-378
esti	-379
zzo	-380
▁Con	-381
▁ver	-382
▁ser	-383
▁dis	-384
▁pas	-385
▁dalla	-386
▁tutti	-387
ba	-388
tru	-389
il	-390
endo	-391
uti	-392
▁bi	-393
ge	-394
ur	-395
▁Com	-396
▁na	-397
▁anni	-398
▁por	-399
▁vo	-400
▁degli	-401
mma	-402
bbli	-403
tore	-404
▁due	-405
▁prima	-406
▁disp	-407
tica	-408
ante	-409
▁ven	-410
▁Se	-411
▁Al	-412
enta	-413
vol	-414
bbe	-415
▁solo	-416
▁4	-417
ss	-418
▁Pa	-419
ena	-420
ppo	-421
▁An	-422
▁acc	-423
tiva	-424
lan	-425
▁possi	-426
).	-427
ello	-428
fa	-429
▁risp	-430
▁stato	-431
▁5	-432
▁Si	-433
dio	-434
sid	-435
▁sempre	-436
▁questa	-437
),	-438
mbi	-439
tivo	-440
ché	-441
▁molto	-442
anto	-443
▁cre	-444
ste	-445
▁or	-446
▁gran	-447
▁loro	-448
▁ve	-449
gia	-450
ura	-451
▁mon	-452
cqu	-453
ess	-454
pera	-455
▁men	-456
▁W	-457
▁cer	-458
tante	-459
▁qual	-460
man	-461
▁pun	-462
rà	-463
▁sua	-464
rin	-465
▁gen	-466
▁sia	-467
elli	-468
bilità	-469
cora	-470
▁esp	-471
▁Mi	-472
▁abb	-473
▁spe	-474
ella	-475
ie	-476
▁dire	-477
gn	-478
▁en	-479
▁uno	-480
▁ro	-481
lizza	-482
essa	-483
▁Re	-484
▁tutto	-485
arà	-486
▁via	-487
forma	-488
ad	-489
ento	-490
at	-491
ffer	-492
tin	-493
▁ste	-494
cch	-495
mm	-496
cer	-497
esta	-498
▁tempo	-499
▁servi	-500
▁ho	-501
▁cons	-502
▁può	-503
▁quali	-504
▁sulla	-505
▁man	-506
▁indi	-507
ette	-508
”.	-509
▁ga	-510
▁uti	-511
▁w	-512
▁pubbli	-513
▁diver	-514
zie	-515
une	-516
▁ch	-517
ltre	-518
▁ogni	-519
▁dopo	-520
vità	-521
▁sca	-522
tt	-523
▁persona	-524
indi	-525
▁au	-526
▁stra	-527
ttura	-528
▁fare	-529
▁car	-530
▁bas	-531
talia	-532
▁Di	-533
mpi	-534
inis	-535
tale	-536
...	-537
uta	-538
zzi	-539
▁secon	-540
▁conf	-541
▁nei	-542
sc	-543
ttu	-544
via	-545
rie	-546
▁senza	-547
▁J	-548
osa	-549
que	-550
ccia	-551
età	-552
▁pia	-553
tter	-554
zionale	-555
▁poi	-556
▁contro	-557
ggia	-558
▁dall	-559
ggiun	-560
!!	-561
▁ancora	-562
ck	-563
▁cen	-564
zo	-565
▁sarà	-566
ranno	-567
▁fo	-568
▁far	-569
vare	-570
gui	-571
▁19	-572
▁pen	-573
tati	-574
▁fatto	-575
▁alc	-576
sto	-577
▁vis	-578
rare	-579
▁K	-580
cen	-581
▁sos	-582
▁can	-583
▁Gi	-584
osi	-585
▁atti	-586
anza	-587
pri	-588
ico	-589
▁forma	-590
▁os	-591
▁lib	-592
▁Un	-593
▁dove	-594
▁Non	-595
▁nell	-596
mer	-597
alizza	-598
▁prodo	-599
▁bu	-600
▁6	-601
▁prog	-602
inter	-603
olo	-604
▁proprio	-605
▁sotto	-606
▁stu	-607
▁mar	-608
clu	-609
▁parti	-610
▁Mar	-611
▁altri	-612
▁Pro	-613
▁modo	-614
rante	-615
▁quello	-616
amo	-617
▁comple	-618
ed	-619
▁vita	-620
▁dov	-621
▁prof	-622
vano	-623
sse	-624
st	-625
▁regi	-626
▁arri	-627
▁euro	-628
▁cir	-629
▁già	-630
razione	-631
▁miglio	-632
orto	-633
lità	-634
tamente	-635
mina	-636
ssa	-637
▁chia	-638
care	-639
▁nelle	-640
pra	-641
▁quando	-642
cchi	-643
vere	-644
elle	-645
▁così	-646
almente	-647
tanti	-648
▁tec	-649
▁stori	-650
▁lavoro	-651
ord	-652
▁sin	-653
▁Ri	-654
▁perché	-655
▁stru	-656
▁tratta	-657
anta	-658
tivi	-659
ho	-660
▁dom	-661
▁ini	-662
onda	-663
▁quanto	-664
esto	-665
tua	-666
▁tre	-667
pre	-668
20	-669
▁itali	-670
▁sco	-671
▁era	-672
enze	-673
▁casa	-674
lla	-675
▁sal	-676
▁Na	-677
▁Vi	-678
▁grande	-679
▁questi	-680
ciale	-681
tive	-682
ett	-683
▁Ci	-684
▁Da	-685
ble	-686
assi	-687
line	-688
▁mondo	-689
elo	-690
rato	-691
zien	-692
ostra	-693
▁fino	-694
asi	-695
▁ul	-696
▁Lo	-697
▁Po	-698
▁cal	-699
▁impor	-700
ure	-701
▁num	-702
▁poss	-703
▁nostro	-704
▁rapp	-705
tiche	-706
oma	-707
▁giu	-708
▁Sa	-709
osta	-710
lmente	-711
▁acqu	-712
▁ten	-713
ort	-714
▁stata	-715
ggior	-716
▁10	-717
▁el	-718
▁7	-719
▁spa	-720
▁primo	-721
com	-722
▁sopra	-723
stra	-724
▁fu	-725
▁sicu	-726
ane	-727
▁sol	-728
gono	-729
▁tuo	-730
usi	-731
tor	-732
▁dai	-733
▁fun	-734
▁tras	-735
denti	-736
ulti	-737
▁cli	-738
▁quindi	-739
▁mom	-740
▁nuovo	-741
▁tutte	-742
vato	-743
▁oltre	-744
eni	-745
sioni	-746
tui	-747
▁sti	-748
▁gu	-749
unque	-750
▁Do	-751
▁auto	-752
tina	-753
tazione	-754
ttà	-755
▁z	-756
▁Pi	-757
mbre	-758
gani	-759
▁sen	-760
▁volta	-761
gina	-762
▁legg	-763
▁on	-764
fatti	-765
▁bene	-766
▁dalle	-767
▁ore	-768
esa	-769
▁lu	-770
▁fin	-771
▁inf	-772
▁informa	-773
▁possibile	-774
▁ave	-775
colo	-776
▁caso	-777
cita	-778
▁rip	-779
▁condi	-780
tenza	-781
▁De	-782
ghi	-783
tanto	-784
ok	-785
▁colo	-786
▁partico	-787
▁quella	-788
▁deci	-789
ell	-790
▁nec	-791
tici	-792
▁siste	-793
▁aff	-794
tano	-795
▁«	-796
gione	-797
”,	-798
▁persone	-799
▁comuni	-800
▁potre	-801
▁mili	-802
▁picco	-803
▁oggi	-804
rsi	-805
▁passa	-806
ard	-807
▁lun	-808
▁Fa	-809
▁Mo	-810
mpa	-811
▁scri	-812
col	-813
oso	-814
▁fra	-815
▁consi	-816
▁capi	-817
osto	-818
▁ora	-819
▁Co	-820
feri	-821
▁San	-822
▁ese	-823
▁giorno	-824
▁eff	-825
chia	-826
▁risul	-827
▁ricer	-828
am	-829
▁ben	-830
▁poli	-831
cere	-832
▁giorni	-833
edi	-834
▁off	-835
▁realizza	-836
▁attra	-837
▁foto	-838
vin	-839
▁produ	-840
▁fami	-841
▁8	-842
ome	-843
▁des	-844
▁Italia	-845
it	-846
ber	-847
▁maggio	-848
▁allo	-849
▁conos	-850
▁mani	-851
torio	-852
tten	-853
▁mer	-854
dare	-855
tion	-856
ture	-857
▁richi	-858
etro	-859
cip	-860
▁contin	-861
cina	-862
▁quale	-863
▁mis	-864
▁visi	-865
lazione	-866
▁Li	-867
▁tor	-868
ON	-869
usa	-870
▁cla	-871
erie	-872
▁città	-873
▁200	-874
dente	-875
lica	-876
omo	-877
ssione	-878
▁Ar	-879
uno	-880
▁dello	-881
▁possono	-882
pen	-883
▁fine	-884
▁sito	-885
▁cosa	-886
▁opera	-887
▁secondo	-888
lia	-889
▁So	-890
glie	-891
▁9	-892
and	-893
▁cu	-894
▁momento	-895
▁proble	-896
▁min	-897
▁esi	-898
cci	-899
trib	-900
▁uni	-901
▁Pre	-902
una	-903
verso	-904
▁k	-905
▁Ra	-906
sie	-907
llo	-908
lato	-909
▁giorna	-910
tata	-911
ER	-912
erà	-913
cre	-914
qui	-915
ssimo	-916
ha	-917
▁altre	-918
▁nuova	-919
ffici	-920
▁cas	-921
▁assi	-922
▁posi	-923
▁colle	-924
▁sempli	-925
rezza	-926
use	-927
tr	-928
lari	-929
vece	-930
▁cara	-931
▁perm	-932
▁succ	-933
arti	-934
cipa	-935
▁ele	-936
▁utilizza	-937
mato	-938
▁nostra	-939
cce	-940
▁bamb	-941
vilu	-942
lano	-943
▁loca	-944
omi	-945
▁viene	-946
▁sui	-947
▁segui	-948
▁go	-949
ganizza	-950
▁Nel	-951
▁mentre	-952
▁las	-953
cità	-954
▁stesso	-955
teria	-956
gine	-957
tando	-958
▁infatti	-959
▁contra	-960
▁disponi	-961
▁agli	-962
vero	-963
▁mai	-964
val	-965
guar	-966
▁numero	-967
▁ricerca	-968
▁don	-969
▁15	-970
▁scel	-971
▁Una	-972
▁grazie	-973
tanza	-974
inistra	-975
▁diven	-976
▁fil	-977
imp	-978
vento	-979
dì	-980
▁stati	-981
gio	-982
▁Tu	-983
▁invece	-984
dica	-985
▁ren	-986
▁progra	-987
dre	-988
▁super	-989
▁tecni	-990
▁ricor	-991
▁cri	-992
▁pe	-993
▁stan	-994
▁sistema	-995
gre	-996
▁scor	-997
▁abbiamo	-998
▁centro	-999
TA	-1000
▁circa	-1001
▁Su	-1002
▁fe	-1003
▁servizio	-1004
▁prin	-1005
▁ulti	-1006
▁noi	-1007
sidente	-1008
▁svilu	-1009
▁durante	-1010
".	-1011
▁Ro	-1012
▁No	-1013
venti	-1014
▁Z	-1015
▁0	-1016
ttore	-1017
gen	-1018
▁Mon	-1019
all	-1020
gh	-1021
▁giov	-1022
▁Tra	-1023
▁ori	-1024
smo	-1025
cri	-1026
▁punto	-1027
ei	-1028
▁prodotti	-1029
dita	-1030
mar	-1031
onale	-1032
zienda	-1033
▁avere	-1034
orta	-1035
▁liv	-1036
▁.	-1037
labo	-1038
▁Ho	-1039
▁rispetto	-1040
vole	-1041
ppa	-1042
ranti	-1043
fer	-1044
logi	-1045
ser	-1046
mpio	-1047
rica	-1048
▁incon	-1049
▁asp	-1050
▁Roma	-1051
mon	-1052
▁Fran	-1053
▁Ba	-1054
▁conta	-1055
fo	-1056
▁disposi	-1057
▁setti	-1058
▁fre	-1059
▁conten	-1060
ciali	-1061
▁terri	-1062
▁suoi	-1063
vvero	-1064
ute	-1065
▁and	-1066
ut	-1067
▁natura	-1068
▁tele	-1069
▁presso	-1070
▁soli	-1071
▁È	-1072
▁anno	-1073
▁alcuni	-1074
esi	-1075
eb	-1076
▁aver	-1077
▁sulle	-1078
▁dati	-1079
corso	-1080
▁tutta	-1081
▁attraverso	-1082
▁meno	-1083
▁18	-1084
▁medi	-1085
▁attività	-1086
dono	-1087
▁qualche	-1088
ea	-1089
▁qualità	-1090
▁rappres	-1091
▁gesti	-1092
sieme	-1093
eno	-1094
▁base	-1095
▁vin	-1096
lio	-1097
ccio	-1098
▁r	-1099
▁aggiun	-1100
iore	-1101
gere	-1102
▁Fi	-1103
uoi	-1104
esse	-1105
▁continu	-1106
▁er	-1107
rebbe	-1108
▁però	-1109
eli	-1110
ultura	-1111
▁progetto	-1112
ttutto	-1113
▁ambi	-1114
este	-1115
▁,	-1116
▁qui	-1117
▁altro	-1118
▁asso	-1119
▁raga	-1120
▁edi	-1121
▁bo	-1122
▁mod	-1123
▁opp	-1124
▁musi	-1125
ddi	-1126
cietà	-1127
▁crea	-1128
app	-1129
▁gru	-1130
▁necessa	-1131
▁storia	-1132
▁presenta	-1133
▁scon	-1134
anda	-1135
bito	-1136
tari	-1137
▁porta	-1138
▁conse	-1139
▁corso	-1140
lore	-1141
▁servizi	-1142
▁genera	-1143
gliere	-1144
ccu	-1145
▁professi	-1146
▁rela	-1147
▁tipo	-1148
▁12	-1149
stica	-1150
anni	-1151
▁compa	-1152
mbra	-1153
▁us	-1154
▁ide	-1155
dini	-1156
▁biso	-1157
▁Par	-1158
▁nostri	-1159
▁fas	-1160
esco	-1161
etri	-1162
uzione	-1163
▁Come	-1164
▁programma	-1165
▁soprattutto	-1166
▁Lu	-1167
quad	-1168
▁evi	-1169
▁cres	-1170
mbia	-1171
▁diri	-1172
cro	-1173
▁fer	-1174
▁rin	-1175
▁trova	-1176
▁sare	-1177
▁raggiun	-1178
▁Car	-1179
▁pes	-1180
deo	-1181
bre	-1182
▁cam	-1183
▁forni	-1184
▁posto	-1185
▁val	-1186
▁organizza	-1187
poli	-1188
usto	-1189
▁dice	-1190
▁faci	-1191
▁informazioni	-1192
▁particolare	-1193
▁racc	-1194
versi	-1195
▁gui	-1196
▁pren	-1197
zionali	-1198
▁fon	-1199
▁saranno	-1200
▁molti	-1201
▁svol	-1202
▁Chi	-1203
▁entra	-1204
▁Ne	-1205
▁Questo	-1206
▁insieme	-1207
▁arti	-1208
▁classi	-1209
gato	-1210
sare	-1211
mana	-1212
ose	-1213
fici	-1214
▁situa	-1215
bbero	-1216
▁Cas	-1217
sidera	-1218
AN	-1219
▁citta	-1220
▁ag	-1221
▁the	-1222
▁otti	-1223
000	-1224
ty	-1225
EN	-1226
▁Ga	-1227
▁atten	-1228
▁previ	-1229
arsi	-1230
cono	-1231
cente	-1232
▁film	-1233
▁otten	-1234
ghe	-1235
▁speci	-1236
▁Gra	-1237
▁ass	-1238
ssima	-1239
meno	-1240
▁semplice	-1241
▁fuo	-1242
▁serie	-1243
gue	-1244
uso	-1245
▁materia	-1246
orre	-1247
tino	-1248
fini	-1249
▁mio	-1250
▁pra	-1251
▁tua	-1252
rata	-1253
▁rice	-1254
▁deve	-1255
▁meglio	-1256
▁econ	-1257
tate	-1258
▁nor	-1259
cazione	-1260
▁poco	-1261
lar	-1262
».	-1263
tar	-1264
▁possibilità	-1265
spon	-1266
▁negli	-1267
▁line	-1268
▁inizia	-1269
▁op	-1270
▁Uni	-1271
▁appro	-1272
gua	-1273
ton	-1274
dato	-1275
ciato	-1276
▁Ch	-1277
▁luo	-1278
▁ospi	-1279
▁prote	-1280
tente	-1281
▁tito	-1282
ettore	-1283
▁rego	-1284
▁queste	-1285
30	-1286
▁cura	-1287
TI	-1288
▁perio	-1289
▁ins	-1290
tenti	-1291
▁importante	-1292
ettere	-1293
▁ann	-1294
▁fina	-1295
cchia	-1296
veni	-1297
rico	-1298
▁collabo	-1299
▁sor	-1300
▁offer	-1301
▁ami	-1302
▁verso	-1303
▁caratter	-1304
▁Bi	-1305
▁term	-1306
ll	-1307
▁siamo	-1308
▁sull	-1309
▁diversi	-1310
▁squad	-1311
▁qualc	-1312
car	-1313
▁perf	-1314
▁massi	-1315
isce	-1316
▁utili	-1317
▁aveva	-1318
uole	-1319
▁minuti	-1320
▁musica	-1321
▁30	-1322
cano	-1323
▁società	-1324
▁aper	-1325
▁costi	-1326
moni	-1327
eter	-1328
AR	-1329
▁confer	-1330
▁Gli	-1331
▁trovare	-1332
enzi	-1333
TO	-1334
▁Sp	-1335
▁livello	-1336
▁tri	-1337
▁vos	-1338
▁acquis	-1339
▁Ti	-1340
ass	-1341
▁For	-1342
▁tanto	-1343
▁online	-1344
mministra	-1345
▁gratui	-1346
▁senti	-1347
tuale	-1348
bbi	-1349
▁interna	-1350
chio	-1351
▁conte	-1352
▁bambini	-1353
▁potrebbe	-1354
▁mercato	-1355
cino	-1356
▁Sono	-1357
▁propri	-1358
oste	-1359
▁mesi	-1360
LI	-1361
interno	-1362
▁partecipa	-1363
▁nas	-1364
▁grandi	-1365
▁sue	-1366
ttamente	-1367
▁am	-1368
acqu	-1369
▁lega	-1370
stitu	-1371
▁abi	-1372
▁prodotto	-1373
mite	-1374
▁quo	-1375
▁cambia	-1376
▁16	-1377
▁Go	-1378
▁spie	-1379
erienza	-1380
logia	-1381
▁milioni	-1382
erra	-1383
▁fonda	-1384
▁spesso	-1385
▁grado	-1386
rre	-1387
unta	-1388
▁sembra	-1389
▁segna	-1390
sce	-1391
terà	-1392
▁Me	-1393
▁lin	-1394
▁mese	-1395
▁video	-1396
ggiorna	-1397
▁inten	-1398
lli	-1399
iori	-1400
▁cultura	-1401
▁imma	-1402
▁sera	-1403
▁Y	-1404
▁struttura	-1405
▁ban	-1406
▁mia	-1407
▁Cor	-1408
▁territorio	-1409
▁raccon	-1410
▁11	-1411
▁Milano	-1412
▁velo	-1413
▁veri	-1414
gare	-1415
vamente	-1416
stico	-1417
est	-1418
▁propria	-1419
▁lavora	-1420
cati	-1421
▁affi	-1422
terna	-1423
▁prezzo	-1424
▁esempio	-1425
trice	-1426
▁14	-1427
eria	-1428
posi	-1429
201	-1430
▁gia	-1431
gini	-1432
▁volte	-1433
In	-1434
▁sicurezza	-1435
th	-1436
▁of	-1437
▁ecc	-1438
▁mor	-1439
▁quasi	-1440
vesti	-1441
cin	-1442
▁Euro	-1443
bietti	-1444
denza	-1445
▁im	-1446
ner	-1447
fia	-1448
▁seconda	-1449
▁dim	-1450
sato	-1451
ciare	-1452
▁gruppo	-1453
▁vari	-1454
▁visto	-1455
▁settore	-1456
onato	-1457
▁impe	-1458
▁Val	-1459
▁problema	-1460
vono	-1461
▁Sal	-1462
▁ricon	-1463
▁as	-1464
stenza	-1465
▁racco	-1466
▁campo	-1467
▁paro	-1468
Italia	-1469
▁inte	-1470
▁quelli	-1471
uola	-1472
▁vista	-1473
▁Ta	-1474
▁famiglia	-1475
tario	-1476
▁nuovi	-1477
▁Gio	-1478
▁prece	-1479
sia	-1480
▁campi	-1481
▁tradi	-1482
ke	-1483
▁Dopo	-1484
▁piano	-1485
▁pubblico	-1486
▁den	-1487
▁gioco	-1488
▁effet	-1489
rati	-1490
ede	-1491
ger	-1492
▁punti	-1493
▁riguar	-1494
▁sf	-1495
▁mostra	-1496
▁mas	-1497
▁ru	-1498
▁apri	-1499
▁17	-1500
verno	-1501
▁presidente	-1502
▁pron	-1503
▁davvero	-1504
vata	-1505
▁zona	-1506
tag	-1507
ossi	-1508
▁prepa	-1509
▁vedere	-1510
▁migliori	-1511
gle	-1512
▁poter	-1513
▁web	-1514
acc	-1515
▁24	-1516
roni	-1517
▁inol	-1518
▁subito	-1519
▁rius	-1520
▁Ha	-1521
▁Bo	-1522
▁detto	-1523
cchio	-1524
▁cap	-1525
▁strada	-1526
▁corre	-1527
ft	-1528
▁25	-1529
▁media	-1530
▁ciò	-1531
▁X	-1532
ccasione	-1533
▁proc	-1534
▁Te	-1535
▁lui	-1536
▁defini	-1537
rire	-1538
▁nuove	-1539
▁diverse	-1540
▁sce	-1541
atti	-1542
▁causa	-1543
▁13	-1544
anzia	-1545
▁commer	-1546
▁Du	-1547
tero	-1548
gnifica	-1549
chè	-1550
▁capa	-1551
▁quelle	-1552
▁io	-1553
▁sci	-1554
▁real	-1555
las	-1556
▁confron	-1557
▁noti	-1558
ordina	-1559
▁Ad	-1560
▁tecno	-1561
▁differ	-1562
opera	-1563
ccupa	-1564
▁bra	-1565
▁garanti	-1566
fiche	-1567
▁impre	-1568
▁personale	-1569
▁desi	-1570
▁supp	-1571
cos	-1572
▁detta	-1573
au	-1574
cendo	-1575
nova	-1576
▁periodo	-1577
-1	-1578
▁bian	-1579
coli	-1580
▁dare	-1581
mia	-1582
▁tanti	-1583
ly	-1584
zze	-1585
fico	-1586
▁favo	-1587
altro	-1588
▁En	-1589
ulla	-1590
mane	-1591
scri	-1592
uma	-1593
▁stagione	-1594
▁contrib	-1595
OR	-1596
vvi	-1597
spi	-1598
▁uffi	-1599
▁cuo	-1600
dine	-1601
ES	-1602
▁sette	-1603
▁giovani	-1604
▁guida	-1605
▁anti	-1606
▁alcune	-1607
▁inoltre	-1608
▁scelta	-1609
be	-1610
▁stessa	-1611
mentare	-1612
▁ruo	-1613
▁lungo	-1614
▁To	-1615
▁seguito	-1616
lori	-1617
▁sosten	-1618
ssimi	-1619
net	-1620
dice	-1621
▁modi	-1622
▁ani	-1623
▁dichia	-1624
ramente	-1625
▁nome	-1626
▁Ver	-1627
ttori	-1628
telli	-1629
▁ness	-1630
par	-1631
▁settimana	-1632
▁mano	-1633
attro	-1634
bri	-1635
vati	-1636
IN	-1637
▁is	-1638
ambi	-1639
rea	-1640
▁fuori	-1641
▁blo	-1642
▁giornata	-1643
▁vengono	-1644
▁sarebbe	-1645
bbiamo	-1646
▁princip	-1647
ph	-1648
▁realtà	-1649
La	-1650
ppe	-1651
▁cin	-1652
dendo	-1653
media	-1654
esp	-1655
siasi	-1656
▁significa	-1657
lle	-1658
▁Ber	-1659
cher	-1660
tendo	-1661
▁legge	-1662
mai	-1663
▁rappresenta	-1664
▁popo	-1665
▁registra	-1666
▁respon	-1667
",	-1668
▁fis	-1669
▁ex	-1670
tuali	-1671
cche	-1672
dro	-1673
▁fron	-1674
▁stre	-1675
stri	-1676
▁squadra	-1677
▁conclu	-1678
▁dato	-1679
▁bar	-1680
▁quest	-1681
▁studio	-1682
▁‘	-1683
▁mini	-1684
▁successo	-1685
versa	-1686
ordo	-1687
▁Cos	-1688
▁sei	-1689
IA	-1690
▁esa	-1691
▁viaggio	-1692
....	-1693
▁inizi	-1694
▁Anche	-1695
torno	-1696
▁forte	-1697
▁21	-1698
▁provin	-1699
▁ali	-1700
▁norma	-1701
▁Pu	-1702
▁vero	-1703
▁coin	-1704
▁qualsiasi	-1705
▁comunque	-1706
▁terra	-1707
▁considera	-1708
▁percorso	-1709
▁esclu	-1710
ann	-1711
▁trasp	-1712
cando	-1713
▁sap	-1714
▁Ser	-1715
turo	-1716
auto	-1717
▁aggiorna	-1718
▁comune	-1719
altra	-1720
▁presenti	-1721
pu	-1722
▁dif	-1723
▁artico	-1724
centi	-1725
▁europe	-1726
▁offre	-1727
▁presente	-1728
tere	-1729
▁avvi	-1730
▁Questa	-1731
ddis	-1732
▁responsa	-1733
▁moda	-1734
▁ada	-1735
▁tramite	-1736
▁tran	-1737
▁docu	-1738
▁primi	-1739
▁acco	-1740
▁Gu	-1741
▁sele	-1742
▁Cen	-1743
▁funziona	-1744
▁prom	-1745
alla	-1746
ork	-1747
EL	-1748
len	-1749
▁'	-1750
▁App	-1751
ato	-1752
orti	-1753
▁otto	-1754
ciazione	-1755
▁vera	-1756
▁ni	-1757
▁Pri	-1758
▁hai	-1759
▁italiano	-1760
eo	-1761
▁nazionale	-1762
ziende	-1763
▁rivol	-1764
▁pare	-1765
▁dagli	-1766
▁spazio	-1767
▁messa	-1768
▁dol	-1769
▁tema	-1770
▁Tor	-1771
▁presenza	-1772
tagoni	-1773
▁torna	-1774
asso	-1775
▁sviluppo	-1776
▁disposizione	-1777
lata	-1778
▁cose	-1779
▁fini	-1780
▁proce	-1781
▁nu	-1782
ppi	-1783
▁state	-1784
enica	-1785
▁telef	-1786
▁2018	-1787
▁preci	-1788
▁libro	-1789
book	-1790
▁riconos	-1791
▁spetta	-1792
▁successi	-1793
▁scorso	-1794
▁2017	-1795
bato	-1796
▁(1	-1797
▁riferi	-1798
.000	-1799
▁dedica	-1800
▁presen	-1801
▁produzione	-1802
▁troppo	-1803
ws	-1804
▁pote	-1805
▁compi	-1806
yo	-1807
bra	-1808
ggetti	-1809
▁atte	-1810
▁sinda	-1811
ari	-1812
▁senso	-1813
▁Bar	-1814
▁limi	-1815
▁origina	-1816
▁km	-1817
vera	-1818
▁invi	-1819
zzazione	-1820
dino	-1821
▁peso	-1822
▁bisogno	-1823
▁bre	-1824
▁partire	-1825
▁spor	-1826
▁migliore	-1827
ondi	-1828
▁Col	-1829
rono	-1830
▁problemi	-1831
uri	-1832
▁condivi	-1833
▁para	-1834
dina	-1835
▁almeno	-1836
▁donne	-1837
mio	-1838
mati	-1839
IC	-1840
▁fos	-1841
▁ultimi	-1842
▁quattro	-1843
▁rif	-1844
▁luogo	-1845
ppia	-1846
ts	-1847
▁pla	-1848
erci	-1849
▁clienti	-1850
voli	-1851
ultimo	-1852
▁proprie	-1853
▁2016	-1854
cata	-1855
▁deter	-1856
▁applica	-1857
▁100	-1858
ficazione	-1859
▁importanti	-1860
▁coinvol	-1861
min	-1862
▁gara	-1863
Il	-1864
tello	-1865
▁Bu	-1866
▁riso	-1867
▁pol	-1868
50	-1869
missione	-1870
▁rete	-1871
▁annun	-1872
▁data	-1873
ware	-1874
ttare	-1875
tezza	-1876
▁fotogra	-1877
▁elet	-1878
den	-1879
▁protagoni	-1880
▁necessario	-1881
genza	-1882
bilmente	-1883
teri	-1884
▁50	-1885
▁oppure	-1886
more	-1887
mare	-1888
dra	-1889
▁diff	-1890
▁Fo	-1891
diamo	-1892
▁stile	-1893
cenza	-1894
biettivo	-1895
▁deli	-1896
▁pelle	-1897
▁avuto	-1898
▁preve	-1899
▁disponibili	-1900
▁pagina	-1901
▁raccol	-1902
unale	-1903
▁aziende	-1904
▁&	-1905
alle	-1906
▁condizioni	-1907
▁potra	-1908
▁gestione	-1909
▁Che	-1910
▁pochi	-1911
▁vuole	-1912
▁prezzi	-1913
▁diffici	-1914
▁Comune	-1915
▁vendita	-1916
azienda	-1917
▁risultati	-1918
can	-1919
▁corpo	-1920
IS	-1921
▁qualcosa	-1922
AL	-1923
▁ridu	-1924
ide	-1925
▁sfi	-1926
▁situazione	-1927
bu	-1928
▁resta	-1929
▁finale	-1930
▁ener	-1931
ompa	-1932
▁continua	-1933
▁meri	-1934
2,	-1935
▁singo	-1936
▁The	-1937
essione	-1938
cura	-1939
▁collaborazione	-1940
tego	-1941
▁manif	-1942
arta	-1943
zzare	-1944
▁Franc	-1945
▁cucina	-1946
▁finanzia	-1947
▁lan	-1948
▁Inter	-1949
ir	-1950
▁posizione	-1951
▁nove	-1952
▁testa	-1953
▁giugno	-1954
tture	-1955
ficare	-1956
mica	-1957
▁riusci	-1958
▁fru	-1959
uire	-1960
▁scuola	-1961
▁andare	-1962
▁paga	-1963
▁donna	-1964
▁Man	-1965
▁compren	-1966
▁dia	-1967
▁piu	-1968
vanti	-1969
▁formazione	-1970
▁erano	-1971
▁futuro	-1972
mano	-1973
▁valore	-1974
▁linea	-1975
▁economi	-1976
▁investi	-1977
lina	-1978
lati	-1979
tidi	-1980
??	-1981
▁titolo	-1982
▁vanta	-1983
▁integra	-1984
▁Ale	-1985
van	-1986
▁Grazie	-1987
▁ottenere	-1988
segna	-1989
▁amici	-1990
naio	-1991
▁preno	-1992
omini	-1993
▁Cer	-1994
TE	-1995
▁molte	-1996
▁letto	-1997
▁visita	-1998
mata	-1999
▁inclu	-2000
▁indivi	-2001
▁:	-2002
Uni	-2003
▁cittadini	-2004
RA	-2005
▁direttamente	-2006
gente	-2007
▁turi	-2008
▁puoi	-2009
▁Sta	-2010
!!!	-2011
▁affron	-2012
▁siano	-2013
▁azienda	-2014
▁soddis	-2015
▁termine	-2016
▁tipi	-2017
▁piace	-2018
▁matt	-2019
▁inseri	-2020
▁fisi	-2021
▁trattamento	-2022
▁settembre	-2023
▁/	-2024
bbra	-2025
cal	-2026
▁nego	-2027
▁consul	-2028
▁mezzo	-2029
truzione	-2030
▁dimostra	-2031
▁pratica	-2032
▁buona	-2033
pia	-2034
telle	-2035
▁creare	-2036
▁Nella	-2037
▁ormai	-2038
▁parole	-2039
▁file	-2040
unto	-2041
cra	-2042
▁tempi	-2043
cale	-2044
▁caratteris	-2045
titu	-2046
▁temp	-2047
▁disponibile	-2048
ardi	-2049
▁utenti	-2050
onali	-2051
omma	-2052
rito	-2053
dustri	-2054
RE	-2055
▁lascia	-2056
▁permette	-2057
▁destina	-2058
▁Ino	-2059
▁maggior	-2060
versità	-2061
▁riguarda	-2062
▁anima	-2063
▁centra	-2064
▁hotel	-2065
▁cio	-2066
▁2019	-2067
▁effetti	-2068
▁tale	-2069
unità	-2070
mu	-2071
▁ragazzi	-2072
▁marzo	-2073
ee	-2074
ora	-2075
wn	-2076
▁Giu	-2077
▁gioca	-2078
▁Inoltre	-2079
▁2015	-2080
▁autori	-2081
▁Napoli	-2082
▁vostro	-2083
simo	-2084
▁1.	-2085
▁forse	-2086
▁fronte	-2087
▁san	-2088
cial	-2089
▁fanno	-2090
ostante	-2091
id	-2092
gne	-2093
rando	-2094
orse	-2095
▁versione	-2096
eti	-2097
▁risultato	-2098
▁insta	-2099
▁Consi	-2100
▁spi	-2101
ggiare	-2102
▁presta	-2103
▁voi	-2104
▁mare	-2105
▁perchè	-2106
OS	-2107
azione	-2108
▁dedi	-2109
▁ur	-2110
▁Ste	-2111
2.	-2112
▁dipen	-2113
▁cro	-2114
▁cuore	-2115
▁italiana	-2116
▁controllo	-2117
pro	-2118
▁digi	-2119
▁luce	-2120
▁acca	-2121
▁stampa	-2122
▁nostre	-2123
10	-2124
▁ce	-2125
▁necessi	-2126
menta	-2127
▁arre	-2128
▁accesso	-2129
ultima	-2130
▁pari	-2131
ww	-2132
gan	-2133
▁DI	-2134
▁alta	-2135
▁richiesta	-2136
▁macch	-2137
ki	-2138
dici	-2139
▁generale	-2140
entale	-2141
up	-2142
▁interess	-2143
▁pur	-2144
▁forza	-2145
arte	-2146
▁Ter	-2147
toni	-2148
▁prossimo	-2149
mentale	-2150
vate	-2151
▁dicembre	-2152
▁Dis	-2153
lando	-2154
▁sede	-2155
ttere	-2156
▁offerte	-2157
▁catego	-2158
ttan	-2159
▁assolu	-2160
▁notte	-2161
▁sto	-2162
acqua	-2163
▁rica	-2164
▁buon	-2165
rale	-2166
▁piccolo	-2167
▁disa	-2168
tenzione	-2169
▁casi	-2170
late	-2171
duto	-2172
▁ottobre	-2173
▁moder	-2174
▁gennaio	-2175
▁affer	-2176
dito	-2177
▁Secon	-2178
▁italiani	-2179
▁valori	-2180
▁ospiti	-2181
▁possa	-2182
omia	-2183
ficato	-2184
▁belle	-2185
OM	-2186
umi	-2187
▁carta	-2188
▁crescita	-2189
1,	-2190
▁esperienza	-2191
▁lavori	-2192
▁Tri	-2193
▁puli	-2194
▁amministra	-2195
▁199	-2196
ume	-2197
▁manten	-2198
▁23	-2199
▁ado	-2200
▁Or	-2201
▁luglio	-2202
▁Quando	-2203
▁parla	-2204
taria	-2205
▁appena	-2206
▁colore	-2207
▁design	-2208
tis	-2209
▁locali	-2210
ista	-2211
▁compet	-2212
▁politica	-2213
▁ruolo	-2214
vimento	-2215
▁Gran	-2216
▁impa	-2217
osti	-2218
▁frequ	-2219
▁Ni	-2220
ffica	-2221
▁avven	-2222
▁processo	-2223
mbo	-2224
tana	-2225
ree	-2226
▁fir	-2227
▁costo	-2228
zzato	-2229
des	-2230
▁fran	-2231
gano	-2232
utare	-2233
▁misura	-2234
▁voglia	-2235
mail	-2236
▁fase	-2237
sola	-2238
▁entro	-2239
area	-2240
▁modello	-2241
▁soluzione	-2242
▁giornali	-2243
▁dimen	-2244
mmi	-2245
logie	-2246
toria	-2247
mmo	-2248
▁be	-2249
▁accompa	-2250
▁scegliere	-2251
samente	-2252
▁promo	-2253
gge	-2254
ssioni	-2255
▁paese	-2256
▁rega	-2257
▁acqua	-2258
zzando	-2259
mentazione	-2260
▁coper	-2261
▁sensi	-2262
▁quanti	-2263
▁cine	-2264
▁totale	-2265
ellu	-2266
▁internazionale	-2267
OL	-2268
gazione	-2269
▁sociale	-2270
▁costr	-2271
▁eventi	-2272
▁die	-2273
ggetto	-2274
▁guar	-2275
▁partita	-2276
coltà	-2277
▁segu	-2278
▁facile	-2279
od	-2280
illa	-2281
▁colori	-2282
icolo	-2283
▁camere	-2284
data	-2285
mart	-2286
▁proba	-2287
▁genere	-2288
▁passato	-2289
▁deciso	-2290
gico	-2291
▁iscri	-2292
bbraio	-2293
▁immagini	-2294
▁interessa	-2295
genze	-2296
▁scar	-2297
▁€	-2298
▁resi	-2299
▁esclusi	-2300
▁certo	-2301
vvia	-2302
▁conto	-2303
▁rapporto	-2304
cle	-2305
AS	-2306
▁IN	-2307
▁nulla	-2308
▁novembre	-2309
▁mettere	-2310
prire	-2311
▁specia	-2312
▁pensi	-2313
▁lon	-2314
▁dovrebbe	-2315
lie	-2316
su	-2317
▁quad	-2318
vio	-2319
▁scena	-2320
▁vicino	-2321
▁rapi	-2322
▁nello	-2323
gica	-2324
▁illu	-2325
ry	-2326
rere	-2327
▁2014	-2328
▁capo	-2329
▁maggiore	-2330
▁Gia	-2331
rlo	-2332
▁risto	-2333
▁riferimento	-2334
▁quotidi	-2335
▁certi	-2336
▁set	-2337
tal	-2338
▁prova	-2339
▁sani	-2340
bar	-2341
▁domenica	-2342
▁belli	-2343
tenzi	-2344
▁provincia	-2345
▁aprile	-2346
▁22	-2347
ka	-2348
volo	-2349
etter	-2350
ZI	-2351
trimoni	-2352
▁civi	-2353
▁capacità	-2354
▁piccoli	-2355
▁emer	-2356
▁metri	-2357
uito	-2358
▁bella	-2359
▁rischio	-2360
▁individu	-2361
▁fanta	-2362
▁Giov	-2363
isto	-2364
uomo	-2365
▁capire	-2366
son	-2367
/201	-2368
▁manifesta	-2369
▁volon	-2370
▁j	-2371
▁manu	-2372
gom	-2373
▁istitu	-2374
▁camera	-2375
▁occasione	-2376
ker	-2377
▁verrà	-2378
▁ieri	-2379
gnato	-2380
canza	-2381
▁alto	-2382
ssime	-2383
▁rappresen	-2384
rate	-2385
▁devono	-2386
mos	-2387
▁effettua	-2388
▁locale	-2389
▁pubblica	-2390
▁fosse	-2391
▁40	-2392
▁emo	-2393
ex	-2394
▁collega	-2395
omina	-2396
stiche	-2397
uzioni	-2398
▁testi	-2399
▁dunque	-2400
▁allora	-2401
▁faccia	-2402
metri	-2403
rano	-2404
▁diritto	-2405
▁professioni	-2406
▁massimo	-2407
▁salute	-2408
tazioni	-2409
dida	-2410
diale	-2411
▁pazi	-2412
▁Can	-2413
fe	-2414
▁Ru	-2415
onna	-2416
sità	-2417
ori	-2418
ai	-2419
▁profi	-2420
monia	-2421
dotto	-2422
▁rile	-2423
▁part	-2424
▁cele	-2425
▁diffi	-2426
▁sugg	-2427
▁utilizzare	-2428
▁Vene	-2429
▁principali	-2430
attività	-2431
▁governo	-2432
mbio	-2433
tur	-2434
▁pot	-2435
▁conc	-2436
▁giovane	-2437
ettare	-2438
▁rispon	-2439
▁varie	-2440
mico	-2441
▁progetti	-2442
▁Via	-2443
▁post	-2444
▁Hotel	-2445
▁conn	-2446
▁even	-2447
▁Regione	-2448
▁invia	-2449
▁male	-2450
▁recu	-2451
1.	-2452
rai	-2453
derà	-2454
▁elettri	-2455
▁Secondo	-2456
▁distrib	-2457
damento	-2458
ffa	-2459
▁strate	-2460
▁tuoi	-2461
▁letter	-2462
dos	-2463
▁sche	-2464
▁difficile	-2465
▁sicuramente	-2466
mani	-2467
▁Itali	-2468
▁consegu	-2469
▁+	-2470
ket	-2471
▁Francesco	-2472
lay	-2473
▁divi	-2474
▁usci	-2475
larmente	-2476
▁ade	-2477
3,	-2478
▁riconosci	-2479
▁scritto	-2480
▁uomini	-2481
▁febbraio	-2482
▁imprese	-2483
onati	-2484
▁tar	-2485
▁determina	-2486
▁prov	-2487
▁sapere	-2488
▁stabili	-2489
inizio	-2490
ris	-2491
ande	-2492
▁meto	-2493
▁rifle	-2494
▁aiuta	-2495
▁atta	-2496
▁atto	-2497
▁potrà	-2498
0,	-2499
▁esper	-2500
▁stanno	-2501
enso	-2502
▁maniera	-2503
▁bagno	-2504
lub	-2505
▁mal	-2506
▁edizione	-2507
▁Jo	-2508
vendo	-2509
▁esigenze	-2510
/0	-2511
enne	-2512
▁prendere	-2513
cipale	-2514
▁2.	-2515
logo	-2516
▁breve	-2517
▁veloce	-2518
rendi	-2519
vista	-2520
▁amp	-2521
▁rive	-2522
▁note	-2523
▁ries	-2524
▁raggiungere	-2525
lin	-2526
▁Dal	-2527
▁simi	-2528
▁innova	-2529
ct	-2530
vviamente	-2531
▁uomo	-2532
▁perfetta	-2533
remo	-2534
▁equi	-2535
vazione	-2536
ment	-2537
▁ritro	-2538
▁cinque	-2539
▁avrebbe	-2540
▁Vo	-2541
▁arriva	-2542
RO	-2543
zion	-2544
▁lei	-2545
▁attenzione	-2546
▁valuta	-2547
▁compre	-2548
dità	-2549
▁prevede	-2550
An	-2551
essore	-2552
▁maga	-2553
▁spazi	-2554
▁impi	-2555
▁vas	-2556
trimonio	-2557
▁avanti	-2558
▁All	-2559
latti	-2560
utili	-2561
lini	-2562
chite	-2563
▁comin	-2564
▁segre	-2565
dale	-2566
▁como	-2567
▁Ecco	-2568
▁Spa	-2569
RI	-2570
▁regionale	-2571
▁domanda	-2572
ader	-2573
▁sola	-2574
▁minis	-2575
▁occupa	-2576
▁28	-2577
▁prime	-2578
Ar	-2579
▁Poli	-2580
▁posti	-2581
▁anzi	-2582
▁Maria	-2583
▁portare	-2584
▁prose	-2585
▁tal	-2586
ftware	-2587
▁psi	-2588
▁perdere	-2589
▁bal	-2590
▁arrivare	-2591
tella	-2592
▁tecnico	-2593
▁lingua	-2594
LE	-2595
fort	-2596
cola	-2597
▁Cal	-2598
▁th	-2599
▁yo	-2600
5,	-2601
▁abbia	-2602
▁nota	-2603
omico	-2604
▁spia	-2605
▁Pia	-2606
ondo	-2607
▁leggere	-2608
▁sabato	-2609
▁rep	-2610
▁caratteri	-2611
▁unico	-2612
▁facendo	-2613
cana	-2614
pren	-2615
terno	-2616
land	-2617
genti	-2618
▁riser	-2619
ttoria	-2620
estival	-2621
▁meta	-2622
▁vostra	-2623
▁spiega	-2624
▁raff	-2625
▁completamente	-2626
▁storico	-2627
▁sale	-2628
▁26	-2629
▁Cri	-2630
▁fondo	-2631
▁cliente	-2632
▁effica	-2633
▁riman	-2634
edere	-2635
ogle	-2636
▁siti	-2637
▁naturale	-2638
▁associa	-2639
ay	-2640
ticolo	-2641
▁possiamo	-2642
▁precedente	-2643
▁piazza	-2644
▁asse	-2645
centra	-2646
idea	-2647
▁fatti	-2648
rus	-2649
▁ric	-2650
▁ingre	-2651
mere	-2652
anna	-2653
▁caratteristiche	-2654
tualmente	-2655
▁cm	-2656
rente	-2657
▁Cla	-2658
▁pass	-2659
▁vali	-2660
3.	-2661
mila	-2662
▁supera	-2663
▁modalità	-2664
▁Dom	-2665
ms	-2666
▁Ris	-2667
▁distanza	-2668
▁potenzi	-2669
tini	-2670
▁contempo	-2671
gri	-2672
11	-2673
▁speciali	-2674
▁27	-2675
▁Mol	-2676
▁stessi	-2677
▁regola	-2678
▁famiglie	-2679
esperienza	-2680
▁preferi	-2681
▁stand	-2682
nno	-2683
▁Ju	-2684
SA	-2685
▁tess	-2686
▁mattina	-2687
▁necessità	-2688
teriore	-2689
▁Mas	-2690
▁studenti	-2691
cebook	-2692
ps	-2693
▁opere	-2694
▁discu	-2695
▁strumenti	-2696
dri	-2697
phone	-2698
▁fal	-2699
▁ufficiale	-2700
▁bianco	-2701
▁sottoline	-2702
mera	-2703
▁figu	-2704
rno	-2705
itori	-2706
▁tante	-2707
▁Pe	-2708
etra	-2709
▁trov	-2710
▁difficoltà	-2711
resso	-2712
▁campa	-2713
eranno	-2714
▁bus	-2715
▁risposta	-2716
iscono	-2717
hotel	-2718
▁scoper	-2719
▁evitare	-2720
▁vede	-2721
▁immedia	-2722
▁sindaco	-2723
▁corri	-2724
▁Pal	-2725
ortunità	-2726
contro	-2727
▁Stato	-2728
▁conoscere	-2729
▁memo	-2730
▁agosto	-2731
▁comunicazione	-2732
▁identi	-2733
▁usa	-2734
▁pom	-2735
gioni	-2736
▁conser	-2737
▁libera	-2738
alisi	-2739
▁Consiglio	-2740
▁recen	-2741
colare	-2742
tiene	-2743
▁Ora	-2744
▁pal	-2745
▁Oggi	-2746
▁piedi	-2747
aren	-2748
▁Io	-2749
▁consigli	-2750
200	-2751
sivo	-2752
▁passo	-2753
▁imm	-2754
▁seguire	-2755
ire	-2756
▁indica	-2757
▁sho	-2758
▁potranno	-2759
cini	-2760
▁resid	-2761
,5	-2762
▁calcio	-2763
estra	-2764
rone	-2765
av	-2766
▁Gior	-2767
vid	-2768
▁Pala	-2769
▁x	-2770
ons	-2771
▁trasforma	-2772
▁bio	-2773
▁Ven	-2774
▁concor	-2775
▁davanti	-2776
▁vole	-2777
▁vivere	-2778
duzione	-2779
lici	-2780
berto	-2781
▁soluzioni	-2782
mobili	-2783
CI	-2784
▁mette	-2785
▁rispar	-2786
lib	-2787
▁pensa	-2788
▁cerca	-2789
▁rima	-2790
▁Stati	-2791
▁rendere	-2792
inte	-2793
▁giusto	-2794
▁aspetta	-2795
▁scher	-2796
▁dedicato	-2797
▁agg	-2798
▁cia	-2799
▁consenti	-2800
▁trovato	-2801
▁smart	-2802
erdì	-2803
▁bor	-2804
▁Th	-2805
▁colpi	-2806
▁libri	-2807
▁ero	-2808
ld	-2809
▁novità	-2810
▁Andre	-2811
mici	-2812
▁Pas	-2813
sci	-2814
▁inca	-2815
▁realizzazione	-2816
alità	-2817
AM	-2818
stici	-2819
▁supporto	-2820
ardo	-2821
▁sole	-2822
▁collo	-2823
creto	-2824
ccato	-2825
▁favore	-2826
▁cellu	-2827
▁tempera	-2828
llare	-2829
onte	-2830
▁recente	-2831
▁ascol	-2832
bbia	-2833
▁seleziona	-2834
▁proprietà	-2835
▁materiali	-2836
▁amm	-2837
▁parlare	-2838
▁giro	-2839
▁Gen	-2840
▁luoghi	-2841
▁percor	-2842
▁basso	-2843
▁materiale	-2844
▁ideale	-2845
▁Torino	-2846
▁Tro	-2847
▁occhi	-2848
cine	-2849
uter	-2850
▁voce	-2851
▁tea	-2852
▁effettu	-2853
meri	-2854
evento	-2855
▁messo	-2856
art	-2857
▁modelli	-2858
▁Centro	-2859
▁malatti	-2860
▁Paese	-2861
▁interventi	-2862
▁principale	-2863
ko	-2864
▁Marco	-2865
ast	-2866
▁Sco	-2867
▁cic	-2868
untamento	-2869
▁Paolo	-2870
▁software	-2871
glior	-2872
▁Tre	-2873
▁Be	-2874
eso	-2875
▁Mer	-2876
▁sper	-2877
▁Giovanni	-2878
▁chiu	-2879
▁mos	-2880
matica	-2881
▁incontra	-2882
9,	-2883
ttima	-2884
▁Casa	-2885
▁rifi	-2886
▁piatta	-2887
▁consente	-2888
▁Ex	-2889
▁garan	-2890
▁piccola	-2891
duta	-2892
wi	-2893
▁ricev	-2894
▁risorse	-2895
▁social	-2896
▁Ogni	-2897
▁estre	-2898
▁categoria	-2899
▁tecnica	-2900
▁...	-2901
anze	-2902
ang	-2903
▁Gre	-2904
▁comunità	-2905
▁contenuti	-2906
▁31	-2907
dersi	-2908
obiettivo	-2909
▁metà	-2910
80	-2911
▁sviluppa	-2912
▁motivo	-2913
▁proveni	-2914
▁tecnologia	-2915
▁alb	-2916
catore	-2917
▁portato	-2918
cali	-2919
▁concer	-2920
▁classifica	-2921
▁partner	-2922
ati	-2923
din	-2924
▁incontri	-2925
▁Prima	-2926
▁antici	-2927
▁Servi	-2928
▁batter	-2929
▁partecipazione	-2930
▁viol	-2931
gie	-2932
tone	-2933
▁Tutti	-2934
▁compon	-2935
▁infer	-2936
op	-2937
▁bigli	-2938
▁gol	-2939
gliato	-2940
▁comporta	-2941
II	-2942
▁Ger	-2943
▁descri	-2944
▁utile	-2945
arci	-2946
date	-2947
▁serata	-2948
▁elementi	-2949
▁ameri	-2950
60	-2951
rizzo	-2952
essere	-2953
erop	-2954
aria	-2955
▁terzo	-2956
bora	-2957
ettato	-2958
▁nonostante	-2959
lora	-2960
▁macchina	-2961
▁interpre	-2962
mone	-2963
▁schi	-2964
▁campionato	-2965
▁personali	-2966
▁morte	-2967
▁presti	-2968
▁studi	-2969
▁realizzato	-2970
▁speciale	-2971
▁pagamento	-2972
▁Cre	-2973
▁complessi	-2974
▁Stu	-2975
▁partecip	-2976
▁straordina	-2977
▁abbas	-2978
cilia	-2979
▁dettagli	-2980
▁ovvero	-2981
▁Europa	-2982
▁completa	-2983
▁convin	-2984
.,	-2985
▁costante	-2986
orso	-2987
dizione	-2988
▁legno	-2989
ky	-2990
ght	-2991
anche	-2992
▁Presidente	-2993
5.	-2994
isi	-2995
mbe	-2996
▁gri	-2997
▁micro	-2998
▁realizzare	-2999
cole	-3000
▁esegui	-3001
▁Win	-3002
fondi	-3003
ania	-3004
inda	-3005
rebbero	-3006
▁farma	-3007
ficio	-3008
▁soggior	-3009
ricare	-3010
▁intro	-3011
teriori	-3012
▁alterna	-3013
▁giochi	-3014
end	-3015
tera	-3016
▁Monte	-3017
▁osser	-3018
enda	-3019
zzano	-3020
9.	-3021
ambiente	-3022
ONE	-3023
▁incontro	-3024
arlo	-3025
ettroni	-3026
estre	-3027
▁pubblicato	-3028
▁acce	-3029
▁inci	-3030
▁crisi	-3031
▁conosci	-3032
dati	-3033
riamo	-3034
utilizzo	-3035
▁massima	-3036
▁eserci	-3037
razioni	-3038
▁dip	-3039
▁Fer	-3040
ranea	-3041
▁sport	-3042
▁strumento	-3043
lizzato	-3044
troppo	-3045
▁bambino	-3046
ambito	-3047
entra	-3048
▁pomeri	-3049
▁giar	-3050
▁Poi	-3051
presa	-3052
▁incre	-3053
umo	-3054
▁settimane	-3055
▁obbli	-3056
▁superiore	-3057
▁Ja	-3058
turi	-3059
▁feli	-3060
ent	-3061
▁team	-3062
!!!!	-3063
▁sm	-3064
▁soddisfa	-3065
▁resto	-3066
▁risol	-3067
lazioni	-3068
▁Google	-3069
▁gratuito	-3070
▁Dio	-3071
▁Fin	-3072
bina	-3073
▁testo	-3074
▁liber	-3075
▁Bor	-3076
▁rilas	-3077
▁multi	-3078
▁aree	-3079
ccare	-3080
und	-3081
▁pericolo	-3082
▁dubbi	-3083
▁bri	-3084
▁tecniche	-3085
tesi	-3086
udi	-3087
gante	-3088
ssand	-3089
rand	-3090
▁capelli	-3091
▁fondamentale	-3092
▁eli	-3093
▁lunga	-3094
gnia	-3095
by	-3096
cy	-3097
▁Ros	-3098
Euro	-3099
arto	-3100
▁questione	-3101
▁scom	-3102
▁niente	-3103
unica	-3104
▁Bra	-3105
▁2020	-3106
mate	-3107
tonio	-3108
▁dimenti	-3109
▁navi	-3110
ung	-3111
▁lista	-3112
renti	-3113
▁contatto	-3114
▁bisogna	-3115
ingra	-3116
tanze	-3117
.00	-3118
erazione	-3119
▁sezione	-3120
IM	-3121
vra	-3122
▁protagonista	-3123
▁consiglio	-3124
▁reali	-3125
▁diritti	-3126
ete	-3127
occasione	-3128
▁dedicata	-3129
ster	-3130
▁uso	-3131
▁professionale	-3132
▁provve	-3133
▁classe	-3134
▁Mich	-3135
bblica	-3136
▁mino	-3137
amore	-3138
▁filo	-3139
▁Siamo	-3140
anca	-3141
ins	-3142
zzur	-3143
tus	-3144
▁nero	-3145
▁telefono	-3146
▁ge	-3147
▁sali	-3148
▁figli	-3149
▁diretta	-3150
ill	-3151
tch	-3152
▁garantire	-3153
▁sistemi	-3154
▁Lui	-3155
▁installa	-3156
▁ripor	-3157
▁perdita	-3158
▁confronti	-3159
▁zu	-3160
▁comunale	-3161
▁fres	-3162
ttivo	-3163
▁rende	-3164
fano	-3165
▁verde	-3166
▁funzione	-3167
12	-3168
dimento	-3169
verna	-3170
▁lavorare	-3171
▁basta	-3172
▁migliorare	-3173
▁giudi	-3174
▁Sul	-3175
▁sala	-3176
▁60	-3177
ssociazione	-3178
▁trasferi	-3179
sco	-3180
tela	-3181
▁potrebbero	-3182
▁impegna	-3183
renze	-3184
▁miei	-3185
camente	-3186
rti	-3187
▁fam	-3188
▁coloro	-3189
▁strutture	-3190
▁dovrà	-3191
truttura	-3192
▁nessuno	-3193
Al	-3194
▁qualcuno	-3195
▁originale	-3196
▁numerosi	-3197
aper	-3198
mministrazione	-3199
▁vanno	-3200
useo	-3201
eremo	-3202
Le	-3203
▁29	-3204
mentari	-3205
anis	-3206
fra	-3207
▁industri	-3208
4,	-3209
▁previsto	-3210
▁bel	-3211
▁elettroni	-3212
▁fri	-3213
▁consegna	-3214
▁termini	-3215
▁raccolta	-3216
▁visu	-3217
▁Giuse	-3218
lino	-3219
▁femm	-3220
▁aperto	-3221
▁figlio	-3222
8,	-3223
genzia	-3224
▁presto	-3225
▁usare	-3226
▁aspetti	-3227
▁regione	-3228
▁condu	-3229
▁Imp	-3230
▁internet	-3231
▁ritorno	-3232
▁Nazionale	-3233
▁passione	-3234
▁diventa	-3235
▁dimensioni	-3236
▁preso	-3237
▁economico	-3238
▁maggiori	-3239
▁epi	-3240
▁procedu	-3241
▁centrale	-3242
ada	-3243
ppure	-3244
▁completo	-3245
▁Oltre	-3246
▁ingle	-3247
▁inse	-3248
▁presentato	-3249
▁sicuro	-3250
▁pensare	-3251
▁proposta	-3252
▁Minis	-3253
▁relazione	-3254
ciano	-3255
zzata	-3256
▁direttore	-3257
LA	-3258
▁tranqu	-3259
▁Fe	-3260
ttosto	-3261
▁fatta	-3262
▁adatta	-3263
▁diventare	-3264
sca	-3265
▁scoprire	-3266
▁pieno	-3267
▁inda	-3268
DI	-3269
▁piani	-3270
non	-3271
onia	-3272
▁TV	-3273
ET	-3274
▁genitori	-3275
▁durata	-3276
▁sba	-3277
▁New	-3278
▁giocare	-3279
▁vittoria	-3280
arri	-3281
▁posso	-3282
sh	-3283
▁piacere	-3284
▁gro	-3285
▁miglior	-3286
:00	-3287
▁scelto	-3288
scono	-3289
▁propone	-3290
▁spese	-3291
%.	-3292
ttiva	-3293
▁tue	-3294
▁Facebook	-3295
▁ultime	-3296
ple	-3297
.30	-3298
▁On	-3299
▁assicu	-3300
imma	-3301
▁animali	-3302
▁leader	-3303
tivamente	-3304
ologna	-3305
▁partenza	-3306
▁Abbiamo	-3307
▁capito	-3308
▁facilmente	-3309
▁pubblici	-3310
artamento	-3311
pero	-3312
▁concentra	-3313
▁case	-3314
▁consa	-3315
rci	-3316
▁scopo	-3317
ressi	-3318
onare	-3319
lancio	-3320
▁lettera	-3321
▁spettacolo	-3322
lante	-3323
▁conoscenza	-3324
99	-3325
gati	-3326
▁Dire	-3327
siva	-3328
▁intra	-3329
ddo	-3330
Ho	-3331
▁differenza	-3332
▁terre	-3333
▁Giuseppe	-3334
▁intorno	-3335
▁soggetti	-3336
▁formato	-3337
dano	-3338
▁reale	-3339
▁soggiorno	-3340
▁Nuo	-3341
▁codice	-3342
▁Cia	-3343
▁Alla	-3344
▁soltanto	-3345
cella	-3346
anco	-3347
bio	-3348
▁dovuto	-3349
▁Sca	-3350
endere	-3351
▁mera	-3352
▁preo	-3353
▁Cro	-3354
mba	-3355
▁Andrea	-3356
▁campagna	-3357
8.	-3358
▁superfici	-3359
▁mondiale	-3360
ensa	-3361
40	-3362
trici	-3363
▁cercare	-3364
ranza	-3365
▁lavoratori	-3366
▁smartphone	-3367
▁Medi	-3368
▁Fra	-3369
▁pomeriggio	-3370
▁addi	-3371
-2	-3372
▁Alessand	-3373
▁costitu	-3374
anora	-3375
▁scuole	-3376
▁particolarmente	-3377
▁Spe	-3378
load	-3379
▁bru	-3380
▁consuma	-3381
▁risposte	-3382
ermo	-3383
uovere	-3384
▁Bas	-3385
iness	-3386
4.	-3387
detto	-3388
lob	-3389
gata	-3390
▁avrà	-3391
▁#	-3392
▁né	-3393
▁magari	-3394
alto	-3395
▁rosso	-3396
unedì	-3397
enziale	-3398
Qu	-3399
▁oggetti	-3400
▁modu	-3401
venire	-3402
ersi	-3403
work	-3404
▁Fed	-3405
▁prossimi	-3406
▁velocità	-3407
▁piuttosto	-3408
▁Yo	-3409
▁ricevere	-3410
▁televi	-3411
▁tren	-3412
▁Tutto	-3413
▁riten	-3414
▁età	-3415
▁adesso	-3416
▁esperi	-3417
▁interesse	-3418
▁giocatori	-3419
▁sfru	-3420
▁Santa	-3421
▁1,	-3422
6,	-3423
▁vir	-3424
▁gusto	-3425
▁ispi	-3426
▁fort	-3427
▁Lon	-3428
▁allena	-3429
▁composto	-3430
▁passare	-3431
fficiente	-3432
▁Qual	-3433
▁Villa	-3434
▁protezione	-3435
7,	-3436
▁tradizione	-3437
▁appar	-3438
▁padre	-3439
▁semplicemente	-3440
▁offrire	-3441
▁pan	-3442
▁Europe	-3443
▁Cu	-3444
sima	-3445
▁veramente	-3446
fferta	-3447
▁avete	-3448
▁paesi	-3449
uncia	-3450
▁test	-3451
ffe	-3452
ettono	-3453
▁domande	-3454
Università	-3455
tuto	-3456
lizzazione	-3457
▁Va	-3458
»,	-3459
▁dallo	-3460
ction	-3461
▁danni	-3462
▁culturale	-3463
▁diretto	-3464
▁varia	-3465
▁vet	-3466
▁deri	-3467
▁zone	-3468
▁competi	-3469
▁venerdì	-3470
▁passe	-3471
teo	-3472
▁idee	-3473
▁affrontare	-3474
▁effettuare	-3475
▁metodo	-3476
▁|	-3477
▁mus	-3478
▁contratto	-3479
▁?	-3480
▁merito	-3481
ttato	-3482
▁accompagna	-3483
ya	-3484
anzi	-3485
▁professionisti	-3486
▁dietro	-3487
▁soste	-3488
stente	-3489
▁presentazione	-3490
▁acquistare	-3491
▁conqu	-3492
▁articolo	-3493
riera	-3494
▁vuoi	-3495
vale	-3496
▁disco	-3497
liano	-3498
▁cercando	-3499
▁fur	-3500
▁ovviamente	-3501
VI	-3502
▁scola	-3503
▁qua	-3504
miche	-3505
▁italiane	-3506
▁cond	-3507
estro	-3508
▁Qui	-3509
▁direzione	-3510
ordine	-3511
▁esperti	-3512
▁gente	-3513
▁Durante	-3514
CA	-3515
incontro	-3516
dite	-3517
▁dentro	-3518
liare	-3519
inizia	-3520
venzione	-3521
▁lar	-3522
▁trovano	-3523
▁fortuna	-3524
▁Bologna	-3525
isco	-3526
▁Antonio	-3527
▁pagine	-3528
into	-3529
▁memb	-3530
▁Perché	-3531
▁mobili	-3532
▁miliardi	-3533
▁appassi	-3534
▁coordina	-3535
MA	-3536
▁standard	-3537
▁impie	-3538
▁meravi	-3539
▁corsi	-3540
▁labora	-3541
▁Luca	-3542
▁dichiarato	-3543
▁manifestazione	-3544
▁roman	-3545
▁evento	-3546
▁chiaro	-3547
▁Ben	-3548
mentato	-3549
ting	-3550
▁momenti	-3551
gimento	-3552
▁bello	-3553
▁cinema	-3554
▁ripro	-3555
▁rico	-3556
▁om	-3557
inf	-3558
▁Wi	-3559
rori	-3560
▁demo	-3561
▁[	-3562
▁Au	-3563
▁premi	-3564
▁azioni	-3565
▁studia	-3566
▁blog	-3567
▁Del	-3568
minare	-3569
ggere	-3570
▁utilizzato	-3571
golo	-3572
▁ordina	-3573
▁2013	-3574
▁piena	-3575
Non	-3576
▁numeri	-3577
▁potete	-3578
▁quota	-3579
▁Dani	-3580
▁conferma	-3581
▁Sc	-3582
▁festa	-3583
▁stelle	-3584
▁Is	-3585
▁responsabilità	-3586
▁Uniti	-3587
▁particolari	-3588
▁prossima	-3589
▁Camp	-3590
▁mila	-3591
les	-3592
posito	-3593
▁apprezza	-3594
▁piccole	-3595
▁Natale	-3596
▁precedenti	-3597
▁Men	-3598
▁operatori	-3599
▁attre	-3600
▁guerra	-3601
▁movimento	-3602
▁ir	-3603
▁sociali	-3604
▁nonché	-3605
▁speri	-3606
▁notizia	-3607
iniziativa	-3608
bini	-3609
▁dispositivo	-3610
▁splen	-3611
▁consape	-3612
▁digitale	-3613
▁bellezza	-3614
esca	-3615
▁Ed	-3616
▁libero	-3617
▁livelli	-3618
evi	-3619
▁partecipare	-3620
▁Firenze	-3621
▁serve	-3622
▁massa	-3623
▁pad	-3624
▁rim	-3625
▁madre	-3626
dows	-3627
NA	-3628
▁pure	-3629
▁iP	-3630
▁Don	-3631
▁computer	-3632
▁198	-3633
eroporto	-3634
▁sugli	-3635
▁probabilmente	-3636
▁danno	-3637
SI	-3638
▁diverti	-3639
vamo	-3640
▁fen	-3641
▁cioè	-3642
▁vacanza	-3643
▁perfetto	-3644
enna	-3645
ruppo	-3646
▁feste	-3647
▁passi	-3648
▁tenere	-3649
▁cata	-3650
VA	-3651
▁farlo	-3652
▁trasm	-3653
wnload	-3654
▁intervento	-3655
▁ottimo	-3656
▁abbastanza	-3657
cone	-3658
▁este	-3659
▁gamma	-3660
▁tenta	-3661
mamente	-3662
▁medio	-3663
▁sostegno	-3664
▁moni	-3665
▁progetta	-3666
▁ripa	-3667
▁voluto	-3668
ers	-3669
▁intera	-3670
▁vicen	-3671
impor	-3672
raggio	-3673
▁inglese	-3674
▁quarti	-3675
▁fol	-3676
verti	-3677
6.	-3678
▁articoli	-3679
▁scienti	-3680
ducia	-3681
▁responsabile	-3682
usura	-3683
▁confor	-3684
▁Vin	-3685
▁visualizza	-3686
▁gratis	-3687
▁Così	-3688
▁rimane	-3689
dy	-3690
ua	-3691
▁ama	-3692
done	-3693
▁avvia	-3694
▁assicura	-3695
▁ragione	-3696
quisi	-3697
▁Fonda	-3698
▁fuoco	-3699
▁attesa	-3700
ap	-3701
▁Super	-3702
▁mecc	-3703
▁noto	-3704
im	-3705
acquisto	-3706
uale	-3707
▁provo	-3708
▁Vol	-3709
▁ciasc	-3710
▁prefer	-3711
fare	-3712
▁giusti	-3713
▁personaggi	-3714
▁coppia	-3715
▁bol	-3716
▁dise	-3717
▁distin	-3718
▁blu	-3719
▁infine	-3720
▁Sil	-3721
▁impianti	-3722
unti	-3723
▁parola	-3724
pore	-3725
▁medico	-3726
▁richieste	-3727
▁ottimi	-3728
▁tera	-3729
▁negozi	-3730
iss	-3731
▁mangia	-3732
mentali	-3733
▁approfondi	-3734
▁verranno	-3735
▁interno	-3736
▁lato	-3737
▁Carlo	-3738
▁ferro	-3739
▁messaggio	-3740
▁eventuali	-3741
7.	-3742
▁vantaggio	-3743
▁nasce	-3744
▁Ang	-3745
▁memoria	-3746
▁dra	-3747
▁vino	-3748
▁chilo	-3749
▁2012	-3750
▁conso	-3751
▁Quindi	-3752
▁tru	-3753
▁sud	-3754
▁sinistra	-3755
▁costruzione	-3756
▁nega	-3757
ppare	-3758
dibile	-3759
▁forme	-3760
▁3.	-3761
▁domani	-3762
▁eccell	-3763
▁pronto	-3764
▁Provin	-3765
pubblica	-3766
pol	-3767
lice	-3768
▁sfida	-3769
associazione	-3770
IL	-3771
▁cambiare	-3772
▁Cha	-3773
volta	-3774
▁organi	-3775
▁commerciali	-3776
▁ringra	-3777
▁link	-3778
▁canz	-3779
▁agi	-3780
grafia	-3781
gnano	-3782
▁compagnia	-3783
cese	-3784
▁solito	-3785
scina	-3786
▁misure	-3787
guard	-3788
▁prestazioni	-3789
▁consiglia	-3790
▁ambiente	-3791
▁migliora	-3792
▁poche	-3793
▁rispetti	-3794
▁amore	-3795
▁fornire	-3796
▁trasporto	-3797
▁Emi	-3798
▁quei	-3799
ciata	-3800
▁tornare	-3801
▁Sh	-3802
▁accor	-3803
▁desidera	-3804
tani	-3805
▁mezzi	-3806
cate	-3807
tiamo	-3808
▁camm	-3809
▁moto	-3810
▁Ge	-3811
▁urb	-3812
▁bro	-3813
▁Scar	-3814
tutto	-3815
▁ecco	-3816
guardo	-3817
▁riesce	-3818
▁dolore	-3819
▁fan	-3820
▁femmini	-3821
asp	-3822
▁naturali	-3823
-0	-3824
▁proposte	-3825
damente	-3826
▁pul	-3827
▁banca	-3828
▁estra	-3829
▁capitale	-3830
▁efficace	-3831
onica	-3832
CO	-3833
▁piattaforma	-3834
▁chiesto	-3835
▁Cons	-3836
▁quantità	-3837
▁decisione	-3838
▁carico	-3839
▁sé	-3840
lizzata	-3841
IO	-3842
▁dieci	-3843
▁rie	-3844
▁alcun	-3845
▁Venezia	-3846
▁Festival	-3847
▁legi	-3848
hone	-3849
▁fed	-3850
▁alber	-3851
▁assolutamente	-3852
▁LA	-3853
▁promozione	-3854
▁Tutta	-3855
▁espri	-3856
▁passaggio	-3857
▁fenom	-3858
▁mente	-3859
TU	-3860
▁comba	-3861
rom	-3862
▁vinci	-3863
sazione	-3864
▁energe	-3865
Europa	-3866
▁tan	-3867
▁by	-3868
▁fiori	-3869
▁Massi	-3870
mazione	-3871
▁CON	-3872
▁interessante	-3873
mpe	-3874
ot	-3875
ganizzazione	-3876
▁DEL	-3877
▁giusta	-3878
▁confronto	-3879
▁Lega	-3880
▁inizio	-3881
eto	-3882
usione	-3883
rla	-3884
▁contributo	-3885
vola	-3886
▁perso	-3887
▁Nico	-3888
vedì	-3889
minazione	-3890
▁panora	-3891
▁ecce	-3892
dire	-3893
▁sve	-3894
toriale	-3895
▁Ferra	-3896
▁risulta	-3897
fficio	-3898
▁Tea	-3899
▁avevano	-3900
▁numer	-3901
▁devi	-3902
▁2,	-3903
▁vie	-3904
ciu	-3905
▁Internet	-3906
mini	-3907
▁specie	-3908
▁venti	-3909
▁riti	-3910
offerta	-3911
▁artisti	-3912
ED	-3913
eek	-3914
▁riuni	-3915
▁res	-3916
▁iniziative	-3917
immagine	-3918
▁pio	-3919
▁parche	-3920
▁mu	-3921
licazione	-3922
▁Cosa	-3923
gin	-3924
▁assistenza	-3925
ettendo	-3926
▁et	-3927
estate	-3928
fera	-3929
▁gre	-3930
ppio	-3931
▁decora	-3932
▁iniziato	-3933
▁lunghe	-3934
ces	-3935
allo	-3936
SO	-3937
▁adegua	-3938
gro	-3939
ciamo	-3940
▁obietti	-3941
▁cur	-3942
bus	-3943
▁cambio	-3944
Associazione	-3945
▁motore	-3946
▁provare	-3947
▁costitui	-3948
▁Gro	-3949
▁sosteni	-3950
▁collezione	-3951
▁lettura	-3952
vali	-3953
▁auton	-3954
CH	-3955
▁soldi	-3956
▁stare	-3957
▁entrambi	-3958
ond	-3959
▁Chia	-3960
▁carica	-3961
▁monta	-3962
▁gruppi	-3963
▁abband	-3964
dali	-3965
▁abbi	-3966
▁El	-3967
▁secolo	-3968
stituto	-3969
▁avanza	-3970
▁Bri	-3971
);	-3972
70	-3973
verà	-3974
▁internazionali	-3975
▁forti	-3976
▁diverso	-3977
▁contenuto	-3978
ted	-3979
▁lasciare	-3980
chiamo	-3981
▁negozio	-3982
▁appare	-3983
▁Rom	-3984
operazione	-3985
lus	-3986
▁aperta	-3987
▁riguard	-3988
▁linee	-3989
zzati	-3990
▁giardino	-3991
▁premio	-3992
posizione	-3993
▁semplici	-3994
▁idea	-3995
▁aere	-3996
▁protagonisti	-3997
mania	-3998
▁Geno	-3999
▁conce	-4000
▁inti	-4001
conomia	-4002
rittura	-4003
articolo	-4004
▁At	-4005
▁ottima	-4006
▁reli	-4007
get	-4008
▁finalmente	-4009
▁lunedì	-4010
▁treno	-4011
▁acquisi	-4012
▁impegno	-4013
▁compagni	-4014
▁partecipanti	-4015
▁ulteriori	-4016
▁economica	-4017
▁nessun	-4018
▁destra	-4019
ziale	-4020
keting	-4021
▁aggiunto	-4022
▁Uno	-4023
▁scaricare	-4024
▁edu	-4025
▁Inf	-4026
▁Rai	-4027
shi	-4028
▁politiche	-4029
▁modifica	-4030
▁mantenere	-4031
▁Ve	-4032
▁tecnici	-4033
▁div	-4034
etwork	-4035
▁Palazzo	-4036
▁tali	-4037
poca	-4038
▁Sci	-4039
▁zucch	-4040
▁fiducia	-4041
▁Nord	-4042
veri	-4043
▁temi	-4044
tria	-4045
▁opportunità	-4046
ith	-4047
▁vogli	-4048
▁Nell	-4049
45	-4050
90	-4051
rina	-4052
▁partite	-4053
▁Francia	-4054
tività	-4055
▁Palermo	-4056
▁sepa	-4057
▁guada	-4058
▁70	-4059
onalità	-4060
▁Windows	-4061
▁som	-4062
ciando	-4063
▁credo	-4064
▁marchio	-4065
▁utilizzando	-4066
▁rinno	-4067
unt	-4068
▁segno	-4069
leggio	-4070
▁Interna	-4071
canze	-4072
cla	-4073
spetti	-4074
▁selezione	-4075
cur	-4076
mando	-4077
▁strade	-4078
▁(2	-4079
stro	-4080
lamento	-4081
▁difesa	-4082
▁ricevuto	-4083
cante	-4084
▁volo	-4085
▁email	-4086
▁Milan	-4087
attenzione	-4088
ud	-4089
▁*	-4090
ssia	-4091
▁verifica	-4092
BI	-4093
ccup	-4094
Ma	-4095
▁francese	-4096
isola	-4097
▁Gian	-4098
ding	-4099
binieri	-4100
▁indipen	-4101
▁Sar	-4102
▁energia	-4103
▁entrare	-4104
▁muo	-4105
▁minimo	-4106
▁squadre	-4107
erale	-4108
▁Repubblica	-4109
▁dina	-4110
▁vale	-4111
▁dolce	-4112
▁vostri	-4113
▁aggiunge	-4114
inare	-4115
▁racconta	-4116
▁possibili	-4117
▁superficie	-4118
▁4.	-4119
▁aumento	-4120
tional	-4121
▁dispositivi	-4122
▁oggetto	-4123
▁confi	-4124
▁club	-4125
▁immobili	-4126
▁tari	-4127
▁clima	-4128
liari	-4129
▁nato	-4130
▁archite	-4131
▁Sport	-4132
dotta	-4133
Or	-4134
▁pazienti	-4135
▁pensato	-4136
oro	-4137
▁liqui	-4138
▁paura	-4139
▁vio	-4140
▁porte	-4141
stare	-4142
▁civile	-4143
ffè	-4144
gendo	-4145
▁Ce	-4146
int	-4147
ley	-4148
▁vesti	-4149
▁sottop	-4150
▁alti	-4151
▁Stra	-4152
rendo	-4153
▁vive	-4154
▁Piazza	-4155
▁viaggi	-4156
▁appuntamento	-4157
//	-4158
lab	-4159
▁miglia	-4160
cel	-4161
▁stimo	-4162
sio	-4163
▁2010	-4164
▁libertà	-4165
▁strani	-4166
▁recensioni	-4167
▁terza	-4168
▁ab	-4169
▁concre	-4170
▁mobile	-4171
sias	-4172
▁addirittura	-4173
▁regole	-4174
bal	-4175
▁centri	-4176
renza	-4177
▁punta	-4178
15	-4179
cipi	-4180
▁PER	-4181
▁Ama	-4182
▁forze	-4183
▁sì	-4184
stato	-4185
▁viaggia	-4186
teca	-4187
▁bordo	-4188
erato	-4189
▁soff	-4190
▁reso	-4191
▁chiave	-4192
▁vorre	-4193
▁Lom	-4194
mble	-4195
▁occ	-4196
▁esperienze	-4197
▁glob	-4198
▁cibo	-4199
▁lì	-4200
rne	-4201
mmeno	-4202
▁Tos	-4203
▁Stefano	-4204
▁Lazio	-4205
impre	-4206
▁carriera	-4207
▁corrispon	-4208
▁500	-4209
▁accedere	-4210
▁Sud	-4211
▁appli	-4212
▁www	-4213
rete	-4214
▁tuttavia	-4215
US	-4216
boli	-4217
▁organizzato	-4218
▁Matte	-4219
▁indos	-4220
://	-4221
cs	-4222
ndo	-4223
▁dimin	-4224
▁ministro	-4225
▁calo	-4226
▁35	-4227
terni	-4228
▁necessaria	-4229
Con	-4230
▁concorso	-4231
%,	-4232
▁cento	-4233
▁rischi	-4234
▁Av	-4235
▁ordine	-4236
▁Lib	-4237
▁Chiesa	-4238
mme	-4239
stono	-4240
▁gestire	-4241
▁Edi	-4242
▁Andro	-4243
▁unica	-4244
▁ipo	-4245
EG	-4246
enco	-4247
▁potere	-4248
▁Bene	-4249
cani	-4250
▁tagli	-4251
▁Za	-4252
▁effetto	-4253
▁chiedere	-4254
▁desider	-4255
▁dor	-4256
▁cari	-4257
▁motivi	-4258
▁Questi	-4259
▁cul	-4260
zioso	-4261
blio	-4262
▁mina	-4263
▁benessere	-4264
▁formu	-4265
gore	-4266
▁corsa	-4267
▁obiettivi	-4268
▁ristorante	-4269
▁numerose	-4270
▁commerciale	-4271
▁AL	-4272
▁profilo	-4273
▁devo	-4274
▁documento	-4275
▁Regi	-4276
▁prende	-4277
bas	-4278
▁accessori	-4279
▁radio	-4280
▁Cara	-4281
▁chiusura	-4282
▁funzioni	-4283
▁..	-4284
tine	-4285
▁europea	-4286
▁apparten	-4287
▁Tuttavia	-4288
▁assa	-4289
▁esiste	-4290
▁inn	-4291
▁creato	-4292
missioni	-4293
▁potuto	-4294
▁visione	-4295
▁influ	-4296
pedale	-4297
▁provenienti	-4298
▁Ai	-4299
▁semi	-4300
▁Ele	-4301
fie	-4302
vel	-4303
▁villa	-4304
▁dipendenti	-4305
▁ottenuto	-4306
▁combina	-4307
▁Auto	-4308
▁vincere	-4309
mità	-4310
▁disponibilità	-4311
▁asciu	-4312
▁traccia	-4313
▁luci	-4314
▁brand	-4315
▁cook	-4316
▁pala	-4317
▁accogli	-4318
ler	-4319
▁opzioni	-4320
titui	-4321
dazione	-4322
▁popolazione	-4323
▁iniziare	-4324
▁Apple	-4325
▁dura	-4326
▁eletto	-4327
▁tecnologie	-4328
ence	-4329
accordo	-4330
rei	-4331
▁Colo	-4332
▁Comuni	-4333
▁arrivato	-4334
▁Teatro	-4335
▁pagare	-4336
▁costru	-4337
▁singolo	-4338
▁dà	-4339
▁continuare	-4340
▁valutazione	-4341
▁tur	-4342
▁visitare	-4343
▁scarpe	-4344
▁attualmente	-4345
▁schermo	-4346
▁basa	-4347
▁potrai	-4348
ZIONE	-4349
applicazione	-4350
lizzati	-4351
▁chiede	-4352
▁dele	-4353
▁Pari	-4354
▁oli	-4355
▁gratuita	-4356
we	-4357
▁piatto	-4358
▁Android	-4359
▁figura	-4360
▁Ins	-4361
▁polizia	-4362
▁associazioni	-4363
▁inser	-4364
▁giocatore	-4365
▁fia	-4366
inta	-4367
ende	-4368
Per	-4369
▁programmi	-4370
▁morbi	-4371
▁controlla	-4372
▁sostitu	-4373
▁tv	-4374
ismo	-4375
▁episo	-4376
▁Infatti	-4377
▁temperatura	-4378
arda	-4379
mpia	-4380
utente	-4381
▁privato	-4382
ja	-4383
Fi	-4384
▁discip	-4385
):	-4386
coledì	-4387
uli	-4388
▁conquis	-4389
▁dollari	-4390
ensi	-4391
-3	-4392
▁peggio	-4393
orno	-4394
unico	-4395
▁90	-4396
▁tavolo	-4397
▁nemmeno	-4398
▁garanzia	-4399
▁area	-4400
▁facili	-4401
ong	-4402
▁rifiuti	-4403
raneo	-4404
issimo	-4405
▁contesto	-4406
▁caldo	-4407
▁sequ	-4408
▁sconfi	-4409
▁obiettivo	-4410
minato	-4411
▁gas	-4412
▁perfor	-4413
▁colla	-4414
▁olio	-4415
nata	-4416
logico	-4417
stenti	-4418
▁vogliono	-4419
▁aiutare	-4420
▁Sicilia	-4421
▁candida	-4422
▁costa	-4423
▁audio	-4424
▁competenze	-4425
intera	-4426
▁Fondazione	-4427
▁pie	-4428
▁business	-4429
▁componenti	-4430
▁mie	-4431
▁dobbiamo	-4432
cchie	-4433
▁raggiunto	-4434
▁nazionali	-4435
▁rispondere	-4436
organizzazione	-4437
▁augu	-4438
▁stazione	-4439
dienti	-4440
▁aspetto	-4441
▁imprendi	-4442
▁aggiungere	-4443
▁credito	-4444
▁tutela	-4445
▁ricetta	-4446
hn	-4447
▁malattia	-4448
▁colazione	-4449
rmi	-4450
▁spesa	-4451
ici	-4452
▁tour	-4453
▁illustra	-4454
ergia	-4455
▁sedi	-4456
pposi	-4457
▁applicazioni	-4458
▁2011	-4459
▁Blu	-4460
▁nar	-4461
▁privati	-4462
▁usato	-4463
▁fle	-4464
▁volume	-4465
▁metter	-4466
icoli	-4467
▁musicale	-4468
▁lontano	-4469
wer	-4470
▁laure	-4471
ue	-4472
▁Mario	-4473
▁197	-4474
▁Colle	-4475
▁utilizzo	-4476
▁Ka	-4477
fre	-4478
▁riguardo	-4479
▁nomina	-4480
▁Roberto	-4481
intervento	-4482
▁pilo	-4483
▁orari	-4484
▁extra	-4485
▁chiamato	-4486
▁partito	-4487
▁monito	-4488
▁complesso	-4489
tedì	-4490
▁Capi	-4491
▁manutenzione	-4492
▁comm	-4493
ffico	-4494
accesso	-4495
▁aprire	-4496
autore	-4497
matico	-4498
▁umani	-4499
▁nord	-4500
▁imb	-4501
▁preoccupa	-4502
Un	-4503
rore	-4504
▁Gui	-4505
▁offerta	-4506
simi	-4507
▁mono	-4508
▁consapevole	-4509
▁Matteo	-4510
▁Cli	-4511
▁sconto	-4512
▁ridurre	-4513
▁Serie	-4514
▁Solo	-4515
▁notizie	-4516
▁tradizionale	-4517
▁fondi	-4518
▁Ul	-4519
forme	-4520
▁stiamo	-4521
cento	-4522
▁ampio	-4523
▁paesa	-4524
▁località	-4525
▁Sky	-4526
▁Pietro	-4527
voro	-4528
ras	-4529
▁pale	-4530
Mi	-4531
▁ricos	-4532
▁moglie	-4533
tusias	-4534
▁spiegato	-4535
▁analisi	-4536
▁chiama	-4537
▁piscina	-4538
▁possano	-4539
▁Musi	-4540
▁apposi	-4541
ranzo	-4542
▁artigi	-4543
▁dubbio	-4544
▁teatro	-4545
▁parlato	-4546
spe	-4547
▁specifico	-4548
▁preventi	-4549
▁relativi	-4550
▁prosegui	-4551
osso	-4552
▁sostitui	-4553
onico	-4554
▁ucci	-4555
▁pasta	-4556
rur	-4557
▁operazioni	-4558
▁Noi	-4559
▁forno	-4560
eff	-4561
/1	-4562
▁Commissione	-4563
▁creazione	-4564
▁mille	-4565
▁nutri	-4566
asse	-4567
▁rosa	-4568
▁utilizzati	-4569
▁0,	-4570
rovvi	-4571
ves	-4572
UN	-4573
▁argom	-4574
▁normale	-4575
enziali	-4576
▁potrete	-4577
▁ricorda	-4578
▁vento	-4579
sale	-4580
▁esplo	-4581
dor	-4582
▁star	-4583
▁bon	-4584
▁Alle	-4585
erare	-4586
▁Alessandro	-4587
▁Acc	-4588
▁paio	-4589
▁dan	-4590
▁Semp	-4591
▁europeo	-4592
▁chilometri	-4593
▁lava	-4594
▁affa	-4595
▁afferma	-4596
ttica	-4597
▁Paesi	-4598
Se	-4599
stere	-4600
▁atle	-4601
rli	-4602
▁Lin	-4603
▁recupera	-4604
▁Camera	-4605
▁anticipa	-4606
▁quadro	-4607
▁sosp	-4608
▁inferiore	-4609
▁psicolo	-4610
▁versa	-4611
zionato	-4612
▁collabora	-4613
▁farà	-4614
▁sub	-4615
▁parco	-4616
▁rientra	-4617
▁Sch	-4618
▁soci	-4619
▁testimoni	-4620
lack	-4621
▁sullo	-4622
▁scelte	-4623
▁metro	-4624
hia	-4625
▁dettaglio	-4626
▁Infine	-4627
▁you	-4628
▁recupero	-4629
▁Germania	-4630
▁gravi	-4631
▁permesso	-4632
erta	-4633
tena	-4634
vando	-4635
▁aumen	-4636
▁rivi	-4637
inato	-4638
▁Grande	-4639
sano	-4640
itato	-4641
▁politico	-4642
▁dover	-4643
▁é	-4644
▁sentire	-4645
intero	-4646
vizz	-4647
▁preparazione	-4648
▁ogn	-4649
ortare	-4650
▁storie	-4651
▁bici	-4652
gici	-4653
▁torn	-4654
▁PD	-4655
entemente	-4656
▁situazioni	-4657
▁siete	-4658
▁reddi	-4659
▁vice	-4660
▁simile	-4661
▁!	-4662
▁classico	-4663
aming	-4664
▁fabb	-4665
nia	-4666
PA	-4667
▁costre	-4668
monte	-4669
teranno	-4670
ttime	-4671
rali	-4672
▁respi	-4673
▁solle	-4674
▁lotta	-4675
ress	-4676
▁ria	-4677
▁Conf	-4678
▁sogno	-4679
▁196	-4680
▁Sarà	-4681
▁pian	-4682
rvi	-4683
▁Prop	-4684
ggiato	-4685
▁ragazza	-4686
▁ristruttura	-4687
▁condizione	-4688
▁traffico	-4689
▁lasciato	-4690
ZA	-4691
▁spiaggia	-4692
zon	-4693
▁Museo	-4694
stalla	-4695
▁uscita	-4696
▁ricordo	-4697
asto	-4698
▁Ciao	-4699
▁contemporanea	-4700
▁Assi	-4701
ziato	-4702
▁funzionalità	-4703
utato	-4704
▁caffè	-4705
,00	-4706
▁documenti	-4707
▁aiuto	-4708
▁Acqu	-4709
▁esposi	-4710
▁lum	-4711
▁buoni	-4712
▁aumentare	-4713
▁carte	-4714
▁with	-4715
▁viss	-4716
merica	-4717
dotti	-4718
▁gare	-4719
▁cittadino	-4720
▁interessanti	-4721
▁purtroppo	-4722
▁Bel	-4723
▁predi	-4724
▁Tren	-4725
▁latte	-4726
cni	-4727
ggiata	-4728
▁affida	-4729
▁carattere	-4730
mine	-4731
▁giovedì	-4732
▁annunciato	-4733
king	-4734
▁IL	-4735
▁PC	-4736
▁volontà	-4737
come	-4738
▁esten	-4739
▁Gruppo	-4740
▁propon	-4741
▁capace	-4742
▁pezzi	-4743
▁match	-4744
▁vinto	-4745
▁stesse	-4746
UR	-4747
bur	-4748
▁immediatamente	-4749
Re	-4750
▁vigi	-4751
DA	-4752
▁vacanze	-4753
orld	-4754
▁corte	-4755
▁Lombar	-4756
24	-4757
▁slo	-4758
xi	-4759
▁taglia	-4760
▁ricco	-4761
▁portata	-4762
▁scrivere	-4763
▁succe	-4764
fficienza	-4765
▁esclusivamente	-4766
▁sfor	-4767
▁avevo	-4768
nio	-4769
▁US	-4770
▁ambientale	-4771
▁poiché	-4772
▁riduzione	-4773
▁Fu	-4774
▁sovra	-4775
▁Gol	-4776
ctor	-4777
▁Nei	-4778
▁dovranno	-4779
gon	-4780
▁quarto	-4781
▁patrimonio	-4782
▁elabo	-4783
▁ciclo	-4784
diti	-4785
sando	-4786
▁presa	-4787
▁essendo	-4788
rl	-4789
anità	-4790
▁giallo	-4791
Istituto	-4792
▁richiede	-4793
▁spedizione	-4794
arrivo	-4795
▁Città	-4796
▁compli	-4797
parto	-4798
▁son	-4799
▁decreto	-4800
▁80	-4801
▁Mis	-4802
▁beni	-4803
▁rimb	-4804
▁chied	-4805
▁oro	-4806
▁suggeri	-4807
▁consumo	-4808
gento	-4809
▁femminile	-4810
▁rapporti	-4811
▁II	-4812
▁gener	-4813
▁quotidiana	-4814
▁posta	-4815
▁mamma	-4816
▁tif	-4817
oo	-4818
wa	-4819
▁evol	-4820
dari	-4821
vile	-4822
▁conseguenza	-4823
▁verità	-4824
TER	-4825
▁positivo	-4826
ttamento	-4827
▁trib	-4828
25	-4829
▁simili	-4830
Ad	-4831
▁voli	-4832
▁occa	-4833
▁arrivo	-4834
▁sfo	-4835
▁trasparen	-4836
vimenti	-4837
▁tratti	-4838
▁cambi	-4839
▁migliaia	-4840
▁perfettamente	-4841
ciuto	-4842
▁Home	-4843
▁confe	-4844
▁Ges	-4845
▁terreno	-4846
▁tranquil	-4847
onata	-4848
duti	-4849
cord	-4850
▁em	-4851
▁nomi	-4852
ingresso	-4853
▁grave	-4854
▁interro	-4855
▁custo	-4856
▁obbliga	-4857
▁vivo	-4858
▁trovi	-4859
▁premia	-4860
▁scheda	-4861
▁ragazzo	-4862
▁circos	-4863
▁bilancio	-4864
▁Ori	-4865
▁caval	-4866
▁week	-4867
ore	-4868
▁presentare	-4869
bia	-4870
▁Micro	-4871
▁generazione	-4872
▁calda	-4873
▁Prof	-4874
▁Società	-4875
▁Scopri	-4876
ziosi	-4877
▁rila	-4878
▁unità	-4879
verai	-4880
▁dida	-4881
▁differenti	-4882
▁cottura	-4883
uf	-4884
▁tratto	-4885
▁mm	-4886
ant	-4887
▁Mod	-4888
qua	-4889
▁rit	-4890
vis	-4891
▁pensiero	-4892
▁prenotazione	-4893
▁Luigi	-4894
▁tessuto	-4895
▁azione	-4896
▁45	-4897
▁prevista	-4898
▁matrimonio	-4899
▁insegna	-4900
▁emozioni	-4901
▁guardare	-4902
▁Due	-4903
▁bos	-4904
▁titoli	-4905
EC	-4906
▁MA	-4907
▁successivo	-4908
▁dispone	-4909
▁Club	-4910
▁terrà	-4911
▁condividere	-4912
▁tenuto	-4913
imento	-4914
▁iso	-4915
▁batta	-4916
▁date	-4917
▁Fil	-4918
▁annunci	-4919
▁inserire	-4920
cic	-4921
peri	-4922
▁chiesa	-4923
estero	-4924
▁Puoi	-4925
sis	-4926
▁contribu	-4927
mance	-4928
▁enti	-4929
▁Alc	-4930
cciaio	-4931
▁Br	-4932
stitui	-4933
▁network	-4934
▁risolvere	-4935
vie	-4936
▁vini	-4937
▁Pd	-4938
don	-4939
ks	-4940
▁Terra	-4941
▁sorri	-4942
▁scoperta	-4943
▁voglio	-4944
apertura	-4945
▁fotografia	-4946
▁Parco	-4947
▁Mal	-4948
▁det	-4949
▁costruire	-4950
▁Comp	-4951
▁sposta	-4952
detti	-4953
▁feri	-4954
▁vantaggi	-4955
▁relative	-4956
▁sostenere	-4957
▁perce	-4958
▁doppio	-4959
▁processi	-4960
▁gratuitamente	-4961
▁As	-4962
crizione	-4963
▁Cina	-4964
trale	-4965
▁amico	-4966
▁piatti	-4967
▁riporta	-4968
assessore	-4969
eta	-4970
▁sangue	-4971
▁pranzo	-4972
eme	-4973
▁pato	-4974
▁commi	-4975
▁nessuna	-4976
▁ripren	-4977
▁ampia	-4978
ance	-4979
▁sarebbero	-4980
lanti	-4981
▁aggiornamenti	-4982
▁farsi	-4983
▁specifiche	-4984
inge	-4985
ull	-4986
▁chiuso	-4987
▁sess	-4988
▁vogliamo	-4989
▁culturali	-4990
▁fai	-4991
blo	-4992
▁Italiana	-4993
▁Pie	-4994
Hotel	-4995
ossibile	-4996
mber	-4997
▁Web	-4998
▁Ministero	-4999
inn	-5000
▁Cir	-5001
▁aggi	-5002
▁Bal	-5003
▁pressione	-5004
▁conveni	-5005
▁Provincia	-5006
NO	-5007
sero	-5008
▁ammi	-5009
sili	-5010
▁mana	-5011
arla	-5012
▁300	-5013
enaro	-5014
▁riscal	-5015
▁secondi	-5016
▁der	-5017
▁top	-5018
ficati	-5019
▁attorno	-5020
dom	-5021
▁Loren	-5022
▁Governo	-5023
▁commenti	-5024
▁autore	-5025
▁crescere	-5026
▁Bro	-5027
vante	-5028
▁scrive	-5029
▁ambienti	-5030
▁Er	-5031
▁out	-5032
mosfera	-5033
▁batteria	-5034
▁camp	-5035
opp	-5036
▁pelli	-5037
▁Gri	-5038
Ca	-5039
▁•	-5040
▁circo	-5041
16	-5042
▁ultimo	-5043
Inter	-5044
▁accade	-5045
▁crema	-5046
▁stanza	-5047
▁mater	-5048
▁speranza	-5049
giche	-5050
arma	-5051
▁frutto	-5052
▁3,	-5053
▁nata	-5054
▁Mor	-5055
▁York	-5056
▁marketing	-5057
▁vicenda	-5058
▁adatto	-5059
rò	-5060
▁vor	-5061
▁appunto	-5062
▁origine	-5063
deranno	-5064
zzate	-5065
▁motiva	-5066
sile	-5067
▁Mari	-5068
▁trascor	-5069
▁trovere	-5070
grazione	-5071
Si	-5072
▁show	-5073
▁Eli	-5074
▁taglio	-5075
▁Genova	-5076
tes	-5077
▁provato	-5078
▁percen	-5079
▁dar	-5080
▁mq	-5081
ssegna	-5082
CE	-5083
▁medici	-5084
▁age	-5085
dustria	-5086
▁analizza	-5087
’,	-5088
▁attuale	-5089
impe	-5090
▁professionali	-5091
etterà	-5092
▁Las	-5093
epoca	-5094
▁priva	-5095
▁socc	-5096
▁Porto	-5097
▁distur	-5098
▁Donna	-5099
▁svolta	-5100
olio	-5101
ach	-5102
▁staff	-5103
vocato	-5104
▁percorsi	-5105
▁evidente	-5106
▁Toscana	-5107
▁contrario	-5108
▁voto	-5109
▁ripresa	-5110
pie	-5111
▁giornate	-5112
sante	-5113
▁celeb	-5114
▁finis	-5115
▁Oli	-5116
librio	-5117
▁candi	-5118
gs	-5119
▁Mos	-5120
nella	-5121
gando	-5122
▁fisica	-5123
▁ov	-5124
▁procedura	-5125
▁concerto	-5126
viamo	-5127
▁pace	-5128
▁coltiva	-5129
▁Campi	-5130
epi	-5131
▁maggioranza	-5132
▁farmaci	-5133
▁partecipato	-5134
denze	-5135
▁ingresso	-5136
▁biglietti	-5137
▁regista	-5138
▁porto	-5139
▁reti	-5140
▁umi	-5141
▁carne	-5142
▁istituzioni	-5143
▁legger	-5144
▁32	-5145
▁quell	-5146
▁risparmia	-5147
▁sotti	-5148
▁AN	-5149
▁settori	-5150
ventus	-5151
▁cielo	-5152
Unione	-5153
▁distribuzione	-5154
▁marito	-5155
▁troviamo	-5156
▁spirito	-5157
▁ingredienti	-5158
rini	-5159
▁buono	-5160
mbolo	-5161
▁alcuna	-5162
▁romanzo	-5163
▁meravigli	-5164
14	-5165
▁Calab	-5166
▁contiene	-5167
▁immagina	-5168
▁indicazioni	-5169
▁retro	-5170
▁indirizzo	-5171
blet	-5172
hop	-5173
▁violenza	-5174
▁ritor	-5175
▁album	-5176
appro	-5177
▁regioni	-5178
▁attivi	-5179
▁Clau	-5180
talmente	-5181
▁cambiamento	-5182
▁’	-5183
▁denaro	-5184
▁pulizia	-5185
torie	-5186
lizzare	-5187
gori	-5188
▁Pur	-5189
▁5.	-5190
▁specifica	-5191
iste	-5192
▁uffici	-5193
parti	-5194
▁Quali	-5195
▁36	-5196
▁Por	-5197
▁membri	-5198
▁Air	-5199
▁viso	-5200
▁nascita	-5201
▁vetro	-5202
▁interven	-5203
mozione	-5204
▁flu	-5205
▁parcheggio	-5206
▁ambito	-5207
▁prove	-5208
▁potenza	-5209
▁mancanza	-5210
▁stai	-5211
▁sel	-5212
entali	-5213
▁Massimo	-5214
economia	-5215
impresa	-5216
gate	-5217
▁verificare	-5218
▁circon	-5219
vello	-5220
▁́	-5221
tabile	-5222
analisi	-5223
informa	-5224
logica	-5225
▁Corte	-5226
grafica	-5227
▁visitatori	-5228
▁adulti	-5229
▁mediante	-5230
▁vostre	-5231
▁dovrebbero	-5232
▁Anna	-5233
▁svolto	-5234
erata	-5235
▁diversa	-5236
▁Bre	-5237
▁conti	-5238
▁progettazione	-5239
▁commercio	-5240
zionata	-5241
▁originali	-5242
arli	-5243
▁Pol	-5244
erico	-5245
alti	-5246
neo	-5247
orme	-5248
▁Sinda	-5249
prese	-5250
▁fascia	-5251
sla	-5252
▁piante	-5253
▁offrono	-5254
▁umano	-5255
▁decisamente	-5256
EM	-5257
gerà	-5258
PS	-5259
▁sinto	-5260
ppone	-5261
▁Londra	-5262
▁minuto	-5263
▁abitanti	-5264
▁spos	-5265
artista	-5266
▁quartiere	-5267
▁chie	-5268
▁possesso	-5269
mori	-5270
ttive	-5271
▁Fili	-5272
augu	-5273
▁operativo	-5274
▁estremamente	-5275
▁esso	-5276
▁aut	-5277
arre	-5278
pito	-5279
▁ritar	-5280
▁iPhone	-5281
▁veni	-5282
▁He	-5283
TM	-5284
endario	-5285
▁soffer	-5286
▁economici	-5287
▁centina	-5288
▁spalle	-5289
ans	-5290
▁2000	-5291
ITA	-5292
gnare	-5293
soft	-5294
cuzione	-5295
▁insegn	-5296
▁Lea	-5297
▁fenomeno	-5298
tevi	-5299
▁4,	-5300
▁sufficiente	-5301
▁democra	-5302
▁acquisto	-5303
DO	-5304
▁leggi	-5305
▁vege	-5306
ppiamo	-5307
▁»	-5308
▁Conte	-5309
▁Scarpe	-5310
▁fissa	-5311
▁viva	-5312
cchetto	-5313
▁Tutte	-5314
▁investimenti	-5315
rui	-5316
▁Parigi	-5317
▁You	-5318
▁pronti	-5319
▁accordo	-5320
▁punte	-5321
▁Insomma	-5322
▁manca	-5323
▁subi	-5324
let	-5325
▁Franco	-5326
▁Salva	-5327
aff	-5328
gliamento	-5329
ula	-5330
▁requisi	-5331
unno	-5332
▁prevenzione	-5333
▁insi	-5334
▁Parti	-5335
▁sorta	-5336
uscita	-5337
▁realizzata	-5338
▁cosid	-5339
AP	-5340
gy	-5341
ola	-5342
▁oper	-5343
lievo	-5344
▁Lombardia	-5345
▁esterno	-5346
▁150	-5347
atte	-5348
▁contatta	-5349
▁cena	-5350
▁automatica	-5351
▁turno	-5352
▁mercoledì	-5353
▁attiva	-5354
35	-5355
▁martedì	-5356
▁SU	-5357
ttimo	-5358
▁realizzati	-5359
▁ricca	-5360
▁legale	-5361
zare	-5362
▁entusias	-5363
▁territori	-5364
App	-5365
zano	-5366
ioren	-5367
▁>	-5368
▁Mentre	-5369
▁apre	-5370
sion	-5371
▁necessari	-5372
Ri	-5373
SS	-5374
▁preval	-5375
▁cookie	-5376
vini	-5377
▁fattura	-5378
▁vecchio	-5379
▁Bon	-5380
indirizzo	-5381
OC	-5382
yl	-5383
▁colpo	-5384
▁Cap	-5385
▁Bari	-5386
▁conclude	-5387
▁maschi	-5388
▁connessione	-5389
--	-5390
▁riconoscimento	-5391
▁prospetti	-5392
▁def	-5393
▁agri	-5394
▁felice	-5395
▁modulo	-5396
▁risolu	-5397
▁considerazione	-5398
red	-5399
▁profonda	-5400
▁frutta	-5401
▁figlia	-5402
▁ricordare	-5403
▁Bea	-5404
▁avversa	-5405
taly	-5406
▁Queste	-5407
▁zucchero	-5408
▁fili	-5409
dute	-5410
▁Maggio	-5411
▁assieme	-5412
▁porti	-5413
tile	-5414
▁Mac	-5415
duce	-5416
▁poteva	-5417
▁battu	-5418
▁essi	-5419
▁accessi	-5420
▁Calabria	-5421
▁Ag	-5422
▁Tur	-5423
▁considerato	-5424
▁azzur	-5425
▁Valen	-5426
▁ana	-5427
▁comprende	-5428
▁scio	-5429
▁globale	-5430
▁apertura	-5431
▁previsti	-5432
andi	-5433
detta	-5434
impegno	-5435
▁laboratorio	-5436
▁arte	-5437
▁clini	-5438
▁doccia	-5439
tania	-5440
▁cellulare	-5441
19	-5442
▁Play	-5443
gnore	-5444
tudine	-5445
▁Media	-5446
▁vittime	-5447
▁intende	-5448
▁UN	-5449
port	-5450
▁gradi	-5451
▁bassa	-5452
▁pista	-5453
▁promuovere	-5454
▁Gesù	-5455
▁aria	-5456
cenze	-5457
▁principi	-5458
ttando	-5459
▁performance	-5460
▁uscire	-5461
▁indipendente	-5462
▁genti	-5463
▁Mu	-5464
▁estate	-5465
▁composta	-5466
▁richiesto	-5467
18	-5468
▁salva	-5469
▁conferenza	-5470
“.	-5471
▁personaggio	-5472
abi	-5473
▁limite	-5474
▁zero	-5475
17	-5476
▁corrente	-5477
▁Giorgio	-5478
▁doppia	-5479
▁scorsa	-5480
▁plu	-5481
▁legati	-5482
▁sino	-5483
▁interni	-5484
▁registrazione	-5485
sign	-5486
▁prese	-5487
oli	-5488
trimonia	-5489
▁pubblicazione	-5490
▁messaggi	-5491
gistra	-5492
▁buone	-5493
▁opini	-5494
▁avendo	-5495
▁medicina	-5496
▁Michele	-5497
▁Fri	-5498
▁imparare	-5499
▁Ciò	-5500
▁norme	-5501
▁andata	-5502
▁controllare	-5503
ost	-5504
▁agenti	-5505
Tu	-5506
▁Esp	-5507
▁comfort	-5508
tia	-5509
▁Juventus	-5510
gram	-5511
▁download	-5512
fri	-5513
aeroporto	-5514
amministrazione	-5515
▁medie	-5516
▁resistenza	-5517
▁europei	-5518
▁filoso	-5519
cell	-5520
▁permettono	-5521
▁CH	-5522
umere	-5523
▁dimensione	-5524
▁elegante	-5525
▁limiti	-5526
tarie	-5527
▁pena	-5528
▁Bos	-5529
▁Nonostante	-5530
▁impedi	-5531
ggiamento	-5532
▁puntata	-5533
▁simbolo	-5534
dova	-5535
▁dieta	-5536
gliare	-5537
▁palla	-5538
▁reparto	-5539
▁avviene	-5540
▁Più	-5541
▁scegli	-5542
▁Era	-5543
▁ristoranti	-5544
▁attivo	-5545
▁comunica	-5546
▁ragazze	-5547
▁suggesti	-5548
isci	-5549
▁pertanto	-5550
rona	-5551
▁Hi	-5552
▁Contin	-5553
▁coni	-5554
▁ono	-5555
▁Cultura	-5556
▁Scuola	-5557
▁Pres	-5558
▁Verona	-5559
ciò	-5560
▁live	-5561
▁dramma	-5562
▁qualunque	-5563
▁Sant	-5564
▁band	-5565
ttivi	-5566
▁rimanere	-5567
▁John	-5568
▁imposta	-5569
ttività	-5570
▁faccio	-5571
▁perman	-5572
▁onda	-5573
▁peri	-5574
▁irri	-5575
13	-5576
▁alcoli	-5577
▁riuscito	-5578
▁Wil	-5579
▁accetta	-5580
▁caccia	-5581
pole	-5582
ficata	-5583
▁ognuno	-5584
▁soggetto	-5585
▁sguardo	-5586
gnolo	-5587
▁Cin	-5588
▁mira	-5589
cherà	-5590
▁mercati	-5591
▁Bru	-5592
▁digitali	-5593
▁appassionati	-5594
▁streaming	-5595
▁preparare	-5596
▁malattie	-5597
▁pasti	-5598
▁conosce	-5599
talità	-5600
▁intelli	-5601
▁bocca	-5602
coni	-5603
▁Ali	-5604
▁dando	-5605
mpianto	-5606
▁paziente	-5607
▁certamente	-5608
ys	-5609
▁gradu	-5610
onti	-5611
witter	-5612
▁curio	-5613
onamento	-5614
▁popolo	-5615
▁turismo	-5616
gar	-5617
▁occasioni	-5618
▁quotidiano	-5619
▁mappa	-5620
▁familiari	-5621
▁discussione	-5622
▁cane	-5623
tle	-5624
▁sensibili	-5625
▁Ness	-5626
MI	-5627
▁richiedere	-5628
▁elemento	-5629
▁Es	-5630
enzia	-5631
▁bassi	-5632
-201	-5633
▁allu	-5634
▁moderno	-5635
ward	-5636
▁relazioni	-5637
▁Hai	-5638
▁gratuiti	-5639
▁trasmissione	-5640
▁là	-5641
je	-5642
▁accol	-5643
▁imper	-5644
▁chirur	-5645
▁Rosa	-5646
▁recenti	-5647
grafico	-5648
▁superare	-5649
▁raffor	-5650
atta	-5651
contra	-5652
installa	-5653
▁ciocco	-5654
▁dotato	-5655
bbene	-5656
▁valutare	-5657
▁disciplina	-5658
essioni	-5659
▁dimostrato	-5660
▁tradizionali	-5661
▁regalo	-5662
▁potenzialità	-5663
▁chiamata	-5664
▁continui	-5665
▁canali	-5666
."	-5667
▁Nelle	-5668
▁effettuato	-5669
▁scene	-5670
dinanza	-5671
▁CO	-5672
▁SP	-5673
quali	-5674
▁altra	-5675
▁controlli	-5676
▁copertura	-5677
▁storica	-5678
▁mangiare	-5679
ller	-5680
entro	-5681
ttrice	-5682
▁vene	-5683
▁Star	-5684
▁rischia	-5685
▁consider	-5686
▁inaugu	-5687
▁biglietto	-5688
ony	-5689
▁interessi	-5690
▁stri	-5691
▁industriale	-5692
▁raccom	-5693
▁proto	-5694
▁ugu	-5695
▁famoso	-5696
▁nuovamente	-5697
▁33	-5698
▁lezioni	-5699
▁affin	-5700
▁interessati	-5701
▁strategia	-5702
▁occorre	-5703
▁comprare	-5704
dis	-5705
visione	-5706
▁inva	-5707
▁Tru	-5708
▁Ces	-5709
▁essa	-5710
forte	-5711
unzione	-5712
▁alimentare	-5713
▁mesco	-5714
▁din	-5715
aller	-5716
▁2009	-5717
ttempo	-5718
▁Gar	-5719
▁veicoli	-5720
▁desid	-5721
▁penso	-5722
mor	-5723
▁Forse	-5724
▁nascon	-5725
▁sviluppare	-5726
top	-5727
onde	-5728
▁riba	-5729
▁Lorenzo	-5730
▁Ab	-5731
sori	-5732
coltura	-5733
▁Polizia	-5734
genzie	-5735
industria	-5736
▁teo	-5737
▁denomina	-5738
▁dolci	-5739
mergenza	-5740
▁seguendo	-5741
gene	-5742
▁comunicato	-5743
▁pezzo	-5744
▁occup	-5745
▁banche	-5746
▁fianco	-5747
▁comun	-5748
▁popolare	-5749
assa	-5750
▁soddisfare	-5751
▁guarda	-5752
▁scoperto	-5753
lui	-5754
▁primavera	-5755
▁pratiche	-5756
▁Dia	-5757
▁affas	-5758
letta	-5759
▁nera	-5760
low	-5761
▁Leon	-5762
▁sposa	-5763
arco	-5764
cialmente	-5765
▁indicato	-5766
▁termina	-5767
▁dri	-5768
▁frattempo	-5769
▁vicin	-5770
▁fungo	-5771
▁appartamento	-5772
▁firma	-5773
▁sape	-5774
abb	-5775
▁gioi	-5776
▁tablet	-5777
ingle	-5778
▁canale	-5779
.0	-5780
▁Bus	-5781
▁Stre	-5782
▁compito	-5783
▁convi	-5784
▁Emilia	-5785
▁piacevole	-5786
▁varietà	-5787
▁motori	-5788
guardia	-5789
msung	-5790
IT	-5791
chino	-5792
▁segue	-5793
ressione	-5794
▁dona	-5795
▁elettrica	-5796
DE	-5797
▁tiro	-5798
sivi	-5799
▁Entra	-5800
▁Quest	-5801
▁simpa	-5802
ux	-5803
▁silen	-5804
▁allesti	-5805
ugia	-5806
▁Spi	-5807
▁irre	-5808
▁plastica	-5809
▁campione	-5810
erebbe	-5811
▁fisico	-5812
inten	-5813
hat	-5814
▁divano	-5815
▁Capo	-5816
▁falli	-5817
▁praticamente	-5818
▁professionalità	-5819
▁Senza	-5820
▁voci	-5821
▁dec	-5822
▁fondamentali	-5823
liamo	-5824
▁Mauri	-5825
▁tifosi	-5826
▁esercizi	-5827
▁applicazione	-5828
▁Ricor	-5829
▁corretto	-5830
▁indisp	-5831
▁geo	-5832
▁totalmente	-5833
▁rea	-5834
▁Sala	-5835
▁rivesti	-5836
▁presi	-5837
▁titolare	-5838
▁racconto	-5839
▁rapidamente	-5840
▁organizzata	-5841
del	-5842
▁refer	-5843
▁iscritti	-5844
▁ulteriore	-5845
▁semb	-5846
▁militari	-5847
degna	-5848
▁diffusione	-5849
▁usuf	-5850
▁canti	-5851
▁aziendale	-5852
rino	-5853
stina	-5854
▁sostanze	-5855
ANO	-5856
▁Sol	-5857
minio	-5858
▁religi	-5859
anima	-5860
erimento	-5861
▁condanna	-5862
▁sportivo	-5863
▁funzionamento	-5864
ONI	-5865
▁opport	-5866
▁attuali	-5867
▁immer	-5868
▁cru	-5869
▁necessarie	-5870
▁Des	-5871
energia	-5872
attuale	-5873
▁eviden	-5874
▁neanche	-5875
▁archi	-5876
▁garantisce	-5877
▁diventato	-5878
▁errori	-5879
▁produttori	-5880
ash	-5881
▁za	-5882
▁nucle	-5883
▁avranno	-5884
▁Castel	-5885
▁venire	-5886
▁Papa	-5887
▁risparmio	-5888
ool	-5889
▁dep	-5890
terra	-5891
▁sembrano	-5892
▁abbiano	-5893
bin	-5894
www	-5895
▁cani	-5896
▁rendono	-5897
▁rappresentano	-5898
▁certa	-5899
▁allar	-5900
▁superiori	-5901
Ci	-5902
23	-5903
▁moderna	-5904
▁bur	-5905
▁prepara	-5906
▁vuo	-5907
▁seguenti	-5908
▁giuri	-5909
darietà	-5910
'.	-5911
org	-5912
CC	-5913
▁Natura	-5914
▁governa	-5915
▁decidere	-5916
LO	-5917
▁Valle	-5918
▁piede	-5919
▁Informa	-5920
▁configu	-5921
alb	-5922
▁giun	-5923
▁straordinaria	-5924
▁volto	-5925
▁Adesso	-5926
erali	-5927
▁Min	-5928
▁Spagna	-5929
▁Ave	-5930
astron	-5931
▁inqu	-5932
▁freddo	-5933
▁Puglia	-5934
▁svolge	-5935
▁conosciuto	-5936
▁successivamente	-5937
▁messi	-5938
ziamo	-5939
▁Arri	-5940
▁pann	-5941
▁League	-5942
▁troverete	-5943
isti	-5944
▁mura	-5945
▁fiscale	-5946
▁proposito	-5947
▁registrato	-5948
durre	-5949
▁andrà	-5950
▁Proprio	-5951
▁mail	-5952
▁Veneto	-5953
▁finestra	-5954
ganti	-5955
▁decen	-5956
▁Santo	-5957
riere	-5958
▁face	-5959
▁consulenza	-5960
▁kg	-5961
▁bom	-5962
▁Pla	-5963
▁tariffe	-5964
▁Sei	-5965
erire	-5966
▁richia	-5967
▁categorie	-5968
▁prestigi	-5969
▁immagine	-5970
▁disegno	-5971
drà	-5972
derlo	-5973
▁indietro	-5974
▁concetto	-5975
▁Uomo	-5976
inti	-5977
AT	-5978
▁tipologia	-5979
▁elezioni	-5980
▁noleggio	-5981
▁schia	-5982
▁fonti	-5983
▁ille	-5984
ccante	-5985
▁piane	-5986
▁desiderio	-5987
▁pianta	-5988
▁regionali	-5989
batti	-5990
▁montagna	-5991
▁Sicu	-5992
avvi	-5993
cona	-5994
▁fonte	-5995
ressa	-5996
▁look	-5997
▁macchine	-5998
▁andato	-5999
▁Sy	-6000
▁Ini	-6001
dori	-6002
▁tenuta	-6003
▁arrivata	-6004
▁competenza	-6005
▁Servizio	-6006
▁consoli	-6007
▁ceri	-6008
ade	-6009
▁Bol	-6010
▁flessi	-6011
way	-6012
▁scomm	-6013
▁Studi	-6014
blioteca	-6015
celli	-6016
terior	-6017
onese	-6018
ppie	-6019
No	-6020
▁edifici	-6021
▁prenotare	-6022
volmente	-6023
▁HD	-6024
▁acque	-6025
▁rifer	-6026
marsi	-6027
▁2008	-6028
▁autorità	-6029
▁progressi	-6030
__	-6031
her	-6032
▁Basi	-6033
▁responsabili	-6034
▁basi	-6035
▁miglioramento	-6036
▁Amazon	-6037
dando	-6038
vide	-6039
zionare	-6040
▁Dalla	-6041
▁organizzare	-6042
cheolo	-6043
▁indiri	-6044
resta	-6045
sche	-6046
▁giornalista	-6047
▁danne	-6048
alleria	-6049
▁pietra	-6050
▁Catania	-6051
▁Premio	-6052
▁spre	-6053
enato	-6054
rescia	-6055
▁chiari	-6056
▁mul	-6057
ontan	-6058
ciate	-6059
▁bonus	-6060
▁viaggiatori	-6061
importanza	-6062
▁Quanto	-6063
▁vasta	-6064
eserci	-6065
▁ricerche	-6066
▁5,	-6067
▁raccontare	-6068
▁QU	-6069
▁gioia	-6070
▁Pelle	-6071
▁scala	-6072
▁accanto	-6073
▁critica	-6074
▁Vincen	-6075
▁Disp	-6076
▁relativo	-6077
▁confermato	-6078
tele	-6079
camera	-6080
▁bianca	-6081
▁perse	-6082
▁economiche	-6083
▁htt	-6084
aspetto	-6085
▁cristi	-6086
▁Asso	-6087
▁battaglia	-6088
inamento	-6089
▁Microsoft	-6090
nice	-6091
zionamento	-6092
▁periodi	-6093
▁commento	-6094
Pa	-6095
▁tappa	-6096
▁sottoscri	-6097
▁preferito	-6098
gersi	-6099
▁grafica	-6100
▁(3	-6101
▁elettronica	-6102
IG	-6103
500	-6104
78	-6105
omici	-6106
▁Pra	-6107
▁Tele	-6108
▁stili	-6109
demia	-6110
emergenza	-6111
iego	-6112
▁mone	-6113
▁iniziativa	-6114
▁Rossi	-6115
▁Domenica	-6116
edizione	-6117
▁aggiornato	-6118
▁classica	-6119
▁Arti	-6120
▁fasi	-6121
ccar	-6122
equi	-6123
▁previste	-6124
▁alternativa	-6125
my	-6126
▁indispensa	-6127
▁conclusione	-6128
▁Mad	-6129
▁lunghezza	-6130
asta	-6131
innova	-6132
▁neve	-6133
▁chiudere	-6134
inio	-6135
▁minori	-6136
▁educa	-6137
mal	-6138
▁saper	-6139
▁meccani	-6140
▁distru	-6141
ling	-6142
▁Buon	-6143
▁pole	-6144
▁singoli	-6145
▁cancella	-6146
▁prosegue	-6147
',	-6148
mes	-6149
▁bellissima	-6150
▁profondi	-6151
▁COM	-6152
rt	-6153
▁rimasto	-6154
▁account	-6155
▁benefici	-6156
uogo	-6157
▁rinnova	-6158
▁neo	-6159
▁scorsi	-6160
▁centinaia	-6161
vizzera	-6162
▁situato	-6163
▁relativa	-6164
▁400	-6165
▁aggiornamento	-6166
▁indagini	-6167
ttino	-6168
▁°	-6169
letti	-6170
▁matura	-6171
▁Aus	-6172
cili	-6173
▁simbo	-6174
▁Usa	-6175
▁informazione	-6176
erati	-6177
▁copia	-6178
Pro	-6179
▁circ	-6180
▁stress	-6181
▁altrettan	-6182
▁veicolo	-6183
▁risoluzione	-6184
xy	-6185
▁contatti	-6186
▁corretta	-6187
▁comprendere	-6188
▁vendite	-6189
▁provinciale	-6190
ALE	-6191
ds	-6192
sì	-6193
▁concluso	-6194
▁ripet	-6195
▁Marche	-6196
▁consumatori	-6197
▁sottolinea	-6198
48	-6199
manti	-6200
▁requisiti	-6201
▁visite	-6202
▁portale	-6203
opportunità	-6204
impianto	-6205
▁(+	-6206
gegn	-6207
▁Negli	-6208
▁pane	-6209
▁PRO	-6210
▁calore	-6211
▁cambiamenti	-6212
veranno	-6213
rena	-6214
’.	-6215
dimenti	-6216
▁proposto	-6217
▁arrivano	-6218
▁tedes	-6219
cabile	-6220
MO	-6221
▁chiunque	-6222
orbi	-6223
%)	-6224
ARE	-6225
▁guard	-6226
▁fornisce	-6227
▁angolo	-6228
pla	-6229
dal	-6230
▁cass	-6231
▁fid	-6232
▁Nor	-6233
▁continuo	-6234
▁esistono	-6235
▁consigliere	-6236
tenze	-6237
/200	-6238
▁elettro	-6239
ase	-6240
▁Pubbli	-6241
▁botti	-6242
▁up	-6243
▁idro	-6244
▁lavorato	-6245
▁vorrei	-6246
▁voti	-6247
▁priori	-6248
▁inc	-6249
▁denuncia	-6250
▁festival	-6251
▁Pier	-6252
nel	-6253
lico	-6254
cesi	-6255
tern	-6256
bba	-6257
landa	-6258
uova	-6259
▁Samsung	-6260
▁Prote	-6261
ceo	-6262
pedia	-6263
▁Res	-6264
▁maglia	-6265
▁normativa	-6266
▁Sardegna	-6267
ness	-6268
▁calendario	-6269
ccell	-6270
pping	-6271
ontana	-6272
▁tasso	-6273
▁compati	-6274
interesse	-6275
▁transi	-6276
▁record	-6277
▁scompar	-6278
▁carabinieri	-6279
▁pubblicita	-6280
▁proi	-6281
▁Europea	-6282
ink	-6283
▁)	-6284
▁navigazione	-6285
▁esser	-6286
▁canzone	-6287
▁cosi	-6288
uol	-6289
▁naturalmente	-6290
▁solamente	-6291
insegna	-6292
▁benefi	-6293
▁arricchi	-6294
▁pronta	-6295
▁vecchia	-6296
lismo	-6297
▁avvicina	-6298
▁agrico	-6299
▁impossibile	-6300
lesc	-6301
▁divertimento	-6302
▁tavola	-6303
ars	-6304
▁ragioni	-6305
gger	-6306
▁Comitato	-6307
▁fattori	-6308
▁costrui	-6309
▁Quello	-6310
▁venga	-6311
▁soddisfazione	-6312
▁privata	-6313
▁masch	-6314
▁tappe	-6315
aiuto	-6316
▁ultima	-6317
▁assoluto	-6318
▁Parma	-6319
ney	-6320
ziamento	-6321
▁parlando	-6322
onimo	-6323
zzino	-6324
ship	-6325
▁esibi	-6326
▁y	-6327
▁desideri	-6328
rle	-6329
mpions	-6330
▁universi	-6331
▁inviare	-6332
▁acquisti	-6333
▁caro	-6334
▁politici	-6335
▁silenzio	-6336
▁esattamente	-6337
ruire	-6338
▁metodi	-6339
tù	-6340
▁coraggio	-6341
▁Molto	-6342
▁procedure	-6343
▁dista	-6344
▁farina	-6345
▁mettendo	-6346
▁sappiamo	-6347
▁entrambe	-6348
▁familiare	-6349
▁temperature	-6350
▁Porta	-6351
▁fede	-6352
▁legato	-6353
▁1°	-6354
mbiente	-6355
tò	-6356
▁consapevolezza	-6357
22	-6358
ny	-6359
▁play	-6360
tola	-6361
ood	-6362
▁Campania	-6363
pressione	-6364
lizzate	-6365
▁volete	-6366
▁fortemente	-6367
▁finali	-6368
canti	-6369
virus	-6370
▁acciaio	-6371
gliano	-6372
▁Gala	-6373
▁denti	-6374
istitu	-6375
▁aggre	-6376
▁contributi	-6377
▁Scri	-6378
▁socio	-6379
▁alberghi	-6380
▁utilizzata	-6381
entato	-6382
▁istru	-6383
▁esterni	-6384
▁marchi	-6385
▁sorpren	-6386
die	-6387
▁sorpresa	-6388
collo	-6389
estici	-6390
▁scritta	-6391
▁interamente	-6392
▁scolastico	-6393
▁Sindaco	-6394
frica	-6395
▁Black	-6396
mblea	-6397
gliari	-6398
▁riuscire	-6399
▁leggermente	-6400
▁Piano	-6401
apos	-6402
▁segnale	-6403
▁splendi	-6404
▁Sempre	-6405
▁finito	-6406
▁terapia	-6407
▁definizione	-6408
effetto	-6409
▁gambe	-6410
alta	-6411
cari	-6412
ens	-6413
▁sensazione	-6414
▁Fabio	-6415
▁accusa	-6416
▁trasfer	-6417
▁calcia	-6418
cchetti	-6419
▁ditta	-6420
▁attori	-6421
PR	-6422
erno	-6423
▁forum	-6424
▁sconti	-6425
▁Nicola	-6426
▁sintomi	-6427
▁incom	-6428
▁Cine	-6429
▁Nu	-6430
stre	-6431
▁Ancora	-6432
cello	-6433
▁Aggiun	-6434
▁denun	-6435
▁Gal	-6436
▁moderni	-6437
mosi	-6438
artamenti	-6439
giorno	-6440
▁bellissimo	-6441
nare	-6442
cito	-6443
▁giudizio	-6444
▁dichiara	-6445
▁sopravvi	-6446
▁attrib	-6447
▁free	-6448
▁lievi	-6449
AG	-6450
▁Banca	-6451
▁sva	-6452
▁solidarietà	-6453
▁inde	-6454
▁bando	-6455
▁morti	-6456
▁cinese	-6457
▁percentuale	-6458
onal	-6459
cket	-6460
▁umana	-6461
▁Contro	-6462
▁Articolo	-6463
▁propor	-6464
▁favori	-6465
▁sentito	-6466
▁panorama	-6467
▁debu	-6468
▁tanta	-6469
▁100%	-6470
▁2007	-6471
▁richied	-6472
▁Ten	-6473
▁dibatti	-6474
36	-6475
ufficio	-6476
▁residenti	-6477
▁Alberto	-6478
▁gravid	-6479
▁impatto	-6480
▁divertente	-6481
▁elettorale	-6482
▁sinc	-6483
▁rinun	-6484
▁aro	-6485
▁Sabato	-6486
▁tab	-6487
tz	-6488
▁stadio	-6489
▁virus	-6490
lievi	-6491
▁artistico	-6492
▁meccanis	-6493
▁Radio	-6494
▁lancio	-6495
▁Siste	-6496
zialmente	-6497
▁pubbliche	-6498
Vi	-6499
▁svolgere	-6500
▁volontari	-6501
75	-6502
▁fatica	-6503
▁ferrovia	-6504
▁venne	-6505
▁splendida	-6506
’8	-6507
▁procedere	-6508
roga	-6509
sconi	-6510
▁Sho	-6511
stino	-6512
▁oma	-6513
▁conve	-6514
▁vedo	-6515
orzio	-6516
▁riuscita	-6517
▁principalmente	-6518
▁sospen	-6519
▁precisa	-6520
▁iniziale	-6521
▁conseguenze	-6522
▁comportamento	-6523
▁Prog	-6524
nale	-6525
prima	-6526
▁riportato	-6527
▁passando	-6528
▁legate	-6529
inata	-6530
▁Nove	-6531
▁sh	-6532
teli	-6533
▁prossime	-6534
▁lanciato	-6535
▁bere	-6536
ospedale	-6537
atmosfera	-6538
En	-6539
ggeri	-6540
▁collegamento	-6541
▁Trib	-6542
loni	-6543
▁trasfor	-6544
installazione	-6545
ellino	-6546
▁avver	-6547
ensore	-6548
▁carb	-6549
▁esterna	-6550
▁tranquilla	-6551
▁bina	-6552
▁deten	-6553
▁ricette	-6554
▁riven	-6555
▁clo	-6556
▁Mana	-6557
lusconi	-6558
▁colleghi	-6559
▁2018.	-6560
esia	-6561
▁arrivati	-6562
▁produrre	-6563
tili	-6564
cli	-6565
▁Crea	-6566
▁pressi	-6567
▁trovate	-6568
▁laurea	-6569
ottima	-6570
▁Insta	-6571
▁americano	-6572
▁brani	-6573
▁compreso	-6574
▁docenti	-6575
inci	-6576
▁Sce	-6577
▁Anton	-6578
▁Comple	-6579
▁funzion	-6580
▁giustizia	-6581
▁vuol	-6582
▁idra	-6583
▁infi	-6584
▁capp	-6585
▁episodi	-6586
▁eliminare	-6587
vic	-6588
▁favorire	-6589
preso	-6590
▁USA	-6591
▁34	-6592
ossa	-6593
nali	-6594
▁posizioni	-6595
▁ascoltare	-6596
▁discorso	-6597
▁altrimenti	-6598
▁avrebbero	-6599
teriormente	-6600
logici	-6601
:30	-6602
Bo	-6603
▁personalità	-6604
tolo	-6605
▁Vir	-6606
▁osta	-6607
▁inna	-6608
▁abbra	-6609
wser	-6610
venuto	-6611
▁”	-6612
▁impianto	-6613
▁popolari	-6614
▁lasciando	-6615
▁work	-6616
▁sostanza	-6617
▁ufficio	-6618
▁anticipo	-6619
Sono	-6620
▁tela	-6621
enico	-6622
word	-6623
▁sapore	-6624
untamenti	-6625
▁Champions	-6626
▁ricercatori	-6627
▁destinazione	-6628
▁que	-6629
▁notifiche	-6630
▁segretario	-6631
▁Pan	-6632
▁Compa	-6633
▁principio	-6634
▁notevole	-6635
▁include	-6636
▁fabbrica	-6637
▁this	-6638
▁minima	-6639
pori	-6640
▁=	-6641
▁pò	-6642
gnora	-6643
rella	-6644
▁Italy	-6645
▁perfe	-6646
uali	-6647
▁risa	-6648
▁portando	-6649
diali	-6650
▁Ulti	-6651
tinera	-6652
▁appa	-6653
ames	-6654
▁canzoni	-6655
gamo	-6656
▁fossero	-6657
▁atleti	-6658
▁aumenta	-6659
▁ghia	-6660
▁diplo	-6661
▁specifici	-6662
▁palco	-6663
▁dedicati	-6664
▁significato	-6665
98	-6666
try	-6667
▁Mess	-6668
▁Codice	-6669
▁meteo	-6670
▁decide	-6671
21	-6672
▁dialogo	-6673
▁turisti	-6674
ETA	-6675
▁linguaggio	-6676
Com	-6677
▁Padova	-6678
▁cioccolato	-6679
▁colp	-6680
▁cassa	-6681
▁stava	-6682
▁presentata	-6683
▁privacy	-6684
umu	-6685
▁rassegna	-6686
▁improvvi	-6687
berg	-6688
▁eccessi	-6689
▁tentativo	-6690
▁sanno	-6691
▁commissione	-6692
xt	-6693
▁mobilità	-6694
▁gravidanza	-6695
▁pioggia	-6696
▁individuare	-6697
▁magistra	-6698
▁modifiche	-6699
▁sentenza	-6700
▁modificare	-6701
▁portati	-6702
▁trattamenti	-6703
▁chitar	-6704
▁ja	-6705
▁veloci	-6706
▁Lan	-6707
▁spina	-6708
▁38	-6709
pt	-6710
-4	-6711
▁Os	-6712
▁avvenuto	-6713
▁permettere	-6714
▁musici	-6715
▁eseguire	-6716
▁Angel	-6717
▁molta	-6718
▁Marina	-6719
▁importanza	-6720
The	-6721
▁alimentari	-6722
▁catalogo	-6723
▁book	-6724
▁lettore	-6725
▁affinché	-6726
▁orienta	-6727
ggiate	-6728
▁Mare	-6729
identi	-6730
▁Cristo	-6731
▁recensione	-6732
▁ber	-6733
▁treni	-6734
ghie	-6735
▁alte	-6736
▁Blo	-6737
▁Russia	-6738
▁notare	-6739
Do	-6740
▁anch	-6741
▁inserito	-6742
uch	-6743
▁predisp	-6744
▁riempi	-6745
▁City	-6746
▁disegna	-6747
▁weekend	-6748
nea	-6749
▁precisione	-6750
▁—	-6751
lette	-6752
▁scadenza	-6753
ros	-6754
▁dimenticare	-6755
▁Lei	-6756
▁straordinario	-6757
▁AR	-6758
▁imprenditori	-6759
▁relax	-6760
▁riforma	-6761
▁(4	-6762
▁fatte	-6763
▁appuntamenti	-6764
▁Sor	-6765
▁2018,	-6766
vamento	-6767
▁cammino	-6768
▁intervista	-6769
desco	-6770
▁Twitter	-6771
▁potente	-6772
▁cerimonia	-6773
▁NO	-6774
▁Coppa	-6775
▁marca	-6776
▁Studio	-6777
▁voler	-6778
▁riflessione	-6779
VO	-6780
esterno	-6781
▁box	-6782
▁Opera	-6783
▁ponte	-6784
▁Claudio	-6785
▁raccogliere	-6786
▁maggiormente	-6787
▁scarica	-6788
▁stamp	-6789
▁Intanto	-6790
Di	-6791
cker	-6792
▁mede	-6793
▁professionista	-6794
▁sopp	-6795
acco	-6796
95	-6797
▁escur	-6798
▁vissuto	-6799
▁affermato	-6800
var	-6801
▁recuperare	-6802
▁diam	-6803
▁ripe	-6804
▁Ur	-6805
ltà	-6806
▁cucchia	-6807
ticità	-6808
▁contrasto	-6809
▁armi	-6810
mestre	-6811
▁intervenire	-6812
▁alcolismo	-6813
▁PDF	-6814
▁bir	-6815
▁elen	-6816
ennale	-6817
▁sviluppato	-6818
dico	-6819
▁tedesco	-6820
ave	-6821
▁offerto	-6822
rerà	-6823
▁news	-6824
como	-6825
▁storici	-6826
▁Nuova	-6827
▁Sto	-6828
metro	-6829
▁Sha	-6830
▁World	-6831
▁Maurizio	-6832
▁Italiano	-6833
ccando	-6834
▁clic	-6835
ganismo	-6836
elenco	-6837
▁Gabri	-6838
▁Risp	-6839
▁rivista	-6840
▁reddito	-6841
▁Mc	-6842
▁cantante	-6843
▁sostenibile	-6844
▁Para	-6845
▁Vincenzo	-6846
▁lusso	-6847
▁scopri	-6848
▁missione	-6849
ziosa	-6850
cciano	-6851
26	-6852
▁Fabri	-6853
▁formula	-6854
▁pulsante	-6855
▁Tom	-6856
▁Renzi	-6857
▁unghie	-6858
▁ges	-6859
ji	-6860
lun	-6861
voca	-6862
box	-6863
▁Ovviamente	-6864
cido	-6865
▁regolare	-6866
▁cambiato	-6867
▁conoscenze	-6868
▁ricche	-6869
33	-6870
▁viaggiare	-6871
▁Prin	-6872
▁infras	-6873
▁movimenti	-6874
▁pubblicità	-6875
onavirus	-6876
▁espresso	-6877
Lo	-6878
▁mix	-6879
entono	-6880
▁ricorso	-6881
▁conver	-6882
▁consecu	-6883
SE	-6884
utile	-6885
▁cifra	-6886
▁essenziale	-6887
▁scia	-6888
▁giunta	-6889
▁attacco	-6890
▁aspettare	-6891
▁195	-6892
zionati	-6893
trimoniale	-6894
ssero	-6895
▁programmazione	-6896
sive	-6897
▁ante	-6898
dotte	-6899
▁Guar	-6900
▁Design	-6901
▁Brescia	-6902
▁Purtroppo	-6903
▁arma	-6904
▁rilass	-6905
vest	-6906
gramma	-6907
▁it	-6908
PP	-6909
▁Premi	-6910
▁cinemato	-6911
▁agenzie	-6912
▁strategie	-6913
▁ambientali	-6914
▁confli	-6915
▁America	-6916
▁rappresentanti	-6917
▁compagnie	-6918
▁brano	-6919
tuni	-6920
▁verdu	-6921
▁pilota	-6922
▁48	-6923
▁Giulia	-6924
▁DA	-6925
trutture	-6926
▁vigore	-6927
▁trasferimento	-6928
▁comincia	-6929
ate	-6930
▁Certo	-6931
▁approccio	-6932
cus	-6933
▁fiume	-6934
▁sportiva	-6935
▁tendenza	-6936
▁Parlamento	-6937
▁dicono	-6938
▁finanziamento	-6939
day	-6940
▁bicicle	-6941
lizia	-6942
obbli	-6943
▁musicali	-6944
▁recentemente	-6945
▁ton	-6946
▁attraver	-6947
▁auten	-6948
▁fornito	-6949
tarsi	-6950
▁6,	-6951
▁My	-6952
▁furono	-6953
Pre	-6954
▁One	-6955
▁Indi	-6956
gnosi	-6957
dar	-6958
▁bandi	-6959
▁tiene	-6960
▁info	-6961
▁laboratori	-6962
ICA	-6963
▁Ke	-6964
▁scambio	-6965
cchiere	-6966
▁lumin	-6967
▁milli	-6968
▁conforte	-6969
▁inverna	-6970
▁cercato	-6971
▁attrezza	-6972
▁ulteriormente	-6973
▁bril	-6974
:0	-6975
ning	-6976
torni	-6977
▁Fia	-6978
▁was	-6979
▁risponde	-6980
▁Piemonte	-6981
▁Dove	-6982
▁ader	-6983
▁Har	-6984
TR	-6985
▁influenza	-6986
▁riserva	-6987
▁finire	-6988
▁Lavoro	-6989
▁eco	-6990
▁versioni	-6991
vani	-6992
siste	-6993
▁brevi	-6994
▁regime	-6995
▁AS	-6996
altezza	-6997
▁seria	-6998
▁are	-6999
▁capol	-7000
▁sacri	-7001
▁provvedimento	-7002
▁Potre	-7003
▁Dra	-7004
▁salvare	-7005
▁definire	-7006
▁proprietario	-7007
tron	-7008
▁consentire	-7009
chis	-7010
▁agevo	-7011
gusta	-7012
▁crede	-7013
▁cause	-7014
aut	-7015
▁errore	-7016
less	-7017
▁sogni	-7018
enz	-7019
▁Alex	-7020
enatore	-7021
▁NON	-7022
▁fila	-7023
▁definito	-7024
▁cosci	-7025
▁browser	-7026
▁sottolineato	-7027
▁VI	-7028
▁assegna	-7029
▁automobili	-7030
goro	-7031
▁facciamo	-7032
gran	-7033
mora	-7034
,.	-7035
▁Comunale	-7036
▁consenso	-7037
TTI	-7038
▁rispettivamente	-7039
▁deposi	-7040
▁candidato	-7041
tuniten	-7042
▁reca	-7043
▁schede	-7044
▁fred	-7045
▁Master	-7046
dore	-7047
▁Ligu	-7048
ult	-7049
▁radica	-7050
voluzione	-7051
▁minaccia	-7052
▁ap	-7053
▁curiosità	-7054
▁risparmiare	-7055
▁lettori	-7056
torità	-7057
▁Costa	-7058
bro	-7059
▁Torre	-7060
▁perde	-7061
▁diffuso	-7062
▁borsa	-7063
▁slot	-7064
dge	-7065
▁Internazionale	-7066
mobile	-7067
granti	-7068
▁leggero	-7069
▁lavorando	-7070
▁fate	-7071
▁riscaldamento	-7072
▁chiude	-7073
faccia	-7074
▁2019.	-7075
▁circolazione	-7076
gliata	-7077
esame	-7078
▁Civi	-7079
▁Feed	-7080
▁Far	-7081
▁stranieri	-7082
▁comma	-7083
▁metropoli	-7084
▁inedi	-7085
osci	-7086
archite	-7087
FF	-7088
▁parere	-7089
▁crimina	-7090
▁artigian	-7091
▁solare	-7092
▁Online	-7093
▁Wal	-7094
▁seguente	-7095
▁fratello	-7096
gelo	-7097
▁rivela	-7098
utore	-7099
▁monu	-7100
Li	-7101
28	-7102
▁parro	-7103
▁seduta	-7104
▁stradale	-7105
▁Berlusconi	-7106
nis	-7107
▁studente	-7108
▁Op	-7109
▁rib	-7110
▁vicina	-7111
▁vivono	-7112
▁creatività	-7113
▁vittima	-7114
▁acquistato	-7115
▁produttore	-7116
▁2017,	-7117
glianza	-7118
▁@	-7119
gari	-7120
▁spiri	-7121
▁tipologie	-7122
▁tasse	-7123
▁Alcuni	-7124
▁Dall	-7125
▁cittadinanza	-7126
nato	-7127
▁colpito	-7128
▁Hol	-7129
tene	-7130
▁firmato	-7131
▁condivisione	-7132
telo	-7133
▁resa	-7134
UO	-7135
▁espan	-7136
▁prestito	-7137
orsa	-7138
▁statuniten	-7139
▁scato	-7140
▁mari	-7141
▁ritra	-7142
▁danza	-7143
▁riusciti	-7144
▁destinato	-7145
pposizione	-7146
▁pall	-7147
ciati	-7148
▁rivolto	-7149
▁espon	-7150
aperto	-7151
39	-7152
ipo	-7153
mona	-7154
▁pesante	-7155
▁ripri	-7156
▁legisla	-7157
▁persino	-7158
logiche	-7159
Co	-7160
jo	-7161
▁automaticamente	-7162
▁finora	-7163
▁tardi	-7164
▁consentono	-7165
andosi	-7166
▁condotto	-7167
Agenzia	-7168
▁server	-7169
▁sar	-7170
ttorio	-7171
▁vicini	-7172
▁rime	-7173
▁finalità	-7174
china	-7175
▁lunghi	-7176
▁posteriore	-7177
▁pesca	-7178
ttata	-7179
▁lavorazione	-7180
▁Instagram	-7181
ccata	-7182
▁indu	-7183
impa	-7184
bole	-7185
lanza	-7186
▁poe	-7187
▁Ko	-7188
▁amministrazione	-7189
ttico	-7190
▁Simone	-7191
▁figure	-7192
sole	-7193
▁dichiarazione	-7194
▁2017.	-7195
▁morto	-7196
ingere	-7197
▁contattare	-7198
▁raccomanda	-7199
▁usufruire	-7200
doro	-7201
▁194	-7202
▁Reggio	-7203
▁muni	-7204
▁fresco	-7205
▁SC	-7206
usei	-7207
importante	-7208
▁passati	-7209
orsi	-7210
▁aiu	-7211
ziano	-7212
.)	-7213
▁David	-7214
▁sconfitta	-7215
▁Inn	-7216
▁serra	-7217
sson	-7218
▁approvato	-7219
▁orgo	-7220
▁appo	-7221
▁Signore	-7222
▁Nero	-7223
▁6.	-7224
▁velocemente	-7225
rola	-7226
▁contare	-7227
AC	-7228
▁We	-7229
▁ner	-7230
▁Chri	-7231
▁Apri	-7232
VE	-7233
cerà	-7234
▁display	-7235
▁difficili	-7236
PU	-7237
ric	-7238
tatore	-7239
▁250	-7240
:5	-7241
▁Fioren	-7242
▁carcere	-7243
▁coinvolti	-7244
▁composi	-7245
▁DE	-7246
terapia	-7247
▁accura	-7248
▁Film	-7249
lash	-7250
▁ospe	-7251
▁alimenti	-7252
▁tessuti	-7253
▁ovunque	-7254
▁neri	-7255
▁sostan	-7256
MEN	-7257
▁spagnolo	-7258
df	-7259
▁affian	-7260
bli	-7261
▁Sin	-7262
ampia	-7263
▁Universi	-7264
▁abili	-7265
▁manager	-7266
▁comunicare	-7267
▁rigi	-7268
gliamo	-7269
maco	-7270
ticamente	-7271
▁comodo	-7272
▁restare	-7273
▁fum	-7274
▁Sulla	-7275
▁idone	-7276
▁soccorso	-7277
▁emergenza	-7278
▁prenotazioni	-7279
▁approfi	-7280
27	-7281
soria	-7282
stata	-7283
giu	-7284
▁trattare	-7285
▁etc	-7286
▁produce	-7287
▁rendendo	-7288
ettando	-7289
gas	-7290
▁Foto	-7291
▁delib	-7292
visor	-7293
destra	-7294
▁vediamo	-7295
▁rimar	-7296
▁determinato	-7297
▁ran	-7298
▁Ferrari	-7299
▁mattino	-7300
▁ufficialmente	-7301
▁enorme	-7302
▁ritmo	-7303
▁Daniele	-7304
▁ufficiali	-7305
▁psico	-7306
▁Diparti	-7307
▁tel	-7308
tanni	-7309
▁offerti	-7310
tail	-7311
gement	-7312
▁ricom	-7313
▁costantemente	-7314
erai	-7315
▁lago	-7316
▁Federico	-7317
versario	-7318
▁costruito	-7319
GG	-7320
▁ossia	-7321
▁Ponte	-7322
▁dichiarazioni	-7323
sore	-7324
▁Ki	-7325
▁anziani	-7326
▁Cana	-7327
▁domici	-7328
▁ciascuno	-7329
▁120	-7330
▁interessato	-7331
hai	-7332
▁capaci	-7333
▁coniu	-7334
appuntamento	-7335
▁Cagliari	-7336
▁stagi	-7337
▁acu	-7338
▁Conta	-7339
▁tende	-7340
▁Servizi	-7341
▁utente	-7342
▁Rober	-7343
▁Regno	-7344
oss	-7345
stante	-7346
glione	-7347
▁pensione	-7348
Pi	-7349
▁Commer	-7350
utazione	-7351
PI	-7352
▁Fre	-7353
▁dipende	-7354
▁Corso	-7355
▁procura	-7356
dr	-7357
▁2016,	-7358
▁Fla	-7359
▁Sara	-7360
▁Molti	-7361
▁Park	-7362
pria	-7363
▁bilan	-7364
▁sacco	-7365
▁famosi	-7366
▁organizzazioni	-7367
▁giocato	-7368
▁valido	-7369
▁Visi	-7370
camere	-7371
▁paesaggio	-7372
▁Salvatore	-7373
▁problematiche	-7374
▁gesto	-7375
▁terrori	-7376
▁infini	-7377
dizioni	-7378
▁frequenta	-7379
▁concerti	-7380
▁consiste	-7381
▁elettrico	-7382
set	-7383
▁Altri	-7384
▁osserva	-7385
▁quadri	-7386
▁candidati	-7387
▁Red	-7388
▁conven	-7389
▁costu	-7390
▁semina	-7391
▁profondo	-7392
???	-7393
▁europee	-7394
▁Salvini	-7395
sen	-7396
vente	-7397
chestra	-7398
▁consegui	-7399
▁aziendali	-7400
venza	-7401
▁Lun	-7402
▁anali	-7403
uovo	-7404
▁prestazione	-7405
1%	-7406
▁scrittura	-7407
▁godere	-7408
▁PS	-7409
▁Mil	-7410
▁Davide	-7411
▁militare	-7412
▁Fino	-7413
▁centroca	-7414
▁museo	-7415
▁esor	-7416
▁Ban	-7417
giano	-7418
itore	-7419
▁proporre	-7420
▁proteggere	-7421
geni	-7422
▁settiman	-7423
colari	-7424
▁37	-7425
▁Fami	-7426
▁chat	-7427
▁Mondo	-7428
essero	-7429
▁docente	-7430
▁bagni	-7431
▁Consul	-7432
▁contratti	-7433
▁consumi	-7434
▁applicare	-7435
▁tute	-7436
ado	-7437
guono	-7438
ccini	-7439
▁argomenti	-7440
▁frequenza	-7441
▁Svizzera	-7442
▁deposito	-7443
▁Già	-7444
▁ospedali	-7445
▁preventivo	-7446
▁75	-7447
▁spo	-7448
▁sfruttare	-7449
▁from	-7450
gal	-7451
▁polvere	-7452
▁sportive	-7453
▁svolgerà	-7454
ccupazione	-7455
estri	-7456
▁gusti	-7457
AI	-7458
▁suddi	-7459
scia	-7460
▁avvol	-7461
▁albergo	-7462
onate	-7463
▁Aff	-7464
▁Ide	-7465
EO	-7466
▁comunali	-7467
▁circuito	-7468
▁artistica	-7469
▁benissimo	-7470
moro	-7471
sal	-7472
▁Pers	-7473
▁incor	-7474
tic	-7475
▁selezionare	-7476
▁amanti	-7477
▁permetterà	-7478
▁Mel	-7479
▁visualizzare	-7480
▁Tour	-7481
▁cera	-7482
bel	-7483
▁somma	-7484
▁occi	-7485
▁realizzate	-7486
▁cittadina	-7487
▁assisti	-7488
▁ere	-7489
▁diretti	-7490
▁Pen	-7491
▁appartamenti	-7492
▁ultra	-7493
▁55	-7494
escovo	-7495
fero	-7496
▁forn	-7497
▁cerchi	-7498
▁famosa	-7499
▁Castello	-7500
▁back	-7501
▁Messa	-7502
▁sanitaria	-7503
▁Bio	-7504
▁tipici	-7505
ganza	-7506
▁telefoni	-7507
▁grigio	-7508
▁regolamento	-7509
▁riguardano	-7510
▁ferma	-7511
▁Sergio	-7512
▁ricordi	-7513
▁stomaco	-7514
▁Giappone	-7515
▁utilizzate	-7516
▁attua	-7517
▁accompagnato	-7518
▁incontrare	-7519
▁abiti	-7520
▁Enrico	-7521
assistenza	-7522
tono	-7523
▁celebre	-7524
▁later	-7525
erva	-7526
▁natali	-7527
▁2015,	-7528
inqu	-7529
zzini	-7530
▁colpa	-7531
▁Team	-7532
udo	-7533
ucci	-7534
landese	-7535
▁Fal	-7536
▁private	-7537
▁affascin	-7538
▁Francesca	-7539
intervista	-7540
Amministrazione	-7541
▁asciuga	-7542
▁Direttore	-7543
▁riscontra	-7544
▁pc	-7545
▁rall	-7546
▁Regionale	-7547
unni	-7548
▁manuale	-7549
▁Download	-7550
back	-7551
tensione	-7552
vecchia	-7553
▁profondità	-7554
dibili	-7555
▁minore	-7556
▁pianeta	-7557
ttate	-7558
fono	-7559
▁nasc	-7560
▁portano	-7561
▁legata	-7562
▁Attra	-7563
▁energetico	-7564
▁Her	-7565
▁burro	-7566
▁palazzo	-7567
▁Dipartimento	-7568
UE	-7569
▁Ess	-7570
gresso	-7571
▁studiare	-7572
ther	-7573
▁esprimere	-7574
▁Ani	-7575
terraneo	-7576
▁logo	-7577
96	-7578
letto	-7579
▁aspi	-7580
▁sil	-7581
▁compagno	-7582
▁esclusiva	-7583
ditori	-7584
▁uova	-7585
▁vincitore	-7586
▁riparti	-7587
▁gene	-7588
chiesta	-7589
▁pone	-7590
▁mancano	-7591
▁Leonardo	-7592
▁180	-7593
▁pareti	-7594
▁core	-7595
obbligo	-7596
”:	-7597
▁Tale	-7598
▁cellule	-7599
▁rock	-7600
▁amb	-7601
-5	-7602
▁altamente	-7603
occhio	-7604
▁tasti	-7605
▁sente	-7606
▁poesia	-7607
▁ospita	-7608
▁porterà	-7609
▁vecchi	-7610
▁comprom	-7611
ban	-7612
chine	-7613
▁dibattito	-7614
ruzzo	-7615
▁equilibrio	-7616
core	-7617
.1	-7618
out	-7619
▁suono	-7620
▁servono	-7621
▁nottu	-7622
▁creando	-7623
▁Je	-7624
▁Pisa	-7625
▁ancor	-7626
▁converti	-7627
▁chiaramente	-7628
▁muro	-7629
▁installare	-7630
tas	-7631
shop	-7632
ccessi	-7633
▁sicura	-7634
ttuale	-7635
agenzia	-7636
innovazione	-7637
▁compresa	-7638
▁restitui	-7639
▁avventura	-7640
gliate	-7641
fficienti	-7642
▁Raffa	-7643
▁esperto	-7644
▁art	-7645
▁cattura	-7646
▁65	-7647
▁elevato	-7648
aumento	-7649
▁positivi	-7650
▁Bur	-7651
▁borse	-7652
▁600	-7653
▁equipa	-7654
▁Trova	-7655
▁operazione	-7656
▁Max	-7657
▁stabile	-7658
ditore	-7659
ccademia	-7660
▁vedrà	-7661
▁alluminio	-7662
▁industriali	-7663
▁congi	-7664
▁puo	-7665
▁insomma	-7666
▁sicuri	-7667
zzante	-7668
.....	-7669
▁automatico	-7670
▁trovo	-7671
▁braccia	-7672
ongono	-7673
erano	-7674
▁torneo	-7675
uiti	-7676
▁Vita	-7677
▁coppie	-7678
▁Vuoi	-7679
bergo	-7680
ccati	-7681
▁giudice	-7682
▁segni	-7683
ye	-7684
▁Ass	-7685
▁accaduto	-7686
▁fantasia	-7687
vetta	-7688
▁Ved	-7689
resto	-7690
▁scorre	-7691
▁cominciare	-7692
▁giornalisti	-7693
malmente	-7694
▁fratelli	-7695
fon	-7696
tage	-7697
▁raggiunge	-7698
▁alco	-7699
▁fidanza	-7700
▁Carabinieri	-7701
archi	-7702
▁trattati	-7703
▁manifestazioni	-7704
▁moltep	-7705
▁narra	-7706
▁andando	-7707
▁antichi	-7708
46	-7709
▁LE	-7710
▁Classi	-7711
▁rapido	-7712
▁capitolo	-7713
▁tocco	-7714
▁pensieri	-7715
▁-.	-7716
▁mandato	-7717
▁Chiara	-7718
▁rapida	-7719
▁condotta	-7720
▁dormi	-7721
▁individ	-7722
▁positiva	-7723
▁dotto	-7724
onibile	-7725
▁disabili	-7726
▁complessivo	-7727
▁sportivi	-7728
▁Nuovo	-7729
Bay	-7730
▁ritiro	-7731
▁Bergamo	-7732
▁spettacoli	-7733
▁commissa	-7734
▁potenziale	-7735
soli	-7736
▁blocco	-7737
onaco	-7738
lone	-7739
▁leggera	-7740
▁alberi	-7741
▁vedre	-7742
▁vul	-7743
ERE	-7744
erito	-7745
▁diffon	-7746
▁diventata	-7747
reria	-7748
▁partiti	-7749
▁frui	-7750
▁convo	-7751
cellona	-7752
38	-7753
▁Confer	-7754
▁presentano	-7755
commer	-7756
▁location	-7757
▁igno	-7758
reak	-7759
▁inven	-7760
▁2019,	-7761
▁suppor	-7762
▁saputo	-7763
▁Sette	-7764
▁Può	-7765
mmobile	-7766
OLO	-7767
▁7,	-7768
▁ROM	-7769
▁pacchetto	-7770
eld	-7771
PO	-7772
▁check	-7773
▁origini	-7774
▁dico	-7775
▁celebra	-7776
▁alternative	-7777
▁tracce	-7778
▁Legge	-7779
▁ricarica	-7780
▁Digi	-7781
▁etiche	-7782
▁combattere	-7783
▁parete	-7784
▁raccolto	-7785
▁sfide	-7786
▁insegnanti	-7787
▁investimento	-7788
viene	-7789
▁Ricer	-7790
▁classici	-7791
BILI	-7792
▁riconosciuto	-7793
▁emi	-7794
▁paesaggi	-7795
▁2016.	-7796
▁offri	-7797
▁accel	-7798
▁chiara	-7799
yn	-7800
▁consu	-7801
▁Sele	-7802
▁vettura	-7803
▁incredibile	-7804
inale	-7805
mella	-7806
▁sai	-7807
▁vite	-7808
▁superato	-7809
▁segnali	-7810
▁spero	-7811
NI	-7812
sura	-7813
▁Ann	-7814
▁intero	-7815
▁assoluta	-7816
▁americana	-7817
▁ritardo	-7818
▁amiche	-7819
▁privile	-7820
▁materie	-7821
utati	-7822
▁completare	-7823
▁aus	-7824
▁generazioni	-7825
denzi	-7826
▁Galaxy	-7827
ventura	-7828
▁Riccar	-7829
▁satelli	-7830
iale	-7831
▁rial	-7832
▁marcia	-7833
▁pellicola	-7834
▁indispensabile	-7835
espon	-7836
▁cure	-7837
▁tutt	-7838
▁Ada	-7839
essori	-7840
mula	-7841
▁specializzata	-7842
▁Moto	-7843
uolo	-7844
▁composizione	-7845
**	-7846
▁considerare	-7847
▁cavo	-7848
▁pomo	-7849
▁tetto	-7850
▁avesse	-7851
▁Generale	-7852
▁componente	-7853
▁certe	-7854
▁sig	-7855
▁decisioni	-7856
▁punteggio	-7857
▁caratteristica	-7858
ub	-7859
▁abbond	-7860
▁troverai	-7861
▁sento	-7862
▁foglie	-7863
ggiano	-7864
▁Sotto	-7865
amb	-7866
▁risposto	-7867
▁definitiva	-7868
▁caratterizzato	-7869
▁pubblicata	-7870
▁vasca	-7871
▁trasformazione	-7872
ama	-7873
▁Stan	-7874
annun	-7875
fran	-7876
▁petto	-7877
▁proprietari	-7878
▁fla	-7879
▁avvicin	-7880
▁Movimento	-7881
▁render	-7882
▁aspettative	-7883
▁Art	-7884
▁vedi	-7885
▁Mondiale	-7886
▁presid	-7887
▁accon	-7888
tativo	-7889
▁scientifica	-7890
nei	-7891
tions	-7892
lotto	-7893
▁palestra	-7894
onne	-7895
▁guidata	-7896
▁scrittore	-7897
▁800	-7898
▁mole	-7899
▁ped	-7900
▁riposo	-7901
▁consentito	-7902
▁Diri	-7903
▁cala	-7904
▁festi	-7905
▁quarta	-7906
▁volontaria	-7907
state	-7908
▁quaran	-7909
anzitutto	-7910
▁raccolti	-7911
▁organizzazione	-7912
▁lomb	-7913
appartamento	-7914
▁Cerca	-7915
▁spettatori	-7916
▁omaggio	-7917
▁membro	-7918
▁SI	-7919
▁Sì	-7920
dentale	-7921
informazione	-7922
%).	-7923
▁succede	-7924
▁identità	-7925
▁Barba	-7926
▁AM	-7927
▁sostiene	-7928
ffet	-7929
mante	-7930
▁decine	-7931
▁scenario	-7932
▁Tribunale	-7933
▁Cari	-7934
▁filosofia	-7935
TRA	-7936
ruzione	-7937
▁Real	-7938
▁Bruno	-7939
▁felici	-7940
▁riescono	-7941
▁tensione	-7942
mas	-7943
▁Mauro	-7944
strada	-7945
grado	-7946
vanta	-7947
▁autobus	-7948
▁valida	-7949
▁esercizio	-7950
▁eccellente	-7951
▁sottile	-7952
gricoltura	-7953
gibile	-7954
iner	-7955
▁1000	-7956
▁7.	-7957
▁documentazione	-7958
tudini	-7959
▁passata	-7960
xel	-7961
foni	-7962
▁he	-7963
▁impegnati	-7964
▁mostrato	-7965
▁raccontato	-7966
▁aperti	-7967
▁togliere	-7968
▁Procura	-7969
▁Contra	-7970
▁Messina	-7971
▁spiagge	-7972
▁fotografie	-7973
▁usando	-7974
▁GI	-7975
▁rece	-7976
▁Allora	-7977
▁lati	-7978
▁Picco	-7979
▁tematiche	-7980
▁uscito	-7981
▁collezioni	-7982
▁sur	-7983
ricato	-7984
▁appre	-7985
▁talento	-7986
▁incenti	-7987
▁isola	-7988
▁Patri	-7989
cipe	-7990
▁continuano	-7991
manu	-7992
▁rappresentare	-7993
hion	-7994
▁eBay	-7995
fu	-7996
ficiale	-7997
▁intenzione	-7998
▁Trip	-7999
▁Angelo	-8000
▁promosso	-8001
tagne	-8002
▁arro	-8003
vino	-8004
▁maestro	-8005
▁impresa	-8006
▁infort	-8007
▁liberi	-8008
▁Barcellona	-8009
▁promuo	-8010
97	-8011
▁anda	-8012
▁compra	-8013
istica	-8014
▁inviato	-8015
▁curato	-8016
▁stupi	-8017
▁dedicate	-8018
▁attrezzature	-8019
▁finanziaria	-8020
mbro	-8021
▁elenco	-8022
kers	-8023
34	-8024
▁digni	-8025
▁essenziali	-8026
▁intui	-8027
▁vince	-8028
▁dirigente	-8029
▁triste	-8030
▁intenso	-8031
dosso	-8032
esposizione	-8033
▁International	-8034
▁IM	-8035
arch	-8036
▁Pesca	-8037
▁Vittorio	-8038
▁Cristi	-8039
▁minimi	-8040
htt	-8041
▁terzi	-8042
▁assenza	-8043
▁igi	-8044
▁ministero	-8045
▁sanitario	-8046
▁Book	-8047
▁scal	-8048
terne	-8049
▁2006	-8050
▁ac	-8051
▁probabilità	-8052
▁caduta	-8053
▁monitoraggio	-8054
▁energetica	-8055
▁your	-8056
sogna	-8057
atch	-8058
mino	-8059
▁sosta	-8060
licata	-8061
▁attacchi	-8062
▁britanni	-8063
▁unici	-8064
▁esami	-8065
▁ospedale	-8066
▁Wa	-8067
even	-8068
▁funzionale	-8069
▁successiva	-8070
gola	-8071
▁farci	-8072
▁incen	-8073
impatto	-8074
▁SO	-8075
▁coopera	-8076
▁sostituzione	-8077
velo	-8078
▁Off	-8079
▁trend	-8080
bino	-8081
▁dotata	-8082
▁collegamenti	-8083
▁tradizioni	-8084
▁finisce	-8085
▁Modena	-8086
▁andre	-8087
▁fascino	-8088
▁preciso	-8089
▁terremo	-8090
▁garantendo	-8091
GB	-8092
pà	-8093
▁fuga	-8094
▁fantastico	-8095
zzar	-8096
▁USB	-8097
▁archeolo	-8098
▁Romagna	-8099
▁virtuale	-8100
cimento	-8101
darsi	-8102
▁debole	-8103
vori	-8104
▁Sole	-8105
▁innovazione	-8106
▁dott	-8107
▁elevata	-8108
▁delicato	-8109
gomento	-8110
▁partendo	-8111
▁migranti	-8112
▁colonna	-8113
▁persi	-8114
37	-8115
▁difen	-8116
py	-8117
▁singola	-8118
▁aggiornati	-8119
▁altezza	-8120
▁10,	-8121
▁PR	-8122
▁sonda	-8123
▁alunni	-8124
▁ripi	-8125
▁certificazione	-8126
ffice	-8127
▁comportamenti	-8128
▁Group	-8129
▁compresi	-8130
▁cra	-8131
▁sugger	-8132
ham	-8133
▁maschile	-8134
rendimento	-8135
▁elettrici	-8136
Da	-8137
▁prezioso	-8138
▁costituito	-8139
▁escursioni	-8140
▁antico	-8141
▁segreto	-8142
ziali	-8143
▁forniti	-8144
▁opinioni	-8145
gitto	-8146
▁FI	-8147
▁questioni	-8148
Gi	-8149
▁racconti	-8150
88	-8151
sazioni	-8152
viso	-8153
▁secoli	-8154
▁usati	-8155
▁canto	-8156
▁spessore	-8157
pic	-8158
▁orario	-8159
▁accumu	-8160
▁disegni	-8161
▁39	-8162
edificio	-8163
▁seri	-8164
▁antica	-8165
▁prevalentemente	-8166
ghezza	-8167
▁giudizia	-8168
▁Attu	-8169
▁ospite	-8170
▁convegno	-8171
ica	-8172
cetta	-8173
geno	-8174
▁generalmente	-8175
▁sesso	-8176
▁investire	-8177
bita	-8178
▁atmos	-8179
▁42	-8180
▁correttamente	-8181
estione	-8182
astica	-8183
........	-8184
▁confezione	-8185
perto	-8186
cha	-8187
illu	-8188
▁piattaforme	-8189
▁veniva	-8190
▁incidente	-8191
▁corto	-8192
▁Comunque	-8193
gire	-8194
▁ingegn	-8195
ologia	-8196
▁Anti	-8197
stati	-8198
▁Campo	-8199
met	-8200
iler	-8201
ettiamo	-8202
▁schiena	-8203
▁annuale	-8204
▁pesanti	-8205
▁baga	-8206
▁Bella	-8207
▁trama	-8208
ring	-8209
▁sfu	-8210
▁Data	-8211
pponese	-8212
quo	-8213
▁tosc	-8214
▁esame	-8215
intro	-8216
▁tocca	-8217
▁criteri	-8218
▁competizione	-8219
affi	-8220
▁Vis	-8221
quila	-8222
▁Salerno	-8223
▁Possi	-8224
▁Svilu	-8225
ggiornamento	-8226
▁installazione	-8227
▁Sistema	-8228
▁pratico	-8229
▁proseguire	-8230
▁trascorrere	-8231
▁frazione	-8232
▁crista	-8233
▁effettuata	-8234
CIETA	-8235
della	-8236
MS	-8237
▁agire	-8238
▁Bern	-8239
▁Segui	-8240
▁esserci	-8241
▁stabilità	-8242
▁regia	-8243
onalmente	-8244
44	-8245
32	-8246
▁More	-8247
▁disc	-8248
▁disturbi	-8249
▁rilasciato	-8250
▁convinto	-8251
▁aiuti	-8252
▁frutti	-8253
▁MI	-8254
▁terrazza	-8255
▁Video	-8256
▁Calcio	-8257
yer	-8258
▁coinvolto	-8259
▁credere	-8260
indagine	-8261
▁intito	-8262
▁Fabrizio	-8263
▁vendere	-8264
▁prem	-8265
▁Hanno	-8266
▁valorizzazione	-8267
▁impegni	-8268
▁misteri	-8269
cidi	-8270
▁contribuire	-8271
▁netto	-8272
▁Ieri	-8273
zer	-8274
▁Mara	-8275
▁Otto	-8276
cing	-8277
▁previsioni	-8278
▁Massa	-8279
▁metallo	-8280
▁Giunta	-8281
%),	-8282
▁dovesse	-8283
▁ordini	-8284
▁ecolo	-8285
▁Rice	-8286
▁pasto	-8287
atto	-8288
cciare	-8289
▁aperte	-8290
istiche	-8291
▁preparato	-8292
▁balcone	-8293
duci	-8294
▁priorità	-8295
▁Van	-8296
entare	-8297
▁comando	-8298
▁ind	-8299
tane	-8300
▁Tran	-8301
▁efficaci	-8302
▁molteplici	-8303
▁incu	-8304
▁Monti	-8305
ssio	-8306
▁scan	-8307
▁sfuma	-8308
▁Ari	-8309
▁coer	-8310
▁magne	-8311
▁commenta	-8312
▁successivi	-8313
▁eccezionale	-8314
angolo	-8315
tory	-8316
ara	-8317
▁Parte	-8318
▁esemp	-8319
▁Ministro	-8320
▁pronos	-8321
▁ES	-8322
▁Laura	-8323
▁riconoscere	-8324
▁toni	-8325
▁cornice	-8326
▁sinte	-8327
Ufficio	-8328
Au	-8329
▁torta	-8330
▁Filippo	-8331
▁continuità	-8332
▁asc	-8333
▁Tar	-8334
ttente	-8335
▁diso	-8336
▁ammirare	-8337
▁shopping	-8338
▁News	-8339
▁grosso	-8340
▁Costitu	-8341
▁designer	-8342
▁birra	-8343
▁Attraverso	-8344
▁prospettiva	-8345
cane	-8346
▁lampa	-8347
▁vedono	-8348
▁Phi	-8349
▁that	-8350
▁sorriso	-8351
▁professione	-8352
▁sensibilità	-8353
tecni	-8354
▁(201	-8355
ellini	-8356
▁dirigenti	-8357
▁milione	-8358
▁determin	-8359
por	-8360
▁http	-8361
▁lettere	-8362
▁avrei	-8363
▁GB	-8364
inca	-8365
▁accen	-8366
▁avrai	-8367
▁negativo	-8368
2020	-8369
cchiata	-8370
cciato	-8371
ziare	-8372
osamente	-8373
▁rispettare	-8374
▁carro	-8375
ERA	-8376
▁stretto	-8377
▁integrato	-8378
▁perche	-8379
▁Storia	-8380
▁catena	-8381
▁conveniente	-8382
▁cervello	-8383
▁medica	-8384
ttorie	-8385
▁Segre	-8386
▁MO	-8387
redi	-8388
▁gel	-8389
trico	-8390
importo	-8391
curi	-8392
▁effettivamente	-8393
ela	-8394
▁guide	-8395
▁episodio	-8396
▁individuale	-8397
▁glu	-8398
AD	-8399
▁impos	-8400
▁descrizione	-8401
▁svolgimento	-8402
▁letteratura	-8403
▁esce	-8404
▁adolesc	-8405
▁consultare	-8406
▁associazione	-8407
▁basato	-8408
▁incluso	-8409
▁raffred	-8410
▁condizionata	-8411
▁Temp	-8412
tona	-8413
▁dinamica	-8414
▁calci	-8415
▁sbar	-8416
ducazione	-8417
▁canta	-8418
▁Mai	-8419
▁Madri	-8420
▁2.0	-8421
derci	-8422
tuato	-8423
▁debito	-8424
▁ridotto	-8425
▁provvi	-8426
65	-8427
▁Store	-8428
▁efficiente	-8429
▁svilupp	-8430
▁Riccardo	-8431
▁emissioni	-8432
avan	-8433
ttra	-8434
▁ela	-8435
▁carre	-8436
▁Sare	-8437
▁dovuta	-8438
ttini	-8439
▁Mini	-8440
colla	-8441
hanno	-8442
pli	-8443
▁salire	-8444
▁profumo	-8445
▁premier	-8446
▁sfondo	-8447
▁dintorni	-8448
▁matrimoniale	-8449
▁infor	-8450
identità	-8451
▁conserva	-8452
▁civili	-8453
▁Out	-8454
versale	-8455
▁stagioni	-8456
▁frase	-8457
▁selva	-8458
▁odi	-8459
armi	-8460
remmo	-8461
▁diffusa	-8462
▁commentato	-8463
▁Primo	-8464
▁Como	-8465
▁lancia	-8466
bis	-8467
now	-8468
inea	-8469
▁residenza	-8470
▁ricordato	-8471
▁finita	-8472
▁Paola	-8473
▁legame	-8474
▁castello	-8475
De	-8476
▁Tras	-8477
▁2014,	-8478
▁correre	-8479
evoluzione	-8480
▁scientifico	-8481
Mo	-8482
▁Dai	-8483
neuma	-8484
▁doveva	-8485
anato	-8486
▁Scarica	-8487
goli	-8488
osizione	-8489
▁artista	-8490
▁pollici	-8491
▁precipi	-8492
▁riparazione	-8493
▁Smart	-8494
Abbiamo	-8495
▁diventano	-8496
▁valorizzare	-8497
▁sforzo	-8498
▁certificato	-8499
▁rossa	-8500
▁Tecni	-8501
▁campioni	-8502
▁44	-8503
▁regolarmente	-8504
▁Batti	-8505
▁banda	-8506
▁Feli	-8507
▁gentile	-8508
▁fresca	-8509
▁girone	-8510
gnerà	-8511
▁aggiu	-8512
▁ricostruzione	-8513
▁batte	-8514
▁Salute	-8515
▁attendere	-8516
▁certezza	-8517
▁eser	-8518
▁Forza	-8519
Siamo	-8520
▁mister	-8521
ficate	-8522
▁conservazione	-8523
▁legali	-8524
▁probabile	-8525
▁accettare	-8526
▁registrare	-8527
▁diagnosi	-8528
▁ster	-8529
▁Perugia	-8530
▁approfondire	-8531
▁dovere	-8532
“,	-8533
▁mancare	-8534
▁prevenire	-8535
▁clicca	-8536
▁abbigliamento	-8537
gos	-8538
▁suggerimenti	-8539
▁fermo	-8540
▁This	-8541
▁passeggeri	-8542
▁reazione	-8543
▁$	-8544
▁Siena	-8545
▁condom	-8546
▁visibile	-8547
▁patologie	-8548
aa	-8549
chezza	-8550
▁stima	-8551
vet	-8552
▁preli	-8553
▁coi	-8554
infanzia	-8555
▁hi	-8556
nota	-8557
ronto	-8558
▁menu	-8559
ficando	-8560
zziamo	-8561
tualità	-8562
▁riunione	-8563
▁rinunciare	-8564
▁new	-8565
▁ospitare	-8566
vina	-8567
▁realmente	-8568
▁rigore	-8569
▁reato	-8570
▁2015.	-8571
▁iner	-8572
zzetta	-8573
▁Basta	-8574
ministra	-8575
▁interne	-8576
▁vuoto	-8577
oggi	-8578
▁osteo	-8579
INI	-8580
▁gover	-8581
▁larga	-8582
▁Università	-8583
▁napole	-8584
Cer	-8585
▁tornato	-8586
▁Martin	-8587
▁esempi	-8588
▁preghi	-8589
issà	-8590
trin	-8591
sibile	-8592
▁coscienza	-8593
ttoni	-8594
▁Rome	-8595
▁Domenico	-8596
▁permetter	-8597
▁serio	-8598
Ne	-8599
▁(5	-8600
▁Jack	-8601
ospi	-8602
▁ottime	-8603
zzina	-8604
▁trasporti	-8605
▁GRA	-8606
▁deriva	-8607
▁costituisce	-8608
▁destinati	-8609
▁assicurare	-8610
Roma	-8611
▁over	-8612
▁parametri	-8613
tete	-8614
carlo	-8615
▁ipotesi	-8616
▁concreti	-8617
▁combinazione	-8618
▁Dol	-8619
▁kit	-8620
▁concorrenza	-8621
tagna	-8622
esistenza	-8623
▁sintesi	-8624
▁finestre	-8625
▁dotate	-8626
▁passaggi	-8627
tio	-8628
▁fattore	-8629
ag	-8630
▁differenze	-8631
▁chiamate	-8632
▁sanitari	-8633
UT	-8634
gnos	-8635
▁dimostrare	-8636
▁documen	-8637
▁rigoro	-8638
▁trading	-8639
▁dorsale	-8640
▁istituti	-8641
▁ruote	-8642
bol	-8643
▁Micha	-8644
▁redazione	-8645
▁gira	-8646
▁Gianni	-8647
▁Sanremo	-8648
esercizio	-8649
▁sana	-8650
▁offrendo	-8651
▁ebook	-8652
Advisor	-8653
▁largo	-8654
▁Ara	-8655
▁10.	-8656
▁altrettanto	-8657
▁Bat	-8658
▁tantissimi	-8659
▁Lecce	-8660
endosi	-8661
iscrizione	-8662
▁Ze	-8663
▁letti	-8664
▁bisogni	-8665
▁finanziari	-8666
▁08	-8667
inverno	-8668
tanea	-8669
▁rappresentato	-8670
▁specialmente	-8671
Tra	-8672
▁Spor	-8673
cinio	-8674
▁condiviso	-8675
▁gon	-8676
▁Sui	-8677
▁Giacomo	-8678
▁flo	-8679
▁mezza	-8680
▁Madrid	-8681
▁radici	-8682
▁vertica	-8683
▁confortevole	-8684
fin	-8685
▁giapponese	-8686
▁sapori	-8687
▁Char	-8688
▁Turi	-8689
▁Alb	-8690
▁lezione	-8691
▁Nas	-8692
▁9,	-8693
▁iper	-8694
▁riper	-8695
▁scendere	-8696
▁evidenzi	-8697
▁ombre	-8698
▁allenamento	-8699
▁dio	-8700
▁ara	-8701
tempo	-8702
▁Caro	-8703
hoto	-8704
matici	-8705
▁rispetta	-8706
▁integrazione	-8707
▁coinvolgimento	-8708
▁boni	-8709
▁apparen	-8710
gel	-8711
▁scomparsa	-8712
ttedra	-8713
▁Sembra	-8714
trali	-8715
▁mostrare	-8716
cno	-8717
▁AD	-8718
mea	-8719
▁assumere	-8720
▁sessione	-8721
▁costretto	-8722
▁eventualmente	-8723
▁incro	-8724
▁singole	-8725
▁tassa	-8726
▁itinera	-8727
▁Atten	-8728
▁villaggio	-8729
▁bravi	-8730
arese	-8731
▁avviare	-8732
▁sinis	-8733
▁sostenibilità	-8734
ude	-8735
▁remo	-8736
▁sostenuto	-8737
innastica	-8738
pper	-8739
▁merita	-8740
▁vicinanze	-8741
▁RE	-8742
▁perciò	-8743
base	-8744
▁Fai	-8745
▁grassi	-8746
▁cresce	-8747
▁rilascio	-8748
▁trimestre	-8749
▁50%	-8750
▁turistico	-8751
▁Num	-8752
▁Cali	-8753
▁capola	-8754
the	-8755
logio	-8756
▁papà	-8757
▁riflettere	-8758
29	-8759
▁domicilio	-8760
▁arriverà	-8761
▁Ore	-8762
▁degusta	-8763
▁sceglie	-8764
▁SS	-8765
albergo	-8766
larità	-8767
Una	-8768
▁cere	-8769
▁Donne	-8770
▁millimetri	-8771
▁duro	-8772
III	-8773
▁abitazione	-8774
▁disse	-8775
▁Eppure	-8776
▁stanze	-8777
▁Slo	-8778
Po	-8779
▁00	-8780
▁rotta	-8781
▁tariffa	-8782
▁croni	-8783
100	-8784
▁rivolta	-8785
▁Tech	-8786
▁cus	-8787
▁sostituire	-8788
▁flusso	-8789
Ass	-8790
▁EN	-8791
imm	-8792
stem	-8793
▁Rin	-8794
▁neuro	-8795
▁riesco	-8796
▁aggra	-8797
▁MAR	-8798
▁aran	-8799
▁darà	-8800
▁Muni	-8801
ttina	-8802
▁2020.	-8803
▁trasparenza	-8804
▁Green	-8805
▁posse	-8806
UL	-8807
▁lingue	-8808
▁considerata	-8809
▁360	-8810
▁Gas	-8811
▁avrete	-8812
ttenimento	-8813
attacco	-8814
▁definitivamente	-8815
QU	-8816
▁Center	-8817
male	-8818
▁Senato	-8819
▁esauri	-8820
▁Day	-8821
▁Capitale	-8822
smi	-8823
▁seg	-8824
▁Unito	-8825
▁Liguria	-8826
▁ragi	-8827
▁generi	-8828
So	-8829
mbria	-8830
ZIONI	-8831
ettivo	-8832
▁entrata	-8833
▁circolare	-8834
itali	-8835
▁complimenti	-8836
very	-8837
▁cami	-8838
▁pausa	-8839
▁cervi	-8840
▁prolun	-8841
cm	-8842
▁codi	-8843
▁Nello	-8844
mendo	-8845
▁pensate	-8846
▁pubblicati	-8847
gela	-8848
▁richiesti	-8849
▁Stelle	-8850
lterra	-8851
▁appositamente	-8852
▁cancro	-8853
ccano	-8854
giato	-8855
ranto	-8856
▁avviso	-8857
BB	-8858
RL	-8859
▁spontan	-8860
▁Fiorentina	-8861
imposta	-8862
▁rimasti	-8863
▁Michael	-8864
opzione	-8865
▁accer	-8866
▁cercano	-8867
▁rivolu	-8868
▁affitto	-8869
▁selezionati	-8870
▁CD	-8871
sate	-8872
▁mate	-8873
matiche	-8874
▁innovativo	-8875
▁rito	-8876
▁bea	-8877
▁trattato	-8878
▁Mediterraneo	-8879
66	-8880
▁Liv	-8881
▁insa	-8882
▁metalli	-8883
avanguardia	-8884
▁menù	-8885
▁inevi	-8886
:4	-8887
▁inizialmente	-8888
▁Cuo	-8889
▁centrali	-8890
▁limone	-8891
▁braccio	-8892
▁TripAdvisor	-8893
integrazione	-8894
▁IT	-8895
▁sonno	-8896
▁;	-8897
▁pizza	-8898
▁segnato	-8899
▁imple	-8900
▁lenta	-8901
euro	-8902
▁password	-8903
▁statunitense	-8904
resse	-8905
▁ciascuna	-8906
ings	-8907
▁dorso	-8908
▁spendere	-8909
▁fornitori	-8910
scre	-8911
▁Soli	-8912
pati	-8913
tea	-8914
LIA	-8915
asti	-8916
▁Mani	-8917
▁possiede	-8918
utica	-8919
▁disagio	-8920
▁frigori	-8921
▁onde	-8922
▁Trento	-8923
▁innamo	-8924
▁americani	-8925
▁faranno	-8926
polo	-8927
argomento	-8928
▁zo	-8929
dget	-8930
▁futuri	-8931
▁confini	-8932
▁ml	-8933
▁Forum	-8934
pina	-8935
han	-8936
▁orizz	-8937
grafiche	-8938
▁presentati	-8939
▁Resta	-8940
▁antiche	-8941
▁cocco	-8942
▁vittorie	-8943
▁sentimenti	-8944
▁grasso	-8945
▁lav	-8946
▁tipico	-8947
▁generali	-8948
▁apprezzato	-8949
▁coach	-8950
origine	-8951
▁spiegare	-8952
▁allun	-8953
▁cicli	-8954
▁gamba	-8955
▁Nova	-8956
▁destino	-8957
riamente	-8958
▁cominciato	-8959
▁volumi	-8960
sy	-8961
unio	-8962
▁sicili	-8963
▁addetti	-8964
▁8.	-8965
▁indossare	-8966
▁passeggiata	-8967
▁Cinema	-8968
▁registrati	-8969
nero	-8970
ronaca	-8971
▁precedenza	-8972
▁efficienza	-8973
▁solitamente	-8974
▁Juve	-8975
cade	-8976
▁quegli	-8977
▁svaria	-8978
▁esistenti	-8979
▁avviato	-8980
busti	-8981
▁confine	-8982
etre	-8983
▁inno	-8984
▁robo	-8985
▁pneuma	-8986
▁istruzioni	-8987
▁Imma	-8988
ulto	-8989
▁disposizioni	-8990
▁fornitura	-8991
▁impegnato	-8992
▁specializzato	-8993
INA	-8994
ors	-8995
chel	-8996
▁destro	-8997
▁smalti	-8998
▁64	-8999
▁capoluogo	-9000
▁pannelli	-9001
▁effettuati	-9002
lire	-9003
▁diminu	-9004
▁orto	-9005
▁sospensione	-9006
▁territoriale	-9007
▁definis	-9008
▁salvo	-9009
▁Rete	-9010
????	-9011
▁bis	-9012
▁Buona	-9013
▁animale	-9014
▁Flo	-9015
▁rub	-9016
▁portiere	-9017
▁vicende	-9018
▁War	-9019
▁lavorano	-9020
giudi	-9021
▁Open	-9022
plo	-9023
dol	-9024
golare	-9025
ireless	-9026
▁Brasile	-9027
immobile	-9028
▁Stazione	-9029
▁conversa	-9030
rich	-9031
Fa	-9032
goni	-9033
osten	-9034
▁store	-9035
▁preferiti	-9036
▁tè	-9037
▁rimasta	-9038
orario	-9039
▁fasci	-9040
vedi	-9041
terebbe	-9042
▁fiera	-9043
▁8,	-9044
▁clientela	-9045
▁Però	-9046
▁panchina	-9047
▁Grecia	-9048
▁rinnovo	-9049
reste	-9050
▁catto	-9051
▁romanti	-9052
ttimi	-9053
▁Pio	-9054
▁accogliere	-9055
▁Bianco	-9056
▁intrapren	-9057
▁mattinata	-9058
▁preoccup	-9059
Sa	-9060
▁43	-9061
▁under	-9062
▁innovative	-9063
ugu	-9064
enzialmente	-9065
▁annuncia	-9066
▁quotidianamente	-9067
istituto	-9068
▁accerta	-9069
▁concreto	-9070
▁rientro	-9071
▁Fas	-9072
▁scienza	-9073
▁verdi	-9074
▁chiusa	-9075
▁galleria	-9076
▁rimuovere	-9077
▁differenzia	-9078
▁Sw	-9079
▁indimenti	-9080
giamo	-9081
ccellenza	-9082
▁hard	-9083
▁lus	-9084
▁monte	-9085
▁ricostr	-9086
▁segreti	-9087
▁ricre	-9088
▁accogliente	-9089
▁Respon	-9090
eva	-9091
orge	-9092
▁visti	-9093
▁sabbia	-9094
▁Elisa	-9095
cosa	-9096
vese	-9097
▁inseriti	-9098
85	-9099
▁testimonianza	-9100
▁Carta	-9101
▁Rimini	-9102
▁low	-9103
▁Monaco	-9104
▁inverno	-9105
ption	-9106
77	-9107
voce	-9108
▁fragi	-9109
▁bambina	-9110
▁maschera	-9111
fal	-9112
▁fredda	-9113
▁rigen	-9114
▁avversari	-9115
▁quinto	-9116
▁abusi	-9117
▁Stiamo	-9118
▁cavallo	-9119
▁Libri	-9120
▁chiamare	-9121
liam	-9122
▁campagne	-9123
gone	-9124
▁sembrava	-9125
wood	-9126
OP	-9127
▁trasformare	-9128
unity	-9129
▁Protezione	-9130
kin	-9131
▁Sti	-9132
ghilterra	-9133
vita	-9134
▁fisso	-9135
▁Partito	-9136
biti	-9137
▁RI	-9138
ostro	-9139
▁faceva	-9140
gino	-9141
▁moduli	-9142
▁tira	-9143
▁viola	-9144
▁aereo	-9145
▁emerge	-9146
▁manifes	-9147
▁guidare	-9148
ally	-9149
elles	-9150
cchiali	-9151
▁mettono	-9152
▁Attualmente	-9153
cheranno	-9154
/10	-9155
▁biancon	-9156
▁osservare	-9157
▁46	-9158
▁iPad	-9159
▁RES	-9160
tretto	-9161
VD	-9162
desi	-9163
mbur	-9164
▁Ir	-9165
sera	-9166
▁podio	-9167
▁resistente	-9168
cap	-9169
▁infrastrutture	-9170
ington	-9171
▁abilità	-9172
▁immobiliare	-9173
▁Hy	-9174
▁ROMA	-9175
▁time	-9176
attore	-9177
▁assistere	-9178
▁compleanno	-9179
▁proie	-9180
▁2013,	-9181
▁traguardo	-9182
▁decenni	-9183
▁salita	-9184
▁Trieste	-9185
▁biblioteca	-9186
ENTI	-9187
▁petro	-9188
▁rilievo	-9189
▁indicare	-9190
▁teatrale	-9191
▁trans	-9192
zato	-9193
▁usi	-9194
▁sistemazione	-9195
▁moderne	-9196
▁pulito	-9197
▁pittura	-9198
▁accordi	-9199
▁tenendo	-9200
▁visibilità	-9201
▁aller	-9202
▁rinfor	-9203
▁rimborso	-9204
deria	-9205
▁Terme	-9206
▁risal	-9207
▁scusa	-9208
▁dolo	-9209
▁stabilito	-9210
chon	-9211
▁gastron	-9212
▁vacc	-9213
▁evidenzia	-9214
▁Musica	-9215
▁attivare	-9216
▁progettato	-9217
▁Lago	-9218
▁PI	-9219
▁testimonia	-9220
▁collaboratori	-9221
ttati	-9222
▁giovanile	-9223
▁Fun	-9224
▁esse	-9225
▁avvenuta	-9226
▁netta	-9227
▁argomento	-9228
zu	-9229
▁esecu	-9230
▁riprese	-9231
▁sottolineare	-9232
gnando	-9233
▁lenti	-9234
▁patro	-9235
▁calcolo	-9236
▁meda	-9237
▁sblo	-9238
▁ciascun	-9239
▁Fort	-9240
▁tesi	-9241
▁turistica	-9242
▁curi	-9243
▁eccellenza	-9244
▁Guarda	-9245
▁vorrebbe	-9246
▁personalmente	-9247
▁pavimento	-9248
ggiati	-9249
vande	-9250
rosso	-9251
▁energie	-9252
▁LI	-9253
▁amma	-9254
▁notato	-9255
dese	-9256
▁discutere	-9257
esito	-9258
▁Altro	-9259
Chi	-9260
onario	-9261
tralia	-9262
▁Venerdì	-9263
▁stipen	-9264
-19	-9265
▁2005	-9266
▁Dott	-9267
▁consiglieri	-9268
▁cast	-9269
▁dolori	-9270
▁profili	-9271
▁Invece	-9272
▁vere	-9273
cir	-9274
▁neppure	-9275
▁cora	-9276
ficazioni	-9277
▁Mobile	-9278
▁restano	-9279
▁disposto	-9280
▁Ener	-9281
ddistin	-9282
▁Fis	-9283
▁Ricerca	-9284
Io	-9285
▁pop	-9286
▁semplicità	-9287
▁piloti	-9288
▁mancato	-9289
▁fotocamera	-9290
endu	-9291
▁Los	-9292
▁Miglio	-9293
▁incontrato	-9294
vocati	-9295
▁eva	-9296
ennio	-9297
▁installato	-9298
uth	-9299
BA	-9300
▁merce	-9301
▁Sociale	-9302
▁delegato	-9303
▁trasparente	-9304
▁chef	-9305
▁barca	-9306
▁salve	-9307
▁includono	-9308
▁terape	-9309
▁fatturato	-9310
▁Ross	-9311
▁Clo	-9312
album	-9313
▁Paul	-9314
contri	-9315
▁DOC	-9316
▁Dov	-9317
prendo	-9318
▁attrazioni	-9319
▁rec	-9320
▁coperto	-9321
▁critiche	-9322
fetto	-9323
assenza	-9324
▁servire	-9325
▁iOS	-9326
▁verti	-9327
▁Mostra	-9328
annuncio	-9329
▁Santi	-9330
▁considerando	-9331
▁Plus	-9332
▁click	-9333
▁messe	-9334
▁Madonna	-9335
▁suolo	-9336
ginale	-9337
▁Croce	-9338
eve	-9339
▁vincente	-9340
▁valle	-9341
▁volevo	-9342
▁espressione	-9343
didas	-9344
▁perno	-9345
▁Bamb	-9346
▁contraddistin	-9347
▁CAL	-9348
soriasi	-9349
▁fumo	-9350
▁curva	-9351
▁What	-9352
▁ballo	-9353
zina	-9354
▁fiore	-9355
▁ridi	-9356
▁logica	-9357
▁intelle	-9358
▁riservata	-9359
cuo	-9360
▁Messi	-9361
▁formare	-9362
▁indicati	-9363
onio	-9364
gale	-9365
▁2012,	-9366
▁Trump	-9367
ggiamenti	-9368
▁puro	-9369
▁Medio	-9370
▁Qua	-9371
▁STA	-9372
▁sbagliato	-9373
▁2013.	-9374
▁fronti	-9375
▁allenatore	-9376
▁Sper	-9377
▁affatto	-9378
▁cardio	-9379
▁III	-9380
▁ideali	-9381
▁riservato	-9382
lon	-9383
▁Hotels	-9384
ges	-9385
▁puni	-9386
eventuale	-9387
▁proponiamo	-9388
ipotesi	-9389
▁reper	-9390
▁Fare	-9391
▁fenomeni	-9392
mocra	-9393
▁intanto	-9394
▁riceve	-9395
▁home	-9396
quadra	-9397
▁massimi	-9398
▁parlano	-9399
▁eseguito	-9400
ille	-9401
zionario	-9402
vito	-9403
FA	-9404
▁trage	-9405
ray	-9406
▁qualora	-9407
▁assume	-9408
▁crediti	-9409
▁meccanismo	-9410
anese	-9411
▁sano	-9412
▁avevamo	-9413
▁sorella	-9414
▁Lau	-9415
▁ottimale	-9416
agg	-9417
ject	-9418
ak	-9419
▁LED	-9420
▁Della	-9421
▁cinqu	-9422
▁contribuito	-9423
▁significativo	-9424
▁Arte	-9425
▁cavi	-9426
▁istitui	-9427
▁supple	-9428
▁Sito	-9429
▁color	-9430
RAN	-9431
▁raddo	-9432
clusione	-9433
▁finanziario	-9434
▁Commi	-9435
▁gomma	-9436
▁autonomia	-9437
▁finanziamenti	-9438
sani	-9439
-6	-9440
▁giardini	-9441
▁musei	-9442
▁morale	-9443
presidente	-9444
▁neu	-9445
turismo	-9446
▁Condi	-9447
cela	-9448
▁Associazione	-9449
▁tener	-9450
▁padroni	-9451
▁studiato	-9452
▁puntare	-9453
sport	-9454
▁discesa	-9455
posto	-9456
▁bicicletta	-9457
▁rivoluzione	-9458
▁Agri	-9459
▁quote	-9460
▁discre	-9461
▁preziosi	-9462
▁vivi	-9463
▁teoria	-9464
▁nave	-9465
▁0.	-9466
pefa	-9467
▁Pren	-9468
▁iniziata	-9469
▁crescente	-9470
▁Successi	-9471
sico	-9472
▁IVA	-9473
introduzione	-9474
▁Continua	-9475
▁Romano	-9476
UM	-9477
▁sten	-9478
antica	-9479
▁pensando	-9480
vanza	-9481
▁Potete	-9482
any	-9483
riano	-9484
attesa	-9485
▁segnalare	-9486
toli	-9487
▁ricordiamo	-9488
▁Pescara	-9489
▁arrestato	-9490
▁(200	-9491
▁operare	-9492
▁vai	-9493
▁televisione	-9494
▁attento	-9495
▁Marino	-9496
▁analizzare	-9497
▁supermer	-9498
▁Sviluppo	-9499
▁Fuo	-9500
▁Giar	-9501
▁report	-9502
Na	-9503
▁scre	-9504
▁mentale	-9505
▁consigliamo	-9506
impasto	-9507
▁concentrazione	-9508
fast	-9509
▁Rego	-9510
▁PAR	-9511
▁Allo	-9512
▁University	-9513
lite	-9514
▁Padre	-9515
ey	-9516
▁Inte	-9517
▁cotone	-9518
▁rispettivi	-9519
aggiornamento	-9520
osser	-9521
ICO	-9522
▁coda	-9523
▁normali	-9524
▁conseguente	-9525
▁conci	-9526
ggono	-9527
▁Leggi	-9528
▁raffi	-9529
▁pon	-9530
▁musicisti	-9531
▁sensori	-9532
▁ricchi	-9533
▁Emanu	-9534
▁trovati	-9535
ugh	-9536
weet	-9537
▁esclusivo	-9538
▁Pin	-9539
▁pento	-9540
▁pagamenti	-9541
fet	-9542
▁milan	-9543
▁bisco	-9544
▁mensile	-9545
▁difensore	-9546
▁imbo	-9547
guendo	-9548
minata	-9549
▁respira	-9550
ZZ	-9551
▁Berlino	-9552
▁Covid	-9553
▁Bisogna	-9554
▁Elena	-9555
▁adatti	-9556
▁diventando	-9557
▁debba	-9558
▁ritiene	-9559
▁Dar	-9560
▁armoni	-9561
▁contenere	-9562
▁risultano	-9563
▁binarie	-9564
viato	-9565
▁pagato	-9566
▁Scienze	-9567
▁signora	-9568
▁psoriasi	-9569
▁giri	-9570
▁riguardanti	-9571
▁procedimento	-9572
olino	-9573
▁gla	-9574
▁PA	-9575
erita	-9576
▁into	-9577
pino	-9578
▁statistiche	-9579
▁meraviglioso	-9580
▁accoglienza	-9581
▁·	-9582
▁Sopra	-9583
▁meridi	-9584
ind	-9585
▁sanità	-9586
▁Consorzio	-9587
▁assegnato	-9588
▁specializzati	-9589
▁Estra	-9590
omicidio	-9591
▁riquali	-9592
▁ripos	-9593
▁Giornata	-9594
▁Alta	-9595
▁Rock	-9596
▁promozioni	-9597
▁voleva	-9598
ab	-9599
▁inta	-9600
▁pareggio	-9601
▁colpisce	-9602
▁....	-9603
▁cel	-9604
▁dita	-9605
▁Mosca	-9606
▁comoda	-9607
fone	-9608
ii	-9609
▁tedesca	-9610
▁consigliato	-9611
▁opportuno	-9612
dete	-9613
▁2014.	-9614
▁prescri	-9615
▁felicità	-9616
▁intelligente	-9617
▁elettronico	-9618
▁cipol	-9619
▁grammi	-9620
▁mettersi	-9621
▁Scegli	-9622
erò	-9623
▁cuocere	-9624
▁disabilità	-9625
ENTO	-9626
▁affidabile	-9627
▁Belli	-9628
▁cantina	-9629
▁effettuate	-9630
▁dotati	-9631
▁Prezzo	-9632
interpre	-9633
bbo	-9634
▁guari	-9635
▁trasmettere	-9636
▁Cle	-9637
▁Soci	-9638
▁alimentazione	-9639
nate	-9640
▁str	-9641
nellate	-9642
Ti	-9643
libri	-9644
ranei	-9645
▁stupefa	-9646
ful	-9647
▁09	-9648
▁esposizione	-9649
▁calco	-9650
▁bianchi	-9651
▁autonoma	-9652
▁comparto	-9653
inò	-9654
▁scritte	-9655
▁raggi	-9656
▁strato	-9657
▁conquista	-9658
▁entusiasmo	-9659
▁secco	-9660
Imp	-9661
▁Net	-9662
trerà	-9663
▁capitano	-9664
▁contrastare	-9665
▁utilizzano	-9666
▁dignità	-9667
▁immediato	-9668
▁Dalle	-9669
▁cantiere	-9670
▁pecu	-9671
▁porre	-9672
investi	-9673
▁liquido	-9674
effica	-9675
▁vincitori	-9676
▁Ren	-9677
▁Festa	-9678
▁prati	-9679
accogli	-9680
▁impostazioni	-9681
gil	-9682
ssion	-9683
▁Eu	-9684
▁190	-9685
▁croci	-9686
▁soffi	-9687
▁pru	-9688
▁frequenti	-9689
▁omo	-9690
▁estrema	-9691
▁Spesso	-9692
▁scontro	-9693
▁umane	-9694
grafici	-9695
▁borgo	-9696
▁amato	-9697
▁parenti	-9698
▁incora	-9699
▁sessuale	-9700
▁volti	-9701
▁Street	-9702
ual	-9703
▁dicendo	-9704
press	-9705
▁bron	-9706
▁romano	-9707
▁Progetto	-9708
▁single	-9709
▁CA	-9710
avvio	-9711
▁SE	-9712
ox	-9713
▁est	-9714
▁deboli	-9715
▁Note	-9716
▁onore	-9717
▁appren	-9718
▁poca	-9719
▁fiscali	-9720
▁chiamati	-9721
▁logi	-9722
▁usata	-9723
▁tassi	-9724
▁chiarezza	-9725
▁Responsa	-9726
▁magia	-9727
▁estivo	-9728
alimentazione	-9729
▁Set	-9730
▁veder	-9731
entamento	-9732
▁Credo	-9733
▁ottiene	-9734
veglianza	-9735
▁tranquillità	-9736
PE	-9737
▁occhio	-9738
▁Cur	-9739
▁violazione	-9740
▁47	-9741
▁occu	-9742
▁will	-9743
▁chitarra	-9744
▁Ol	-9745
▁Valentino	-9746
▁racchi	-9747
▁AC	-9748
▁Zu	-9749
▁egli	-9750
▁flui	-9751
▁laser	-9752
▁fermata	-9753
▁raccolte	-9754
▁incer	-9755
▁parziale	-9756
▁atteso	-9757
▁debutto	-9758
▁sereni	-9759
Accademia	-9760
▁traduzione	-9761
?!	-9762
▁Spero	-9763
ggiando	-9764
▁risorsa	-9765
▁presenze	-9766
▁limitato	-9767
▁zi	-9768
gor	-9769
abitazione	-9770
cera	-9771
▁Camere	-9772
▁ghiaccio	-9773
▁Am	-9774
▁tendenze	-9775
inde	-9776
▁dici	-9777
▁Alber	-9778
▁Capp	-9779
▁prendendo	-9780
▁professore	-9781
▁Amici	-9782
▁girare	-9783
▁fondatore	-9784
▁immaginare	-9785
▁James	-9786
visi	-9787
▁sli	-9788
▁Prose	-9789
▁affari	-9790
▁fretta	-9791
▁ove	-9792
▁autunno	-9793
▁democrazia	-9794
quet	-9795
Ordine	-9796
▁cresci	-9797
▁Insieme	-9798
NE	-9799
Book	-9800
play	-9801
▁risca	-9802
▁Quella	-9803
▁preca	-9804
▁grafico	-9805
▁orgoglio	-9806
▁sinistro	-9807
▁Mus	-9808
▁gino	-9809
INO	-9810
fun	-9811
▁guidato	-9812
▁invita	-9813
▁giù	-9814
riato	-9815
luenza	-9816
Te	-9817
▁didattica	-9818
▁geom	-9819
sma	-9820
▁provvedimenti	-9821
▁Giovani	-9822
▁verdure	-9823
▁trasferta	-9824
▁romana	-9825
▁creata	-9826
▁evidenza	-9827
▁rifu	-9828
▁basse	-9829
▁Pon	-9830
▁Sia	-9831
tation	-9832
▁deco	-9833
▁inutile	-9834
▁aggiunta	-9835
▁smettere	-9836
▁ricic	-9837
FI	-9838
inati	-9839
gamento	-9840
▁rivolgersi	-9841
▁raccoglie	-9842
pet	-9843
minati	-9844
▁relativamente	-9845
▁accolto	-9846
▁esercita	-9847
▁Monza	-9848
▁tradu	-9849
▁vengano	-9850
▁Federazione	-9851
cultura	-9852
▁Ferrara	-9853
▁05	-9854
▁preghiera	-9855
Arte	-9856
▁stop	-9857
▁Liber	-9858
▁scambia	-9859
disce	-9860
alizzazione	-9861
▁Latina	-9862
,30	-9863
▁suoni	-9864
▁richiedono	-9865
evo	-9866
▁Civile	-9867
▁comodità	-9868
▁elevati	-9869
68	-9870
lanta	-9871
▁estiva	-9872
bby	-9873
▁sorprese	-9874
▁peda	-9875
▁evoluzione	-9876
▁Marzo	-9877
▁aerei	-9878
▁somministra	-9879
ense	-9880
▁conflitto	-9881
▁garantito	-9882
cciono	-9883
▁Piero	-9884
▁determinazione	-9885
▁giornale	-9886
▁Fondo	-9887
▁edificio	-9888
arono	-9889
▁gestito	-9890
▁vide	-9891
▁sottili	-9892
▁poltr	-9893
inserimento	-9894
▁magni	-9895
▁accessibile	-9896
▁Corpo	-9897
▁intre	-9898
▁ruota	-9899
▁creativo	-9900
Ro	-9901
wards	-9902
Is	-9903
spa	-9904
drosis	-9905
▁coinci	-9906
▁inclusi	-9907
▁cilin	-9908
▁permettendo	-9909
▁tramon	-9910
▁dipendente	-9911
▁amo	-9912
▁limitata	-9913
▁id	-9914
▁Fiat	-9915
Gra	-9916
hite	-9917
2%	-9918
▁invitati	-9919
▁abitazioni	-9920
ttone	-9921
▁conquistato	-9922
▁compor	-9923
▁Under	-9924
▁urbano	-9925
▁Business	-9926
▁montaggio	-9927
▁contemporaneo	-9928
3%	-9929
67	-9930
▁allontana	-9931
▁determinare	-9932
▁seno	-9933
▁sceneggia	-9934
▁Nin	-9935
▁resp	-9936
ascol	-9937
gliati	-9938
▁William	-9939
▁giunto	-9940
▁penale	-9941
▁stia	-9942
▁restitu	-9943
pub	-9944
▁Scu	-9945
zzeria	-9946
fortuna	-9947
▁necessariamente	-9948
▁libreria	-9949
cuno	-9950
▁mostre	-9951
▁padella	-9952
▁Regioni	-9953
para	-9954
cologia	-9955
▁budget	-9956
▁ger	-9957
ONA	-9958
▁essenzialmente	-9959
▁compiere	-9960
diso	-9961
utico	-9962
gentina	-9963
pani	-9964
▁Sun	-9965
▁pover	-9966
▁rinas	-9967
▁ato	-9968
architettura	-9969
ronta	-9970
▁bevande	-9971
▁rilan	-9972
cipio	-9973
▁Card	-9974
erto	-9975
▁sanzioni	-9976
▁Bianca	-9977
▁Emanuele	-9978
▁Sel	-9979
▁scaten	-9980
▁offriamo	-9981
▁mobi	-9982
dette	-9983
▁vario	-9984
geranno	-9985
▁frigorifero	-9986
▁Cra	-9987
▁glo	-9988
▁elettronici	-9989
▁2004	-9990
▁vani	-9991
▁operativa	-9992
▁stabilire	-9993
▁feed	-9994
▁Stampa	-9995
sica	-9996
▁edizioni	-9997
▁storiche	-9998
▁concorrenti	-9999
ccome	-10000
▁muscoli	-10001
▁IS	-10002
lex	-10003
▁cifre	-10004
▁Pertanto	-10005
▁metropolitana	-10006
▁cibi	-10007
▁panoramica	-10008
▁Pass	-10009
▁abitudini	-10010
▁divul	-10011
▁parliamo	-10012
▁necessita	-10013
ggire	-10014
▁Poste	-10015
▁entrato	-10016
bs	-10017
0.	-10018
▁riviste	-10019
▁milanese	-10020
raele	-10021
▁pulita	-10022
▁posa	-10023
▁eventuale	-10024
ffo	-10025
VER	-10026
▁salto	-10027
▁acquisire	-10028
teriale	-10029
pal	-10030
▁Sicuramente	-10031
dam	-10032
▁41	-10033
▁proposti	-10034
▁Risul	-10035
▁foresta	-10036
▁bosco	-10037
▁Pasqu	-10038
chondrosis	-10039
tran	-10040
varsi	-10041
tabili	-10042
▁permanente	-10043
▁marche	-10044
▁dispia	-10045
▁rimozione	-10046
.:	-10047
mensi	-10048
▁lingu	-10049
▁clinica	-10050
▁PO	-10051
esel	-10052
▁totali	-10053
▁formati	-10054
teche	-10055
▁reati	-10056
▁unisce	-10057
▁rimangono	-10058
▁capita	-10059
▁regala	-10060
▁guer	-10061
inchiesta	-10062
▁comprensione	-10063
ordin	-10064
HE	-10065
arca	-10066
fere	-10067
vers	-10068
▁fece	-10069
▁caratterizzata	-10070
▁affascinante	-10071
▁St	-10072
cile	-10073
resti	-10074
zzanti	-10075
università	-10076
▁Live	-10077
▁Rosso	-10078
▁miele	-10079
▁piaciuto	-10080
▁difendere	-10081
bete	-10082
chini	-10083
▁salone	-10084
▁adottare	-10085
▁ricchezza	-10086
▁CI	-10087
▁metal	-10088
▁evitando	-10089
feo	-10090
▁immi	-10091
▁Guida	-10092
▁IP	-10093
▁tipica	-10094
lto	-10095
gnoli	-10096
▁Mili	-10097
▁mito	-10098
▁revisione	-10099
▁settimanale	-10100
tonda	-10101
▁conosciuta	-10102
▁anteriore	-10103
▁nucleo	-10104
▁fibra	-10105
▁scatola	-10106
Vo	-10107
kes	-10108
ficano	-10109
▁brillante	-10110
▁investiga	-10111
hen	-10112
istico	-10113
▁economia	-10114
ror	-10115
▁iscrizione	-10116
▁letteralmente	-10117
▁virtù	-10118
▁invito	-10119
▁esprime	-10120
▁chiedono	-10121
▁parteci	-10122
▁sezioni	-10123
▁Martino	-10124
tarlo	-10125
ING	-10126
▁magazzino	-10127
eco	-10128
inate	-10129
America	-10130
trica	-10131
▁lumino	-10132
▁sha	-10133
▁dormire	-10134
▁esal	-10135
▁morbido	-10136
▁af	-10137
▁Saranno	-10138
▁attende	-10139
▁facilità	-10140
▁Km	-10141
▁Econ	-10142
▁Music	-10143
▁gr	-10144
▁2012.	-10145
urs	-10146
▁importa	-10147
▁rivelato	-10148
▁sara	-10149
▁diagnos	-10150
▁mancata	-10151
▁isole	-10152
▁abbat	-10153
▁centi	-10154
▁silenzi	-10155
allar	-10156
vidu	-10157
▁cosme	-10158
zionalità	-10159
ctive	-10160
▁mistero	-10161
▁Aprile	-10162
▁sepp	-10163
ologico	-10164
▁manti	-10165
▁appropria	-10166
▁sentiero	-10167
▁polemiche	-10168
▁memori	-10169
▁comunicazioni	-10170
▁protocollo	-10171
▁tossi	-10172
▁Giulio	-10173
▁operano	-10174
▁Dice	-10175
▁9.	-10176
zzarsi	-10177
▁soddisfatto	-10178
▁patate	-10179
esecuzione	-10180
anchi	-10181
▁esterne	-10182
mali	-10183
▁ITA	-10184
▁bimbi	-10185
▁commercia	-10186
▁proveniente	-10187
▁riass	-10188
▁console	-10189
▁Beni	-10190
▁panta	-10191
Gli	-10192
▁vedremo	-10193
▁vestiti	-10194
▁capitali	-10195
▁incremento	-10196
▁nati	-10197
miamo	-10198
gruppo	-10199
▁basata	-10200
▁Top	-10201
▁Saint	-10202
▁impegnata	-10203
▁riprendere	-10204
due	-10205
▁strano	-10206
▁frasi	-10207
▁Anzi	-10208
▁cima	-10209
▁aiuterà	-10210
pers	-10211
▁ple	-10212
▁coprire	-10213
▁veter	-10214
▁sapi	-10215
▁tasto	-10216
▁specchio	-10217
▁immediata	-10218
▁risale	-10219
▁soglia	-10220
▁Fabb	-10221
31	-10222
▁Zi	-10223
▁Are	-10224
cione	-10225
▁appari	-10226
▁scen	-10227
▁succo	-10228
ormi	-10229
retto	-10230
▁cana	-10231
impiego	-10232
▁dischi	-10233
▁situata	-10234
ktop	-10235
▁partnership	-10236
PON	-10237
▁pizzi	-10238
▁viti	-10239
▁codici	-10240
▁curare	-10241
▁formaggio	-10242
▁Fol	-10243
▁Mia	-10244
erate	-10245
▁preparati	-10246
▁Vorre	-10247
▁Bia	-10248
▁arredi	-10249
▁solari	-10250
nando	-10251
▁allen	-10252
mministratore	-10253
arvi	-10254
▁sorge	-10255
▁elettrodom	-10256
▁chiedo	-10257
▁collegato	-10258
▁organizzati	-10259
▁andati	-10260
▁potesse	-10261
artiene	-10262
▁serate	-10263
▁CR	-10264
rima	-10265
▁licen	-10266
▁rosson	-10267
▁morire	-10268
94	-10269
lò	-10270
▁Cesare	-10271
▁fondata	-10272
/12	-10273
TRO	-10274
▁Comunità	-10275
▁naso	-10276
▁protesta	-10277
▁DVD	-10278
▁Sony	-10279
GI	-10280
▁EU	-10281
▁Impre	-10282
▁sottra	-10283
▁Gabriele	-10284
cerdo	-10285
zzurro	-10286
▁usate	-10287
▁equilib	-10288
elet	-10289
▁Metro	-10290
▁tonalità	-10291
▁specialità	-10292
idi	-10293
▁ritenuto	-10294
▁Associa	-10295
▁Compagnia	-10296
▁agenzia	-10297
▁Centrale	-10298
▁splendido	-10299
▁istituzionale	-10300
9%	-10301
▁aerop	-10302
▁leggenda	-10303
▁cost	-10304
▁saremo	-10305
▁funzionare	-10306
▁ruoli	-10307
ls	-10308
letter	-10309
▁riferito	-10310
▁invernale	-10311
▁esecuzione	-10312
ottica	-10313
▁persegui	-10314
itch	-10315
Azienda	-10316
▁Rocca	-10317
fino	-10318
▁pepe	-10319
▁auspi	-10320
▁consegnato	-10321
inse	-10322
▁emozion	-10323
▁diminuzione	-10324
ENZA	-10325
km	-10326
onto	-10327
▁FOR	-10328
▁indossa	-10329
▁gioielli	-10330
▁licenza	-10331
▁dominio	-10332
▁notti	-10333
▁dinamiche	-10334
cie	-10335
▁ossi	-10336
▁personalizzato	-10337
▁architettura	-10338
▁saluto	-10339
occhiata	-10340
▁colpe	-10341
▁Cinque	-10342
cons	-10343
▁promossa	-10344
▁individuali	-10345
▁CAS	-10346
▁Alcune	-10347
On	-10348
▁aggressi	-10349
▁roves	-10350
▁razzi	-10351
ju	-10352
vs	-10353
arsa	-10354
▁droga	-10355
▁allievi	-10356
▁Manu	-10357
▁Rapp	-10358
▁normalmente	-10359
tyle	-10360
▁impro	-10361
▁festeggiare	-10362
ku	-10363
▁fermato	-10364
▁giovanis	-10365
▁riferisce	-10366
▁Beach	-10367
▁rilassa	-10368
▁pubblicazioni	-10369
▁fossi	-10370
▁montagne	-10371
▁copertina	-10372
zzazioni	-10373
▁potenti	-10374
▁1:	-10375
▁Power	-10376
▁uscite	-10377
▁sperimentazione	-10378
incre	-10379
grafo	-10380
▁nuvolo	-10381
▁comitato	-10382
▁continuato	-10383
nello	-10384
▁gatto	-10385
cchino	-10386
▁eleganti	-10387
▁evidenziato	-10388
andante	-10389
▁gradua	-10390
▁vicinanza	-10391
▁portamento	-10392
▁Cis	-10393
TC	-10394
▁pali	-10395
▁talvolta	-10396
▁mantenendo	-10397
nità	-10398
▁batterie	-10399
▁trenta	-10400
avvocato	-10401
▁gigante	-10402
cho	-10403
talo	-10404
▁essersi	-10405
▁Muse	-10406
▁aiutano	-10407
▁lontani	-10408
▁Barbara	-10409
TTO	-10410
▁cervicale	-10411
▁buro	-10412
▁prega	-10413
▁pluri	-10414
▁wireless	-10415
▁fb	-10416
▁Niente	-10417
▁auguri	-10418
anico	-10419
▁Ron	-10420
▁pm	-10421
bor	-10422
omer	-10423
▁stazioni	-10424
▁utilizz	-10425
▁coinvolgere	-10426
vidi	-10427
ghese	-10428
▁700	-10429
▁proteine	-10430
▁calciatore	-10431
▁assai	-10432
▁aspettiamo	-10433
phi	-10434
organismo	-10435
▁abbondante	-10436
ombra	-10437
▁salvezza	-10438
▁06	-10439
▁svolgono	-10440
gus	-10441
▁verb	-10442
▁produzioni	-10443
▁complessa	-10444
▁Nike	-10445
▁conquistare	-10446
▁Stef	-10447
enn	-10448
schi	-10449
▁amare	-10450
▁pregiudi	-10451
▁ucciso	-10452
▁resti	-10453
▁ville	-10454
▁continuamente	-10455
▁Qualche	-10456
corsi	-10457
▁caute	-10458
For	-10459
sono	-10460
▁multimedia	-10461
umanità	-10462
▁portafo	-10463
▁vertici	-10464
▁Pis	-10465
▁mega	-10466
ICE	-10467
▁Bla	-10468
▁andranno	-10469
emi	-10470
arle	-10471
▁valutazioni	-10472
commerce	-10473
▁SER	-10474
▁Genti	-10475
▁virtu	-10476
▁traspor	-10477
▁lanciare	-10478
▁Pasqua	-10479
viazione	-10480
▁venduto	-10481
▁UE	-10482
ologica	-10483
▁spettacolare	-10484
apposi	-10485
ming	-10486
solo	-10487
8%	-10488
▁compiuto	-10489
▁Pubblica	-10490
▁ribal	-10491
▁Quad	-10492
▁fornite	-10493
▁intensità	-10494
▁simboli	-10495
▁adi	-10496
off	-10497
landia	-10498
avventura	-10499
▁Altre	-10500
▁<	-10501
uela	-10502
▁secca	-10503
▁peraltro	-10504
disi	-10505
▁amministrazioni	-10506
più	-10507
▁francesi	-10508
▁competente	-10509
▁presentate	-10510
▁infe	-10511
▁Molte	-10512
▁apparire	-10513
▁precedentemente	-10514
loghi	-10515
▁obbligatoria	-10516
▁fro	-10517
▁gom	-10518
▁stretta	-10519
▁raggiungimento	-10520
▁Die	-10521
▁Quale	-10522
▁lasciate	-10523
▁occidentale	-10524
gomb	-10525
▁tribunale	-10526
Me	-10527
▁CHE	-10528
vana	-10529
▁tavoli	-10530
▁normative	-10531
lor	-10532
▁XV	-10533
▁frigo	-10534
oggetto	-10535
ders	-10536
iora	-10537
star	-10538
▁pdf	-10539
▁piacciono	-10540
tipo	-10541
▁pienamente	-10542
▁Istitu	-10543
▁attore	-10544
▁Dy	-10545
▁Verde	-10546
▁rate	-10547
▁Vediamo	-10548
▁peccato	-10549
▁prospettive	-10550
▁open	-10551
▁Guardia	-10552
/2	-10553
▁venuto	-10554
▁costretti	-10555
55	-10556
▁Belle	-10557
olto	-10558
xelles	-10559
endum	-10560
▁ampie	-10561
▁Uomini	-10562
▁Commercio	-10563
▁strategica	-10564
▁foca	-10565
BILITA	-10566
▁tragedia	-10567
▁aggiungendo	-10568
▁avverti	-10569
kea	-10570
▁ob	-10571
▁wi	-10572
▁presu	-10573
▁terremoto	-10574
▁Tomma	-10575
▁litri	-10576
▁prete	-10577
▁innovativi	-10578
▁DELLA	-10579
▁Lucia	-10580
▁fissato	-10581
▁giudici	-10582
▁custodia	-10583
gol	-10584
▁risarci	-10585
▁jo	-10586
▁reci	-10587
▁scende	-10588
▁appartiene	-10589
Bi	-10590
aly	-10591
▁Canale	-10592
▁perdite	-10593
pio	-10594
▁Cel	-10595
ttezza	-10596
andamento	-10597
▁massaggio	-10598
▁università	-10599
sea	-10600
▁dipendenza	-10601
stizia	-10602
reakfast	-10603
inger	-10604
approvazione	-10605
▁Pet	-10606
▁Dolo	-10607
▁benzina	-10608
ath	-10609
fit	-10610
▁Citta	-10611
▁fotografica	-10612
▁osteochondrosis	-10613
▁delibera	-10614
▁sembrare	-10615
▁mesti	-10616
Dis	-10617
▁07	-10618
▁formazioni	-10619
▁flessibilità	-10620
Come	-10621
▁Vie	-10622
▁chiedendo	-10623
▁introdotto	-10624
▁Grand	-10625
▁appello	-10626
▁inferiori	-10627
pad	-10628
▁Diego	-10629
▁melo	-10630
▁restauro	-10631
venuti	-10632
▁bensì	-10633
▁uguale	-10634
▁opinione	-10635
▁Made	-10636
▁West	-10637
▁divani	-10638
▁intensi	-10639
▁ritrova	-10640
▁arbi	-10641
▁calza	-10642
▁Utili	-10643
▁primaria	-10644
eratore	-10645
▁compiti	-10646
▁costituiscono	-10647
gnor	-10648
▁Free	-10649
▁Multi	-10650
▁modella	-10651
ERO	-10652
▁Conti	-10653
▁turistiche	-10654
vallo	-10655
▁dose	-10656
mberto	-10657
.),	-10658
▁Shi	-10659
▁scommesse	-10660
zine	-10661
▁scanda	-10662
▁ki	-10663
ones	-10664
▁2011,	-10665
▁target	-10666
essato	-10667
▁Canada	-10668
▁rumore	-10669
estico	-10670
▁cartel	-10671
▁future	-10672
▁ispirato	-10673
▁successive	-10674
urce	-10675
▁2020,	-10676
▁testimonianze	-10677
dige	-10678
viste	-10679
spedale	-10680
▁nipo	-10681
7%	-10682
arne	-10683
cipro	-10684
▁trion	-10685
▁boschi	-10686
▁Novembre	-10687
efficienza	-10688
▁edili	-10689
▁tennis	-10690
▁guadagnare	-10691
▁percepi	-10692
esor	-10693
▁Vicenza	-10694
ald	-10695
fezione	-10696
▁apparente	-10697
▁seguita	-10698
▁prodotta	-10699
amp	-10700
erica	-10701
▁Sale	-10702
▁Trasp	-10703
▁Bir	-10704
▁Lucca	-10705
▁Oppure	-10706
▁riduce	-10707
▁pensioni	-10708
▁tonnellate	-10709
▁polizio	-10710
▁esigenza	-10711
▁segnala	-10712
▁IV	-10713
▁tumore	-10714
▁espressi	-10715
▁registro	-10716
▁scul	-10717
▁House	-10718
▁casal	-10719
▁spinta	-10720
▁gode	-10721
▁Fiera	-10722
▁trailer	-10723
▁merci	-10724
▁Pom	-10725
▁sarai	-10726
▁regalare	-10727
▁vigili	-10728
▁gestisce	-10729
▁formativo	-10730
▁destinata	-10731
erosi	-10732
▁epub	-10733
▁Salone	-10734
Su	-10735
▁acconten	-10736
▁pazienza	-10737
▁incidenti	-10738
ttoli	-10739
▁curata	-10740
▁profondamente	-10741
ENTE	-10742
▁Ue	-10743
▁cinesi	-10744
▁stella	-10745
▁margine	-10746
▁gatti	-10747
luca	-10748
▁2003	-10749
▁mantiene	-10750
adegua	-10751
▁cooperazione	-10752
tivali	-10753
▁Merce	-10754
▁panni	-10755
▁̈	-10756
inga	-10757
▁chiare	-10758
▁arrivando	-10759
▁costituita	-10760
▁Borgo	-10761
▁barra	-10762
▁quinta	-10763
▁manovra	-10764
▁sottoposto	-10765
▁suon	-10766
▁vitamina	-10767
▁indis	-10768
cea	-10769
miti	-10770
esplo	-10771
▁poveri	-10772
rossi	-10773
▁chiavi	-10774
invio	-10775
▁pericoloso	-10776
LU	-10777
▁loco	-10778
gole	-10779
ziose	-10780
devole	-10781
▁furto	-10782
▁(“	-10783
ecce	-10784
▁Luna	-10785
▁poten	-10786
▁Informazioni	-10787
▁buio	-10788
osteni	-10789
▁ambiti	-10790
▁Bruxelles	-10791
ford	-10792
▁minacce	-10793
▁ritrovare	-10794
▁Ph	-10795
▁Benedetto	-10796
▁Raffaele	-10797
▁concessi	-10798
▁accompagnati	-10799
OO	-10800
▁Dimen	-10801
▁Dunque	-10802
tum	-10803
ESS	-10804
▁abita	-10805
▁risco	-10806
▁dotazione	-10807
▁Produ	-10808
▁chiese	-10809
▁individui	-10810
▁esplorare	-10811
onoleggio	-10812
ORE	-10813
basti	-10814
▁Thom	-10815
oth	-10816
▁Africa	-10817
▁van	-10818
▁Vedi	-10819
▁amicizia	-10820
▁tempesti	-10821
▁venivano	-10822
▁riportare	-10823
cht	-10824
▁prevedono	-10825
▁gustare	-10826
▁Peter	-10827
▁estetica	-10828
▁investitori	-10829
▁fame	-10830
▁fasce	-10831
▁Perchè	-10832
▁urbani	-10833
▁recipro	-10834
accoglienza	-10835
TT	-10836
opini	-10837
▁Silvia	-10838
▁sindacati	-10839
wei	-10840
▁simu	-10841
▁sfa	-10842
ttenti	-10843
▁garage	-10844
SOCIETA	-10845
▁vetture	-10846
CHE	-10847
Tube	-10848
▁pp	-10849
▁sofi	-10850
ARI	-10851
drome	-10852
▁doppi	-10853
▁Pino	-10854
▁appartenenti	-10855
▁occhiali	-10856
venna	-10857
▁poker	-10858
▁LIM	-10859
▁Oro	-10860
estensione	-10861
▁giuria	-10862
▁integrata	-10863
▁dig	-10864
▁assunto	-10865
▁importo	-10866
ken	-10867
▁Lavo	-10868
▁sforzi	-10869
▁burocra	-10870
▁aggiudica	-10871
▁produttivo	-10872
▁Costituzione	-10873
▁terreni	-10874
tamento	-10875
▁Cami	-10876
oolrich	-10877
▁integrale	-10878
ttedrale	-10879
▁attraversa	-10880
▁meravigliosa	-10881
INE	-10882
▁tono	-10883
▁Tempo	-10884
▁delica	-10885
doni	-10886
▁Giugno	-10887
▁filtra	-10888
▁Ottimo	-10889
▁decre	-10890
▁confermare	-10891
ceto	-10892
▁carto	-10893
▁Varese	-10894
▁-,	-10895
osis	-10896
▁parteciper	-10897
dd	-10898
▁verni	-10899
▁pannello	-10900
▁scarsa	-10901
▁fantastica	-10902
ish	-10903
▁conosco	-10904
▁guardia	-10905
GA	-10906
urata	-10907
▁avvio	-10908
▁tranquillo	-10909
▁Voi	-10910
sime	-10911
▁Sve	-10912
▁scoli	-10913
▁eccesso	-10914
ary	-10915
ugna	-10916
▁scatti	-10917
▁farmaco	-10918
▁fama	-10919
accusa	-10920
▁avanzata	-10921
▁cogliere	-10922
▁Programma	-10923
▁teso	-10924
fficina	-10925
tton	-10926
▁device	-10927
▁province	-10928
▁Pay	-10929
▁sussi	-10930
▁affetti	-10931
▁sebbene	-10932
▁redditi	-10933
kipedia	-10934
▁viste	-10935
▁sofferenza	-10936
▁dono	-10937
▁amplia	-10938
▁fisiche	-10939
▁Cio	-10940
▁scontato	-10941
▁aggiungete	-10942
▁Fanta	-10943
TS	-10944
▁amministratori	-10945
iro	-10946
▁Cup	-10947
▁Alto	-10948
47	-10949
▁Roy	-10950
inglese	-10951
▁Turchia	-10952
▁motivazioni	-10953
▁climati	-10954
▁elettriche	-10955
onima	-10956
▁diametro	-10957
▁configurazione	-10958
▁talmente	-10959
▁SA	-10960
▁scru	-10961
▁derby	-10962
▁vent	-10963
indice	-10964
▁Ameri	-10965
▁divieto	-10966
▁FA	-10967
uita	-10968
▁rileva	-10969
▁bei	-10970
▁farla	-10971
▁esseri	-10972
▁partono	-10973
▁risultare	-10974
▁srl	-10975
▁Mark	-10976
▁dovete	-10977
▁quante	-10978
acquisi	-10979
▁conversione	-10980
▁ferroviaria	-10981
▁organizzatori	-10982
4%	-10983
▁10%	-10984
6%	-10985
sch	-10986
utata	-10987
▁azzurro	-10988
▁By	-10989
▁ebbe	-10990
▁farti	-10991
▁AI	-10992
ceano	-10993
▁ciotola	-10994
▁mostrano	-10995
----	-10996
▁uniche	-10997
▁trucco	-10998
▁comodamente	-10999
▁esposti	-11000
▁tantissime	-11001
viare	-11002
cchini	-11003
▁rappresentanza	-11004
▁finanzi	-11005
Aquila	-11006
▁sacerdo	-11007
dera	-11008
▁Friuli	-11009
▁finché	-11010
▁coe	-11011
▁copri	-11012
▁12,	-11013
angelo	-11014
▁coronavirus	-11015
▁vecchie	-11016
▁segnalazione	-11017
▁istituzionali	-11018
’11	-11019
▁reda	-11020
▁nozze	-11021
▁Guerra	-11022
▁arra	-11023
valente	-11024
▁celebri	-11025
▁!!!	-11026
▁artigianale	-11027
▁povertà	-11028
▁tagliare	-11029
▁piacerebbe	-11030
▁riabili	-11031
▁muove	-11032
▁morbida	-11033
▁eccezione	-11034
▁Settembre	-11035
▁coordinamento	-11036
▁luna	-11037
▁interpretato	-11038
grati	-11039
▁Lar	-11040
▁russo	-11041
▁sperimentare	-11042
els	-11043
▁beneficio	-11044
ulo	-11045
▁95	-11046
gallo	-11047
▁avval	-11048
▁Decreto	-11049
▁definitivo	-11050
▁Detta	-11051
▁^	-11052
▁Franci	-11053
agricoltura	-11054
ccioli	-11055
▁Abruzzo	-11056
right	-11057
▁sottoval	-11058
00,	-11059
▁arrivi	-11060
▁troppi	-11061
▁Turismo	-11062
▁preferenze	-11063
▁conduce	-11064
ggero	-11065
perta	-11066
▁presie	-11067
▁workshop	-11068
▁preoccupazione	-11069
▁conge	-11070
▁Estratto	-11071
educazione	-11072
▁applicata	-11073
▁Augu	-11074
PER	-11075
...)	-11076
▁rad	-11077
burg	-11078
mentata	-11079
▁causato	-11080
▁padrone	-11081
bbigliamento	-11082
▁supporta	-11083
ments	-11084
▁anticipato	-11085
▁stipu	-11086
▁bloccato	-11087
▁ripeti	-11088
▁sentirsi	-11089
▁made	-11090
▁Taranto	-11091
▁cresciuto	-11092
onsor	-11093
▁vergo	-11094
▁assorbi	-11095
▁2001	-11096
▁celebrare	-11097
▁sensibile	-11098
▁contenitore	-11099
sserva	-11100
▁	-11101
i	-11102
e	-11103
a	-11104
o	-11105
n	-11106
t	-11107
r	-11108
l	-11109
s	-11110
c	-11111
d	-11112
u	-11113
p	-11114
m	-11115
g	-11116
v	-11117
,	-11118
z	-11119
.	-11120
f	-11121
h	-11122
b	-11123
q	-11124
S	-11125
’	-11126
I	-11127
C	-11128
A	-11129
à	-11130
0	-11131
L	-11132
è	-11133
P	-11134
1	-11135
M	-11136
2	-11137
'	-11138
E	-11139
T	-11140
R	-11141
D	-11142
N	-11143
G	-11144
B	-11145
O	-11146
:	-11147
F	-11148
-	-11149
)	-11150
k	-11151
(	-11152
y	-11153
V	-11154
3	-11155
5	-11156
U	-11157
ù	-11158
"	-11159
4	-11160
w	-11161
9	-11162
!	-11163
“	-11164
”	-11165
8	-11166
6	-11167
7	-11168
?	-11169
ò	-11170
H	-11171
Q	-11172
x	-11173
/	-11174
ì	-11175
–	-11176
é	-11177
;	-11178
W	-11179
K	-11180
J	-11181
%	-11182
Z	-11183
»	-11184
j	-11185
«	-11186
X	-11187
Y	-11188
È	-11189
&	-11190
°	-11191
­	-11192
+	-11193
‘	-11194
€	-11195
*	-11196
_	-11197
#	-11198
=	-11199
>	-11200
]	-11201
[	-11202
|	-11203
@	-11204
′	-11205
á	-11206
•	-11207
́	-11208
Ã	-11209
$	-11210
®	-11211
^	-11212
—	-11213
	-11214
ü	-11215
<	-11216
\	-11217
í	-11218
ó	-11219
а	-11220
`	-11221
о	-11222
â	-11223
ö	-11224
·	-11225
е	-11226
и	-11227
ä	-11228
с	-11229
н	-11230
̈	-11231
ç	-11232
©	-11233
ú	-11234
р	-11235
ñ	-11236
к	-11237
À	-11238
т	-11239
É	-11240
×	-11241
в	-11242
л	-11243
Â	-11244
ê	-11245
м	-11246
ô	-11247
ë	-11248
у	-11249
ã	-11250
	-11251
	-11252
Г	-11253
←	-11254
~	-11255
д	-11256
č	-11257
й	-11258
š	-11259
⁄	-11260
п	-11261
›	-11262
ā	-11263
ï	-11264
ь	-11265
я	-11266
£	-11267
→	-11268
ß	-11269
ć	-11270
¿	-11271
ł	-11272
ا	-11273
г	-11274
Р	-11275
å	-11276
ы	-11277
б	-11278
ø	-11279
з	-11280
î	-11281
	-11282
¬	-11283
α	-11284
„	-11285
ο	-11286
	-11287
μ	-11288
Ø	-11289
🙂	-11290
û	-11291
	-11292
●	-11293
ч	-11294
ō	-11295
Ö	-11296
æ	-11297
С	-11298
ر	-11299
ă	-11300
ı	-11301
ž	-11302
ʼ	-11303
ι	-11304
Á	-11305
ν	-11306
Ù	-11307
ī	-11308
τ	-11309
ş	-11310
Ё	-11311
х	-11312
Ì	-11313
️	-11314
Č	-11315
ш	-11316
ل	-11317
י	-11318
Š	-11319
Ђ	-11320
‚	-11321
Ü	-11322
œ	-11323
	-11324
ε	-11325
λ	-11326
ρ	-11327
ж	-11328
−	-11329
ū	-11330
😉	-11331
눇	-11332
}	-11333
	-11334
‐	-11335
】	-11336
【	-11337
ς	-11338
	-11339
★	-11340
±	-11341
К	-11342
В	-11343
ц	-11344
κ	-11345
Ò	-11346
ب	-11347
ś	-11348
§	-11349
✅	-11350
ר	-11351
ي	-11352
↑	-11353
ن	-11354
♥	-11355
σ	-11356
ی	-11357
❤	-11358
ę	-11359
►	-11360
ב	-11361
π	-11362
Б	-11363
ý	-11364
😀	-11365
‟	-11366
ń	-11367
і	-11368
ו	-11369
‬	-11370
ת	-11371
س	-11372
η	-11373
ș	-11374
눉	-11375
¡	-11376
ż	-11377
ğ	-11378
У	-11379
ю	-11380
م	-11381
¢	-11382
Ă	-11383
Ð	-11384
中	-11385
ř	-11386
О	-11387
日	-11388
ة	-11389
М	-11390
Å	-11391
ą	-11392
П	-11393
√	-11394
✔	-11395
А	-11396
‡	-11397
ה	-11398
ف	-11399
و	-11400
ě	-11401
ƒ	-11402
υ	-11403
ά	-11404
ф	-11405
語	-11406
ί	-11407
本	-11408
‹	-11409
β	-11410
Ä	-11411
♦	-11412
ت	-11413
ē	-11414
✓	-11415
ع	-11416
文	-11417
Д	-11418
ð	-11419
ー	-11420
Ž	-11421
א	-11422
‪	-11423
Ó	-11424
■	-11425
Ç	-11426
د	-11427
õ	-11428
†	-11429
ό	-11430
ї	-11431
δ	-11432
Т	-11433
ל	-11434
γ	-11435
І	-11436
щ	-11437
ө	-11438
	-11439
ᐅ	-11440
ע	-11441
‒	-11442
ω	-11443
̄	-11444
Ñ	-11445
Н	-11446
מ	-11447
の	-11448
↓	-11449
≥	-11450
한	-11451
ъ	-11452
э	-11453
¦	-11454
÷	-11455
ė	-11456
ț	-11457
	-11458
И	-11459
ʿ	-11460
¤	-11461
국	-11462
ή	-11463
어	-11464
ン	-11465
Ë	-11466
ˆ	-11467
Л	-11468
ש	-11469
ه	-11470
Í	-11471
̀	-11472
έ	-11473
ё	-11474
	-11475
ד	-11476
ṣ	-11477
φ	-11478
Ε	-11479
İ	-11480
Ś	-11481
ش	-11482
Ú	-11483
ḥ	-11484
Ł	-11485
̶	-11486
Е	-11487
▷	-11488
¥	-11489
😂	-11490
خ	-11491
◆	-11492
Î	-11493
Ā	-11494
χ	-11495
Δ	-11496
θ	-11497
נ	-11498
ệ	-11499
‭	-11500
☆	-11501
ő	-11502
￼	-11503
ế	-11504
З	-11505
ե	-11506
ə	-11507
̧	-11508
ח	-11509
ס	-11510
Ω	-11511
➡	-11512
ύ	-11513
פ	-11514
≈	-11515
⇒	-11516
다	-11517
😊	-11518
ţ	-11519
⭐	-11520
ṇ	-11521
ˈ	-11522
ק	-11523
ص	-11524
≤	-11525
▶	-11526
ج	-11527
‰	-11528
イ	-11529
ق	-11530
ṛ	-11531
	-11532
ů	-11533
🌟	-11534
😍	-11535
Ş	-11536
ź	-11537
ز	-11538
い	-11539
、	-11540
□	-11541
▪	-11542
ル	-11543
国	-11544
Φ	-11545
ן	-11546
ų	-11547
כ	-11548
َ	-11549
ス	-11550
	-11551
Æ	-11552
ท	-11553
Π	-11554
ा	-11555
▸	-11556
	-11557
Α	-11558
া	-11559
ト	-11560
ĕ	-11561
🔴	-11562
Σ	-11563
Х	-11564
ם	-11565
・	-11566
ա	-11567
̃	-11568
Я	-11569
ک	-11570
─	-11571
Ч	-11572
る	-11573
Ш	-11574
ย	-11575
∞	-11576
्	-11577
➤	-11578
し	-11579
市	-11580
Ż	-11581
を	-11582
👉	-11583
で	-11584
ň	-11585
ح	-11586
✿	-11587
な	-11588
😛	-11589
ќ	-11590
ն	-11591
大	-11592
Ê	-11593
	-11594
ไ	-11595
―	-11596
█	-11597
ッ	-11598
ξ	-11599
њ	-11600
ր	-11601
յ	-11602
	-11603
Ô	-11604
न	-11605
ṁ	-11606
‍	-11607
す	-11608
と	-11609
đ	-11610
ʻ	-11611
❯	-11612
に	-11613
ラ	-11614
メ	-11615
Μ	-11616
Հ	-11617
♫	-11618
た	-11619
Ė	-11620
Ō	-11621
的	-11622
로	-11623
Đ	-11624
Ι	-11625
Э	-11626
غ	-11627
は	-11628
Κ	-11629
ώ	-11630
Ф	-11631
ी	-11632
☺	-11633
🙁	-11634
¶	-11635
ġ	-11636
シ	-11637
Þ	-11638
ク	-11639
📌	-11640
ɛ	-11641
̊	-11642
צ	-11643
ि	-11644
်	-11645
ジ	-11646
	-11647
ა	-11648
ი	-11649
☀	-11650
이	-11651
😁	-11652
ħ	-11653
ť	-11654
ג	-11655
🏻	-11656
ÿ	-11657
Ж	-11658
ذ	-11659
│	-11660
♡	-11661
て	-11662
드	-11663
े	-11664
◀	-11665
フ	-11666
🇹	-11667
ى	-11668
ّ	-11669
र	-11670
ṅ	-11671
こ	-11672
カ	-11673
コ	-11674
는	-11675
🇮	-11676
📅	-11677
ǎ	-11678
Қ	-11679
қ	-11680
რ	-11681
☎	-11682
人	-11683
省	-11684
أ	-11685
ḍ	-11686
ṭ	-11687
운	-11688
ह	-11689
║	-11690
ア	-11691
	-11692
	-11693
ব	-11694
ლ	-11695
▫	-11696
➢	-11697
니	-11698
스	-11699
	-11700
ĭ	-11701
ј	-11702
پ	-11703
ি	-11704
்	-11705
	-11706
🚫	-11707
Τ	-11708
द	-11709
➔	-11710
。	-11711
タ	-11712
	-11713
Õ	-11714
ў	-11715
ُ	-11716
ქ	-11717
↔	-11718
∙	-11719
⋅	-11720
❗	-11721
ま	-11722
ط	-11723
ं	-11724
თ	-11725
უ	-11726
😦	-11727
ŕ	-11728
Γ	-11729
Ц	-11730
ט	-11731
▔	-11732
ド	-11733
고	-11734
ľ	-11735
ː	-11736
ψ	-11737
ง	-11738
า	-11739
ἐ	-11740
❓	-11741
👍	-11742
🔝	-11743
ƚ	-11744
ك	-11745
ు	-11746
ร	-11747
ἀ	-11748
全	-11749
山	-11750
新	-11751
景	-11752
하	-11753
	-11754
😄	-11755
ั	-11756
မ	-11757
う	-11758
ロ	-11759
县	-11760
油	-11761
游	-11762
自	-11763
道	-11764
에	-11765
🔥	-11766
ŏ	-11767
Ÿ	-11768
ʃ	-11769
Ο	-11770
ζ	-11771
ז	-11772
म	-11773
स	-11774
ল	-11775
ம	-11776
ビ	-11777
リ	-11778
海	-11779
🎬	-11780
💯	-11781
ɪ	-11782
܀	-11783
র	-11784
‧	-11785
♣	-11786
》	-11787
か	-11788
れ	-11789
グ	-11790
区	-11791
	-11792
Ï	-11793
ɔ	-11794
ˮ	-11795
Ѐ	-11796
Ь	-11797
प	-11798
্	-11799
த	-11800
▲	-11801
⚡	-11802
ⴰ	-11803
あ	-11804
パ	-11805
上	-11806
을	-11807
	-11808
🎨	-11809
ǐ	-11810
ʾ	-11811
̨	-11812
ி	-11813
་	-11814
ာ	-11815
◊	-11816
⚠	-11817
➖	-11818
「	-11819
」	-11820
く	-11821
り	-11822
南	-11823
年	-11824
月	-11825
	-11826
👏	-11827
😋	-11828
þ	-11829
Ν	-11830
ئ	-11831
‖	-11832
き	-11833
ネ	-11834
ヒ	-11835
리	-11836
ŭ	-11837
Λ	-11838
ף	-11839
প	-11840
น	-11841
◦	-11842
ⵣ	-11843
《	-11844
お	-11845
ん	-11846
バ	-11847
ブ	-11848
京	-11849
北	-11850
戏	-11851
뀐	-11852
	-11853
	-11854
ư	-11855
ɑ	-11856
ْ	-11857
ং	-11858
ু	-11859
ழ	-11860
เ	-11861
⠀	-11862
ⵔ	-11863
が	-11864
っ	-11865
前	-11866
의	-11867
지	-11868
💰	-11869
🔸	-11870
😅	-11871
ʺ	-11872
Ю	-11873
ِ	-11874
ণ	-11875
‽	-11876
∆	-11877
ⵍ	-11878
出	-11879
가	-11880
도	-11881
우	-11882
😘	-11883
😜	-11884
😯	-11885
ѕ	-11886
إ	-11887
∴	-11888
♀	-11889
✨	-11890
✳	-11891
さ	-11892
ら	-11893
名	-11894
🎁	-11895
💻	-11896
📍	-11897
😆	-11898
	-11899
ņ	-11900
є	-11901
ल	-11902
Ḥ	-11903
ẖ	-11904
◕	-11905
✈	-11906
マ	-11907
一	-11908
会	-11909
습	-11910
시	-11911
🍃	-11912
💸	-11913
	-11914
Υ	-11915
՚	-11916
آ	-11917
ล	-11918
⌘	-11919
✒	-11920
✦	-11921
❌	-11922
め	-11923
ェ	-11924
所	-11925
江	-11926
网	-11927
서	-11928
	-11929
🌸	-11930
👇	-11931
💪	-11932
😎	-11933
😱	-11934
Ġ	-11935
ȓ	-11936
Θ	-11937
Ρ	-11938
ల	-11939
ม	-11940
ว	-11941
อ	-11942
င	-11943
န	-11944
▬	-11945
☕	-11946
♪	-11947
オ	-11948
サ	-11949
ダ	-11950
体	-11951
址	-11952
📸	-11953
😳	-11954
क	-11955
ိ	-11956
ြ	-11957
ẕ	-11958
‛	-11959
⚽	-11960
✮	-11961
レ	-11962
学	-11963
感	-11964
湖	-11965
石	-11966
西	-11967
都	-11968
은	-11969
	-11970
	-11971
	-11972
🔍	-11973
🤣	-11974
Ć	-11975
̆	-11976
त	-11977
ം	-11978
മ	-11979
യ	-11980
ല	-11981
ള	-11982
ാ	-11983
▻	-11984
♂	-11985
そ	-11986
つ	-11987
ウ	-11988
デ	-11989
作	-11990
公	-11991
安	-11992
粵	-11993
車	-11994
風	-11995
아	-11996
	-11997
︎	-11998
🇧	-11999
🛒	-12000
ǔ	-12001
ɡ	-12002
ʊ	-12003
ү	-12004
ָ	-12005
ম	-12006
ု	-12007
⃣	-12008
∅	-12009
◾	-12010
☝	-12011
☞	-12012
♠	-12013
⟵	-12014
ち	-12015
キ	-12016
プ	-12017
家	-12018
我	-12019
明	-12020
竪	-12021
精	-12022
行	-12023
金	-12024
그	-12025
있	-12026
트	-12027
🎯	-12028
🏼	-12029
🏽	-12030
💕	-12031
💡	-12032
🙄	-12033
Œ	-12034
ʹ	-12035
̣	-12036
چ	-12037
ہ	-12038
य	-12039
พ	-12040
฿	-12041
း	-12042
※	-12043
∼	-12044
⏰	-12045
❀	-12046
け	-12047
だ	-12048
ム	-12049
ョ	-12050
二	-12051
利	-12052
可	-12053
地	-12054
子	-12055
治	-12056
特	-12057
生	-12058
대	-12059
비	-12060
	-12061
🇦	-12062
🇬	-12063
🌈	-12064
🕥	-12065
Ē	-12066
ʒ	-12067
̇	-12068
̯	-12069
͡	-12070
Η	-12071
ض	-12072
ब	-12073
য	-12074
ী	-12075
త	-12076
ห	-12077
ὶ	-12078
ῶ	-12079
⁃	-12080
≫	-12081
➜	-12082
ⵢ	-12083
ケ	-12084
ズ	-12085
ナ	-12086
三	-12087
愛	-12088
正	-12089
法	-12090
를	-12091
사	-12092
전	-12093
주	-12094
	-12095
	-12096
🌍	-12097
🌷	-12098
👓	-12099
🤩	-12100
ŋ	-12101
̓	-12102
Χ	-12103
؀	-12104
ट	-12105
ो	-12106
়	-12107
ె	-12108
ನ	-12109
ป	-12110
ា	-12111
ṡ	-12112
ạ	-12113
ῖ	-12114
‿	-12115
∏	-12116
☼	-12117
✌	-12118
➠	-12119
も	-12120
ザ	-12121
チ	-12122
十	-12123
多	-12124
州	-12125
平	-12126
方	-12127
更	-12128
東	-12129
癡	-12130
知	-12131
茶	-12132
高	-12133
구	-12134
했	-12135
호	-12136
	-12137
🍻	-12138
📲	-12139
ˌ	-12140
Β	-12141
Ы	-12142
џ	-12143
һ	-12144
ठ	-12145
గ	-12146
ồ	-12147
Ἀ	-12148
≪	-12149
▹	-12150
ⴻ	-12151
ど	-12152
み	-12153
ポ	-12154
モ	-12155
入	-12156
合	-12157
小	-12158
最	-12159
有	-12160
点	-12161
环	-12162
社	-12163
私	-12164
翻	-12165
评	-12166
译	-12167
谢	-12168
通	-12169
나	-12170
으	-12171
	-12172
🇪	-12173
🇺	-12174
🌱	-12175
👑	-12176
💥	-12177
ѐ	-12178
ҷ	-12179
ء	-12180
ষ	-12181
ก	-12182
ด	-12183
ะ	-12184
ခ	-12185
ရ	-12186
ố	-12187
ờ	-12188
ἄ	-12189
∫	-12190
≠	-12191
♭	-12192
✑	-12193
❖	-12194
➥	-12195
⟩	-12196
『	-12197
』	-12198
え	-12199
ィ	-12200
ツ	-12201
ミ	-12202
ャ	-12203
东	-12204
伊	-12205
克	-12206
分	-12207
力	-12208
夜	-12209
天	-12210
布	-12211
意	-12212
斯	-12213
是	-12214
机	-12215
民	-12216
猫	-12217
用	-12218
田	-12219
置	-12220
酒	-12221
鱼	-12222
약	-12223
합	-12224
	-12225
🌪	-12226
👆	-12227
📣	-12228
🔎	-12229
🔵	-12230
🖱	-12231
🤔	-12232
Û	-12233
Ő	-12234
ű	-12235
ǧ	-12236
ʧ	-12237
ϋ	-12238
ӑ	-12239
ส	-12240
ี	-12241
ར	-12242
ῆ	-12243
ῦ	-12244
⇧	-12245
◄	-12246
○	-12247
☑	-12248
✚	-12249
✪	-12250
❄	-12251
➷	-12252
⟨	-12253
べ	-12254
エ	-12255
ゼ	-12256
ソ	-12257
テ	-12258
代	-12259
光	-12260
加	-12261
器	-12262
場	-12263
宝	-12264
沙	-12265
真	-12266
經	-12267
者	-12268
説	-12269
设	-12270
食	-12271
깨	-12272
라	-12273
매	-12274
보	-12275
소	-12276
었	-12277
	-12278
	-12279
	-12280
	-12281
🇩	-12282
💗	-12283
😭	-12284
ģ	-12285
Ħ	-12286
ĺ	-12287
ŝ	-12288
ʀ	-12289
ΰ	-12290
Є	-12291
ӣ	-12292
گ	-12293
ज	-12294
ఀ	-12295
ศ	-12296
ོ	-12297
က	-12298
ᄀ	-12299
ứ	-12300
∠	-12301
∨	-12302
├	-12303
⚫	-12304
✭	-12305
❚	-12306
⦁	-12307
ⵎ	-12308
世	-12309
个	-12310
五	-12311
化	-12312
发	-12313
城	-12314
夕	-12315
女	-12316
威	-12317
形	-12318
德	-12319
支	-12320
旅	-12321
族	-12322
案	-12323
武	-12324
氏	-12325
河	-12326
版	-12327
王	-12328
神	-12329
船	-12330
表	-12331
論	-12332
过	-12333
馬	-12334
鹿	-12335
개	-12336
기	-12337
부	-12338
인	-12339
조	-12340
	-12341
🌞	-12342
🌹	-12343
🍁	-12344
💋	-12345
💙	-12346
📱	-12347
📷	-12348
🙏	-12349
	-12350
˗	-12351
Ί	-12352
Ϻ	-12353
Й	-12354
ִ	-12355
ٍ	-12356
ड	-12357
भ	-12358
ਜ	-12359
ਪ	-12360
ਬ	-12361
ਾ	-12362
ੀ	-12363
ੰ	-12364
ర	-12365
จ	-12366
บ	-12367
ุ	-12368
တ	-12369
ပ	-12370
လ	-12371
დ	-12372
្	-12373
ṃ	-12374
Ṣ	-12375
ộ	-12376
ὑ	-12377
ὰ	-12378
ὸ	-12379
℗	-12380
┬	-12381
ⵉ	-12382
ろ	-12383
わ	-12384
ォ	-12385
ハ	-12386
乡	-12387
了	-12388
信	-12389
元	-12390
内	-12391
台	-12392
周	-12393
基	-12394
好	-12395
很	-12396
捕	-12397
桜	-12398
歯	-12399
洛	-12400
白	-12401
確	-12402
立	-12403
答	-12404
节	-12405
茅	-12406
要	-12407
請	-12408
语	-12409
这	-12410
配	-12411
館	-12412
게	-12413
과	-12414
동	-12415
러	-12416
일	-12417
정	-12418
크	-12419
	-12420
	-12421
🍷	-12422
🍺	-12423
🎓	-12424
🎮	-12425
👌	-12426
😓	-12427
😮	-12428
🙋	-12429
🤗	-12430
Ī	-12431
Ř	-12432
ˇ	-12433
Έ	-12434
Ψ	-12435
ְ	-12436
ث	-12437
व	-12438
న	-12439
ค	-12440
์	-12441
ํ	-12442
ས	-12443
ယ	-12444
ὁ	-12445
≡	-12446
⊙	-12447
✽	-12448
❥	-12449
❱	-12450
➕	-12451
⤝	-12452
⬇	-12453
ⵓ	-12454
〈	-12455
せ	-12456
よ	-12457
ニ	-12458
下	-12459
九	-12460
住	-12461
動	-12462
和	-12463
啮	-12464
園	-12465
在	-12466
房	-12467
手	-12468
技	-12469
提	-12470
星	-12471
林	-12472
水	-12473
洲	-12474
目	-12475
相	-12476
福	-12477
美	-12478
苏	-12479
選	-12480
里	-12481
镇	-12482
모	-12483
무	-12484
바	-12485
방	-12486
수	-12487
숙	-12488
신	-12489
예	-12490
요	-12491
위	-12492
자	-12493
절	-12494
집	-12495
	-12496
	-12497
	-12498
	-12499
～	-12500
🎤	-12501
🔷	-12502
🔹	-12503
😃	-12504
😥	-12505
🥇	-12506
	-12507
	-12508
ĝ	-12509
Ľ	-12510
ɐ	-12511
ʽ	-12512
ͣ	-12513
Ά	-12514
ϟ	-12515
Щ	-12516
ӧ	-12517
ּ	-12518
،	-12519
ە	-12520
۞	-12521
श	-12522
ष	-12523
ல	-12524
ಕ	-12525
ಡ	-12526
್	-12527
ഀ	-12528
฀	-12529
ู	-12530
ང	-12531
ད	-12532
ུ	-12533
ည	-12534
ေ	-12535
រ	-12536
ἰ	-12537
ὐ	-12538
₺	-12539
∧	-12540
⋆	-12541
⌚	-12542
⎼	-12543
╮	-12544
╰	-12545
♕	-12546
♰	-12547
⛔	-12548
✎	-12549
❶	-12550
〉	-12551
ご	-12552
ば	-12553
ゃ	-12554
ァ	-12555
ノ	-12556
ボ	-12557
ュ	-12558
ヴ	-12559
们	-12560
傳	-12561
写	-12562
动	-12563
団	-12564
國	-12565
太	-12566
完	-12567
宗	-12568
尔	-12569
式	-12570
彼	-12571
成	-12572
投	-12573
控	-12574
斜	-12575
曲	-12576
李	-12577
楼	-12578
欧	-12579
百	-12580
稿	-12581
简	-12582
联	-12583
能	-12584
舒	-12585
花	-12586
華	-12587
見	-12588
財	-12589
阳	-12590
餌	-12591
黒	-12592
려	-12593
마	-12594
며	-12595
박	-12596
안	-12597
오	-12598
와	-12599
음	-12600
해	-12601
	-12602
	-12603
	-12604
	-12605
	-12606
	-12607
	-12608
🌎	-12609
🌺	-12610
💁	-12611
💎	-12612
💐	-12613
📦	-12614
🛍	-12615
🤮	-12616
	-12617
	-12618
ļ	-12619
ũ	-12620
Ź	-12621
Ǝ	-12622
ǫ	-12623
ȏ	-12624
ˋ	-12625
˳	-12626
̋	-12627
љ	-12628
ћ	-12629
ҡ	-12630
օ	-12631
ֹ	-12632
ך	-12633
ـ	-12634
ध	-12635
ु	-12636
ृ	-12637
ে	-12638
இ	-12639
మ	-12640
్	-12641
่	-12642
้	-12643
ི	-12644
္	-12645
ត	-12646
Ḕ	-12647
ḩ	-12648
ả	-12649
ὕ	-12650
℧	-12651
↩	-12652
≅	-12653
▼	-12654
◅	-12655
◇	-12656
☘	-12657
☛	-12658
♚	-12659
⚪	-12660
じ	-12661
ガ	-12662
ギ	-12663
ピ	-12664
ペ	-12665
万	-12666
主	-12667
于	-12668
以	-12669
伸	-12670
制	-12671
升	-12672
厅	-12673
友	-12674
受	-12675
古	-12676
吸	-12677
备	-12678
夷	-12679
定	-12680
川	-12681
干	-12682
廣	-12683
性	-12684
扣	-12685
接	-12686
数	-12687
時	-12688
来	-12689
格	-12690
棠	-12691
機	-12692
気	-12693
汉	-12694
波	-12695
淮	-12696
深	-12697
灣	-12698
炎	-12699
無	-12700
物	-12701
球	-12702
画	-12703
研	-12704
移	-12705
米	-12706
红	-12707
编	-12708
羅	-12709
话	-12710
赛	-12711
路	-12712
车	-12713
遥	-12714
部	-12715
醉	-12716
銀	-12717
钱	-12718
门	-12719
间	-12720
電	-12721
霉	-12722
风	-12723
駅	-12724
黄	-12725
것	-12726
공	-12727
근	-12728
만	-12729
문	-12730
살	-12731
상	-12732
세	-12733
여	-12734
역	-12735
입	-12736
친	-12737
파	-12738
	-12739
	-12740
	-12741
	-12742
	-12743
	-12744
	-12745
	-12746
	-12747
	-12748
🇨	-12749
🇸	-12750
🌲	-12751
🌻	-12752
🌼	-12753
🌿	-12754
🎀	-12755
🎧	-12756
🏆	-12757
👁	-12758
👩	-12759
💍	-12760
📙	-12761
📝	-12762
😇	-12763
😈	-12764
🙈	-12765
🥰	-12766
􀂄	-12767
ď	-12768
Ƨ	-12769
ǒ	-12770
ɒ	-12771
ɣ	-12772
̵	-12773
Ή	-12774
ϛ	-12775
ϝ	-12776
ϭ	-12777
Ѕ	-12778
ַ	-12779
؛	-12780
ظ	-12781
ڠ	-12782
अ	-12783
ई	-12784
उ	-12785
ए	-12786
ग	-12787
च	-12788
ଆ	-12789
ଓ	-12790
ଡ	-12791
଼	-12792
ି	-12793
ய	-12794
ఎ	-12795
ీ	-12796
ต	-12797
ื	-12798
ག	-12799
བ	-12800
མ	-12801
ལ	-12802
ဘ	-12803
သ	-12804
ვ	-12805
ო	-12806
ខ	-12807
ម	-12808
ḑ	-12809
ḫ	-12810
ấ	-12811
ắ	-12812
ợ	-12813
ἔ	-12814
ἴ	-12815
ὀ	-12816
ᾥ	-12817
∇	-12818
⋰	-12819
⋱	-12820
⏭	-12821
╗	-12822
◉	-12823
☏	-12824
☾	-12825
♬	-12826
✊	-12827
✘	-12828
✱	-12829
❣	-12830
➞	-12831
⤽	-12832
ⵏ	-12833
む	-12834
セ	-12835
ゾ	-12836
ヘ	-12837
不	-12838
业	-12839
之	-12840
事	-12841
云	-12842
井	-12843
交	-12844
今	-12845
传	-12846
侯	-12847
其	-12848
到	-12849
劇	-12850
原	-12851
口	-12852
号	-12853
喜	-12854
回	-12855
园	-12856
塔	-12857
宁	-12858
客	-12859
寄	-12860
岩	-12861
广	-12862
店	-12863
庫	-12864
建	-12865
当	-12866
得	-12867
必	-12868
情	-12869
振	-12870
教	-12871
會	-12872
服	-12873
木	-12874
校	-12875
港	-12876
溯	-12877
男	-12878
界	-12879
秋	-12880
第	-12881
術	-12882
言	-12883
話	-12884
计	-12885
适	-12886
那	-12887
野	-12888
雄	-12889
面	-12890
魏	-12891
麻	-12892
龙	-12893
곳	-12894
녀	-12895
님	-12896
레	-12897
루	-12898
른	-12899
머	-12900
베	-12901
산	-12902
심	-12903
용	-12904
장	-12905
점	-12906
제	-12907
좋	-12908
최	-12909
함	-12910
후	-12911
	-12912
	-12913
	-12914
	-12915
	-12916
	-12917
	-12918
	-12919
	-12920
	-12921
	-12922
🇷	-12923
🍀	-12924
🍔	-12925
🎉	-12926
🎵	-12927
👨	-12928
👶	-12929
💓	-12930
💖	-12931
💫	-12932
💶	-12933
😕	-12934
🚖	-12935
🚨	-12936
🛀	-12937
🤪	-12938
🦜	-12939
	-12940
Ĕ	-12941
Ğ	-12942
ĩ	-12943
Ū	-12944
ơ	-12945
ǜ	-12946
ɲ	-12947
ʁ	-12948
ʎ	-12949
ʏ	-12950
ʣ	-12951
̔	-12952
̕	-12953
Ϫ	-12954
Ѓ	-12955
ի	-12956
ֶ	-12957
ץ	-12958
۩	-12959
ܐ	-12960
গ	-12961
জ	-12962
ট	-12963
শ	-12964
ા	-12965
ை	-12966
ా	-12967
ภ	-12968
๑	-12969
ລ	-12970
າ	-12971
ༀ	-12972
ཡ	-12973
ྫ	-12974
ီ	-12975
ျ	-12976
გ	-12977
მ	-12978
ს	-12979
ር	-12980
ኛ	-12981
ព	-12982
ស	-12983
Ḩ	-12984
Ṭ	-12985
ậ	-12986
ẽ	-12987
ễ	-12988
ủ	-12989
ừ	-12990
ự	-12991
ἶ	-12992
ὅ	-12993
ὖ	-12994
ῥ	-12995
⁠	-12996
₽	-12997
⇑	-12998
∂	-12999
⏩	-13000
╔	-13001
◐	-13002
◻	-13003
☃	-13004
☻	-13005
⚔	-13006
✋	-13007
✰	-13008
➝	-13009
⩾	-13010
⭕	-13011
Ⱄ	-13012
々	-13013
ぎ	-13014
ず	-13015
ひ	-13016
や	-13017
ヨ	-13018
㄀	-13019
丁	-13020
与	-13021
予	-13022
亚	-13023
亞	-13024
仪	-13025
伝	-13026
何	-13027
你	-13028
供	-13029
便	-13030
停	-13031
先	-13032
净	-13033
别	-13034
剣	-13035
千	-13036
华	-13037
印	-13038
参	-13039
史	-13040
司	-13041
吴	-13042
吾	-13043
味	-13044
品	-13045
四	-13046
士	-13047
外	-13048
夫	-13049
実	-13050
宿	-13051
寺	-13052
少	-13053
就	-13054
工	-13055
巴	-13056
常	-13057
庆	-13058
度	-13059
引	-13060
張	-13061
徒	-13062
心	-13063
惠	-13064
折	-13065
拉	-13066
持	-13067
旵	-13068
普	-13069
朋	-13070
朝	-13071
杵	-13072
栗	-13073
株	-13074
森	-13075
様	-13076
歌	-13077
气	-13078
池	-13079
沃	-13080
注	-13081
热	-13082
片	-13083
现	-13084
現	-13085
理	-13086
琛	-13087
甲	-13088
盆	-13089
示	-13090
科	-13091
章	-13092
篇	-13093
線	-13094
編	-13095
繁	-13096
纳	-13097
线	-13098
维	-13099
耶	-13100
臼	-13101
色	-13102
草	-13103
藏	-13104
覺	-13105
解	-13106
赤	-13107
走	-13108
趙	-13109
鎮	-13110
長	-13111
開	-13112
阿	-13113
青	-13114
馃	-13115
體	-13116
각	-13117
간	-13118
까	-13119
내	-13120
노	-13121
되	-13122
들	-13123
뜀	-13124
랑	-13125
면	-13126
명	-13127
미	-13128
버	-13129
브	-13130
성	-13131
실	-13132
알	-13133
움	-13134
유	-13135
중	-13136
진	-13137
천	-13138
치	-13139
카	-13140
키	-13141
터	-13142
톱	-13143
피	-13144
화	-13145
환	-13146
	-13147
	-13148
	-13149
	-13150
	-13151
	-13152
	-13153
	-13154
	-13155
🌊	-13156
🌐	-13157
🍂	-13158
🍇	-13159
🍕	-13160
🍳	-13161
🍸	-13162
🎄	-13163
🎈	-13164
🎊	-13165
🎥	-13166
🎭	-13167
🎺	-13168
🏃	-13169
👣	-13170
👦	-13171
💃	-13172
💚	-13173
💳	-13174
💼	-13175
🔻	-13176
😐	-13177
😒	-13178
😢	-13179
😤	-13180
😩	-13181
🙌	-13182
🚀	-13183
🥀	-13184
🦋	-13185
🧢	-13186
🧤	-13187
ĉ	-13188
Ę	-13189
Ĺ	-13190
Ń	-13191
ȅ	-13192
ȗ	-13193
ɦ	-13194
̸	-13195
Ώ	-13196
Ζ	-13197
ϊ	-13198
ϩ	-13199
ґ	-13200
ҳ	-13201
Ԁ	-13202
ԁ	-13203
Ա	-13204
գ	-13205
ո	-13206
վ	-13207
ֵ	-13208
ׂ	-13209
ے	-13210
आ	-13211
ण	-13212
ै	-13213
ौ	-13214
চ	-13215
দ	-13216
ভ	-13217
જ	-13218
ત	-13219
ી	-13220
ப	-13221
ர	-13222
య	-13223
ో	-13224
ು	-13225
ธ	-13226
ວ	-13227
ະ	-13228
འ	-13229
ེ	-13230
ྒ	-13231
ူ	-13232
ွ	-13233
ှ	-13234
ე	-13235
ᄄ	-13236
ማ	-13237
አ	-13238
ᜀ	-13239
ក	-13240
ភ	-13241
ែ	-13242
ᥙ	-13243
ᨀ	-13244
ḗ	-13245
ṓ	-13246
Ề	-13247
ề	-13248
ỉ	-13249
ọ	-13250
ỳ	-13251
Ἐ	-13252
ἱ	-13253
ὲ	-13254
ὴ	-13255
ᾶ	-13256
ῳ	-13257
⁩	-13258
₭	-13259
⇐	-13260
⇓	-13261
∗	-13262
∪	-13263
⏳	-13264
◎	-13265
◲	-13266
☠	-13267
☽	-13268
♋	-13269
♯	-13270
♻	-13271
⛅	-13272
⛵	-13273
✉	-13274
✍	-13275
❙	-13276
❷	-13277
❸	-13278
❹	-13279
➏	-13280
➽	-13281
⯑	-13282
ⴱ	-13283
ⴽ	-13284
ⵖ	-13285
ⵜ	-13286
ⵟ	-13287
〒	-13288
〜	-13289
ぜ	-13290
ぶ	-13291
ゆ	-13292
ょ	-13293
ゲ	-13294
ゴ	-13295
ベ	-13296
ホ	-13297
ヤ	-13298
为	-13299
久	-13300
义	-13301
享	-13302
介	-13303
位	-13304
佐	-13305
修	-13306
值	-13307
僧	-13308
八	-13309
再	-13310
初	-13311
劝	-13312
功	-13313
勝	-13314
區	-13315
卍	-13316
卡	-13317
又	-13318
双	-13319
句	-13320
告	-13321
哈	-13322
售	-13323
善	-13324
嘉	-13325
土	-13326
场	-13327
夏	-13328
夢	-13329
央	-13330
她	-13331
始	-13332
字	-13333
宅	-13334
官	-13335
宣	-13336
寝	-13337
对	-13338
寿	-13339
將	-13340
居	-13341
屋	-13342
展	-13343
岛	-13344
巨	-13345
己	-13346
師	-13347
庇	-13348
強	-13349
影	-13350
待	-13351
恋	-13352
您	-13353
戸	-13354
才	-13355
指	-13356
敵	-13357
敷	-13358
斐	-13359
料	-13360
早	-13361
时	-13362
昆	-13363
昉	-13364
昌	-13365
晚	-13366
智	-13367
望	-13368
期	-13369
杨	-13370
松	-13371
業	-13372
権	-13373
橋	-13374
欢	-13375
测	-13376
济	-13377
浪	-13378
溪	-13379
漫	-13380
潤	-13381
激	-13382
火	-13383
灰	-13384
焼	-13385
照	-13386
玉	-13387
疆	-13388
皆	-13389
皇	-13390
直	-13391
着	-13392
矇	-13393
碁	-13394
祁	-13395
禅	-13396
禪	-13397
竜	-13398
競	-13399
糖	-13400
約	-13401
結	-13402
絵	-13403
聖	-13404
育	-13405
臺	-13406
興	-13407
良	-13408
若	-13409
英	-13410
萌	-13411
营	-13412
萬	-13413
蓮	-13414
藤	-13415
視	-13416
討	-13417
記	-13418
谷	-13419
貌	-13420
転	-13421
輔	-13422
輪	-13423
载	-13424
込	-13425
迎	-13426
近	-13427
重	-13428
鈥	-13429
鉄	-13430
长	-13431
門	-13432
音	-13433
飯	-13434
餐	-13435
객	-13436
경	-13437
교	-13438
금	-13439
꽃	-13440
너	-13441
년	-13442
당	-13443
던	-13444
돌	-13445
든	-13446
랜	-13447
료	-13448
르	-13449
름	-13450
물	-13451
분	-13452
불	-13453
생	-13454
않	-13455
없	-13456
연	-13457
옹	-13458
완	-13459
울	-13460
워	-13461
원	-13462
월	-13463
저	-13464
적	-13465
접	-13466
직	-13467
처	-13468
추	-13469
타	-13470
테	-13471
통	-13472
티	-13473
편	-13474
포	-13475
플	-13476
할	-13477
행	-13478
히	-13479
	-13480
	-13481
	-13482
	-13483
	-13484
	-13485
	-13486
	-13487
	-13488
	-13489
	-13490
	-13491
	-13492
	-13493
	-13494
	-13495
	-13496
🆚	-13497
🇫	-13498
🇰	-13499
🇵	-13500
🍊	-13501
🎐	-13502
🎙	-13503
🎶	-13504
🎼	-13505
🏋	-13506
🏖	-13507
🏠	-13508
👋	-13509
👧	-13510
👿	-13511
💀	-13512
💌	-13513
💔	-13514
💝	-13515
💠	-13516
💣	-13517
💭	-13518
💲	-13519
📊	-13520
📋	-13521
📚	-13522
📞	-13523
🔊	-13524
🔋	-13525
🔔	-13526
🔜	-13527
🕑	-13528
🗓	-13529
🗣	-13530
😌	-13531
😙	-13532
😟	-13533
😬	-13534
🚗	-13535
🚚	-13536
🤓	-13537
🤷	-13538
🥳	-13539
🦇	-13540
🧛	-13541
	-13542
	-13543
	-13544
Ą	-13545
ċ	-13546
į	-13547
ĵ	-13548
ķ	-13549
Ť	-13550
Ŧ	-13551
ŧ	-13552
ŷ	-13553
Ƈ	-13554
Ə	-13555
Ɛ	-13556
Ƭ	-13557
ƴ	-13558
ǵ	-13559
Ȁ	-13560
ȃ	-13561
ȇ	-13562
Ș	-13563
Ƞ	-13564
ɜ	-13565
ɟ	-13566
ɨ	-13567
ʌ	-13568
ʖ	-13569
ʤ	-13570
ʦ	-13571
̤	-13572
͜	-13573
Ј	-13574
Љ	-13575
ѣ	-13576
ӯ	-13577
Ի	-13578
հ	-13579
մ	-13580
ս	-13581
տ	-13582
ւ	-13583
ֲ	-13584
ډ	-13585
ڌ	-13586
ۇ	-13587
ܘ	-13588
ܝ	-13589
ܡ	-13590
ܪ	-13591
ި	-13592
फ	-13593
़	-13594
অ	-13595
স	-13596
ગ	-13597
ણ	-13598
ર	-13599
ુ	-13600
଀	-13601
ଅ	-13602
உ	-13603
க	-13604
ண	-13605
ள	-13606
ு	-13607
ం	-13608
ఆ	-13609
చ	-13610
ప	-13611
బ	-13612
ి	-13613
ే	-13614
ై	-13615
೫	-13616
ං	-13617
ල	-13618
ස	-13619
හ	-13620
ි	-13621
ข	-13622
ช	-13623
ฒ	-13624
ฟ	-13625
ษ	-13626
แ	-13627
โ	-13628
ຊ	-13629
ເ	-13630
ໄ	-13631
ཀ	-13632
ཁ	-13633
ཆ	-13634
ྲ	-13635
စ	-13636
ဆ	-13637
ထ	-13638
ဖ	-13639
အ	-13640
ნ	-13641
ჭ	-13642
ᄂ	-13643
ᑎ	-13644
ᒃ	-13645
ᒾ	-13646
ᔀ	-13647
ច	-13648
ជ	-13649
ិ	-13650
េ	-13651
់	-13652
ᠡ	-13653
ᬀ	-13654
ᴇ	-13655
Ḁ	-13656
ḳ	-13657
Ṛ	-13658
ṯ	-13659
ṳ	-13660
ầ	-13661
ẵ	-13662
ặ	-13663
ẹ	-13664
ể	-13665
ị	-13666
ổ	-13667
ụ	-13668
ἁ	-13669
Ἄ	-13670
ἒ	-13671
Ἔ	-13672
ἡ	-13673
ἥ	-13674
Ἰ	-13675
ὄ	-13676
ὤ	-13677
ὥ	-13678
ὼ	-13679
ῇ	-13680
ῷ	-13681
‣	-13682
₩	-13683
₵	-13684
₹	-13685
℞	-13686
℮	-13687
↪	-13688
⇨	-13689
∈	-13690
∑	-13691
⊕	-13692
⊥	-13693
⌂	-13694
⏱	-13695
␍	-13696
␣	-13697
▎	-13698
▭	-13699
△	-13700
◘	-13701
◙	-13702
◮	-13703
☊	-13704
☔	-13705
☯	-13706
☰	-13707
♐	-13708
♩	-13709
⚕	-13710
⚘	-13711
⚙	-13712
⛄	-13713
⛈	-13714
⛲	-13715
✆	-13716
✗	-13717
✝	-13718
✞	-13719
✧	-13720
✯	-13721
❂	-13722
❎	-13723
❘	-13724
❝	-13725
❺	-13726
➊	-13727
➋	-13728
➌	-13729
➍	-13730
➎	-13731
➐	-13732
➑	-13733
➒	-13734
➙	-13735
➨	-13736
⤑	-13737
Ⰲ	-13738
Ⰽ	-13739
Ⰾ	-13740
Ⱀ	-13741
Ⱁ	-13742
Ⱏ	-13743
Ⱐ	-13744
Ⱑ	-13745
ⴼ	-13746
ⵅ	-13747
ⵕ	-13748
ⵙ	-13749
⸀	-13750
〰	-13751
ざ	-13752
づ	-13753
ぬ	-13754
び	-13755
ふ	-13756
へ	-13757
ほ	-13758
ゅ	-13759
ゥ	-13760
ユ	-13761
ワ	-13762
㐀	-13763
㠀	-13764
䷭	-13765
七	-13766
両	-13767
丽	-13768
也	-13769
书	-13770
产	-13771
从	-13772
他	-13773
令	-13774
任	-13775
例	-13776
依	-13777
価	-13778
俺	-13779
傅	-13780
像	-13781
兰	-13782
共	-13783
关	-13784
兵	-13785
具	-13786
典	-13787
円	-13788
准	-13789
划	-13790
刷	-13791
剎	-13792
創	-13793
务	-13794
務	-13795
協	-13796
反	-13797
叔	-13798
取	-13799
叫	-13800
叶	-13801
吉	-13802
吵	-13803
呼	-13804
問	-13805
嘆	-13806
固	-13807
圳	-13808
坐	-13809
坡	-13810
型	-13811
埃	-13812
域	-13813
堂	-13814
塘	-13815
壁	-13816
変	-13817
套	-13818
奪	-13819
妙	-13820
妹	-13821
委	-13822
姬	-13823
孝	-13824
守	-13825
实	-13826
宵	-13827
密	-13828
察	-13829
导	-13830
将	-13831
层	-13832
届	-13833
屏	-13834
属	-13835
岭	-13836
巻	-13837
巾	-13838
帕	-13839
帝	-13840
幕	-13841
幹	-13842
庁	-13843
広	-13844
库	-13845
庙	-13846
府	-13847
座	-13848
庭	-13849
弟	-13850
彩	-13851
律	-13852
後	-13853
徐	-13854
忍	-13855
志	-13856
快	-13857
思	-13858
怪	-13859
恭	-13860
悟	-13861
悠	-13862
或	-13863
戦	-13864
户	-13865
打	-13866
扫	-13867
抲	-13868
拷	-13869
探	-13870
搒	-13871
摩	-13872
撃	-13873
操	-13874
改	-13875
政	-13876
斤	-13877
旗	-13878
昧	-13879
昭	-13880
晉	-13881
書	-13882
曼	-13883
村	-13884
杰	-13885
极	-13886
果	-13887
枪	-13888
栋	-13889
树	-13890
梅	-13891
梦	-13892
械	-13893
検	-13894
楞	-13895
楽	-13896
模	-13897
樹	-13898
次	-13899
止	-13900
歩	-13901
歳	-13902
比	-13903
氣	-13904
求	-13905
決	-13906
沟	-13907
沢	-13908
沼	-13909
泉	-13910
泰	-13911
泳	-13912
活	-13913
流	-13914
浙	-13915
涟	-13916
润	-13917
渋	-13918
温	-13919
溫	-13920
满	-13921
灌	-13922
炮	-13923
煲	-13924
熱	-13925
牛	-13926
犬	-13927
狗	-13928
狸	-13929
狼	-13930
玄	-13931
瓦	-13932
申	-13933
电	-13934
留	-13935
異	-13936
盟	-13937
眉	-13938
看	-13939
矛	-13940
破	-13941
确	-13942
磨	-13943
祖	-13944
祠	-13945
祥	-13946
秒	-13947
称	-13948
究	-13949
空	-13950
笍	-13951
等	-13952
签	-13953
管	-13954
系	-13955
素	-13956
索	-13957
絶	-13958
継	-13959
練	-13960
縣	-13961
约	-13962
经	-13963
缘	-13964
羊	-13965
群	-13966
義	-13967
翼	-13968
聴	-13969
肃	-13970
肉	-13971
胎	-13972
胡	-13973
脿	-13974
臨	-13975
般	-13976
苗	-13977
范	-13978
荆	-13979
莎	-13980
菜	-13981
葉	-13982
蒂	-13983
蒙	-13984
蘭	-13985
虞	-13986
街	-13987
覧	-13988
親	-13989
觀	-13990
角	-13991
計	-13992
設	-13993
証	-13994
試	-13995
誕	-13996
読	-13997
謝	-13998
議	-13999
让	-14000
证	-14001
该	-14002
误	-14003
调	-14004
豆	-14005
販	-14006
賊	-14007
购	-14008
贵	-14009
赫	-14010
足	-14011
軍	-14012
軽	-14013
辅	-14014
農	-14015
辶	-14016
返	-14017
追	-14018
送	-14019
选	-14020
進	-14021
邦	-14022
量	-14023
鋤	-14024
鏤	-14025
鑑	-14026
银	-14027
链	-14028
销	-14029
锘	-14030
锟	-14031
間	-14032
閩	-14033
閲	-14034
闘	-14035
闭	-14036
问	-14037
陈	-14038
陵	-14039
隠	-14040
隨	-14041
雅	-14042
集	-14043
霍	-14044
静	-14045
韓	-14046
預	-14047
页	-14048
顶	-14049
项	-14050
飛	-14051
餅	-14052
饼	-14053
首	-14054
香	-14055
験	-14056
马	-14057
驿	-14058
魔	-14059
鸡	-14060
麦	-14061
黃	-14062
黎	-14063
龍	-14064
감	-14065
갤	-14066
거	-14067
계	-14068
골	-14069
광	-14070
깡	-14071
남	-14072
냈	-14073
네	-14074
놀	-14075
달	-14076
답	-14077
더	-14078
됐	-14079
된	-14080
두	-14081
란	-14082
래	-14083
럭	-14084
렉	-14085
렴	-14086
류	-14087
륭	-14088
망	-14089
맞	-14090
멋	-14091
메	-14092
반	-14093
번	-14094
벽	-14095
변	-14096
별	-14097
복	-14098
삭	-14099
새	-14100
샘	-14101
선	-14102
설	-14103
셀	-14104
션	-14105
순	-14106
쓸	-14107
았	-14108
엄	-14109
엘	-14110
영	-14111
왔	-14112
외	-14113
욕	-14114
잘	-14115
재	-14116
줄	-14117
즈	-14118
쪽	-14119
차	-14120
찾	-14121
첫	-14122
출	-14123
쿠	-14124
클	-14125
텔	-14126
투	-14127
팅	-14128
평	-14129
폐	-14130
프	-14131
학	-14132
황	-14133
훌	-14134
	-14135
	-14136
	-14137
	-14138
	-14139
	-14140
	-14141
	-14142
	-14143
	-14144
	-14145
	-14146
	-14147
	-14148
	-14149
	-14150
	-14151
	-14152
	-14153
	-14154
	-14155
	-14156
	-14157
	-14158
	-14159
	-14160
	-14161
	-14162
	-14163
	-14164
	-14165
	-14166
	-14167
	-14168
	-14169
	-14170
	-14171
	-14172
	-14173
𒆠	-14174
𒋀	-14175
🆕	-14176
🇿	-14177
🌏	-14178
🌙	-14179
🌚	-14180
🌨	-14181
🌳	-14182
🌵	-14183
🍄	-14184
🍎	-14185
🍓	-14186
🍗	-14187
🍝	-14188
🍞	-14189
🍽	-14190
🎂	-14191
🎃	-14192
🎟	-14193
🎫	-14194
🎻	-14195
🏀	-14196
🏁	-14197
🏊	-14198
🏘	-14199
🏡	-14200
🏫	-14201
🏬	-14202
🐍	-14203
🐶	-14204
🐸	-14205
👈	-14206
👊	-14207
👗	-14208
👰	-14209
👻	-14210
💄	-14211
💆	-14212
💊	-14213
💛	-14214
💜	-14215
💤	-14216
💧	-14217
💩	-14218
💬	-14219
💷	-14220
📛	-14221
📢	-14222
📺	-14223
🔖	-14224
🔶	-14225
🖤	-14226
🖥	-14227
🖼	-14228
🗨	-14229
🗻	-14230
😏	-14231
😑	-14232
😔	-14233
😚	-14234
😝	-14235
😞	-14236
😡	-14237
😶	-14238
😷	-14239
🙃	-14240
🚁	-14241
🚂	-14242
🚙	-14243
🚤	-14244
🚧	-14245
🛌	-14246
🤒	-14247
🤞	-14248
🤡	-14249
🤦	-14250
🤭	-14251
🧐	-14252
🧜	-14253
􀂃	-14254
	-14255
Ý	-14256
Ċ	-14257
Ě	-14258
ĥ	-14259
Ĭ	-14260
Ķ	-14261
Ň	-14262
Ŋ	-14263
Ŕ	-14264
Ŝ	-14265
Ţ	-14266
Ů	-14267
Ų	-14268
ŵ	-14269
Ƅ	-14270
Ɨ	-14271
Ʀ	-14272
ǃ	-14273
ǚ	-14274
ǝ	-14275
ǥ	-14276
Ǧ	-14277
Ǻ	-14278
ǻ	-14279
ǽ	-14280
Ƚ	-14281
Ʌ	-14282
ɕ	-14283
ɘ	-14284
ɢ	-14285
ɤ	-14286
ɥ	-14287
ɧ	-14288
ɫ	-14289
ɯ	-14290
ɴ	-14291
ɷ	-14292
ɹ	-14293
ɾ	-14294
ʂ	-14295
ʄ	-14296
ʉ	-14297
ʍ	-14298
ʝ	-14299
ˁ	-14300
˄	-14301
˅	-14302
ˉ	-14303
ˑ	-14304
̅	-14305
̉	-14306
̍	-14307
̎	-14308
̏	-14309
̑	-14310
̛	-14311
̝	-14312
̰	-14313
̷	-14314
͂	-14315
͟	-14316
ΐ	-14317
Ξ	-14318
Ї	-14319
Њ	-14320
Ћ	-14321
Ў	-14322
Ъ	-14323
ђ	-14324
ѡ	-14325
Ҁ	-14326
ҁ	-14327
Ґ	-14328
ғ	-14329
Ҫ	-14330
ҫ	-14331
Ү	-14332
Ҷ	-14333
Ҹ	-14334
Һ	-14335
Ӏ	-14336
ӛ	-14337
Ө	-14338
ԉ	-14339
Ԯ	-14340
Կ	-14341
Ռ	-14342
Ս	-14343
Ք	-14344
բ	-14345
զ	-14346
ը	-14347
թ	-14348
լ	-14349
խ	-14350
կ	-14351
չ	-14352
պ	-14353
ք	-14354
֩	-14355
ֻ	-14356
ֽ	-14357
ׁ	-14358
؟	-14359
ؤ	-14360
ً	-14361
ٔ	-14362
٠	-14363
ڧ	-14364
ڬ	-14365
ڭ	-14366
ۊ	-14367
ۍ	-14368
ې	-14369
۱	-14370
۲	-14371
۴	-14372
۵	-14373
۸	-14374
܉	-14375
ހ	-14376
ބ	-14377
ވ	-14378
ދ	-14379
ސ	-14380
ަ	-14381
ެ	-14382
ް	-14383
ࠂ	-14384
ࠠ	-14385
ࠣ	-14386
ऀ	-14387
ँ	-14388
इ	-14389
औ	-14390
ख	-14391
ू	-14392
।	-14393
উ	-14394
ন	-14395
ফ	-14396
ো	-14397
ં	-14398
ક	-14399
ડ	-14400
પ	-14401
ભ	-14402
ષ	-14403
િ	-14404
ૃ	-14405
્	-14406
ଊ	-14407
ଞ	-14408
଱	-14409
ட	-14410
ந	-14411
ன	-14412
வ	-14413
ா	-14414
ூ	-14415
అ	-14416
క	-14417
ఖ	-14418
ట	-14419
డ	-14420
ద	-14421
వ	-14422
శ	-14423
ష	-14424
స	-14425
ಜ	-14426
ತ	-14427
ಪ	-14428
ರ	-14429
ಳ	-14430
ವ	-14431
ಾ	-14432
ಿ	-14433
ฉ	-14434
ซ	-14435
ณ	-14436
ถ	-14437
ฮ	-14438
ิ	-14439
ใ	-14440
็	-14441
ງ	-14442
ຍ	-14443
ດ	-14444
ຖ	-14445
ທ	-14446
ນ	-14447
ບ	-14448
ປ	-14449
ມ	-14450
ສ	-14451
ອ	-14452
ີ	-14453
ື	-14454
ູ	-14455
།	-14456
ན	-14457
ཧ	-14458
ཨ	-14459
ྩ	-14460
ྱ	-14461
ဲ	-14462
ტ	-14463
ღ	-14464
ყ	-14465
შ	-14466
ძ	-14467
ᅳ	-14468
ᆭ	-14469
ት	-14470
ግ	-14471
Ꮇ	-14472
᐀	-14473
ᐃ	-14474
ᐈ	-14475
ᑐ	-14476
ᑦ	-14477
ᑲ	-14478
ᓄ	-14479
ᕕ	-14480
ᗚ	-14481
ង	-14482
ណ	-14483
ថ	-14484
ធ	-14485
ប	-14486
ល	-14487
វ	-14488
ុ	-14489
ូ	-14490
ោ	-14491
ំ	-14492
ះ	-14493
៍	-14494
៛	-14495
᠀	-14496
ᠬ	-14497
ᠯ	-14498
᭤	-14499
ᮣ	-14500
ᴀ	-14501
ᴅ	-14502
ᴏ	-14503
ᴓ	-14504
ᴢ	-14505
᷈	-14506
ḏ	-14507
Ḫ	-14508
ḷ	-14509
Ṃ	-14510
Ṗ	-14511
ṟ	-14512
Ṧ	-14513
ṿ	-14514
Ẓ	-14515
ẓ	-14516
Ả	-14517
ẫ	-14518
Ồ	-14519
ớ	-14520
ở	-14521
ữ	-14522
ἃ	-14523
ἅ	-14524
Ἁ	-14525
Ἅ	-14526
ἑ	-14527
ἕ	-14528
ἣ	-14529
ἦ	-14530
Ἠ	-14531
Ἡ	-14532
ἷ	-14533
Ἱ	-14534
Ὃ	-14535
ὗ	-14536
Ὑ	-14537
ὠ	-14538
ὡ	-14539
Ὠ	-14540
ὺ	-14541
ᾰ	-14542
Ῥ	-14543
ῲ	-14544
⁕	-14545
⁦	-14546
₡	-14547
₣	-14548
₤	-14549
₦	-14550
₱	-14551
₳	-14552
₴	-14553
₼	-14554
↞	-14555
↵	-14556
↺	-14557
⇆	-14558
∀	-14559
∁	-14560
∃	-14561
∋	-14562
∝	-14563
∩	-14564
∿	-14565
≃	-14566
≦	-14567
≧	-14568
⊃	-14569
⊚	-14570
⊞	-14571
⋕	-14572
⌀	-14573
⍺	-14574
⏬	-14575
⏺	-14576
═	-14577
░	-14578
▣	-14579
▽	-14580
▾	-14581
◂	-14582
◗	-14583
☂	-14584
☄	-14585
☜	-14586
☭	-14587
☮	-14588
☹	-14589
♈	-14590
♊	-14591
♖	-14592
♜	-14593
♤	-14594
♮	-14595
⚒	-14596
⚓	-14597
⚗	-14598
⛏	-14599
⛓	-14600
⛱	-14601
⛺	-14602
✂	-14603
✇	-14604
✕	-14605
✙	-14606
✤	-14607
✶	-14608
✻	-14609
❆	-14610
❇	-14611
❉	-14612
➀	-14613
➁	-14614
➂	-14615
➓	-14616
➛	-14617
➟	-14618
➦	-14619
➴	-14620
➼	-14621
⟲	-14622
⩽	-14623
⪚	-14624
⬀	-14625
⬅	-14626
⬆	-14627
⬍	-14628
Ⰰ	-14629
ⴳ	-14630
ⴷ	-14631
ⴹ	-14632
ⵃ	-14633
ⵊ	-14634
ⵡ	-14635
〇	-14636
〖	-14637
〗	-14638
ぁ	-14639
ぃ	-14640
ぐ	-14641
げ	-14642
ぞ	-14643
ね	-14644
ぱ	-14645
ぺ	-14646
ぼ	-14647
゚	-14648
ヵ	-14649
㒚	-14650
㞡	-14651
䚏	-14652
丈	-14653
两	-14654
並	-14655
丰	-14656
临	-14657
丹	-14658
丼	-14659
丿	-14660
乌	-14661
乐	-14662
买	-14663
乱	-14664
乳	-14665
亀	-14666
亂	-14667
争	-14668
些	-14669
亲	-14670
仁	-14671
付	-14672
仙	-14673
价	-14674
伎	-14675
伏	-14676
休	-14677
优	-14678
伟	-14679
伯	-14680
伽	-14681
但	-14682
低	-14683
佑	-14684
佛	-14685
佳	-14686
使	-14687
來	-14688
侘	-14689
俊	-14690
俗	-14691
保	-14692
俠	-14693
俳	-14694
倉	-14695
個	-14696
倍	-14697
倒	-14698
倫	-14699
偏	-14700
偵	-14701
偶	-14702
備	-14703
傣	-14704
催	-14705
僕	-14706
償	-14707
儿	-14708
兄	-14709
兖	-14710
党	-14711
六	-14712
养	-14713
册	-14714
冬	-14715
决	-14716
凍	-14717
几	-14718
凤	-14719
刀	-14720
切	-14721
刑	-14722
列	-14723
则	-14724
刚	-14725
別	-14726
削	-14727
助	-14728
勇	-14729
勐	-14730
勒	-14731
勞	-14732
勲	-14733
包	-14734
午	-14735
半	-14736
协	-14737
单	-14738
単	-14739
博	-14740
卢	-14741
卫	-14742
即	-14743
卷	-14744
厂	-14745
历	-14746
厦	-14747
厲	-14748
去	-14749
叉	-14750
及	-14751
只	-14752
右	-14753
吃	-14754
同	-14755
后	-14756
含	-14757
启	-14758
吹	-14759
呂	-14760
员	-14761
呢	-14762
咸	-14763
員	-14764
唐	-14765
商	-14766
啤	-14767
嘘	-14768
噶	-14769
嚘	-14770
嚪	-14771
嚴	-14772
囃	-14773
囲	-14774
図	-14775
围	-14776
圆	-14777
圣	-14778
坊	-14779
坤	-14780
垂	-14781
埻	-14782
堀	-14783
堅	-14784
堡	-14785
塗	-14786
塞	-14787
增	-14788
墨	-14789
壌	-14790
复	-14791
失	-14792
头	-14793
奇	-14794
奈	-14795
奘	-14796
奠	-14797
妖	-14798
妻	-14799
姉	-14800
娘	-14801
娜	-14802
娥	-14803
婆	-14804
婚	-14805
嫦	-14806
孫	-14807
它	-14808
宇	-14809
宋	-14810
审	-14811
室	-14812
宪	-14813
害	-14814
宾	-14815
寂	-14816
寨	-14817
寶	-14818
寻	-14819
対	-14820
専	-14821
專	-14822
尋	-14823
對	-14824
尝	-14825
尼	-14826
局	-14827
屬	-14828
岐	-14829
岫	-14830
岳	-14831
岸	-14832
峡	-14833
峰	-14834
崎	-14835
崩	-14836
嵐	-14837
巩	-14838
差	-14839
已	-14840
币	-14841
师	-14842
希	-14843
帖	-14844
带	-14845
帮	-14846
帯	-14847
帽	-14848
幸	-14849
幾	-14850
床	-14851
应	-14852
底	-14853
庚	-14854
延	-14855
弄	-14856
弘	-14857
张	-14858
弫	-14859
弾	-14860
彌	-14861
彦	-14862
役	-14863
往	-14864
御	-14865
微	-14866
徹	-14867
徽	-14868
念	-14869
态	-14870
急	-14871
恥	-14872
恵	-14873
悪	-14874
惊	-14875
愉	-14876
慨	-14877
慷	-14878
戌	-14879
戎	-14880
戰	-14881
批	-14882
承	-14883
把	-14884
护	-14885
抦	-14886
抯	-14887
拆	-14888
拍	-14889
拥	-14890
拼	-14891
按	-14892
挭	-14893
掉	-14894
掌	-14895
掖	-14896
掛	-14897
掠	-14898
掳	-14899
揃	-14900
揈	-14901
揌	-14902
描	-14903
揚	-14904
揟	-14905
搜	-14906
摘	-14907
撮	-14908
敖	-14909
敢	-14910
散	-14911
整	-14912
斗	-14913
施	-14914
无	-14915
既	-14916
昇	-14917
易	-14918
映	-14919
春	-14920
晋	-14921
晓	-14922
暁	-14923
暗	-14924
暦	-14925
暴	-14926
曾	-14927
朗	-14928
未	-14929
末	-14930
术	-14931
杉	-14932
材	-14933
杞	-14934
条	-14935
杯	-14936
杷	-14937
枇	-14938
枚	-14939
架	-14940
染	-14941
柔	-14942
柝	-14943
查	-14944
柱	-14945
栄	-14946
标	-14947
核	-14948
根	-14949
桂	-14950
桑	-14951
梁	-14952
棍	-14953
棒	-14954
概	-14955
樂	-14956
檃	-14957
步	-14958
歧	-14959
死	-14960
残	-14961
段	-14962
殺	-14963
母	-14964
毕	-14965
毘	-14966
毛	-14967
毫	-14968
氷	-14969
永	-14970
汀	-14971
汐	-14972
汤	-14973
汽	-14974
汾	-14975
没	-14976
泊	-14977
泣	-14978
泥	-14979
洁	-14980
洋	-14981
津	-14982
洱	-14983
洹	-14984
浏	-14985
淀	-14986
淞	-14987
淨	-14988
添	-14989
清	-14990
渇	-14991
済	-14992
測	-14993
湛	-14994
源	-14995
準	-14996
滑	-14997
滕	-14998
滨	-14999
滾	-15000
演	-15001
潟	-15002
潢	-15003
潭	-15004
潼	-15005
濂	-15006
濮	-15007
瀝	-15008
灯	-15009
災	-15010
烏	-15011
然	-15012
煎	-15013
燈	-15014
爆	-15015
爱	-15016
父	-15017
牙	-15018
牡	-15019
狂	-15020
狄	-15021
独	-15022
猴	-15023
猶	-15024
猿	-15025
獹	-15026
獻	-15027
玲	-15028
玻	-15029
珍	-15030
珠	-15031
班	-15032
琉	-15033
瑜	-15034
瑞	-15035
璃	-15036
璨	-15037
環	-15038
甘	-15039
由	-15040
町	-15041
畅	-15042
畜	-15043
番	-15044
疗	-15045
疯	-15046
疾	-15047
盂	-15048
益	-15049
监	-15050
監	-15051
盤	-15052
盱	-15053
盲	-15054
盾	-15055
県	-15056
眙	-15057
眺	-15058
眼	-15059
短	-15060
砲	-15061
碇	-15062
碼	-15063
磐	-15064
祝	-15065
票	-15066
祭	-15067
禹	-15068
离	-15069
秀	-15070
稀	-15071
稱	-15072
積	-15073
穫	-15074
穿	-15075
突	-15076
窠	-15077
站	-15078
童	-15079
箸	-15080
節	-15081
篮	-15082
簞	-15083
籍	-15084
籠	-15085
籬	-15086
紀	-15087
紋	-15088
純	-15089
紹	-15090
統	-15091
絳	-15092
維	-15093
総	-15094
緒	-15095
縒	-15096
縖	-15097
縮	-15098
績	-15099
繕	-15100
繰	-15101
續	-15102
纬	-15103
绍	-15104
绘	-15105
络	-15106
绣	-15107
罐	-15108
罗	-15109
羌	-15110
翰	-15111
老	-15112
考	-15113
耐	-15114
耿	-15115
聞	-15116
聯	-15117
職	-15118
肇	-15119
胆	-15120
背	-15121
脽	-15122
腊	-15123
腓	-15124
腕	-15125
臘	-15126
臣	-15127
臭	-15128
致	-15129
舜	-15130
航	-15131
舰	-15132
艺	-15133
艾	-15134
芬	-15135
芳	-15136
芸	-15137
芽	-15138
苹	-15139
茜	-15140
荒	-15141
荘	-15142
药	-15143
莉	-15144
莱	-15145
获	-15146
菌	-15147
萨	-15148
著	-15149
葫	-15150
蔵	-15151
藝	-15152
蘇	-15153
虔	-15154
虜	-15155
蛇	-15156
蜜	-15157
蝦	-15158
螺	-15159
衡	-15160
袋	-15161
袍	-15162
被	-15163
裂	-15164
装	-15165
裕	-15166
製	-15167
襄	-15168
観	-15169
规	-15170
视	-15171
览	-15172
觉	-15173
触	-15174
訶	-15175
評	-15176
詞	-15177
認	-15178
誘	-15179
誦	-15180
誰	-15181
諫	-15182
謎	-15183
識	-15184
譜	-15185
護	-15186
记	-15187
许	-15188
词	-15189
诱	-15190
说	-15191
请	-15192
豪	-15193
賢	-15194
購	-15195
贈	-15196
贛	-15197
财	-15198
责	-15199
货	-15200
费	-15201
赳	-15202
起	-15203
超	-15204
跟	-15205
身	-15206
較	-15207
输	-15208
辞	-15209
边	-15210
辽	-15211
运	-15212
进	-15213
连	-15214
迤	-15215
迪	-15216
迹	-15217
途	-15218
造	-15219
逦	-15220
遊	-15221
運	-15222
遷	-15223
邊	-15224
邑	-15225
邯	-15226
郎	-15227
郑	-15228
郡	-15229
郭	-15230
郸	-15231
酅	-15232
鈴	-15233
鈿	-15234
鉃	-15235
銃	-15236
錢	-15237
錫	-15238
鍾	-15239
鎖	-15240
鎧	-15241
鏡	-15242
鑫	-15243
针	-15244
钓	-15245
铁	-15246
铎	-15247
铜	-15248
锦	-15249
閃	-15250
関	-15251
闲	-15252
闹	-15253
阜	-15254
队	-15255
际	-15256
陆	-15257
陋	-15258
降	-15259
限	-15260
陕	-15261
陣	-15262
除	-15263
陳	-15264
隆	-15265
隊	-15266
随	-15267
際	-15268
雁	-15269
雛	-15270
零	-15271
雷	-15272
需	-15273
震	-15274
霊	-15275
霜	-15276
霧	-15277
露	-15278
霸	-15279
靈	-15280
靜	-15281
非	-15282
靠	-15283
靴	-15284
鞋	-15285
鞍	-15286
鞘	-15287
韵	-15288
響	-15289
頂	-15290
須	-15291
頭	-15292
顔	-15293
顗	-15294
顺	-15295
预	-15296
题	-15297
额	-15298
飼	-15299
飽	-15300
餃	-15301
饭	-15302
饱	-15303
饲	-15304
饺	-15305
馆	-15306
馨	-15307
駐	-15308
騎	-15309
騫	-15310
驪	-15311
驰	-15312
验	-15313
骑	-15314
鬪	-15315
魁	-15316
魚	-15317
鮮	-15318
鯉	-15319
鲁	-15320
鲍	-15321
鳩	-15322
鳴	-15323
鴻	-15324
鶴	-15325
鷖	-15326
麗	-15327
黑	-15328
갔	-15329
강	-15330
갱	-15331
건	-15332
겠	-15333
견	-15334
결	-15335
겼	-15336
곡	-15337
곰	-15338
관	-15339
궁	-15340
권	-15341
귀	-15342
균	-15343
길	-15344
김	-15345
깃	-15346
깝	-15347
께	-15348
꼭	-15349
꿨	-15350
끗	-15351
낄	-15352
낮	-15353
낸	-15354
녁	-15355
녹	-15356
누	-15357
눈	-15358
느	-15359
늑	-15360
능	-15361
단	-15362
담	-15363
데	-15364
덱	-15365
돈	-15366
돕	-15367
돼	-15368
됩	-15369
둑	-15370
듀	-15371
득	-15372
등	-15373
디	-15374
딘	-15375
따	-15376
때	-15377
또	-15378
뜻	-15379
람	-15380
램	-15381
랫	-15382
럴	-15383
럼	-15384
렌	-15385
렛	-15386
련	-15387
록	-15388
롬	-15389
뢰	-15390
룰	-15391
린	-15392
림	-15393
립	-15394
링	-15395
많	-15396
말	-15397
맛	-15398
먹	-15399
목	-15400
몰	-15401
못	-15402
묻	-15403
뮌	-15404
므	-15405
민	-15406
밀	-15407
받	-15408
밝	-15409
배	-15410
뱀	-15411
범	-15412
법	-15413
벨	-15414
본	-15415
볼	-15416
븐	-15417
블	-15418
빙	-15419
빛	-15420
뿐	-15421
쁨	-15422
삶	-15423
삼	-15424
색	-15425
샷	-15426
셨	-15427
속	-15428
손	-15429
송	-15430
술	-15431
쉽	-15432
슷	-15433
싫	-15434
쌍	-15435
씨	-15436
악	-15437
암	-15438
앞	-15439
액	-15440
앱	-15441
앵	-15442
야	-15443
얀	-15444
양	-15445
언	-15446
업	-15447
엔	-15448
엣	-15449
열	-15450
였	-15451
옆	-15452
옴	-15453
왕	-15454
왜	-15455
욱	-15456
웠	-15457
윷	-15458
임	-15459
잏	-15460
좁	-15461
종	-15462
준	-15463
증	-15464
짧	-15465
짱	-15466
째	-15467
착	-15468
찬	-15469
참	-15470
창	-15471
철	-15472
체	-15473
촌	-15474
총	-15475
축	-15476
침	-15477
칸	-15478
컨	-15479
컬	-15480
코	-15481
쾌	-15482
킷	-15483
탭	-15484
토	-15485
튜	-15486
특	-15487
튼	-15488
틴	-15489
팀	-15490
판	-15491
팟	-15492
페	-15493
펜	-15494
펴	-15495
폰	-15496
푸	-15497
항	-15498
험	-15499
헨	-15500
헴	-15501
혀	-15502
형	-15503
혹	-15504
혼	-15505
확	-15506
회	-15507
획	-15508
훈	-15509
	-15510
	-15511
	-15512
	-15513
	-15514
	-15515
	-15516
	-15517
	-15518
	-15519
	-15520
	-15521
	-15522
	-15523
	-15524
	-15525
	-15526
	-15527
	-15528
	-15529
	-15530
	-15531
	-15532
	-15533
	-15534
	-15535
	-15536
	-15537
	-15538
	-15539
	-15540
	-15541
	-15542
	-15543
	-15544
	-15545
	-15546
	-15547
	-15548
	-15549
	-15550
	-15551
	-15552
	-15553
	-15554
	-15555
	-15556
	-15557
	-15558
	-15559
	-15560
	-15561
	-15562
	-15563
	-15564
	-15565
	-15566
	-15567
	-15568
	-15569
	-15570
	-15571
	-15572
	-15573
	-15574
	-15575
	-15576
	-15577
	-15578
	-15579
	-15580
	-15581
	-15582
	-15583
	-15584
	-15585
	-15586
	-15587
	-15588
	-15589
	-15590
	-15591
	-15592
	-15593
	-15594
	-15595
	-15596
	-15597
	-15598
	-15599
	-15600
	-15601
	-15602
	-15603
	-15604
	-15605
	-15606
	-15607
	-15608
	-15609
	-15610
	-15611
	-15612
	-15613
	-15614
	-15615
	-15616
	-15617
	-15618
	-15619
	-15620
	-15621
	-15622
﴾	-15623
﴿	-15624
﷓	-15625
￹	-15626
𐎧	-15627
𐎲	-15628
𐎾	-15629
𒀊	-15630
𒀕	-15631
🇯	-15632
🇱	-15633
🇲	-15634
🇾	-15635
🌃	-15636
🌋	-15637
🌌	-15638
🌜	-15639
🌝	-15640
🌠	-15641
🌭	-15642
🌴	-15643
🌾	-15644
🍅	-15645
🍋	-15646
🍌	-15647
🍏	-15648
🍛	-15649
🍣	-15650
🍦	-15651
🍩	-15652
🍪	-15653
🍫	-15654
🍲	-15655
🍴	-15656
🍵	-15657
🍹	-15658
🎅	-15659
🎖	-15660
🎛	-15661
🎪	-15662
🎴	-15663
🎸	-15664
🎾	-15665
🏈	-15666
🏓	-15667
🏗	-15668
🏜	-15669
🏝	-15670
🏣	-15671
🏥	-15672
🏯	-15673
🏰	-15674
🏳	-15675
🏴	-15676
🏾	-15677
🐅	-15678
🐑	-15679
🐔	-15680
🐛	-15681
🐝	-15682
🐦	-15683
🐰	-15684
🐱	-15685
🐳	-15686
🐵	-15687
🐻	-15688
🐾	-15689
👃	-15690
👄	-15691
👅	-15692
👎	-15693
👒	-15694
👙	-15695
👜	-15696
👟	-15697
👯	-15698
👱	-15699
👵	-15700
💇	-15701
💒	-15702
💘	-15703
💟	-15704
💢	-15705
💦	-15706
💴	-15707
💵	-15708
📄	-15709
📆	-15710
📈	-15711
📉	-15712
📏	-15713
📕	-15714
📖	-15715
📩	-15716
📯	-15717
📰	-15718
🔌	-15719
🔙	-15720
🔞	-15721
🔢	-15722
🔫	-15723
🔮	-15724
🔺	-15725
🔽	-15726
🕉	-15727
🕴	-15728
🕵	-15729
🕷	-15730
🗞	-15731
🗯	-15732
🗺	-15733
😣	-15734
😨	-15735
😪	-15736
