<unk>	0
<s>	0
</s>	0
<pad>	0
<system>	0
<user>	0
<assistant>	0
<0x00>	0
<0x01>	0
<0x02>	0
<0x03>	0
<0x04>	0
<0x05>	0
<0x06>	0
<0x07>	0
<0x08>	0
<0x09>	0
<0x0A>	0
<0x0B>	0
<0x0C>	0
<0x0D>	0
<0x0E>	0
<0x0F>	0
<0x10>	0
<0x11>	0
<0x12>	0
<0x13>	0
<0x14>	0
<0x15>	0
<0x16>	0
<0x17>	0
<0x18>	0
<0x19>	0
<0x1A>	0
<0x1B>	0
<0x1C>	0
<0x1D>	0
<0x1E>	0
<0x1F>	0
<0x20>	0
<0x21>	0
<0x22>	0
<0x23>	0
<0x24>	0
<0x25>	0
<0x26>	0
<0x27>	0
<0x28>	0
<0x29>	0
<0x2A>	0
<0x2B>	0
<0x2C>	0
<0x2D>	0
<0x2E>	0
<0x2F>	0
<0x30>	0
<0x31>	0
<0x32>	0
<0x33>	0
<0x34>	0
<0x35>	0
<0x36>	0
<0x37>	0
<0x38>	0
<0x39>	0
<0x3A>	0
<0x3B>	0
<0x3C>	0
<0x3D>	0
<0x3E>	0
<0x3F>	0
<0x40>	0
<0x41>	0
<0x42>	0
<0x43>	0
<0x44>	0
<0x45>	0
<0x46>	0
<0x47>	0
<0x48>	0
<0x49>	0
<0x4A>	0
<0x4B>	0
<0x4C>	0
<0x4D>	0
<0x4E>	0
<0x4F>	0
<0x50>	0
<0x51>	0
<0x52>	0
<0x53>	0
<0x54>	0
<0x55>	0
<0x56>	0
<0x57>	0
<0x58>	0
<0x59>	0
<0x5A>	0
<0x5B>	0
<0x5C>	0
<0x5D>	0
<0x5E>	0
<0x5F>	0
<0x60>	0
<0x61>	0
<0x62>	0
<0x63>	0
<0x64>	0
<0x65>	0
<0x66>	0
<0x67>	0
<0x68>	0
<0x69>	0
<0x6A>	0
<0x6B>	0
<0x6C>	0
<0x6D>	0
<0x6E>	0
<0x6F>	0
<0x70>	0
<0x71>	0
<0x72>	0
<0x73>	0
<0x74>	0
<0x75>	0
<0x76>	0
<0x77>	0
<0x78>	0
<0x79>	0
<0x7A>	0
<0x7B>	0
<0x7C>	0
<0x7D>	0
<0x7E>	0
<0x7F>	0
<0x80>	0
<0x81>	0
<0x82>	0
<0x83>	0
<0x84>	0
<0x85>	0
<0x86>	0
<0x87>	0
<0x88>	0
<0x89>	0
<0x8A>	0
<0x8B>	0
<0x8C>	0
<0x8D>	0
<0x8E>	0
<0x8F>	0
<0x90>	0
<0x91>	0
<0x92>	0
<0x93>	0
<0x94>	0
<0x95>	0
<0x96>	0
<0x97>	0
<0x98>	0
<0x99>	0
<0x9A>	0
<0x9B>	0
<0x9C>	0
<0x9D>	0
<0x9E>	0
<0x9F>	0
<0xA0>	0
<0xA1>	0
<0xA2>	0
<0xA3>	0
<0xA4>	0
<0xA5>	0
<0xA6>	0
<0xA7>	0
<0xA8>	0
<0xA9>	0
<0xAA>	0
<0xAB>	0
<0xAC>	0
<0xAD>	0
<0xAE>	0
<0xAF>	0
<0xB0>	0
<0xB1>	0
<0xB2>	0
<0xB3>	0
<0xB4>	0
<0xB5>	0
<0xB6>	0
<0xB7>	0
<0xB8>	0
<0xB9>	0
<0xBA>	0
<0xBB>	0
<0xBC>	0
<0xBD>	0
<0xBE>	0
<0xBF>	0
<0xC0>	0
<0xC1>	0
<0xC2>	0
<0xC3>	0
<0xC4>	0
<0xC5>	0
<0xC6>	0
<0xC7>	0
<0xC8>	0
<0xC9>	0
<0xCA>	0
<0xCB>	0
<0xCC>	0
<0xCD>	0
<0xCE>	0
<0xCF>	0
<0xD0>	0
<0xD1>	0
<0xD2>	0
<0xD3>	0
<0xD4>	0
<0xD5>	0
<0xD6>	0
<0xD7>	0
<0xD8>	0
<0xD9>	0
<0xDA>	0
<0xDB>	0
<0xDC>	0
<0xDD>	0
<0xDE>	0
<0xDF>	0
<0xE0>	0
<0xE1>	0
<0xE2>	0
<0xE3>	0
<0xE4>	0
<0xE5>	0
<0xE6>	0
<0xE7>	0
<0xE8>	0
<0xE9>	0
<0xEA>	0
<0xEB>	0
<0xEC>	0
<0xED>	0
<0xEE>	0
<0xEF>	0
<0xF0>	0
<0xF1>	0
<0xF2>	0
<0xF3>	0
<0xF4>	0
<0xF5>	0
<0xF6>	0
<0xF7>	0
<0xF8>	0
<0xF9>	0
<0xFA>	0
<0xFB>	0
<0xFC>	0
<0xFD>	0
<0xFE>	0
<0xFF>	0
▁d	-0
on	-1
er	-2
▁c	-3
▁s	-4
▁p	-5
▁a	-6
re	-7
to	-8
in	-9
ta	-10
en	-11
ti	-12
la	-13
▁di	-14
ri	-15
el	-16
ra	-17
li	-18
▁e	-19
te	-20
le	-21
an	-22
un	-23
▁m	-24
▁i	-25
ro	-26
zi	-27
▁in	-28
▁n	-29
si	-30
he	-31
▁del	-32
or	-33
ia	-34
▁f	-35
▁un	-36
es	-37
ca	-38
▁v	-39
▁per	-40
▁con	-41
one	-42
▁la	-43
lo	-44
os	-45
▁al	-46
qu	-47
▁g	-48
om	-49
▁t	-50
▁il	-51
ar	-52
co	-53
▁che	-54
ci	-55
al	-56
men	-57
et	-58
di	-59
▁qu	-60
do	-61
▁ri	-62
▁S	-63
ma	-64
▁o	-65
zione	-66
no	-67
▁C	-68
so	-69
za	-70
▁su	-71
gi	-72
▁b	-73
▁l	-74
▁è	-75
ere	-76
▁pro	-77
▁P	-78
vi	-79
ol	-80
tu	-81
▁da	-82
mp	-83
▁le	-84
▁de	-85
▁si	-86
mo	-87
▁I	-88
▁L	-89
sa	-90
va	-91
gli	-92
bi	-93
▁com	-94
oni	-95
▁an	-96
▁A	-97
▁M	-98
ono	-99
ch	-100
da	-101
ter	-102
tto	-103
ce	-104
che	-105
as	-106
pp	-107
▁una	-108
tà	-109
▁h	-110
▁se	-111
▁della	-112
▁pre	-113
ni	-114
▁ca	-115
tra	-116
vo	-117
▁re	-118
▁nel	-119
mi	-120
tti	-121
▁ma	-122
▁pi	-123
na	-124
io	-125
▁non	-126
ve	-127
de	-128
era	-129
se	-130
fi	-131
is	-132
ina	-133
▁D	-134
▁so	-135
mente	-136
ona	-137
ggi	-138
▁po	-139
ran	-140
uo	-141
▁1	-142
sp	-143
▁2	-144
tro	-145
ano	-146
cia	-147
▁G	-148
▁fa	-149
▁T	-150
zza	-151
▁dal	-152
ten	-153
▁sta	-154
▁B	-155
bb	-156
▁R	-157
eri	-158
▁sp	-159
▁(	-160
▁vi	-161
tta	-162
▁tra	-163
▁tu	-164
▁F	-165
▁N	-166
▁ha	-167
ver	-168
▁ques	-169
ga	-170
mento	-171
▁par	-172
ini	-173
zioni	-174
▁dei	-175
ui	-176
▁ci	-177
▁E	-178
tre	-179
ssi	-180
enti	-181
▁u	-182
▁sono	-183
po	-184
tan	-185
▁te	-186
ff	-187
ine	-188
▁lo	-189
cc	-190
▁più	-191
ali	-192
ente	-193
▁do	-194
tori	-195
tri	-196
▁gi	-197
ino	-198
▁dell	-199
▁es	-200
▁pa	-201
enza	-202
▁ra	-203
ru	-204
▁alla	-205
con	-206
▁V	-207
▁anche	-208
▁sul	-209
ani	-210
pa	-211
▁mi	-212
go	-213
▁La	-214
ul	-215
▁mo	-216
hi	-217
mb	-218
▁delle	-219
▁ne	-220
sti	-221
▁pos	-222
▁come	-223
▁me	-224
▁“	-225
chi	-226
me	-227
▁Il	-228
pi	-229
sta	-230
anno	-231
tura	-232
..	-233
lu	-234
ale	-235
▁20	-236
▁cos	-237
du	-238
ero	-239
zz	-240
ando	-241
gg	-242
etto	-243
▁pri	-244
▁ad	-245
rio	-246
▁U	-247
▁co	-248
bili	-249
are	-250
uto	-251
▁for	-252
▁sc	-253
▁pu	-254
ven	-255
▁In	-256
▁li	-257
gu	-258
▁gli	-259
tare	-260
ria	-261
▁all	-262
bile	-263
▁imp	-264
ggio	-265
▁comp	-266
cu	-267
tali	-268
sso	-269
▁ar	-270
etti	-271
▁av	-272
▁du	-273
▁O	-274
▁quel	-275
glio	-276
▁no	-277
▁prop	-278
ene	-279
▁fi	-280
00	-281
cco	-282
iamo	-283
zia	-284
▁inter	-285
tte	-286
▁app	-287
gna	-288
▁ed	-289
▁ess	-290
ziona	-291
dere	-292
▁questo	-293
▁Ma	-294
us	-295
tato	-296
▁ai	-297
sione	-298
per	-299
▁gra	-300
uni	-301
esso	-302
fica	-303
menti	-304
▁nella	-305
ele	-306
gni	-307
ne	-308
▁alle	-309
▁ti	-310
▁3	-311
▁Q	-312
▁sa	-313
ing	-314
▁-	-315
gno	-316
▁chi	-317
▁"	-318
for	-319
▁col	-320
▁mol	-321
tico	-322
▁essere	-323
▁ris	-324
zio	-325
▁ta	-326
▁nos	-327
▁ter	-328
▁cor	-329
▁nuo	-330
▁H	-331
▁201	-332
mpo	-333
gra	-334
glia	-335
▁–	-336
tel	-337
ffi	-338
▁semp	-339
etta	-340
▁pres	-341
anti	-342
ana	-343
▁gior	-344
▁va	-345
▁tro	-346
ren	-347
▁Qu	-348
▁parte	-349
▁to	-350
▁pers	-351
cor	-352
cca	-353
▁cui	-354
lare	-355
ze	-356
res	-357
▁Ca	-358
▁gio	-359
▁at	-360
cio	-361
▁Per	-362
bo	-363
pe	-364
▁vol	-365
um	-366
▁ba	-367
▁suo	-368
▁lavo	-369
▁hanno	-370
der	-371
dia	-372
▁Le	-373
uro	-374
essi	-375
cato	-376
ese	-377
ron	-378
esti	-379
▁ser	-380
▁Con	-381
▁ver	-382
zzo	-383
▁dis	-384
▁pas	-385
▁dalla	-386
ba	-387
▁tutti	-388
tru	-389
▁bi	-390
uti	-391
endo	-392
il	-393
ge	-394
ur	-395
▁Com	-396
▁anni	-397
▁na	-398
▁por	-399
▁degli	-400
▁vo	-401
bbli	-402
▁due	-403
mma	-404
▁prima	-405
tore	-406
ante	-407
tica	-408
▁disp	-409
▁Se	-410
enta	-411
vol	-412
▁Al	-413
bbe	-414
▁ven	-415
▁4	-416
▁solo	-417
▁Pa	-418
ss	-419
ena	-420
ppo	-421
▁An	-422
tiva	-423
lan	-424
▁acc	-425
).	-426
▁possi	-427
fa	-428
▁risp	-429
ello	-430
▁stato	-431
▁5	-432
▁Si	-433
dio	-434
sid	-435
▁sempre	-436
▁questa	-437
),	-438
tivo	-439
mbi	-440
anto	-441
▁or	-442
ché	-443
▁molto	-444
▁cre	-445
ste	-446
▁gran	-447
▁loro	-448
▁ve	-449
gia	-450
cqu	-451
ura	-452
ess	-453
pera	-454
▁men	-455
▁cer	-456
▁mon	-457
▁W	-458
tante	-459
▁qual	-460
man	-461
rà	-462
▁pun	-463
rin	-464
▁sua	-465
▁sia	-466
▁gen	-467
▁esp	-468
bilità	-469
elli	-470
cora	-471
ie	-472
▁en	-473
▁abb	-474
ella	-475
essa	-476
lizza	-477
▁ro	-478
▁dire	-479
▁spe	-480
gn	-481
▁Mi	-482
▁uno	-483
▁tutto	-484
arà	-485
▁Re	-486
forma	-487
ento	-488
ad	-489
ffer	-490
▁via	-491
at	-492
tin	-493
▁ste	-494
cch	-495
cer	-496
mm	-497
▁tempo	-498
▁servi	-499
esta	-500
▁cons	-501
▁può	-502
▁ho	-503
▁quali	-504
▁sulla	-505
▁indi	-506
▁man	-507
”.	-508
▁ga	-509
ette	-510
▁uti	-511
▁pubbli	-512
▁w	-513
▁diver	-514
une	-515
vità	-516
zie	-517
▁ogni	-518
ltre	-519
▁dopo	-520
tt	-521
▁sca	-522
▁persona	-523
▁ch	-524
ttura	-525
▁au	-526
indi	-527
▁stra	-528
▁fare	-529
▁car	-530
inis	-531
▁bas	-532
▁Di	-533
mpi	-534
tale	-535
talia	-536
...	-537
uta	-538
▁secon	-539
zzi	-540
▁nei	-541
▁conf	-542
via	-543
sc	-544
ttu	-545
rie	-546
▁senza	-547
que	-548
▁J	-549
osa	-550
tter	-551
ccia	-552
▁pia	-553
età	-554
zionale	-555
▁poi	-556
ggiun	-557
▁dall	-558
▁contro	-559
ck	-560
zo	-561
ggia	-562
▁ancora	-563
ranno	-564
▁sarà	-565
!!	-566
▁cen	-567
▁fo	-568
▁far	-569
vare	-570
▁19	-571
gui	-572
▁pen	-573
tati	-574
▁sos	-575
sto	-576
▁alc	-577
▁fatto	-578
rare	-579
cen	-580
▁vis	-581
▁can	-582
▁Gi	-583
anza	-584
▁atti	-585
osi	-586
▁K	-587
pri	-588
ico	-589
▁forma	-590
▁os	-591
▁nell	-592
mer	-593
▁Un	-594
▁Non	-595
▁lib	-596
alizza	-597
▁6	-598
▁dove	-599
▁prodo	-600
clu	-601
▁sotto	-602
inter	-603
▁prog	-604
▁bu	-605
▁mar	-606
▁proprio	-607
olo	-608
▁parti	-609
▁stu	-610
▁Mar	-611
▁altri	-612
▁Pro	-613
▁modo	-614
rante	-615
▁dov	-616
amo	-617
ed	-618
▁quello	-619
▁vita	-620
vano	-621
▁prof	-622
▁comple	-623
sse	-624
▁regi	-625
st	-626
▁euro	-627
▁arri	-628
razione	-629
mina	-630
▁cir	-631
tamente	-632
▁già	-633
lità	-634
▁miglio	-635
orto	-636
ssa	-637
elle	-638
▁chia	-639
▁nelle	-640
pra	-641
cchi	-642
vere	-643
care	-644
almente	-645
▁lavoro	-646
▁quando	-647
▁sin	-648
tanti	-649
▁tec	-650
▁stori	-651
▁così	-652
ord	-653
▁stru	-654
▁Ri	-655
▁tratta	-656
tivi	-657
▁perché	-658
ho	-659
anta	-660
▁dom	-661
▁quanto	-662
▁ini	-663
tua	-664
onda	-665
▁tre	-666
pre	-667
esto	-668
20	-669
▁era	-670
▁itali	-671
▁casa	-672
lla	-673
enze	-674
▁sco	-675
▁Na	-676
▁sal	-677
▁questi	-678
▁grande	-679
tive	-680
ble	-681
▁Vi	-682
ett	-683
▁Da	-684
▁Ci	-685
ciale	-686
assi	-687
line	-688
elo	-689
▁fino	-690
rato	-691
zien	-692
ure	-693
▁ul	-694
asi	-695
▁impor	-696
▁mondo	-697
▁cal	-698
ostra	-699
▁	-700
i	-701
e	-702
a	-703
o	-704
n	-705
t	-706
r	-707
l	-708
s	-709
c	-710
d	-711
u	-712
p	-713
m	-714
g	-715
v	-716
,	-717
z	-718
.	-719
f	-720
h	-721
b	-722
q	-723
S	-724
’	-725
I	-726
C	-727
A	-728
à	-729
0	-730
L	-731
è	-732
P	-733
1	-734
M	-735
2	-736
'	-737
E	-738
T	-739
R	-740
D	-741
N	-742
G	-743
B	-744
O	-745
:	-746
F	-747
-	-748
)	-749
k	-750
(	-751
y	-752
V	-753
3	-754
5	-755
U	-756
ù	-757
"	-758
4	-759
w	-760
9	-761
!	-762
“	-763
”	-764
8	-765
6	-766
7	-767
?	-768
ò	-769
H	-770
Q	-771
x	-772
/	-773
ì	-774
–	-775
é	-776
;	-777
W	-778
K	-779
J	-780
%	-781
Z	-782
»	-783
j	-784
«	-785
X	-786
Y	-787
È	-788
&	-789
°	-790
­	-791
+	-792
‘	-793
€	-794
*	-795
_	-796
#	-797
=	-798
>	-799
[	-800
|	-801
]	-802
@	-803
′	-804
á	-805
•	-806
́	-807
$	-808
®	-809
Ã	-810
^	-811
—	-812
ü	-813
	-814
\	-815
ó	-816
<	-817
í	-818
а	-819
`	-820
о	-821
â	-822
ö	-823
е	-824
и	-825
·	-826
ä	-827
с	-828
н	-829
ç	-830
©	-831
р	-832
ú	-833
к	-834
̈	-835
т	-836
ñ	-837
É	-838
À	-839
в	-840
×	-841
л	-842
м	-843
у	-844
ê	-845
ô	-846
ã	-847
ë	-848
д	-849
й	-850
	-851
п	-852
Г	-853
~	-854
	-855
č	-856
←	-857
Â	-858
š	-859
›	-860
ь	-861
ā	-862
я	-863
£	-864
⁄	-865
Р	-866
ß	-867
ы	-868
	-869
г	-870
б	-871
з	-872
ć	-873
→	-874
ł	-875
ï	-876
î	-877
ø	-878
å	-879
ا	-880
„	-881
ă	-882
α	-883
י	-884
¬	-885
	-886
μ	-887
û	-888
¿	-889
🙂	-890
Ø	-891
ч	-892
С	-893
æ	-894
	-895
ʼ	-896
ō	-897
ο	-898
Á	-899
ι	-900
Ö	-901
●	-902
ν	-903
ş	-904
ž	-905
ш	-906
х	-907
ī	-908
Ё	-909
ı	-910
ر	-911
Ù	-912
ר	-913
Č	-914
ε	-915
τ	-916
️	-917
ل	-918
Ì	-919
ב	-920
ж	-921
	-922
Š	-923
‚	-924
ו	-925
В	-926
λ	-927
Ђ	-928
œ	-929
Ü	-930
ת	-931
ה	-932
눇	-933
【	-934
ș	-935
К	-936
ρ	-937
ц	-938
】	-939
😉	-940
±	-941
§	-942
−	-943
}	-944
	-945
	-946
ū	-947
♥	-948
κ	-949
↑	-950
ς	-951
✅	-952
★	-953
Ò	-954
¡	-955
א	-956
ي	-957
Б	-958
ب	-959
ę	-960
σ	-961
Ă	-962
😀	-963
π	-964
‐	-965
ý	-966
̄	-967
Ð	-968
М	-969
❤	-970
ю	-971
ל	-972
ś	-973
ی	-974
‟	-975
ń	-976
ř	-977
η	-978
¢	-979
ن	-980
눉	-981
Å	-982
А	-983
О	-984
中	-985
日	-986
س	-987
ğ	-988
ة	-989
ż	-990
П	-991
‡	-992
У	-993
م	-994
Т	-995
‬	-996
β	-997
本	-998
►	-999
の	-1000
ф	-1001
ف	-1002
ē	-1003
ț	-1004
̶	-1005
ά	-1006
و	-1007
‹	-1008
ד	-1009
ع	-1010
■	-1011
υ	-1012
√	-1013
✓	-1014
文	-1015
ש	-1016
語	-1017
ί	-1018
ą	-1019
Д	-1020
ě	-1021
Ä	-1022
ت	-1023
ע	-1024
Ç	-1025
נ	-1026
פ	-1027
ω	-1028
מ	-1029
Ñ	-1030
ð	-1031
ʿ	-1032
Н	-1033
◆	-1034
ό	-1035
	-1036
щ	-1037
	-1038
δ	-1039
د	-1040
ン	-1041
ー	-1042
õ	-1043
γ	-1044
Ž	-1045
Ó	-1046
Л	-1047
ס	-1048
і	-1049
ח	-1050
ᐅ	-1051
ƒ	-1052
ё	-1053
ї	-1054
÷	-1055
І	-1056
Ë	-1057
‪	-1058
‒	-1059
한	-1060
Ā	-1061
ḥ	-1062
🌟	-1063
ṣ	-1064
≥	-1065
¦	-1066
Í	-1067
İ	-1068
э	-1069
ק	-1070
†	-1071
ъ	-1072
국	-1073
	-1074
Ł	-1075
И	-1076
ן	-1077
ė	-1078
З	-1079
✔	-1080
¤	-1081
어	-1082
Ε	-1083
Е	-1084
כ	-1085
😂	-1086
χ	-1087
ه	-1088
‰	-1089
¥	-1090
Ú	-1091
̀	-1092
θ	-1093
ή	-1094
♦	-1095
φ	-1096
خ	-1097
έ	-1098
‭	-1099
▸	-1100
、	-1101
Ω	-1102
ṇ	-1103
▷	-1104
ţ	-1105
ص	-1106
ق	-1107
ṛ	-1108
⇒	-1109
Î	-1110
ə	-1111
ˆ	-1112
ệ	-1113
➡	-1114
	-1115
ύ	-1116
ế	-1117
ů	-1118
ų	-1119
ˈ	-1120
⭐	-1121
ź	-1122
̧	-1123
Х	-1124
ג	-1125
ท	-1126
ト	-1127
ش	-1128
Ш	-1129
▫	-1130
い	-1131
ッ	-1132
	-1133
↓	-1134
ĕ	-1135
Α	-1136
☆	-1137
イ	-1138
	-1139
ج	-1140
≤	-1141
▔	-1142
的	-1143
≈	-1144
😊	-1145
ő	-1146
Ч	-1147
ם	-1148
ň	-1149
Ś	-1150
ե	-1151
צ	-1152
▪	-1153
た	-1154
な	-1155
ス	-1156
国	-1157
油	-1158
ย	-1159
─	-1160
▶	-1161
に	-1162
ク	-1163
ル	-1164
ʻ	-1165
Φ	-1166
܀	-1167
်	-1168
‧	-1169
・	-1170
다	-1171
̃	-1172
Δ	-1173
ไ	-1174
で	-1175
と	-1176
Ş	-1177
ǎ	-1178
は	-1179
￼	-1180
😍	-1181
Σ	-1182
ξ	-1183
Э	-1184
Я	-1185
ز	-1186
া	-1187
ṁ	-1188
ќ	-1189
أ	-1190
☎	-1191
人	-1192
Æ	-1193
ˮ	-1194
Ι	-1195
ա	-1196
ז	-1197
し	-1198
る	-1199
大	-1200
̊	-1201
Π	-1202
Ф	-1203
ح	-1204
ک	-1205
◊	-1206
ラ	-1207
🔴	-1208
ώ	-1209
∴	-1210
コ	-1211
ド	-1212
는	-1213
Ō	-1214
Κ	-1215
Τ	-1216
њ	-1217
ט	-1218
フ	-1219
	-1220
Ė	-1221
ħ	-1222
ط	-1223
―	-1224
😛	-1225
	-1226
ÿ	-1227
Đ	-1228
Ÿ	-1229
ն	-1230
ั	-1231
て	-1232
스	-1233
🙁	-1234
Ġ	-1235
ἀ	-1236
ἐ	-1237
☺	-1238
す	-1239
を	-1240
カ	-1241
ロ	-1242
	-1243
	-1244
Ê	-1245
ġ	-1246
ɛ	-1247
Ж	-1248
ր	-1249
ذ	-1250
ा	-1251
ာ	-1252
▬	-1253
♡	-1254
シ	-1255
景	-1256
	-1257
Ô	-1258
đ	-1259
ĭ	-1260
ζ	-1261
Ц	-1262
յ	-1263
ง	-1264
ร	-1265
า	-1266
မ	-1267
ი	-1268
ṅ	-1269
《	-1270
》	-1271
リ	-1272
所	-1273
竪	-1274
니	-1275
🇮	-1276
🇹	-1277
🚫	-1278
	-1279
¶	-1280
ŕ	-1281
ŭ	-1282
Ż	-1283
Μ	-1284
Ρ	-1285
ў	-1286
غ	-1287
‍	-1288
あ	-1289
グ	-1290
パ	-1291
区	-1292
新	-1293
石	-1294
精	-1295
	-1296
👍	-1297
😁	-1298
😯	-1299
Þ	-1300
ŏ	-1301
̣	-1302
Ο	-1303
ى	-1304
پ	-1305
ी	-1306
∆	-1307
➖	-1308
➤	-1309
が	-1310
れ	-1311
二	-1312
市	-1313
自	-1314
	-1315
👉	-1316
👏	-1317
Ï	-1318
Ν	-1319
Қ	-1320
қ	-1321
Հ	-1322
՚	-1323
्	-1324
ব	-1325
ি	-1326
་	-1327
რ	-1328
❗	-1329
ま	-1330
り	-1331
タ	-1332
可	-1333
이	-1334
🏻	-1335
🔥	-1336
	-1337
ư	-1338
ǐ	-1339
ʾ	-1340
ψ	-1341
ك	-1342
र	-1343
น	-1344
ม	-1345
န	-1346
ა	-1347
ლ	-1348
∙	-1349
∞	-1350
⚽	-1351
✿	-1352
ん	-1353
ョ	-1354
愛	-1355
車	-1356
🎨	-1357
💯	-1358
🙄	-1359
Õ	-1360
ľ	-1361
ɑ	-1362
̆	-1363
Ь	-1364
ল	-1365
င	-1366
း	-1367
ြ	-1368
თ	-1369
უ	-1370
ქ	-1371
↔	-1372
◦	-1373
☞	-1374
❀	-1375
➥	-1376
。	-1377
っ	-1378
ア	-1379
ダ	-1380
作	-1381
十	-1382
夜	-1383
山	-1384
我	-1385
最	-1386
海	-1387
环	-1388
省	-1389
	-1390
💪	-1391
📌	-1392
	-1393
þ	-1394
ť	-1395
ː	-1396
̨	-1397
Υ	-1398
ئ	-1399
ہ	-1400
न	-1401
ว	-1402
Ḥ	-1403
ṭ	-1404
ố	-1405
ồ	-1406
‛	-1407
⃣	-1408
⋅	-1409
⚠	-1410
「	-1411
」	-1412
か	-1413
こ	-1414
ら	-1415
ウ	-1416
ザ	-1417
バ	-1418
プ	-1419
メ	-1420
一	-1421
入	-1422
出	-1423
县	-1424
로	-1425
에	-1426
	-1427
📲	-1428
ǔ	-1429
ɔ	-1430
Γ	-1431
ף	-1432
ि	-1433
র	-1434
த	-1435
ம	-1436
்	-1437
ఀ	-1438
ห	-1439
เ	-1440
ᄀ	-1441
∠	-1442
⏰	-1443
◀	-1444
♣	-1445
⟵	-1446
ⵣ	-1447
『	-1448
』	-1449
さ	-1450
オ	-1451
ズ	-1452
ナ	-1453
ブ	-1454
会	-1455
地	-1456
宝	-1457
布	-1458
支	-1459
月	-1460
船	-1461
行	-1462
고	-1463
구	-1464
리	-1465
습	-1466
을	-1467
	-1468
	-1469
🌸	-1470
🍻	-1471
😅	-1472
😦	-1473
	-1474
Ć	-1475
Œ	-1476
ɪ	-1477
ָ	-1478
প	-1479
্	-1480
ி	-1481
ు	-1482
ป	-1483
อ	-1484
ะ	-1485
ိ	-1486
ḍ	-1487
ạ	-1488
ῖ	-1489
∨	-1490
⌘	-1491
║	-1492
□	-1493
☕	-1494
❓	-1495
き	-1496
ケ	-1497
ソ	-1498
チ	-1499
ヒ	-1500
上	-1501
前	-1502
家	-1503
形	-1504
歯	-1505
私	-1506
그	-1507
드	-1508
우	-1509
의	-1510
	-1511
😘	-1512
ȓ	-1513
Λ	-1514
إ	-1515
ض	-1516
द	-1517
म	-1518
ह	-1519
ং	-1520
ণ	-1521
ু	-1522
ழ	-1523
ု	-1524
დ	-1525
ា	-1526
ờ	-1527
∼	-1528
≫	-1529
│	-1530
☀	-1531
✽	-1532
❌	-1533
❚	-1534
➢	-1535
く	-1536
そ	-1537
つ	-1538
め	-1539
ィ	-1540
ォ	-1541
ジ	-1542
ゼ	-1543
デ	-1544
ミ	-1545
モ	-1546
个	-1547
乡	-1548
力	-1549
合	-1550
年	-1551
是	-1552
有	-1553
法	-1554
用	-1555
粵	-1556
있	-1557
💰	-1558
💻	-1559
🔝	-1560
🕥	-1561
😄	-1562
😋	-1563
😱	-1564
	-1565
ņ	-1566
˗	-1567
Χ	-1568
Ѐ	-1569
Є	-1570
Ю	-1571
ѐ	-1572
۞	-1573
ర	-1574
ด	-1575
ล	-1576
ศ	-1577
ี	-1578
ར	-1579
ṡ	-1580
Ἀ	-1581
ἰ	-1582
ὶ	-1583
※	-1584
₺	-1585
≪	-1586
▹	-1587
♀	-1588
♰	-1589
❄	-1590
❯	-1591
だ	-1592
ど	-1593
も	-1594
ェ	-1595
キ	-1596
ポ	-1597
レ	-1598
们	-1599
分	-1600
場	-1601
夕	-1602
女	-1603
房	-1604
洲	-1605
相	-1606
立	-1607
財	-1608
金	-1609
가	-1610
대	-1611
운	-1612
지	-1613
하	-1614
호	-1615
	-1616
	-1617
🇧	-1618
📍	-1619
📱	-1620
😆	-1621
😎	-1622
🤣	-1623
🤩	-1624
	-1625
Ř	-1626
ű	-1627
ǧ	-1628
ʃ	-1629
ˋ	-1630
˳	-1631
̓	-1632
Ί	-1633
Η	-1634
Ы	-1635
ӑ	-1636
ठ	-1637
ल	-1638
े	-1639
য	-1640
ల	-1641
จ	-1642
พ	-1643
ํ	-1644
ས	-1645
ခ	-1646
ရ	-1647
្	-1648
Ṣ	-1649
ὑ	-1650
ὕ	-1651
ὰ	-1652
‽	-1653
℧	-1654
⇧	-1655
∧	-1656
≡	-1657
⊙	-1658
◇	-1659
☼	-1660
♂	-1661
♚	-1662
♫	-1663
❥	-1664
➠	-1665
え	-1666
お	-1667
け	-1668
み	-1669
サ	-1670
ツ	-1671
ハ	-1672
体	-1673
全	-1674
夷	-1675
小	-1676
彼	-1677
扣	-1678
棠	-1679
欧	-1680
武	-1681
治	-1682
炎	-1683
特	-1684
田	-1685
百	-1686
者	-1687
联	-1688
華	-1689
西	-1690
要	-1691
赛	-1692
道	-1693
醉	-1694
高	-1695
기	-1696
나	-1697
를	-1698
시	-1699
전	-1700
합	-1701
	-1702
	-1703
🌪	-1704
🌹	-1705
🍷	-1706
🔍	-1707
😜	-1708
🛒	-1709
􀂄	-1710
	-1711
ģ	-1712
Ǝ	-1713
Ƨ	-1714
ɡ	-1715
ʊ	-1716
̯	-1717
Θ	-1718
ϝ	-1719
Й	-1720
ј	-1721
स	-1722
ম	-1723
়	-1724
ী	-1725
ఎ	-1726
త	-1727
ీ	-1728
ം	-1729
മ	-1730
യ	-1731
ല	-1732
ള	-1733
ാ	-1734
บ	-1735
ุ	-1736
က	-1737
ည	-1738
တ	-1739
ပ	-1740
ယ	-1741
လ	-1742
ေ	-1743
ត	-1744
ḩ	-1745
ứ	-1746
ᾥ	-1747
ῶ	-1748
‖	-1749
⁃	-1750
∇	-1751
∫	-1752
⋆	-1753
▲	-1754
◄	-1755
☑	-1756
♪	-1757
✨	-1758
✮	-1759
✱	-1760
➜	-1761
➞	-1762
➷	-1763
ⴰ	-1764
ⴻ	-1765
ⵍ	-1766
ⵔ	-1767
ⵢ	-1768
う	-1769
テ	-1770
マ	-1771
ュ	-1772
ヴ	-1773
万	-1774
三	-1775
五	-1776
京	-1777
公	-1778
其	-1779
内	-1780
加	-1781
動	-1782
北	-1783
古	-1784
天	-1785
好	-1786
州	-1787
平	-1788
式	-1789
性	-1790
感	-1791
提	-1792
水	-1793
江	-1794
游	-1795
王	-1796
目	-1797
神	-1798
苏	-1799
見	-1800
设	-1801
语	-1802
车	-1803
这	-1804
都	-1805
里	-1806
銀	-1807
风	-1808
공	-1809
도	-1810
매	-1811
사	-1812
살	-1813
아	-1814
와	-1815
으	-1816
인	-1817
일	-1818
	-1819
	-1820
	-1821
	-1822
	-1823
🇪	-1824
🇬	-1825
🌍	-1826
🍃	-1827
🎤	-1828
📅	-1829
📝	-1830
📸	-1831
🔸	-1832
🛀	-1833
🥇	-1834
Û	-1835
Ē	-1836
Ī	-1837
ǜ	-1838
ǫ	-1839
̕	-1840
Έ	-1841
Β	-1842
Щ	-1843
џ	-1844
ҷ	-1845
ְ	-1846
ֹ	-1847
ּ	-1848
ך	-1849
ء	-1850
آ	-1851
ث	-1852
گ	-1853
۩	-1854
ज	-1855
त	-1856
प	-1857
भ	-1858
य	-1859
ষ	-1860
మ	-1861
్	-1862
ನ	-1863
฀	-1864
ก	-1865
฿	-1866
๑	-1867
ລ	-1868
າ	-1869
ང	-1870
သ	-1871
ព	-1872
រ	-1873
Ḩ	-1874
ẽ	-1875
ῆ	-1876
ῦ	-1877
⁠	-1878
℗	-1879
╮	-1880
╰	-1881
█	-1882
▻	-1883
◐	-1884
◾	-1885
✌	-1886
✒	-1887
✚	-1888
✪	-1889
➔	-1890
⤝	-1891
エ	-1892
ネ	-1893
ペ	-1894
ム	-1895
ャ	-1896
ヨ	-1897
㄀	-1898
主	-1899
了	-1900
住	-1901
信	-1902
光	-1903
净	-1904
利	-1905
南	-1906
友	-1907
受	-1908
名	-1909
和	-1910
园	-1911
國	-1912
在	-1913
太	-1914
学	-1915
安	-1916
宿	-1917
尔	-1918
干	-1919
当	-1920
很	-1921
投	-1922
折	-1923
振	-1924
服	-1925
机	-1926
楼	-1927
民	-1928
沙	-1929
注	-1930
猫	-1931
理	-1932
琛	-1933
生	-1934
癡	-1935
白	-1936
盆	-1937
知	-1938
社	-1939
稿	-1940
章	-1941
第	-1942
經	-1943
舒	-1944
草	-1945
计	-1946
通	-1947
阿	-1948
風	-1949
馃	-1950
뀐	-1951
미	-1952
박	-1953
산	-1954
수	-1955
신	-1956
자	-1957
제	-1958
주	-1959
집	-1960
톱	-1961
파	-1962
했	-1963
	-1964
	-1965
	-1966
	-1967
	-1968
🇸	-1969
🌱	-1970
🌺	-1971
🎁	-1972
🎮	-1973
🎯	-1974
🏆	-1975
👩	-1976
👶	-1977
💃	-1978
💙	-1979
💡	-1980
💥	-1981
💸	-1982
🔎	-1983
😈	-1984
😭	-1985
😮	-1986
😳	-1987
🤔	-1988
🤗	-1989
	-1990
ď	-1991
ĝ	-1992
ĺ	-1993
Ľ	-1994
ŋ	-1995
ŝ	-1996
Ź	-1997
ɒ	-1998
ɣ	-1999
ɲ	-2000
ʀ	-2001
ʒ	-2002
ʽ	-2003
ˇ	-2004
ˌ	-2005
̋	-2006
̸	-2007
͡	-2008
Ώ	-2009
ϋ	-2010
є	-2011
ћ	-2012
ҡ	-2013
ӣ	-2014
ַ	-2015
،	-2016
ّ	-2017
ु	-2018
ौ	-2019
শ	-2020
ে	-2021
ਜ	-2022
ਪ	-2023
ਬ	-2024
ਾ	-2025
ੀ	-2026
ੰ	-2027
గ	-2028
య	-2029
ా	-2030
ె	-2031
ഀ	-2032
ธ	-2033
ส	-2034
ู	-2035
่	-2036
ວ	-2037
ະ	-2038
ི	-2039
ོ	-2040
ྒ	-2041
ဘ	-2042
ီ	-2043
ᜀ	-2044
ក	-2045
ខ	-2046
ម	-2047
ᨀ	-2048
ṃ	-2049
ấ	-2050
ễ	-2051
ộ	-2052
ἄ	-2053
ἔ	-2054
ὀ	-2055
ὁ	-2056
⇑	-2057
∂	-2058
∪	-2059
☛	-2060
♋	-2061
♠	-2062
♭	-2063
⚡	-2064
⛔	-2065
➏	-2066
⟩	-2067
ぎ	-2068
ち	-2069
べ	-2070
よ	-2071
わ	-2072
ガ	-2073
セ	-2074
ノ	-2075
ビ	-2076
ヘ	-2077
ベ	-2078
ボ	-2079
东	-2080
事	-2081
交	-2082
代	-2083
你	-2084
便	-2085
停	-2086
傳	-2087
克	-2088
制	-2089
劇	-2090
化	-2091
卍	-2092
原	-2093
台	-2094
周	-2095
喜	-2096
回	-2097
城	-2098
外	-2099
央	-2100
子	-2101
完	-2102
宗	-2103
定	-2104
就	-2105
居	-2106
岩	-2107
工	-2108
巨	-2109
度	-2110
庫	-2111
徒	-2112
必	-2113
恋	-2114
您	-2115
拉	-2116
持	-2117
指	-2118
接	-2119
数	-2120
方	-2121
星	-2122
朋	-2123
木	-2124
来	-2125
杨	-2126
株	-2127
格	-2128
機	-2129
歌	-2130
浪	-2131
深	-2132
港	-2133
湖	-2134
火	-2135
热	-2136
焼	-2137
版	-2138
现	-2139
男	-2140
皇	-2141
示	-2142
禅	-2143
篇	-2144
編	-2145
红	-2146
羅	-2147
聖	-2148
能	-2149
興	-2150
色	-2151
花	-2152
茅	-2153
萌	-2154
蓮	-2155
藤	-2156
覺	-2157
走	-2158
輔	-2159
輪	-2160
钱	-2161
開	-2162
间	-2163
霉	-2164
面	-2165
音	-2166
餐	-2167
駅	-2168
게	-2169
과	-2170
꽃	-2171
녀	-2172
돌	-2173
러	-2174
려	-2175
마	-2176
무	-2177
문	-2178
바	-2179
부	-2180
비	-2181
서	-2182
세	-2183
소	-2184
심	-2185
안	-2186
여	-2187
은	-2188
장	-2189
조	-2190
친	-2191
해	-2192
히	-2193
	-2194
	-2195
	-2196
	-2197
	-2198
	-2199
	-2200
	-2201
🇦	-2202
🇷	-2203
🇺	-2204
🌷	-2205
🌻	-2206
🍁	-2207
🍂	-2208
🎐	-2209
🎬	-2210
🏋	-2211
🏖	-2212
🏼	-2213
💀	-2214
💐	-2215
💔	-2216
💝	-2217
💠	-2218
💲	-2219
📋	-2220
🖱	-2221
😃	-2222
😒	-2223
🛍	-2224
	-2225
	-2226
ĉ	-2227
ļ	-2228
Ń	-2229
Ő	-2230
Ť	-2231
Ƈ	-2232
Ɛ	-2233
ƚ	-2234
Ƭ	-2235
ȏ	-2236
ȗ	-2237
Ƞ	-2238
ɐ	-2239
ʌ	-2240
ʎ	-2241
̇	-2242
Ή	-2243
Ζ	-2244
ϊ	-2245
ϛ	-2246
ѕ	-2247
գ	-2248
ի	-2249
ո	-2250
տ	-2251
ւ	-2252
ִ	-2253
ץ	-2254
ظ	-2255
ـ	-2256
ٍ	-2257
ُ	-2258
چ	-2259
ډ	-2260
ے	-2261
ە	-2262
ܐ	-2263
ܘ	-2264
ं	-2265
ग	-2266
ब	-2267
व	-2268
ष	-2269
ो	-2270
জ	-2271
ভ	-2272
ய	-2273
ை	-2274
ం	-2275
ఆ	-2276
న	-2277
బ	-2278
ಕ	-2279
ಡ	-2280
್	-2281
ค	-2282
ช	-2283
ภ	-2284
ื	-2285
แ	-2286
้	-2287
ຊ	-2288
ເ	-2289
ໄ	-2290
ༀ	-2291
ཁ	-2292
མ	-2293
འ	-2294
ལ	-2295
ུ	-2296
ེ	-2297
ྫ	-2298
စ	-2299
္	-2300
ျ	-2301
ှ	-2302
გ	-2303
ო	-2304
ᄂ	-2305
ᄄ	-2306
ᑎ	-2307
ᒃ	-2308
ᔀ	-2309
ច	-2310
ជ	-2311
ស	-2312
េ	-2313
់	-2314
ᠡ	-2315
ᴇ	-2316
Ḕ	-2317
ḳ	-2318
ṯ	-2319
ậ	-2320
ắ	-2321
ẵ	-2322
ị	-2323
ἶ	-2324
Ἰ	-2325
ὐ	-2326
ῥ	-2327
ῷ	-2328
‣	-2329
‿	-2330
∅	-2331
∈	-2332
⊕	-2333
⏩	-2334
⏭	-2335
⏱	-2336
␍	-2337
○	-2338
◮	-2339
☊	-2340
☘	-2341
☝	-2342
☠	-2343
☽	-2344
☾	-2345
♐	-2346
♕	-2347
⚘	-2348
⛄	-2349
⛲	-2350
✎	-2351
✗	-2352
✦	-2353
✰	-2354
❖	-2355
❝	-2356
❱	-2357
➊	-2358
➋	-2359
➌	-2360
➍	-2361
➎	-2362
➐	-2363
➑	-2364
➒	-2365
➙	-2366
➽	-2367
⟨	-2368
⤑	-2369
⤽	-2370
Ⱄ	-2371
⸀	-2372
〈	-2373
〰	-2374
ご	-2375
じ	-2376
ず	-2377
せ	-2378
び	-2379
ぶ	-2380
ゃ	-2381
や	-2382
ろ	-2383
ゾ	-2384
ニ	-2385
ピ	-2386
ホ	-2387
ユ	-2388
ワ	-2389
㐀	-2390
㠀	-2391
丁	-2392
与	-2393
世	-2394
久	-2395
也	-2396
于	-2397
云	-2398
井	-2399
享	-2400
今	-2401
他	-2402
令	-2403
以	-2404
伝	-2405
位	-2406
佐	-2407
何	-2408
供	-2409
俺	-2410
值	-2411
僧	-2412
元	-2413
写	-2414
别	-2415
到	-2416
功	-2417
又	-2418
发	-2419
句	-2420
史	-2421
吵	-2422
吾	-2423
告	-2424
味	-2425
品	-2426
善	-2427
嘆	-2428
団	-2429
土	-2430
埃	-2431
塔	-2432
士	-2433
妙	-2434
妹	-2435
宅	-2436
实	-2437
実	-2438
客	-2439
察	-2440
对	-2441
寺	-2442
导	-2443
将	-2444
少	-2445
层	-2446
屋	-2447
屏	-2448
属	-2449
岛	-2450
川	-2451
己	-2452
巴	-2453
店	-2454
律	-2455
後	-2456
徐	-2457
得	-2458
志	-2459
悠	-2460
情	-2461
意	-2462
成	-2463
戦	-2464
手	-2465
才	-2466
搒	-2467
改	-2468
旗	-2469
早	-2470
昆	-2471
明	-2472
晚	-2473
普	-2474
智	-2475
曼	-2476
會	-2477
望	-2478
朝	-2479
李	-2480
村	-2481
松	-2482
栋	-2483
桜	-2484
梦	-2485
森	-2486
様	-2487
欢	-2488
氏	-2489
気	-2490
氣	-2491
汉	-2492
河	-2493
泉	-2494
济	-2495
温	-2496
灌	-2497
灰	-2498
煲	-2499
物	-2500
犬	-2501
現	-2502
疆	-2503
真	-2504
着	-2505
矇	-2506
碁	-2507
祁	-2508
祖	-2509
祠	-2510
秋	-2511
空	-2512
笍	-2513
简	-2514
素	-2515
継	-2516
繁	-2517
维	-2518
置	-2519
群	-2520
脿	-2521
良	-2522
茶	-2523
莎	-2524
菜	-2525
营	-2526
萬	-2527
蒙	-2528
藏	-2529
蘭	-2530
解	-2531
設	-2532
説	-2533
読	-2534
論	-2535
话	-2536
该	-2537
调	-2538
貌	-2539
転	-2540
農	-2541
过	-2542
近	-2543
适	-2544
那	-2545
部	-2546
重	-2547
野	-2548
鉄	-2549
鋤	-2550
鏤	-2551
链	-2552
镇	-2553
门	-2554
陈	-2555
隠	-2556
雅	-2557
静	-2558
项	-2559
香	-2560
體	-2561
鸡	-2562
麦	-2563
黄	-2564
개	-2565
경	-2566
골	-2567
교	-2568
근	-2569
까	-2570
년	-2571
노	-2572
님	-2573
되	-2574
라	-2575
류	-2576
르	-2577
명	-2578
버	-2579
베	-2580
변	-2581
보	-2582
삭	-2583
설	-2584
숙	-2585
순	-2586
었	-2587
연	-2588
왔	-2589
요	-2590
용	-2591
움	-2592
절	-2593
접	-2594
정	-2595
좋	-2596
처	-2597
천	-2598
첫	-2599
출	-2600
치	-2601
키	-2602
터	-2603
테	-2604
통	-2605
팅	-2606
폐	-2607
학	-2608
화	-2609
후	-2610
	-2611
	-2612
	-2613
	-2614
	-2615
	-2616
	-2617
	-2618
	-2619
	-2620
	-2621
	-2622
	-2623
︎	-2624
𒆠	-2625
𒋀	-2626
🇩	-2627
🇫	-2628
🌼	-2629
🍇	-2630
🍎	-2631
🍝	-2632
🍳	-2633
🎃	-2634
🎉	-2635
🎥	-2636
🏃	-2637
🏘	-2638
🏫	-2639
🐍	-2640
👨	-2641
👻	-2642
💊	-2643
💕	-2644
💜	-2645
💳	-2646
📊	-2647
📷	-2648
🔋	-2649
🔜	-2650
🔵	-2651
🔷	-2652
🖤	-2653
🗻	-2654
😇	-2655
😌	-2656
😑	-2657
😔	-2658
😙	-2659
😥	-2660
🙏	-2661
🚙	-2662
🚧	-2663
🤒	-2664
🤓	-2665
🥀	-2666
🥰	-2667
🥳	-2668
🦋	-2669
🧜	-2670
􀂃	-2671
	-2672
	-2673
	-2674
	-2675
Ę	-2676
Ě	-2677
Ğ	-2678
ĩ	-2679
Ĭ	-2680
ĵ	-2681
ķ	-2682
Ĺ	-2683
Ū	-2684
ŵ	-2685
Ə	-2686
ơ	-2687
ǒ	-2688
ǵ	-2689
ǻ	-2690
ȃ	-2691
Ș	-2692
Ʌ	-2693
ɘ	-2694
ɤ	-2695
ɫ	-2696
ɯ	-2697
ɴ	-2698
ʍ	-2699
ʏ	-2700
ʝ	-2701
ʦ	-2702
ʧ	-2703
ʹ	-2704
ˁ	-2705
̉	-2706
̎	-2707
̏	-2708
̔	-2709
̵	-2710
̷	-2711
͂	-2712
Ά	-2713
Ѓ	-2714
Ї	-2715
Љ	-2716
ѣ	-2717
ґ	-2718
Ү	-2719
ҳ	-2720
Ҷ	-2721
Ҹ	-2722
һ	-2723
Ӏ	-2724
ӧ	-2725
Ө	-2726
ӯ	-2727
Ԁ	-2728
ԉ	-2729
Ա	-2730
Ի	-2731
Կ	-2732
Ռ	-2733
Ս	-2734
Ք	-2735
զ	-2736
ը	-2737
թ	-2738
լ	-2739
խ	-2740
հ	-2741
չ	-2742
պ	-2743
վ	-2744
ք	-2745
֩	-2746
ֻ	-2747
ֽ	-2748
ׁ	-2749
ׂ	-2750
؟	-2751
ؤ	-2752
ً	-2753
َ	-2754
ِ	-2755
ْ	-2756
ٔ	-2757
٠	-2758
ڌ	-2759
ۊ	-2760
۴	-2761
܉	-2762
ܝ	-2763
ܡ	-2764
ܪ	-2765
ࠂ	-2766
ࠠ	-2767
ࠣ	-2768
आ	-2769
औ	-2770
क	-2771
ख	-2772
ध	-2773
फ	-2774
অ	-2775
উ	-2776
গ	-2777
চ	-2778
দ	-2779
ন	-2780
ফ	-2781
স	-2782
ো	-2783
ગ	-2784
જ	-2785
ત	-2786
ર	-2787
ા	-2788
ી	-2789
ુ	-2790
଀	-2791
ଆ	-2792
ଓ	-2793
ଡ	-2794
଼	-2795
ି	-2796
இ	-2797
ண	-2798
ல	-2799
ள	-2800
అ	-2801
ఖ	-2802
చ	-2803
ట	-2804
డ	-2805
ద	-2806
ప	-2807
వ	-2808
శ	-2809
ే	-2810
ై	-2811
ో	-2812
ข	-2813
ฉ	-2814
ฒ	-2815
ต	-2816
์	-2817
ງ	-2818
ຍ	-2819
ດ	-2820
ຖ	-2821
ທ	-2822
ນ	-2823
ບ	-2824
ປ	-2825
ມ	-2826
ສ	-2827
ອ	-2828
ີ	-2829
ື	-2830
ູ	-2831
ག	-2832
ད	-2833
བ	-2834
ཡ	-2835
ྩ	-2836
ဆ	-2837
ထ	-2838
ဖ	-2839
ဲ	-2840
ွ	-2841
ვ	-2842
ს	-2843
ტ	-2844
შ	-2845
ማ	-2846
ር	-2847
ኛ	-2848
አ	-2849
ᐃ	-2850
ᑐ	-2851
ᑦ	-2852
ᑲ	-2853
ᓄ	-2854
ᕕ	-2855
ᗚ	-2856
ង	-2857
ណ	-2858
ធ	-2859
ភ	-2860
ិ	-2861
ុ	-2862
ែ	-2863
ោ	-2864
ំ	-2865
ះ	-2866
៍	-2867
ᠬ	-2868
ᠯ	-2869
ᥙ	-2870
ᴀ	-2871
ᴅ	-2872
ᴏ	-2873
ᴢ	-2874
᷈	-2875
ḗ	-2876
ḫ	-2877
Ṃ	-2878
Ṗ	-2879
Ṭ	-2880
ẓ	-2881
ả	-2882
ẫ	-2883
ặ	-2884
ề	-2885
ỉ	-2886
ủ	-2887
ữ	-2888
ự	-2889
ỳ	-2890
ἃ	-2891
ἅ	-2892
Ἁ	-2893
Ἄ	-2894
Ἅ	-2895
ἑ	-2896
Ἔ	-2897
ἡ	-2898
ἣ	-2899
Ἠ	-2900
Ἡ	-2901
ἱ	-2902
ἷ	-2903
ὄ	-2904
Ὃ	-2905
Ὑ	-2906
ὠ	-2907
ὤ	-2908
ὴ	-2909
ὸ	-2910
ὼ	-2911
ᾶ	-2912
Ῥ	-2913
ῲ	-2914
⁦	-2915
⁩	-2916
₩	-2917
₭	-2918
₴	-2919
₹	-2920
₽	-2921
℮	-2922
⇨	-2923
∁	-2924
≠	-2925
⊥	-2926
⏬	-2927
⏳	-2928
⏺	-2929
├	-2930
╗	-2931
▭	-2932
▼	-2933
▾	-2934
◉	-2935
◎	-2936
◘	-2937
◙	-2938
☄	-2939
☔	-2940
☜	-2941
☮	-2942
☹	-2943
♈	-2944
♊	-2945
♖	-2946
♜	-2947
♤	-2948
♬	-2949
⚒	-2950
⚓	-2951
⚪	-2952
⚫	-2953
⛅	-2954
⛈	-2955
⛏	-2956
⛵	-2957
⛺	-2958
✇	-2959
✈	-2960
✋	-2961
✘	-2962
✝	-2963
✞	-2964
✤	-2965
✶	-2966
❎	-2967
❘	-2968
❶	-2969
❷	-2970
❸	-2971
❹	-2972
❺	-2973
➀	-2974
➁	-2975
➂	-2976
➓	-2977
➟	-2978
➨	-2979
⠀	-2980
⦁	-2981
⪚	-2982
⬅	-2983
Ⰲ	-2984
Ⰽ	-2985
Ⰾ	-2986
Ⱀ	-2987
Ⱁ	-2988
Ⱏ	-2989
Ⱐ	-2990
Ⱑ	-2991
々	-2992
〇	-2993
〉	-2994
ぐ	-2995
ぬ	-2996
ね	-2997
ば	-2998
ひ	-2999
ほ	-3000
む	-3001
ょ	-3002
゚	-3003
ァ	-3004
ゥ	-3005
ゴ	-3006
ヤ	-3007
ヵ	-3008
㒚	-3009
㞡	-3010
下	-3011
不	-3012
两	-3013
並	-3014
丰	-3015
为	-3016
丽	-3017
之	-3018
九	-3019
书	-3020
乳	-3021
予	-3022
争	-3023
亚	-3024
些	-3025
产	-3026
亲	-3027
从	-3028
付	-3029
价	-3030
伊	-3031
伎	-3032
休	-3033
伟	-3034
传	-3035
但	-3036
低	-3037
佛	-3038
來	-3039
例	-3040
侘	-3041
依	-3042
価	-3043
俗	-3044
保	-3045
俠	-3046
俳	-3047
偏	-3048
偵	-3049
偶	-3050
催	-3051
先	-3052
共	-3053
兵	-3054
具	-3055
典	-3056
册	-3057
准	-3058
几	-3059
刀	-3060
切	-3061
刑	-3062
划	-3063
则	-3064
刚	-3065
初	-3066
別	-3067
剎	-3068
剣	-3069
务	-3070
动	-3071
助	-3072
勝	-3073
包	-3074
區	-3075
千	-3076
半	-3077
协	-3078
卫	-3079
卷	-3080
历	-3081
参	-3082
叉	-3083
及	-3084
双	-3085
反	-3086
叔	-3087
取	-3088
口	-3089
只	-3090
叫	-3091
右	-3092
司	-3093
吉	-3094
同	-3095
后	-3096
含	-3097
吴	-3098
吹	-3099
呼	-3100
問	-3101
啤	-3102
嘉	-3103
嘘	-3104
器	-3105
噶	-3106
嚘	-3107
嚪	-3108
四	-3109
図	-3110
園	-3111
圣	-3112
圳	-3113
坡	-3114
垂	-3115
域	-3116
基	-3117
堅	-3118
增	-3119
壌	-3120
复	-3121
夏	-3122
多	-3123
夢	-3124
头	-3125
奇	-3126
奠	-3127
奪	-3128
她	-3129
始	-3130
威	-3131
娘	-3132
字	-3133
孝	-3134
宁	-3135
它	-3136
守	-3137
宋	-3138
宣	-3139
宪	-3140
害	-3141
宵	-3142
寂	-3143
寶	-3144
寻	-3145
対	-3146
將	-3147
尋	-3148
尝	-3149
展	-3150
屬	-3151
峡	-3152
嵐	-3153
巻	-3154
希	-3155
帕	-3156
帖	-3157
带	-3158
師	-3159
帮	-3160
帯	-3161
常	-3162
帽	-3163
幸	-3164
庁	-3165
広	-3166
床	-3167
库	-3168
应	-3169
底	-3170
庙	-3171
庚	-3172
府	-3173
座	-3174
庭	-3175
建	-3176
引	-3177
弫	-3178
弾	-3179
彦	-3180
彩	-3181
影	-3182
役	-3183
往	-3184
待	-3185
徹	-3186
心	-3187
快	-3188
念	-3189
态	-3190
思	-3191
急	-3192
怪	-3193
恥	-3194
恭	-3195
惊	-3196
惠	-3197
愉	-3198
慨	-3199
慷	-3200
戌	-3201
戏	-3202
户	-3203
戸	-3204
批	-3205
承	-3206
技	-3207
把	-3208
护	-3209
抦	-3210
抯	-3211
抲	-3212
拥	-3213
拼	-3214
按	-3215
掌	-3216
探	-3217
控	-3218
揃	-3219
揈	-3220
揌	-3221
揚	-3222
揟	-3223
搜	-3224
摘	-3225
撃	-3226
政	-3227
教	-3228
散	-3229
整	-3230
敵	-3231
料	-3232
斯	-3233
施	-3234
既	-3235
昉	-3236
易	-3237
暁	-3238
暦	-3239
暴	-3240
曲	-3241
更	-3242
朗	-3243
末	-3244
材	-3245
杞	-3246
条	-3247
杷	-3248
枇	-3249
林	-3250
果	-3251
栄	-3252
校	-3253
根	-3254
桂	-3255
案	-3256
梅	-3257
棒	-3258
楞	-3259
業	-3260
概	-3261
樂	-3262
樹	-3263
橋	-3264
檃	-3265
止	-3266
正	-3267
歧	-3268
歩	-3269
殺	-3270
母	-3271
毕	-3272
气	-3273
永	-3274
求	-3275
汐	-3276
決	-3277
沟	-3278
沢	-3279
沼	-3280
泊	-3281
波	-3282
泥	-3283
洁	-3284
洋	-3285
洹	-3286
流	-3287
涟	-3288
淮	-3289
測	-3290
湛	-3291
準	-3292
溪	-3293
漫	-3294
潟	-3295
潢	-3296
瀝	-3297
灣	-3298
災	-3299
炮	-3300
烏	-3301
無	-3302
照	-3303
爆	-3304
爱	-3305
片	-3306
牛	-3307
独	-3308
狸	-3309
狼	-3310
猶	-3311
玉	-3312
玲	-3313
玻	-3314
珍	-3315
球	-3316
琉	-3317
璃	-3318
璨	-3319
環	-3320
由	-3321
町	-3322
畅	-3323
界	-3324
留	-3325
疾	-3326
皆	-3327
盂	-3328
盟	-3329
盤	-3330
盲	-3331
直	-3332
眉	-3333
看	-3334
眺	-3335
眼	-3336
短	-3337
砲	-3338
确	-3339
確	-3340
碼	-3341
磐	-3342
祝	-3343
祥	-3344
禪	-3345
离	-3346
秀	-3347
科	-3348
移	-3349
稀	-3350
穫	-3351
窠	-3352
站	-3353
答	-3354
管	-3355
節	-3356
篮	-3357
簞	-3358
米	-3359
紀	-3360
結	-3361
統	-3362
絶	-3363
総	-3364
緒	-3365
縒	-3366
績	-3367
繕	-3368
續	-3369
约	-3370
纳	-3371
经	-3372
绘	-3373
罐	-3374
羊	-3375
羌	-3376
美	-3377
義	-3378
肉	-3379
育	-3380
背	-3381
脽	-3382
腕	-3383
臘	-3384
臣	-3385
臨	-3386
致	-3387
舜	-3388
航	-3389
般	-3390
舰	-3391
艺	-3392
节	-3393
芳	-3394
若	-3395
药	-3396
获	-3397
菌	-3398
蒂	-3399
蔵	-3400
蛇	-3401
蝦	-3402
術	-3403
衡	-3404
袍	-3405
被	-3406
裂	-3407
製	-3408
視	-3409
觀	-3410
视	-3411
览	-3412
角	-3413
触	-3414
討	-3415
試	-3416
認	-3417
誕	-3418
誦	-3419
識	-3420
護	-3421
让	-3422
记	-3423
误	-3424
谢	-3425
谷	-3426
賊	-3427
賢	-3428
購	-3429
贛	-3430
财	-3431
贵	-3432
赫	-3433
趙	-3434
足	-3435
跟	-3436
路	-3437
辅	-3438
边	-3439
迎	-3440
返	-3441
连	-3442
迤	-3443
迹	-3444
途	-3445
逦	-3446
進	-3447
邊	-3448
邦	-3449
郡	-3450
郭	-3451
酅	-3452
配	-3453
酒	-3454
鈥	-3455
鈴	-3456
鈿	-3457
鉃	-3458
銃	-3459
錢	-3460
錫	-3461
鍾	-3462
鎧	-3463
鎮	-3464
鏡	-3465
鑑	-3466
钓	-3467
铎	-3468
铜	-3469
银	-3470
锘	-3471
长	-3472
間	-3473
関	-3474
闘	-3475
闲	-3476
队	-3477
阳	-3478
陋	-3479
降	-3480
陣	-3481
陳	-3482
陵	-3483
随	-3484
際	-3485
集	-3486
雛	-3487
雷	-3488
電	-3489
需	-3490
霧	-3491
靜	-3492
非	-3493
靠	-3494
鞘	-3495
韵	-3496
響	-3497
頂	-3498
顗	-3499
页	-3500
顶	-3501
预	-3502
额	-3503
飛	-3504
食	-3505
飯	-3506
飼	-3507
飽	-3508
餃	-3509
饭	-3510
饱	-3511
饲	-3512
饺	-3513
馆	-3514
馨	-3515
験	-3516
马	-3517
驰	-3518
验	-3519
骑	-3520
魏	-3521
魔	-3522
鮮	-3523
鯉	-3524
鱼	-3525
鲍	-3526
鳴	-3527
鷖	-3528
鹿	-3529
龍	-3530
龙	-3531
간	-3532
감	-3533
갔	-3534
갤	-3535
거	-3536
것	-3537
계	-3538
곳	-3539
관	-3540
귀	-3541
균	-3542
길	-3543
깃	-3544
깝	-3545
꿨	-3546
내	-3547
낸	-3548
너	-3549
네	-3550
늑	-3551
데	-3552
돈	-3553
돕	-3554
동	-3555
됐	-3556
된	-3557
됩	-3558
두	-3559
등	-3560
랑	-3561
랜	-3562
램	-3563
럭	-3564
레	-3565
렛	-3566
련	-3567
렴	-3568
루	-3569
룰	-3570
륭	-3571
만	-3572
맛	-3573
망	-3574
머	-3575
먹	-3576
며	-3577
모	-3578
목	-3579
방	-3580
배	-3581
뱀	-3582
복	-3583
볼	-3584
분	-3585
브	-3586
블	-3587
빙	-3588
삶	-3589
삼	-3590
상	-3591
샷	-3592
선	-3593
성	-3594
셀	-3595
송	-3596
술	-3597
씨	-3598
않	-3599
알	-3600
암	-3601
액	-3602
앱	-3603
약	-3604
얀	-3605
양	-3606
엄	-3607
없	-3608
엔	-3609
엘	-3610
옆	-3611
오	-3612
완	-3613
왜	-3614
울	-3615
워	-3616
원	-3617
월	-3618
위	-3619
음	-3620
입	-3621
잏	-3622
잘	-3623
재	-3624
저	-3625
적	-3626
종	-3627
줄	-3628
중	-3629
증	-3630
째	-3631
쪽	-3632
창	-3633
최	-3634
추	-3635
침	-3636
카	-3637
칸	-3638
쾌	-3639
크	-3640
타	-3641
토	-3642
트	-3643
티	-3644
편	-3645
푸	-3646
피	-3647
할	-3648
항	-3649
행	-3650
헴	-3651
환	-3652
훌	-3653
	-3654
	-3655
	-3656
	-3657
	-3658
	-3659
	-3660
	-3661
	-3662
	-3663
	-3664
	-3665
	-3666
	-3667
	-3668
	-3669
	-3670
	-3671
	-3672
	-3673
	-3674
	-3675
	-3676
	-3677
	-3678
	-3679
	-3680
	-3681
	-3682
	-3683
	-3684
	-3685
	-3686
	-3687
	-3688
	-3689
	-3690
	-3691
	-3692
	-3693
	-3694
	-3695
	-3696
	-3697
	-3698
	-3699
	-3700
	-3701
	-3702
	-3703
	-3704
	-3705
	-3706
	-3707
	-3708
	-3709
	-3710
	-3711
	-3712
	-3713
	-3714
	-3715
	-3716
	-3717
	-3718
	-3719
	-3720
	-3721
﴾	-3722
﴿	-3723
～	-3724
𒀊	-3725
𒀕	-3726
🆕	-3727
🆚	-3728
🇨	-3729
🇱	-3730
🇵	-3731
🇿	-3732
🌈	-3733
🌊	-3734
🌎	-3735
🌐	-3736
🌙	-3737
🌝	-3738
🌞	-3739
🌲	-3740
🌿	-3741
🍀	-3742
🍌	-3743
🍔	-3744
🍞	-3745
🍣	-3746
🍽	-3747
🎀	-3748
🎂	-3749
🎅	-3750
🎊	-3751
🎟	-3752
🎧	-3753
🎫	-3754
🎭	-3755
🎴	-3756
🎻	-3757
🎾	-3758
🏈	-3759
🏊	-3760
🏗	-3761
🏝	-3762
🏥	-3763
🏳	-3764
🏴	-3765
🏽	-3766
🐛	-3767
🐦	-3768
🐳	-3769
👄	-3770
👇	-3771
👎	-3772
👑	-3773
👗	-3774
👟	-3775
👦	-3776
👰	-3777
💁	-3778
💆	-3779
💋	-3780
💌	-3781
💖	-3782
💗	-3783
💘	-3784
💛	-3785
💢	-3786
💣	-3787
💧	-3788
💩	-3789
💬	-3790
💴	-3791
💶	-3792
💷	-3793
📄	-3794
📈	-3795
📉	-3796
📕	-3797
📖	-3798
📚	-3799
📞	-3800
📢	-3801
📣	-3802
📦	-3803
🔔	-3804
🔙	-3805
🔫	-3806
🔹	-3807
🔻	-3808
🕑	-3809
🕷	-3810
🖼	-3811
🗣	-3812
😏	-3813
😕	-3814
😚	-3815
😞	-3816
😟	-3817
😡	-3818
😢	-3819
😣	-3820
😬	-3821
😶	-3822
😷	-3823
😼	-3824
🙃	-3825
🙋	-3826
🚁	-3827
🚕	-3828
🚗	-3829
🚚	-3830
🚨	-3831
🚽	-3832
