<unk>	0
<s>	0
</s>	0
<pad>	0
<system>	0
<user>	0
<assistant>	0
<0x00>	0
<0x01>	0
<0x02>	0
<0x03>	0
<0x04>	0
<0x05>	0
<0x06>	0
<0x07>	0
<0x08>	0
<0x09>	0
<0x0A>	0
<0x0B>	0
<0x0C>	0
<0x0D>	0
<0x0E>	0
<0x0F>	0
<0x10>	0
<0x11>	0
<0x12>	0
<0x13>	0
<0x14>	0
<0x15>	0
<0x16>	0
<0x17>	0
<0x18>	0
<0x19>	0
<0x1A>	0
<0x1B>	0
<0x1C>	0
<0x1D>	0
<0x1E>	0
<0x1F>	0
<0x20>	0
<0x21>	0
<0x22>	0
<0x23>	0
<0x24>	0
<0x25>	0
<0x26>	0
<0x27>	0
<0x28>	0
<0x29>	0
<0x2A>	0
<0x2B>	0
<0x2C>	0
<0x2D>	0
<0x2E>	0
<0x2F>	0
<0x30>	0
<0x31>	0
<0x32>	0
<0x33>	0
<0x34>	0
<0x35>	0
<0x36>	0
<0x37>	0
<0x38>	0
<0x39>	0
<0x3A>	0
<0x3B>	0
<0x3C>	0
<0x3D>	0
<0x3E>	0
<0x3F>	0
<0x40>	0
<0x41>	0
<0x42>	0
<0x43>	0
<0x44>	0
<0x45>	0
<0x46>	0
<0x47>	0
<0x48>	0
<0x49>	0
<0x4A>	0
<0x4B>	0
<0x4C>	0
<0x4D>	0
<0x4E>	0
<0x4F>	0
<0x50>	0
<0x51>	0
<0x52>	0
<0x53>	0
<0x54>	0
<0x55>	0
<0x56>	0
<0x57>	0
<0x58>	0
<0x59>	0
<0x5A>	0
<0x5B>	0
<0x5C>	0
<0x5D>	0
<0x5E>	0
<0x5F>	0
<0x60>	0
<0x61>	0
<0x62>	0
<0x63>	0
<0x64>	0
<0x65>	0
<0x66>	0
<0x67>	0
<0x68>	0
<0x69>	0
<0x6A>	0
<0x6B>	0
<0x6C>	0
<0x6D>	0
<0x6E>	0
<0x6F>	0
<0x70>	0
<0x71>	0
<0x72>	0
<0x73>	0
<0x74>	0
<0x75>	0
<0x76>	0
<0x77>	0
<0x78>	0
<0x79>	0
<0x7A>	0
<0x7B>	0
<0x7C>	0
<0x7D>	0
<0x7E>	0
<0x7F>	0
<0x80>	0
<0x81>	0
<0x82>	0
<0x83>	0
<0x84>	0
<0x85>	0
<0x86>	0
<0x87>	0
<0x88>	0
<0x89>	0
<0x8A>	0
<0x8B>	0
<0x8C>	0
<0x8D>	0
<0x8E>	0
<0x8F>	0
<0x90>	0
<0x91>	0
<0x92>	0
<0x93>	0
<0x94>	0
<0x95>	0
<0x96>	0
<0x97>	0
<0x98>	0
<0x99>	0
<0x9A>	0
<0x9B>	0
<0x9C>	0
<0x9D>	0
<0x9E>	0
<0x9F>	0
<0xA0>	0
<0xA1>	0
<0xA2>	0
<0xA3>	0
<0xA4>	0
<0xA5>	0
<0xA6>	0
<0xA7>	0
<0xA8>	0
<0xA9>	0
<0xAA>	0
<0xAB>	0
<0xAC>	0
<0xAD>	0
<0xAE>	0
<0xAF>	0
<0xB0>	0
<0xB1>	0
<0xB2>	0
<0xB3>	0
<0xB4>	0
<0xB5>	0
<0xB6>	0
<0xB7>	0
<0xB8>	0
<0xB9>	0
<0xBA>	0
<0xBB>	0
<0xBC>	0
<0xBD>	0
<0xBE>	0
<0xBF>	0
<0xC0>	0
<0xC1>	0
<0xC2>	0
<0xC3>	0
<0xC4>	0
<0xC5>	0
<0xC6>	0
<0xC7>	0
<0xC8>	0
<0xC9>	0
<0xCA>	0
<0xCB>	0
<0xCC>	0
<0xCD>	0
<0xCE>	0
<0xCF>	0
<0xD0>	0
<0xD1>	0
<0xD2>	0
<0xD3>	0
<0xD4>	0
<0xD5>	0
<0xD6>	0
<0xD7>	0
<0xD8>	0
<0xD9>	0
<0xDA>	0
<0xDB>	0
<0xDC>	0
<0xDD>	0
<0xDE>	0
<0xDF>	0
<0xE0>	0
<0xE1>	0
<0xE2>	0
<0xE3>	0
<0xE4>	0
<0xE5>	0
<0xE6>	0
<0xE7>	0
<0xE8>	0
<0xE9>	0
<0xEA>	0
<0xEB>	0
<0xEC>	0
<0xED>	0
<0xEE>	0
<0xEF>	0
<0xF0>	0
<0xF1>	0
<0xF2>	0
<0xF3>	0
<0xF4>	0
<0xF5>	0
<0xF6>	0
<0xF7>	0
<0xF8>	0
<0xF9>	0
<0xFA>	0
<0xFB>	0
<0xFC>	0
<0xFD>	0
<0xFE>	0
<0xFF>	0
▁d	-0
on	-1
▁c	-2
er	-3
▁s	-4
▁p	-5
▁a	-6
en	-7
in	-8
to	-9
re	-10
ta	-11
la	-12
ti	-13
el	-14
▁di	-15
ri	-16
ra	-17
li	-18
▁e	-19
te	-20
le	-21
an	-22
▁m	-23
▁i	-24
▁n	-25
un	-26
▁f	-27
ro	-28
▁del	-29
▁in	-30
ia	-31
he	-32
si	-33
or	-34
zi	-35
▁v	-36
es	-37
lo	-38
qu	-39
▁la	-40
ca	-41
one	-42
▁un	-43
om	-44
▁g	-45
▁al	-46
▁con	-47
ar	-48
os	-49
▁t	-50
▁per	-51
▁il	-52
▁che	-53
co	-54
ci	-55
▁qu	-56
al	-57
▁C	-58
▁S	-59
di	-60
men	-61
do	-62
et	-63
▁o	-64
zione	-65
io	-66
▁ri	-67
ma	-68
▁l	-69
▁su	-70
▁P	-71
so	-72
za	-73
▁de	-74
no	-75
▁I	-76
ol	-77
▁b	-78
▁A	-79
▁L	-80
va	-81
▁si	-82
▁le	-83
ere	-84
tu	-85
▁M	-86
gli	-87
vi	-88
mp	-89
▁com	-90
▁è	-91
sa	-92
ch	-93
▁pro	-94
▁da	-95
ono	-96
mo	-97
▁1	-98
▁nel	-99
se	-100
gi	-101
ce	-102
▁an	-103
▁della	-104
▁D	-105
oni	-106
tto	-107
ter	-108
bi	-109
tà	-110
▁se	-111
da	-112
▁(	-113
pp	-114
fi	-115
▁ma	-116
ni	-117
mi	-118
▁ca	-119
che	-120
▁non	-121
de	-122
era	-123
tra	-124
▁G	-125
▁re	-126
▁pi	-127
▁,	-128
▁una	-129
ve	-130
ano	-131
na	-132
tti	-133
▁po	-134
vo	-135
▁T	-136
..	-137
is	-138
mente	-139
ina	-140
▁pre	-141
▁R	-142
▁fa	-143
▁so	-144
▁N	-145
▁h	-146
▁B	-147
▁E	-148
uo	-149
ui	-150
ran	-151
po	-152
▁pa	-153
▁dal	-154
▁F	-155
bb	-156
▁vi	-157
gg	-158
▁2	-159
tro	-160
ona	-161
cc	-162
eri	-163
▁es	-164
ten	-165
tan	-166
▁V	-167
▁lo	-168
▁ci	-169
▁u	-170
ver	-171
▁par	-172
▁tra	-173
pa	-174
zza	-175
--	-176
▁tu	-177
tta	-178
ssi	-179
ga	-180
ini	-181
▁dei	-182
pi	-183
ente	-184
enti	-185
▁te	-186
ria	-187
▁ques	-188
cia	-189
zioni	-190
ino	-191
▁dell	-192
mento	-193
ine	-194
▁do	-195
▁più	-196
us	-197
ff	-198
▁sta	-199
▁ra	-200
tre	-201
tri	-202
▁|	-203
ero	-204
▁ne	-205
▁-	-206
enza	-207
hi	-208
go	-209
me	-210
▁delle	-211
▁gi	-212
▁alla	-213
con	-214
▁La	-215
ru	-216
ani	-217
▁me	-218
▁sono	-219
rio	-220
▁fi	-221
▁come	-222
ul	-223
mb	-224
as	-225
ali	-226
▁ha	-227
chi	-228
▁mo	-229
▁quel	-230
▁mi	-231
▁cos	-232
gu	-233
▁sp	-234
▁Il	-235
du	-236
sti	-237
sp	-238
▁li	-239
ando	-240
▁co	-241
▁pri	-242
▁gli	-243
ggi	-244
▁ad	-245
tura	-246
▁for	-247
▁O	-248
00	-249
ale	-250
etto	-251
▁sul	-252
▁pu	-253
ene	-254
▁.	-255
zia	-256
▁anche	-257
uto	-258
▁no	-259
▁Ma	-260
▁U	-261
▁In	-262
zz	-263
▁pos	-264
▁sc	-265
ven	-266
ne	-267
▁du	-268
▁all	-269
sta	-270
▁ed	-271
ren	-272
lu	-273
▁fu	-274
▁ar	-275
sso	-276
▁imp	-277
tali	-278
anno	-279
▁av	-280
uni	-281
▁nella	-282
▁col	-283
▁comp	-284
ggio	-285
etti	-286
bili	-287
▁19	-288
cu	-289
ed	-290
gno	-291
gni	-292
▁"	-293
tare	-294
fica	-295
▁dis	-296
are	-297
▁3	-298
tte	-299
gna	-300
▁ter	-301
tori	-302
▁Q	-303
per	-304
▁cor	-305
▁suo	-306
▁app	-307
um	-308
▁ess	-309
▁ta	-310
menti	-311
bile	-312
cco	-313
----	-314
glio	-315
▁cui	-316
▁prop	-317
▁inter	-318
▁ba	-319
▁ti	-320
gra	-321
tico	-322
tato	-323
▁to	-324
▁ai	-325
▁Ca	-326
▁chi	-327
sione	-328
ele	-329
ana	-330
▁questo	-331
anti	-332
▁parte	-333
▁H	-334
▁va	-335
▁Pa	-336
▁vol	-337
▁na	-338
▁Qu	-339
iamo	-340
▁mol	-341
▁sa	-342
▁Si	-343
ze	-344
....	-345
ziona	-346
▁Al	-347
▁ven	-348
endo	-349
esso	-350
res	-351
▁20	-352
rin	-353
glia	-354
mpo	-355
▁inf	-356
ella	-357
cor	-358
tica	-359
▁“	-360
zio	-361
▁gra	-362
▁Le	-363
▁pres	-364
▁essere	-365
ffi	-366
▁loro	-367
▁Di	-368
cio	-369
▁alle	-370
ssa	-371
ss	-372
▁Con	-373
▁4	-374
▁vo	-375
▁degli	-376
ge	-377
cca	-378
▁dalla	-379
ese	-380
ello	-381
▁ver	-382
ba	-383
▁sua	-384
pe	-385
etta	-386
enta	-387
▁ris	-388
),	-389
tt	-390
tore	-391
▁tro	-392
bo	-393
ur	-394
▁due	-395
tru	-396
ché	-397
▁Per	-398
dia	-399
dere	-400
bbe	-401
▁at	-402
).	-403
lare	-404
▁or	-405
anto	-406
bbli	-407
▁gen	-408
▁fe	-409
▁Se	-410
▁era	-411
▁prima	-412
essi	-413
▁por	-414
vano	-415
▁nuo	-416
▁gran	-417
▁J	-418
ron	-419
que	-420
▁An	-421
▁semp	-422
il	-423
▁5	-424
ante	-425
der	-426
gia	-427
gn	-428
vol	-429
▁pers	-430
▁Com	-431
▁mon	-432
ppo	-433
▁Re	-434
▁ro	-435
▁ste	-436
▁–	-437
zzo	-438
▁men	-439
▁ch	-440
▁anni	-441
elli	-442
▁acc	-443
▁gio	-444
dio	-445
ura	-446
tin	-447
man	-448
ena	-449
mma	-450
ste	-451
▁nos	-452
▁gior	-453
fa	-454
▁bi	-455
▁tutti	-456
▁«	-457
...	-458
sse	-459
pera	-460
sto	-461
▁*	-462
orma	-463
▁cre	-464
esti	-465
cen	-466
▁201	-467
lan	-468
mm	-469
uro	-470
tiva	-471
▁qual	-472
▁solo	-473
▁indi	-474
uti	-475
▁hanno	-476
colo	-477
▁qua	-478
ing	-479
sid	-480
▁W	-481
▁poi	-482
▁lavo	-483
▁fo	-484
▁ser	-485
cch	-486
▁alc	-487
▁sia	-488
▁fra	-489
cri	-490
ess	-491
▁conf	-492
une	-493
▁cer	-494
tr	-495
▁Gi	-496
▁man	-497
▁en	-498
▁questa	-499
uta	-500
▁Mi	-501
▁stato	-502
▁nell	-503
ette	-504
▁San	-505
▁quali	-506
▁può	-507
inis	-508
▁abb	-509
tante	-510
età	-511
esa	-512
essa	-513
▁tempo	-514
cato	-515
ttu	-516
cer	-517
cora	-518
▁lib	-519
▁Nel	-520
mpi	-521
st	-522
tter	-523
▁secon	-524
fo	-525
rie	-526
tivo	-527
▁tutto	-528
▁risp	-529
▁uno	-530
▁ogni	-531
▁far	-532
▁altri	-533
▁dopo	-534
▁6	-535
▁dire	-536
▁gu	-537
▁Pi	-538
zo	-539
▁spe	-540
ON	-541
▁sempre	-542
▁dall	-543
▁K	-544
▁stra	-545
gui	-546
pra	-547
▁ve	-548
▁;	-549
▁molto	-550
▁pubbli	-551
▁cen	-552
▁pen	-553
▁nei	-554
rono	-555
▁fon	-556
▁Vi	-557
olo	-558
▁car	-559
▁sulla	-560
via	-561
am	-562
eli	-563
▁diver	-564
esta	-565
ome	-566
▁quella	-567
pre	-568
▁quale	-569
▁nelle	-570
▁18	-571
osa	-572
▁pun	-573
▁'	-574
▁ave	-575
ffer	-576
fe	-577
▁vita	-578
▁200	-579
▁quello	-580
▁forma	-581
▁r	-582
indi	-583
▁cons	-584
▁os	-585
▁chia	-586
▁Mar	-587
cqu	-588
tati	-589
▁quando	-590
ccia	-591
oo	-592
▁Ri	-593
anza	-594
▁dove	-595
tale	-596
bilità	-597
elle	-598
lmente	-599
vità	-600
▁sos	-601
--------	-602
▁fatto	-603
tili	-604
elo	-605
▁Pro	-606
▁Ci	-607
▁contro	-608
toria	-609
rinci	-610
▁X	-611
ord	-612
▁stu	-613
▁prog	-614
tanto	-615
ane	-616
omen	-617
▁7	-618
▁via	-619
__	-620
cchi	-621
ER	-622
ei	-623
▁Non	-624
▁ancora	-625
ggia	-626
▁cir	-627
▁er	-628
▁sotto	-629
▁num	-630
▁senza	-631
pri	-632
▁così	-633
ttura	-634
▁modo	-635
▁:	-636
▁Sa	-637
tor	-638
▁mar	-639
▁atti	-640
zionale	-641
▁—	-642
▁sca	-643
cci	-644
▁•	-645
tanti	-646
inter	-647
dre	-648
rato	-649
▁parti	-650
rig	-651
▁9	-652
▁am	-653
▁quanto	-654
▁w	-655
mina	-656
▁rapp	-657
orto	-658
▁possi	-659
oma	-660
▁ten	-661
▁^	-662
▁Po	-663
omi	-664
talia	-665
▁persona	-666
▁poss	-667
▁rif	-668
ua	-669
gono	-670
omo	-671
ttà	-672
col	-673
▁già	-674
▁8	-675
una	-676
▁des	-677
▁can	-678
▁scri	-679
lità	-680
vere	-681
........	-682
▁princi	-683
▁Na	-684
▁ben	-685
▁sen	-686
gione	-687
ltre	-688
▁uni	-689
unque	-690
▁Ar	-691
tua	-692
tiche	-693
titu	-694
▁questi	-695
enze	-696
▁fare	-697
posi	-698
rito	-699
▁sco	-700
rare	-701
ggiun	-702
▁De	-703
▁aff	-704
▁bu	-705
▁So	-706
lla	-707
▁(1	-708
▁sopra	-709
▁dai	-710
tamente	-711
▁ho	-712
denti	-713
rà	-714
ghi	-715
▁sol	-716
▁lu	-717
▁au	-718
almente	-719
▁tre	-720
▁Fi	-721
erra	-722
II	-723
and	-724
▁tras	-725
▁Chi	-726
rante	-727
EN	-728
▁ini	-729
atti	-730
TI	-731
▁utili	-732
▁pia	-733
▁ese	-734
lio	-735
▁primo	-736
ck	-737
▁lun	-738
gio	-739
▁servi	-740
sia	-741
▁itali	-742
lica	-743
TO	-744
▁perché	-745
▁io	-746
▁Da	-747
▁grande	-748
rsi	-749
▁comuni	-750
lia	-751
zzi	-752
▁Li	-753
▁Un	-754
ssione	-755
gle	-756
▁trova	-757
▁Mon	-758
▁legg	-759
▁poli	-760
orta	-761
edi	-762
▁dov	-763
▁»	-764
erva	-765
uno	-766
▁fin	-767
▁vis	-768
▁No	-769
▁fino	-770
▁Fran	-771
ard	-772
etro	-773
lazione	-774
▁ga	-775
mon	-776
▁mondo	-777
esto	-778
ostra	-779
razione	-780
tivi	-781
clu	-782
anta	-783
▁esp	-784
▁viene	-785
mer	-786
▁Do	-787
sci	-788
▁sal	-789
▁auto	-790
vin	-791
dente	-792
▁allo	-793
chia	-794
tere	-795
▁Co	-796
osto	-797
▁spa	-798
ell	-799
ton	-800
▁Lo	-801
ure	-802
▁mis	-803
20	-804
▁stesso	-805
▁cri	-806
▁10	-807
zie	-808
ciale	-809
▁0	-810
▁giu	-811
▁sin	-812
▁proprio	-813
▁città	-814
ie	-815
▁rip	-816
ha	-817
▁stru	-818
▁tor	-819
usa	-820
osta	-821
mbre	-822
▁Ba	-823
▁disp	-824
zzazione	-825
▁bene	-826
▁suoi	-827
tive	-828
▁pe	-829
ort	-830
TA	-831
tten	-832
use	-833
▁altre	-834
▁go	-835
▁prof	-836
▁comple	-837
ber	-838
oso	-839
▁mor	-840
▁maggio	-841
▁dalle	-842
glie	-843
▁mani	-844
▁partico	-845
▁quindi	-846
▁dello	-847
sc	-848
▁conos	-849
▁volta	-850
gua	-851
▁siste	-852
▁tutte	-853
ad	-854
RI	-855
▁15	-856
▁succ	-857
tano	-858
▁el	-859
▁fami	-860
esse	-861
esco	-862
mpio	-863
▁secondo	-864
▁diven	-865
tina	-866
▁z	-867
cre	-868
usi	-869
▁ul	-870
▁cal	-871
care	-872
▁fun	-873
▁mai	-874
▁fine	-875
arà	-876
tici	-877
ulti	-878
▁opera	-879
▁contra	-880
▁is	-881
▁on	-882
▁popo	-883
LI	-884
gani	-885
▁eff	-886
▁lavoro	-887
▁Fa	-888
▁noi	-889
th	-890
pen	-891
trib	-892
▁passa	-893
tanza	-894
▁impor	-895
▁cara	-896
tazione	-897
▁mentre	-898
▁nec	-899
▁spi	-900
▁qui	-901
gen	-902
fia	-903
▁ele	-904
▁natura	-905
vilu	-906
van	-907
▁numero	-908
com	-909
ranno	-910
▁Ro	-911
▁j	-912
ea	-913
ble	-914
tion	-915
▁reali	-916
▁mili	-917
▁Car	-918
▁capi	-919
AN	-920
qui	-921
inistra	-922
▁segui	-923
▁altro	-924
▁genera	-925
▁lin	-926
▁picco	-927
tenza	-928
lari	-929
▁fuo	-930
▁tratta	-931
mpa	-932
lore	-933
▁attra	-934
smo	-935
▁regi	-936
▁stata	-937
▁luo	-938
▁fer	-939
▁contin	-940
▁nome	-941
val	-942
tino	-943
▁caso	-944
cere	-945
sie	-946
▁cla	-947
cità	-948
▁sti	-949
llo	-950
tando	-951
▁dom	-952
▁esi	-953
▁17	-954
ssimo	-955
▁Par	-956
▁Pre	-957
▁Ra	-958
▁mio	-959
zzare	-960
ose	-961
▁dice	-962
ciali	-963
▁agli	-964
▁Tu	-965
▁Mo	-966
gre	-967
▁lui	-968
▁Gio	-969
▁Dio	-970
▁ora	-971
▁cosa	-972
dica	-973
zzato	-974
teria	-975
▁È	-976
▁arri	-977
▁produ	-978
▁Z	-979
▁condi	-980
▁ciò	-981
▁super	-982
▁colle	-983
▁don	-984
▁aveva	-985
lato	-986
▁svilu	-987
▁alcuni	-988
cce	-989
▁tec	-990
bito	-991
▁deci	-992
verso	-993
EL	-994
▁tutta	-995
ggior	-996
▁Goo	-997
lano	-998
▁oltre	-999
▁giorno	-1000
▁sarà	-1001
sioni	-1002
▁ren	-1003
▁rappres	-1004
▁acqu	-1005
▁nuovo	-1006
▁possono	-1007
▁&	-1008
erie	-1009
dare	-1010
scia	-1011
▁by	-1012
tata	-1013
tolo	-1014
▁Roma	-1015
▁def	-1016
imp	-1017
▁cul	-1018
▁ricor	-1019
ttore	-1020
▁ved	-1021
bre	-1022
ho	-1023
▁verso	-1024
▁prodo	-1025
▁DI	-1026
▁16	-1027
it	-1028
rica	-1029
▁Tra	-1030
▁persone	-1031
▁però	-1032
▁sistema	-1033
for	-1034
omento	-1035
vole	-1036
▁fos	-1037
▁punto	-1038
▁Su	-1039
▁casa	-1040
▁ni	-1041
▁12	-1042
▁risul	-1043
▁loca	-1044
▁oggi	-1045
▁euro	-1046
▁Ne	-1047
▁consi	-1048
ffici	-1049
arsi	-1050
eno	-1051
tar	-1052
met	-1053
stitu	-1054
esi	-1055
▁conten	-1056
▁val	-1057
gue	-1058
RE	-1059
pu	-1060
ccio	-1061
▁tanto	-1062
".	-1063
▁scuo	-1064
orre	-1065
▁11	-1066
▁Lu	-1067
▁paro	-1068
fer	-1069
-1	-1070
cono	-1071
▁cu	-1072
▁molti	-1073
▁abi	-1074
tari	-1075
▁bamb	-1076
▁informa	-1077
mato	-1078
▁and	-1079
▁sue	-1080
▁medi	-1081
ture	-1082
▁inizia	-1083
▁erano	-1084
▁nostro	-1085
▁Col	-1086
stra	-1087
▁tri	-1088
▁qualche	-1089
▁Che	-1090
▁Google	-1091
be	-1092
▁pren	-1093
cro	-1094
iore	-1095
▁rin	-1096
arti	-1097
ll	-1098
▁Bi	-1099
▁aver	-1100
▁secolo	-1101
▁edi	-1102
▁anno	-1103
▁gru	-1104
▁199	-1105
vece	-1106
▁sor	-1107
▁meno	-1108
fici	-1109
gine	-1110
▁comune	-1111
ute	-1112
▁fre	-1113
▁storia	-1114
cita	-1115
ppa	-1116
cina	-1117
▁miglio	-1118
▁met	-1119
▁conte	-1120
▁stati	-1121
▁Italia	-1122
▁Ch	-1123
more	-1124
▁ricer	-1125
dato	-1126
ZI	-1127
▁14	-1128
guar	-1129
▁Uni	-1130
cazione	-1131
▁quelle	-1132
gh	-1133
uzione	-1134
sidera	-1135
▁pra	-1136
▁of	-1137
▁opp	-1138
▁Digi	-1139
RA	-1140
ghe	-1141
all	-1142
cchia	-1143
",	-1144
▁mer	-1145
▁speci	-1146
▁mia	-1147
chè	-1148
tria	-1149
ritorio	-1150
▁nuova	-1151
▁sicu	-1152
▁poco	-1153
dono	-1154
▁circa	-1155
zed	-1156
▁proble	-1157
▁Te	-1158
▁bas	-1159
sità	-1160
▁sare	-1161
▁giorni	-1162
▁sci	-1163
▁posi	-1164
▁durante	-1165
▁Cor	-1166
▁possibile	-1167
▁invece	-1168
▁et	-1169
lori	-1170
ft	-1171
▁y	-1172
▁op	-1173
▁rela	-1174
este	-1175
▁stori	-1176
▁orig	-1177
▁giov	-1178
▁assi	-1179
▁ani	-1180
▁ass	-1181
dini	-1182
onale	-1183
gere	-1184
”.	-1185
▁Ti	-1186
vero	-1187
rebbe	-1188
▁colla	-1189
ccu	-1190
cano	-1191
▁ins	-1192
▁term	-1193
▁que	-1194
▁attività	-1195
dine	-1196
▁sempli	-1197
▁organi	-1198
cietà	-1199
▁queste	-1200
sieme	-1201
▁ulti	-1202
▁Gli	-1203
▁the	-1204
▁diri	-1205
tero	-1206
▁potre	-1207
▁/	-1208
▁visi	-1209
poli	-1210
▁liv	-1211
▁perio	-1212
bbero	-1213
▁territorio	-1214
logi	-1215
inale	-1216
▁fonda	-1217
anda	-1218
spon	-1219
▁Cas	-1220
▁compa	-1221
coli	-1222
▁cli	-1223
ede	-1224
▁deve	-1225
▁k	-1226
▁sui	-1227
▁dif	-1228
denza	-1229
▁base	-1230
▁parteci	-1231
▁momento	-1232
ue	-1233
▁lega	-1234
▁crea	-1235
▁ore	-1236
▁quelli	-1237
____	-1238
▁Ga	-1239
lar	-1240
▁centro	-1241
eter	-1242
▁13	-1243
line	-1244
▁particolare	-1245
▁caratter	-1246
▁attraverso	-1247
▁entra	-1248
▁Una	-1249
▁negli	-1250
▁esempio	-1251
▁sulle	-1252
ppe	-1253
▁[	-1254
ire	-1255
cente	-1256
rata	-1257
▁materia	-1258
▁soli	-1259
ssima	-1260
ddi	-1261
▁fil	-1262
▁richi	-1263
▁‘	-1264
▁rispetto	-1265
▁incon	-1266
venti	-1267
LE	-1268
stica	-1269
▁nostra	-1270
▁presso	-1271
▁situa	-1272
▁seconda	-1273
▁ag	-1274
rico	-1275
▁porta	-1276
▁veri	-1277
▁conse	-1278
forma	-1279
▁Me	-1280
meno	-1281
▁necessa	-1282
zionali	-1283
▁principa	-1284
mici	-1285
eria	-1286
ii	-1287
▁rego	-1288
▁presenta	-1289
vare	-1290
▁asso	-1291
vato	-1292
tized	-1293
erà	-1294
▁ricon	-1295
▁Val	-1296
RO	-1297
uso	-1298
▁\	-1299
mbra	-1300
▁avere	-1301
gina	-1302
▁proc	-1303
▁arti	-1304
▁nas	-1305
▁bo	-1306
rre	-1307
vento	-1308
▁tuo	-1309
mar	-1310
est	-1311
▁>	-1312
▁costitu	-1313
▁quasi	-1314
▁ecc	-1315
▁infatti	-1316
ut	-1317
▁gover	-1318
▁egli	-1319
000	-1320
▁as	-1321
isce	-1322
cos	-1323
cra	-1324
▁off	-1325
trui	-1326
▁vin	-1327
vamente	-1328
▁luogo	-1329
▁corre	-1330
ttutto	-1331
sidente	-1332
▁volte	-1333
mana	-1334
den	-1335
▁inten	-1336
▁Ta	-1337
▁seguito	-1338
gnifica	-1339
SI	-1340
▁biso	-1341
▁pote	-1342
▁cultura	-1343
▁evi	-1344
▁Ver	-1345
▁ricerca	-1346
mministra	-1347
TE	-1348
▁Y	-1349
▁scel	-1350
▁Cos	-1351
LA	-1352
▁prote	-1353
▁asp	-1354
▁den	-1355
▁min	-1356
▁racc	-1357
fl	-1358
▁detto	-1359
▁senti	-1360
▁tale	-1361
▁guerra	-1362
▁musi	-1363
▁conta	-1364
▁mod	-1365
tate	-1366
corso	-1367
lle	-1368
▁progra	-1369
▁Come	-1370
▁Digitized	-1371
▁defini	-1372
▁grandi	-1373
versa	-1374
▁tipo	-1375
enda	-1376
usto	-1377
▁nu	-1378
▁?	-1379
▁cura	-1380
▁insieme	-1381
▁corso	-1382
rità	-1383
erci	-1384
▁raggiun	-1385
▁terra	-1386
▁sull	-1387
▁famiglia	-1388
▁otten	-1389
▁gui	-1390
▁Questo	-1391
ir	-1392
».	-1393
▁appro	-1394
▁line	-1395
▁camb	-1396
▁Ber	-1397
bra	-1398
▁progetto	-1399
.,	-1400
▁successi	-1401
▁svol	-1402
cchio	-1403
▁usa	-1404
▁rice	-1405
................	-1406
▁abbiamo	-1407
▁spesso	-1408
▁voi	-1409
▁primi	-1410
IN	-1411
omini	-1412
▁citta	-1413
eni	-1414
tel	-1415
▁econ	-1416
sce	-1417
▁soprattutto	-1418
ega	-1419
gne	-1420
▁causa	-1421
mano	-1422
▁(19	-1423
trice	-1424
----------------	-1425
zzata	-1426
▁gia	-1427
▁giorna	-1428
ttro	-1429
▁tradi	-1430
▁ide	-1431
▁modi	-1432
torno	-1433
ccol	-1434
▁Chiesa	-1435
▁considera	-1436
▁ambi	-1437
▁im	-1438
▁san	-1439
▁venne	-1440
▁tal	-1441
▁legge	-1442
onda	-1443
▁cio	-1444
▁scon	-1445
▁dim	-1446
▁diversi	-1447
▁)	-1448
teri	-1449
eo	-1450
▁alcune	-1451
altro	-1452
▁foto	-1453
▁morte	-1454
lli	-1455
▁gesti	-1456
▁propria	-1457
▁stessa	-1458
▁dati	-1459
▁cin	-1460
cendo	-1461
feri	-1462
ume	-1463
▁lungo	-1464
▁fran	-1465
▁scuola	-1466
▁significa	-1467
▁Cri	-1468
▁serie	-1469
terna	-1470
tario	-1471
ww	-1472
ttere	-1473
▁faci	-1474
▁lingua	-1475
app	-1476
IC	-1477
ONE	-1478
ari	-1479
rezza	-1480
▁tecni	-1481
▁posto	-1482
▁ex	-1483
▁Ni	-1484
iori	-1485
▁lascia	-1486
▁differ	-1487
▁periodo	-1488
▁paese	-1489
▁ov	-1490
▁aggiun	-1491
▁inte	-1492
▁Or	-1493
▁prece	-1494
acqu	-1495
▁mano	-1496
ulla	-1497
▁Milano	-1498
▁En	-1499
▁provin	-1500
tò	-1501
truzione	-1502
▁classi	-1503
mico	-1504
▁Vo	-1505
simo	-1506
▁segu	-1507
grafia	-1508
▁rappresenta	-1509
▁vari	-1510
▁Du	-1511
▁propri	-1512
▁anti	-1513
vono	-1514
IA	-1515
▁gruppo	-1516
▁pur	-1517
▁vero	-1518
▁grado	-1519
tente	-1520
interno	-1521
dice	-1522
▁civi	-1523
cin	-1524
▁raga	-1525
▁quo	-1526
▁bra	-1527
dro	-1528
▁ali	-1529
▁compi	-1530
▁para	-1531
altra	-1532
▁To	-1533
▁grazie	-1534
▁Bo	-1535
▁atten	-1536
▁sito	-1537
30	-1538
lus	-1539
mbi	-1540
telli	-1541
▁Ho	-1542
▁cose	-1543
▁II	-1544
▁vuo	-1545
**	-1546
▁198	-1547
”,	-1548
▁cres	-1549
dina	-1550
▁limi	-1551
▁livello	-1552
▁tele	-1553
ttori	-1554
▁sf	-1555
▁pes	-1556
tur	-1557
▁stan	-1558
▁Maria	-1559
▁ru	-1560
▁fosse	-1561
ty	-1562
stico	-1563
▁1.	-1564
▁ann	-1565
▁società	-1566
▁furono	-1567
Italia	-1568
▁sette	-1569
vvi	-1570
ass	-1571
▁corpo	-1572
fico	-1573
chio	-1574
au	-1575
cenza	-1576
▁Gra	-1577
▁Dal	-1578
par	-1579
car	-1580
1.	-1581
▁forte	-1582
▁cuo	-1583
▁!	-1584
ccupa	-1585
2.	-1586
▁Gu	-1587
▁capa	-1588
opera	-1589
▁ban	-1590
ppi	-1591
▁perchè	-1592
ai	-1593
▁Giovan	-1594
azione	-1595
▁sarebbe	-1596
▁Ad	-1597
logia	-1598
▁à	-1599
▁film	-1600
posizione	-1601
▁generale	-1602
▁economi	-1603
▁interna	-1604
▁DEL	-1605
rale	-1606
tuale	-1607
▁imma	-1608
▁aper	-1609
▁presente	-1610
ustria	-1611
▁reli	-1612
▁musica	-1613
OR	-1614
zze	-1615
▁fron	-1616
▁dagli	-1617
dita	-1618
▁servizio	-1619
▁30	-1620
▁maggior	-1621
vio	-1622
▁Dopo	-1623
ES	-1624
cche	-1625
▁favo	-1626
ranti	-1627
dendo	-1628
In	-1629
▁diverse	-1630
usti	-1631
▁mezzo	-1632
▁docu	-1633
ts	-1634
▁inse	-1635
▁vengono	-1636
orti	-1637
▁bambini	-1638
▁chiama	-1639
▁riconos	-1640
▁dav	-1641
cino	-1642
rati	-1643
stenza	-1644
pro	-1645
▁Bar	-1646
▁campo	-1647
▁raccon	-1648
▁avven	-1649
▁dato	-1650
len	-1651
▁quattro	-1652
▁parole	-1653
▁meglio	-1654
▁allora	-1655
▁25	-1656
zzati	-1657
tenti	-1658
ger	-1659
▁bre	-1660
bbi	-1661
ziale	-1662
▁letter	-1663
lata	-1664
duzione	-1665
▁For	-1666
▁rivol	-1667
▁Ser	-1668
▁IN	-1669
▁forni	-1670
▁vos	-1671
▁divi	-1672
anni	-1673
▁mostra	-1674
ttamente	-1675
▁pensa	-1676
omina	-1677
▁sosten	-1678
late	-1679
201	-1680
▁pubblica	-1681
▁importante	-1682
▁cambia	-1683
AR	-1684
▁anima	-1685
▁elet	-1686
▁ce	-1687
▁semplice	-1688
▁197	-1689
▁conc	-1690
▁Tor	-1691
▁appar	-1692
▁Sp	-1693
mia	-1694
▁dol	-1695
deo	-1696
anzia	-1697
▁programma	-1698
acc	-1699
dì	-1700
▁sembra	-1701
▁dia	-1702
▁Pri	-1703
▁diff	-1704
ggetti	-1705
onato	-1706
▁italiano	-1707
▁progetti	-1708
sero	-1709
eb	-1710
▁Giu	-1711
▁rius	-1712
▁sviluppo	-1713
▁campi	-1714
▁informazioni	-1715
onte	-1716
gare	-1717
altà	-1718
▁chiesa	-1719
lina	-1720
▁forza	-1721
▁strada	-1722
▁inol	-1723
▁partecipa	-1724
moni	-1725
ki	-1726
gato	-1727
▁ruo	-1728
tture	-1729
▁presenza	-1730
serva	-1731
▁senso	-1732
OM	-1733
des	-1734
0,	-1735
▁otto	-1736
ann	-1737
▁Go	-1738
2,	-1739
▁compren	-1740
▁riferi	-1741
ica	-1742
▁nostri	-1743
1,	-1744
▁peri	-1745
0.	-1746
dici	-1747
gliere	-1748
mane	-1749
rano	-1750
▁riguar	-1751
mu	-1752
▁pubblico	-1753
ordina	-1754
▁...	-1755
▁esa	-1756
▁ado	-1757
pol	-1758
▁meri	-1759
▁qualc	-1760
▁Euro	-1761
▁qualità	-1762
vata	-1763
▁testi	-1764
▁studio	-1765
mica	-1766
VI	-1767
unto	-1768
▁st	-1769
mani	-1770
entale	-1771
rò	-1772
3.	-1773
▁24	-1774
▁deter	-1775
▁libro	-1776
▁squ	-1777
▁realtà	-1778
▁disponi	-1779
▁fuori	-1780
▁segna	-1781
▁Giovanni	-1782
bietti	-1783
▁indivi	-1784
▁piano	-1785
▁apri	-1786
ris	-1787
centi	-1788
▁pare	-1789
▁Sal	-1790
▁Franc	-1791
▁Ha	-1792
uomo	-1793
min	-1794
bilmente	-1795
▁uomini	-1796
▁scor	-1797
▁collabo	-1798
▁tran	-1799
▁The	-1800
▁setti	-1801
▁cioè	-1802
▁Sono	-1803
▁ness	-1804
▁confer	-1805
▁supp	-1806
▁perm	-1807
▁troppo	-1808
▁fal	-1809
oste	-1810
▁noti	-1811
amo	-1812
tuali	-1813
uncia	-1814
▁■	-1815
▁vista	-1816
essione	-1817
▁vera	-1818
▁Io	-1819
▁ester	-1820
▁inoltre	-1821
mio	-1822
▁ind	-1823
▁fisi	-1824
▁avvi	-1825
media	-1826
▁Gran	-1827
▁europe	-1828
▁dichia	-1829
▁molte	-1830
▁giovani	-1831
▁affi	-1832
su	-1833
tana	-1834
▁prodotti	-1835
▁struttura	-1836
omia	-1837
▁bar	-1838
omma	-1839
at	-1840
▁forse	-1841
▁colo	-1842
ossi	-1843
lie	-1844
▁velo	-1845
▁2.	-1846
▁Jo	-1847
▁media	-1848
duto	-1849
bar	-1850
3,	-1851
▁bor	-1852
fiche	-1853
ggetto	-1854
▁previ	-1855
▁poter	-1856
▁quest	-1857
▁maggiore	-1858
▁Man	-1859
don	-1860
ettore	-1861
auto	-1862
▁dare	-1863
4.	-1864
dati	-1865
▁lettera	-1866
ficazione	-1867
▁uffi	-1868
tello	-1869
▁bian	-1870
▁siamo	-1871
▁detta	-1872
ssimi	-1873
tendo	-1874
▁possibilità	-1875
▁termine	-1876
▁Pu	-1877
rire	-1878
▁impe	-1879
ser	-1880
▁Nella	-1881
ito	-1882
▁quanti	-1883
dri	-1884
▁data	-1885
ista	-1886
▁politica	-1887
▁fia	-1888
▁commer	-1889
▁Ter	-1890
5.	-1891
▁196	-1892
gini	-1893
bri	-1894
ide	-1895
▁sei	-1896
▁Questa	-1897
mentare	-1898
unale	-1899
▁vir	-1900
missione	-1901
▁otti	-1902
▁problema	-1903
▁applica	-1904
gan	-1905
▁servizi	-1906
▁contrib	-1907
mbo	-1908
pia	-1909
▁prom	-1910
voli	-1911
▁presenti	-1912
▁istitu	-1913
▁luce	-1914
▁sì	-1915
▁lon	-1916
tezza	-1917
▁potrebbe	-1918
▁governo	-1919
▁zona	-1920
cola	-1921
▁tempi	-1922
▁vio	-1923
▁Colle	-1924
pagna	-1925
▁gioco	-1926
▁esperi	-1927
cle	-1928
▁pron	-1929
▁cia	-1930
8.	-1931
▁valore	-1932
||	-1933
gge	-1934
LO	-1935
▁respon	-1936
▁prepa	-1937
▁dunque	-1938
gnore	-1939
uri	-1940
▁costrui	-1941
▁capo	-1942
▁vedere	-1943
▁fini	-1944
5,	-1945
▁cele	-1946
▁Stato	-1947
dimento	-1948
6.	-1949
▁die	-1950
▁impre	-1951
ato	-1952
sola	-1953
esp	-1954
cati	-1955
pubbli	-1956
▁certo	-1957
▁Sta	-1958
cando	-1959
▁resta	-1960
▁mesi	-1961
▁lei	-1962
▁pol	-1963
▁cuore	-1964
▁Anche	-1965
cher	-1966
▁nuove	-1967
▁Ger	-1968
SA	-1969
▁preci	-1970
ZIONE	-1971
▁piu	-1972
▁Ges	-1973
▁Ale	-1974
▁figu	-1975
▁Va	-1976
▁Cen	-1977
▁perf	-1978
4,	-1979
▁titolo	-1980
▁ef	-1981
▁nello	-1982
▁guar	-1983
▁figli	-1984
▁confron	-1985
gioni	-1986
ke	-1987
▁parla	-1988
mai	-1989
net	-1990
pio	-1991
▁almeno	-1992
7.	-1993
▁successo	-1994
6,	-1995
versità	-1996
Uni	-1997
▁Stati	-1998
▁nazionale	-1999
8,	-2000
▁Quando	-2001
IO	-2002
▁Gia	-2003
▁nuovi	-2004
▁raccol	-2005
▁Can	-2006
An	-2007
▁effetti	-2008
udi	-2009
▁coin	-2010
arono	-2011
▁temp	-2012
▁responsa	-2013
▁produzione	-2014
▁pratica	-2015
chite	-2016
▁**	-2017
condo	-2018
▁opere	-2019
CA	-2020
CO	-2021
blio	-2022
▁pal	-2023
▁subito	-2024
▁frequ	-2025
▁cro	-2026
acqua	-2027
▁proce	-2028
▁are	-2029
7,	-2030
cr	-2031
unta	-2032
▁diritto	-2033
▁donne	-2034
9,	-2035
trale	-2036
▁trasp	-2037
meri	-2038
▁stre	-2039
ET	-2040
ph	-2041
▁padre	-2042
▁punti	-2043
▁proprie	-2044
vati	-2045
▁194	-2046
▁nove	-2047
▁fis	-2048
▁spazio	-2049
▁ospi	-2050
▁state	-2051
son	-2052
▁Rom	-2053
fon	-2054
▁simi	-2055
▁tua	-2056
poca	-2057
▁fronte	-2058
▁CA	-2059
ppia	-2060
ang	-2061
rando	-2062
▁mede	-2063
▁be	-2064
▁norma	-2065
▁desi	-2066
▁artico	-2067
9.	-2068
coltà	-2069
▁lan	-2070
▁professi	-2071
ssioni	-2072
gica	-2073
tini	-2074
lin	-2075
ende	-2076
turo	-2077
ciò	-2078
▁descri	-2079
▁dimostra	-2080
▁visto	-2081
▁continua	-2082
▁comin	-2083
ex	-2084
▁mini	-2085
naio	-2086
unità	-2087
▁x	-2088
▁pure	-2089
▁saranno	-2090
▁sap	-2091
anze	-2092
▁singo	-2093
▁comunque	-2094
▁pla	-2095
▁memo	-2096
▁sociale	-2097
▁manif	-2098
mera	-2099
▁sede	-2100
mare	-2101
La	-2102
vendo	-2103
▁Altri	-2104
mmi	-2105
▁atte	-2106
veni	-2107
▁partire	-2108
zienda	-2109
▁usci	-2110
▁invi	-2111
lati	-2112
umi	-2113
▁atto	-2114
ok	-2115
▁ori	-2116
▁mente	-2117
diale	-2118
▁figlio	-2119
▁prodotto	-2120
▁riso	-2121
ork	-2122
▁ur	-2123
▁provincia	-2124
▁stabili	-2125
▁milioni	-2126
▁sola	-2127
▁Bu	-2128
200	-2129
dino	-2130
▁libera	-2131
▁proba	-2132
cura	-2133
IS	-2134
bbra	-2135
▁siano	-2136
▁messa	-2137
MA	-2138
▁Santa	-2139
▁avrebbe	-2140
▁Gesù	-2141
▁ac	-2142
▁lavora	-2143
▁liber	-2144
▁<	-2145
▁effet	-2146
▁deri	-2147
lazzo	-2148
▁Consi	-2149
▁fru	-2150
▁ener	-2151
▁processo	-2152
ultimo	-2153
goni	-2154
▁formazione	-2155
▁=	-2156
arte	-2157
▁conclu	-2158
alle	-2159
ccasione	-2160
▁App	-2161
▁+	-2162
av	-2163
);	-2164
▁settembre	-2165
▁dip	-2166
▁presidente	-2167
▁tecno	-2168
▁corri	-2169
▁deli	-2170
ond	-2171
bu	-2172
vesti	-2173
data	-2174
mere	-2175
▁glo	-2176
▁tipi	-2177
▁Gre	-2178
▁fanno	-2179
▁osserva	-2180
▁personale	-2181
▁italiana	-2182
▁3.	-2183
etra	-2184
▁pensi	-2185
▁comunità	-2186
ly	-2187
▁giugno	-2188
▁caratteris	-2189
▁tanti	-2190
▁amministra	-2191
▁genere	-2192
▁fen	-2193
gano	-2194
▁tema	-2195
▁tar	-2196
NA	-2197
▁pochi	-2198
nova	-2199
▁Francesco	-2200
▁modifica	-2201
▁anzi	-2202
▁sicurezza	-2203
▁video	-2204
▁Carlo	-2205
▁donna	-2206
▁mercato	-2207
▁21	-2208
50	-2209
▁mare	-2210
▁testa	-2211
▁cap	-2212
▁conserva	-2213
▁affer	-2214
▁linea	-2215
▁mal	-2216
zzate	-2217
▁indica	-2218
▁avuto	-2219
▁acca	-2220
▁caratteri	-2221
▁esclu	-2222
▁pass	-2223
▁abbia	-2224
▁nulla	-2225
▁Inter	-2226
mentale	-2227
▁rima	-2228
▁filo	-2229
▁mino	-2230
▁volon	-2231
▁né	-2232
▁manten	-2233
▁LA	-2234
▁ge	-2235
▁Vene	-2236
▁Ste	-2237
versi	-2238
▁fir	-2239
▁male	-2240
▁uomo	-2241
▁principali	-2242
deva	-2243
▁dicembre	-2244
▁blo	-2245
lora	-2246
▁diffici	-2247
▁problemi	-2248
▁spiega	-2249
tesi	-2250
eti	-2251
▁sera	-2252
▁individu	-2253
taria	-2254
▁ultimi	-2255
ficio	-2256
▁pari	-2257
▁acquis	-2258
▁Fo	-2259
▁condizioni	-2260
▁consegu	-2261
▁asse	-2262
▁Dis	-2263
▁torna	-2264
mite	-2265
▁gre	-2266
▁meto	-2267
osti	-2268
▁importanti	-2269
▁Lui	-2270
▁dedica	-2271
▁varie	-2272
terà	-2273
▁moder	-2274
▁rappresen	-2275
▁trov	-2276
bus	-2277
▁Cre	-2278
▁casi	-2279
▁rete	-2280
cento	-2281
ffa	-2282
▁necessario	-2283
OS	-2284
ner	-2285
▁ruolo	-2286
pubblica	-2287
bbiamo	-2288
10	-2289
adra	-2290
▁meta	-2291
▁marzo	-2292
mata	-2293
▁Anton	-2294
▁fece	-2295
▁amici	-2296
mmo	-2297
▁determina	-2298
dità	-2299
ramente	-2300
anna	-2301
▁gennaio	-2302
▁sov	-2303
▁Tri	-2304
▁om	-2305
▁Francia	-2306
▁conto	-2307
▁buona	-2308
▁note	-2309
▁gioca	-2310
dotto	-2311
▁Fer	-2312
ardo	-2313
▁Ja	-2314
▁accor	-2315
▁movi	-2316
▁essi	-2317
▁fatti	-2318
les	-2319
onali	-2320
▁varia	-2321
▁situazione	-2322
ico	-2323
▁capacità	-2324
▁voce	-2325
▁posizione	-2326
▁fol	-2327
Ar	-2328
din	-2329
▁cel	-2330
▁associa	-2331
tone	-2332
▁luglio	-2333
ws	-2334
fra	-2335
▁giudi	-2336
▁occhi	-2337
▁trovare	-2338
siasi	-2339
▁Pietro	-2340
▁compet	-2341
▁quei	-2342
onica	-2343
▁cinque	-2344
-|	-2345
▁Monte	-2346
gico	-2347
▁mala	-2348
▁diffi	-2349
▁scelta	-2350
gente	-2351
▁finanzia	-2352
ef	-2353
▁vuole	-2354
▁bisogno	-2355
▁demo	-2356
▁Sc	-2357
orme	-2358
▁metà	-2359
mati	-2360
▁stagione	-2361
▁coinvol	-2362
samente	-2363
▁principale	-2364
▁Cer	-2365
11	-2366
▁essa	-2367
menta	-2368
________	-2369
▁percorso	-2370
▁intorno	-2371
tù	-2372
asso	-2373
▁valori	-2374
▁popolazione	-2375
▁alto	-2376
▁misura	-2377
lici	-2378
▁specie	-2379
▁moda	-2380
▁dise	-2381
ent	-2382
▁Imp	-2383
▁rile	-2384
vera	-2385
▁luoghi	-2386
▁registra	-2387
ostante	-2388
▁Via	-2389
▁atta	-2390
cal	-2391
monio	-2392
▁mas	-2393
▁22	-2394
▁Ed	-2395
▁fed	-2396
▁locali	-2397
duta	-2398
▁minis	-2399
uoi	-2400
▁terri	-2401
bbia	-2402
tile	-2403
▁Fra	-2404
▁stile	-2405
▁rifle	-2406
dito	-2407
▁Paolo	-2408
▁controllo	-2409
▁dimen	-2410
▁occupa	-2411
▁Gen	-2412
▁accom	-2413
CI	-2414
genza	-2415
▁dipen	-2416
▁ritro	-2417
▁possa	-2418
▁funziona	-2419
▁qualsiasi	-2420
▁Cla	-2421
▁vole	-2422
▁ottobre	-2423
▁rapporto	-2424
▁ir	-2425
▁buon	-2426
sco	-2427
▁Fu	-2428
ry	-2429
ka	-2430
ora	-2431
▁res	-2432
▁geni	-2433
enzia	-2434
▁vede	-2435
▁integra	-2436
▁ragione	-2437
▁piccolo	-2438
▁infer	-2439
▁maniera	-2440
▁ì	-2441
III	-2442
▁100	-2443
▁sud	-2444
illa	-2445
▁Ven	-2446
▁riferimento	-2447
▁riti	-2448
▁intro	-2449
▁distin	-2450
▁teo	-2451
▁Cal	-2452
▁studi	-2453
▁passato	-2454
gnor	-2455
▁riusci	-2456
▁compre	-2457
▁edu	-2458
▁breve	-2459
▁settore	-2460
▁condivi	-2461
▁offer	-2462
▁mese	-2463
▁destina	-2464
▁sensi	-2465
tagoni	-2466
ddis	-2467
▁nota	-2468
▁4.	-2469
▁Is	-2470
rlo	-2471
tus	-2472
ct	-2473
▁impa	-2474
perto	-2475
ciuto	-2476
cn	-2477
matica	-2478
▁fan	-2479
▁oppure	-2480
area	-2481
▁presen	-2482
▁ab	-2483
▁gestione	-2484
ware	-2485
▁storico	-2486
▁acqua	-2487
mos	-2488
▁guida	-2489
▁parola	-2490
gamenti	-2491
ficato	-2492
▁Signore	-2493
▁collo	-2494
vate	-2495
▁23	-2496
cana	-2497
▁disa	-2498
▁tali	-2499
ant	-2500
▁abitanti	-2501
ismo	-2502
inizio	-2503
▁potere	-2504
▁Giuse	-2505
▁cittadini	-2506
▁faccia	-2507
▁novembre	-2508
▁Del	-2509
▁identi	-2510
▁’	-2511
▁ada	-2512
▁comporta	-2513
▁ormai	-2514
//	-2515
▁preve	-2516
oren	-2517
▁fede	-2518
onia	-2519
▁notte	-2520
▁Napoli	-2521
▁rive	-2522
▁memb	-2523
reno	-2524
lando	-2525
bbraio	-2526
▁franc	-2527
▁Gior	-2528
rate	-2529
▁giun	-2530
▁classe	-2531
▁inclu	-2532
▁garanti	-2533
▁tramite	-2534
▁assa	-2535
anzi	-2536
▁studenti	-2537
▁naturale	-2538
uali	-2539
tera	-2540
▁tur	-2541
mentazione	-2542
Il	-2543
▁sce	-2544
▁devono	-2545
▁segre	-2546
▁$	-2547
▁sto	-2548
▁Comune	-2549
▁eserci	-2550
iscono	-2551
tui	-2552
▁madre	-2553
▁popolo	-2554
▁necessi	-2555
▁195	-2556
▁distrib	-2557
gri	-2558
gazione	-2559
qua	-2560
▁pace	-2561
▁aprile	-2562
tito	-2563
im	-2564
▁futuro	-2565
▁elementi	-2566
▁appena	-2567
▁stessi	-2568
▁italiani	-2569
▁locale	-2570
▁IS	-2571
creto	-2572
▁diritti	-2573
▁gro	-2574
▁squadra	-2575
▁ade	-2576
▁IL	-2577
gie	-2578
ment	-2579
▁riman	-2580
▁Itali	-2581
durre	-2582
▁testo	-2583
▁50	-2584
tidi	-2585
ler	-2586
▁poten	-2587
▁poiché	-2588
▁bri	-2589
▁minuti	-2590
▁CON	-2591
▁cristi	-2592
▁qualcosa	-2593
▁risultati	-2594
AL	-2595
▁Giuseppe	-2596
rente	-2597
▁dedi	-2598
tran	-2599
gnato	-2600
cò	-2601
id	-2602
▁risor	-2603
▁continu	-2604
ultima	-2605
▁scola	-2606
▁lavori	-2607
▁esterni	-2608
▁eh	-2609
▁consu	-2610
▁andare	-2611
ardi	-2612
▁speciali	-2613
zion	-2614
las	-2615
▁sostitu	-2616
utazione	-2617
▁mondiale	-2618
▁mos	-2619
▁belle	-2620
▁altra	-2621
▁Cristo	-2622
▁civile	-2623
larmente	-2624
remo	-2625
▁Secondo	-2626
cata	-2627
ficare	-2628
▁anali	-2629
▁Ris	-2630
useo	-2631
▁All	-2632
▁esso	-2633
clo	-2634
▁avevano	-2635
▁prime	-2636
▁versione	-2637
▁son	-2638
▁uso	-2639
▁digi	-2640
▁tan	-2641
▁vostro	-2642
land	-2643
▁Pal	-2644
▁div	-2645
detto	-2646
ondo	-2647
amp	-2648
▁fatta	-2649
▁inseri	-2650
▁davvero	-2651
tis	-2652
▁28	-2653
art	-2654
▁protagoni	-2655
▁Repubblica	-2656
▁resi	-2657
▁leggere	-2658
▁sociali	-2659
inf	-2660
▁fondo	-2661
▁Ge	-2662
▁Storia	-2663
trimonio	-2664
▁favore	-2665
▁Pia	-2666
▁Au	-2667
▁funzione	-2668
▁spetta	-2669
renze	-2670
ersi	-2671
▁viaggio	-2672
▁Bor	-2673
oro	-2674
▁Edi	-2675
▁rifi	-2676
▁sé	-2677
Al	-2678
vale	-2679
▁Ora	-2680
lino	-2681
▁equi	-2682
▁precedente	-2683
▁miei	-2684
▁Ino	-2685
▁trasforma	-2686
ttp	-2687
rere	-2688
camente	-2689
dr	-2690
attività	-2691
▁proprietà	-2692
▁scritto	-2693
▁web	-2694
▁feli	-2695
into	-2696
▁ordina	-2697
ciazione	-2698
ggiorna	-2699
erazione	-2700
▁Consiglio	-2701
▁lar	-2702
▁fase	-2703
▁tea	-2704
▁vicino	-2705
▁rica	-2706
▁27	-2707
▁permette	-2708
ati	-2709
▁Mol	-2710
DI	-2711
▁sper	-2712
▁26	-2713
ttare	-2714
▁autori	-2715
▁apparten	-2716
21	-2717
▁q	-2718
▁acco	-2719
▁strumenti	-2720
▁Alla	-2721
▁ciasc	-2722
▁francese	-2723
pren	-2724
tella	-2725
▁ingle	-2726
stiche	-2727
assa	-2728
ld	-2729
▁piedi	-2730
enna	-2731
▁prov	-2732
▁internazionale	-2733
▁Don	-2734
▁relazione	-2735
cla	-2736
▁obbli	-2737
▁inca	-2738
▁ferro	-2739
uter	-2740
▁memoria	-2741
NO	-2742
»,	-2743
ettare	-2744
▁modello	-2745
berto	-2746
▁riguarda	-2747
▁finale	-2748
▁bio	-2749
EG	-2750
▁prova	-2751
▁XX	-2752
▁spor	-2753
▁Note	-2754
biettivo	-2755
▁manifesta	-2756
cale	-2757
▁1,	-2758
▁abband	-2759
▁AL	-2760
▁difficoltà	-2761
▁imm	-2762
gata	-2763
▁affron	-2764
▁bella	-2765
▁vanta	-2766
nero	-2767
▁giusti	-2768
▁alta	-2769
▁stampa	-2770
ento	-2771
▁rapi	-2772
▁giovane	-2773
▁libertà	-2774
▁cine	-2775
tazioni	-2776
▁Tre	-2777
▁febbraio	-2778
://	-2779
utare	-2780
▁paesi	-2781
▁Uniti	-2782
▁conti	-2783
▁amm	-2784
CH	-2785
▁metri	-2786
▁tuttavia	-2787
▁ragazzi	-2788
▁interpre	-2789
▁veni	-2790
cip	-2791
▁famiglie	-2792
▁Inoltre	-2793
sima	-2794
▁XV	-2795
▁corrispon	-2796
zzando	-2797
▁strani	-2798
▁disposi	-2799
gamento	-2800
logo	-2801
!!	-2802
mba	-2803
▁piccoli	-2804
▁inn	-2805
vali	-2806
▁nè	-2807
▁campa	-2808
grafica	-2809
bli	-2810
▁é	-2811
▁PER	-2812
▁ebbe	-2813
ud	-2814
▁collaborazione	-2815
date	-2816
▁nostre	-2817
▁Pe	-2818
eso	-2819
utili	-2820
88	-2821
▁VI	-2822
▁Torino	-2823
▁riten	-2824
19	-2825
▁chied	-2826
tuto	-2827
tono	-2828
):	-2829
▁face	-2830
▁totale	-2831
▁us	-2832
▁bal	-2833
▁ono	-2834
▁cast	-2835
▁costruzione	-2836
▁comba	-2837
ja	-2838
▁carta	-2839
▁Be	-2840
▁rep	-2841
▁psi	-2842
▁Poi	-2843
▁III	-2844
▁strate	-2845
▁malatti	-2846
▁presta	-2847
▁voglia	-2848
▁età	-2849
▁giornali	-2850
tivamente	-2851
▁legi	-2852
▁comunale	-2853
▁direttamente	-2854
▁facendo	-2855
vista	-2856
▁permet	-2857
▁superiore	-2858
▁rispon	-2859
▁ottenere	-2860
▁creare	-2861
▁ricev	-2862
▁agg	-2863
▁certi	-2864
▁agosto	-2865
gati	-2866
▁ovvero	-2867
▁forme	-2868
edia	-2869
▁dra	-2870
inali	-2871
▁matt	-2872
▁regola	-2873
▁amp	-2874
▁tenta	-2875
▁batta	-2876
▁Cro	-2877
▁comincia	-2878
▁scena	-2879
escovo	-2880
▁confi	-2881
▁alb	-2882
▁compon	-2883
▁sfi	-2884
▁quell	-2885
▁contempo	-2886
▁Fed	-2887
▁conce	-2888
▁ucci	-2889
▁Vol	-2890
▁Antonio	-2891
tego	-2892
tanze	-2893
ou	-2894
isi	-2895
uale	-2896
▁ero	-2897
▁leggi	-2898
sca	-2899
dale	-2900
▁visita	-2901
labo	-2902
omenti	-2903
▁comunicazione	-2904
22	-2905
▁sviluppa	-2906
▁macch	-2907
▁Firenze	-2908
▁religi	-2909
ccor	-2910
▁Qui	-2911
▁soltanto	-2912
bato	-2913
▁epi	-2914
▁amore	-2915
colare	-2916
-19	-2917
▁31	-2918
ccato	-2919
▁som	-2920
ttosto	-2921
erico	-2922
▁lì	-2923
▁basa	-2924
rigi	-2925
centra	-2926
rai	-2927
▁avre	-2928
mania	-2929
▁interess	-2930
.)	-2931
diamo	-2932
cli	-2933
ambi	-2934
▁scienti	-2935
fto	-2936
▁rischio	-2937
▁MA	-2938
▁parlare	-2939
▁pag	-2940
ffe	-2941
▁libri	-2942
▁Ecco	-2943
uola	-2944
duce	-2945
▁dì	-2946
stici	-2947
mbe	-2948
80	-2949
MEN	-2950
usta	-2951
▁Prima	-2952
voluzione	-2953
▁disposizione	-2954
▁nar	-2955
monia	-2956
▁migliore	-2957
▁difficile	-2958
▁consa	-2959
lini	-2960
mail	-2961
▁coloro	-2962
dire	-2963
entemente	-2964
▁scopo	-2965
cilia	-2966
▁Mich	-2967
▁fanta	-2968
DA	-2969
datti	-2970
▁estre	-2971
oss	-2972
▁salute	-2973
▁nord	-2974
ania	-2975
arlo	-2976
▁terzo	-2977
idea	-2978
▁prezzo	-2979
SS	-2980
▁pazi	-2981
▁regia	-2982
ind	-2983
veri	-2984
tal	-2985
▁IV	-2986
▁lunga	-2987
ttoria	-2988
▁verità	-2989
▁scar	-2990
▁piazza	-2991
▁opport	-2992
ssand	-2993
▁piccola	-2994
▁ascol	-2995
▁conoscenza	-2996
miche	-2997
inte	-2998
▁mettere	-2999
▁29	-3000
▁XI	-3001
▁vas	-3002
▁Medi	-3003
tani	-3004
▁quotidi	-3005
▁bel	-3006
▁iscri	-3007
▁personali	-3008
DO	-3009
▁scuole	-3010
▁caratteristiche	-3011
▁essendo	-3012
▁origine	-3013
▁fenomen	-3014
onti	-3015
trà	-3016
▁poe	-3017
▁193	-3018
cani	-3019
▁là	-3020
▁40	-3021
▁centrale	-3022
▁onde	-3023
▁piuttosto	-3024
▁oggetti	-3025
▁Lib	-3026
ssime	-3027
cesi	-3028
resso	-3029
▁ama	-3030
▁inci	-3031
▁Stu	-3032
▁occasione	-3033
▁eli	-3034
▁ordine	-3035
inio	-3036
▁espre	-3037
erop	-3038
▁sinistra	-3039
▁bambino	-3040
▁tru	-3041
▁vivere	-3042
▁alcun	-3043
mor	-3044
▁sugg	-3045
▁turi	-3046
▁Sci	-3047
▁muo	-3048
posto	-3049
▁ries	-3050
MO	-3051
mministrazione	-3052
hn	-3053
dano	-3054
▁tempera	-3055
▁soddis	-3056
▁profi	-3057
non	-3058
▁tante	-3059
visi	-3060
▁lato	-3061
omenica	-3062
lazioni	-3063
▁„	-3064
▁eventi	-3065
org	-3066
▁quantità	-3067
▁investi	-3068
▁termini	-3069
ensa	-3070
▁dar	-3071
▁colpi	-3072
▁risultato	-3073
bio	-3074
▁appo	-3075
▁entro	-3076
▁animali	-3077
▁Bra	-3078
amore	-3079
mone	-3080
ensi	-3081
TU	-3082
vie	-3083
▁£	-3084
▁dallo	-3085
▁pericolo	-3086
▁New	-3087
▁concor	-3088
▁disse	-3089
▁piace	-3090
▁elettri	-3091
▁metodo	-3092
▁gravi	-3093
cini	-3094
ande	-3095
osso	-3096
▁Spi	-3097
▁online	-3098
unica	-3099
▁Er	-3100
▁immagini	-3101
ossa	-3102
▁seguenti	-3103
▁necessità	-3104
▁vie	-3105
▁sche	-3106
uito	-3107
▁gente	-3108
▁interessa	-3109
▁vostra	-3110
▁viol	-3111
▁gruppi	-3112
▁figura	-3113
▁davanti	-3114
▁prendere	-3115
▁cond	-3116
---|	-3117
▁avanti	-3118
▁sole	-3119
▁€	-3120
verno	-3121
▁forti	-3122
▁5.	-3123
60	-3124
tio	-3125
fatti	-3126
ranea	-3127
▁conqu	-3128
ko	-3129
▁forze	-3130
logie	-3131
▁convin	-3132
▁cerca	-3133
▁Biblio	-3134
▁femm	-3135
▁materiale	-3136
wa	-3137
▁diventa	-3138
▁accompagna	-3139
▁incontra	-3140
▁migliori	-3141
▁settimana	-3142
Euro	-3143
cial	-3144
▁roman	-3145
▁emer	-3146
▁mu	-3147
ggiare	-3148
▁domanda	-3149
can	-3150
▁esegui	-3151
▁Th	-3152
▁colore	-3153
▁pagina	-3154
▁destra	-3155
▁hai	-3156
▁Men	-3157
▁genitori	-3158
▁Fin	-3159
onati	-3160
▁facile	-3161
▁Ve	-3162
cole	-3163
▁Ang	-3164
▁numerosi	-3165
done	-3166
▁km	-3167
▁sepa	-3168
▁risposta	-3169
genti	-3170
bal	-3171
▁nomina	-3172
▁DE	-3173
▁Collegamenti	-3174
▁Europa	-3175
estro	-3176
▁file	-3177
▁costo	-3178
▁basso	-3179
zzano	-3180
epoca	-3181
onare	-3182
^^	-3183
ins	-3184
▁offre	-3185
ultura	-3186
12	-3187
▁effica	-3188
sio	-3189
glior	-3190
uzioni	-3191
perta	-3192
▁Andre	-3193
▁proveni	-3194
ranza	-3195
▁wi	-3196
▁risorse	-3197
▁modalità	-3198
▁Nell	-3199
▁arre	-3200
▁scom	-3201
▁crescita	-3202
▁sele	-3203
ers	-3204
ticolo	-3205
▁cosi	-3206
▁conn	-3207
▁belli	-3208
▁dà	-3209
▁Così	-3210
fie	-3211
▁villa	-3212
▁mina	-3213
▁impie	-3214
enne	-3215
▁pelle	-3216
tualmente	-3217
▁filoso	-3218
▁sinda	-3219
▁set	-3220
▁resid	-3221
assi	-3222
▁quar	-3223
ordine	-3224
tia	-3225
▁invia	-3226
▁fono	-3227
VA	-3228
▁Casa	-3229
mozione	-3230
▁crisi	-3231
ZA	-3232
▁Cu	-3233
▁(2	-3234
▁colori	-3235
/0	-3236
mpre	-3237
▁resto	-3238
▁gri	-3239
mentali	-3240
ratorio	-3241
▁riconosci	-3242
▁agi	-3243
▁dovrebbe	-3244
terno	-3245
NI	-3246
▁materiali	-3247
▁Ben	-3248
dotta	-3249
▁Regno	-3250
▁supera	-3251
▁fiume	-3252
conda	-3253
▁ameri	-3254
▁principio	-3255
ita	-3256
▁potrà	-3257
▁gara	-3258
▁consul	-3259
▁sistemi	-3260
▁movimento	-3261
▁fort	-3262
cali	-3263
▁caval	-3264
essere	-3265
▁af	-3266
▁dentro	-3267
▁raggiungere	-3268
▁fuoco	-3269
▁Mer	-3270
estre	-3271
▁parro	-3272
onico	-3273
▁Ru	-3274
▁Villa	-3275
▁massa	-3276
▁Alessand	-3277
dersi	-3278
▁percor	-3279
▁Poli	-3280
golo	-3281
▁Servi	-3282
▁utenti	-3283
attu	-3284
▁camm	-3285
▁Sul	-3286
▁Papa	-3287
▁PRO	-3288
esperi	-3289
▁discu	-3290
tum	-3291
▁richiesta	-3292
▁http	-3293
▁navi	-3294
▁Pas	-3295
fì	-3296
▁dietro	-3297
rali	-3298
isto	-3299
▁superfici	-3300
lea	-3301
imma	-3302
▁esser	-3303
▁immedia	-3304
▁vali	-3305
▁esclusi	-3306
▁culturale	-3307
cella	-3308
▁Minis	-3309
▁giornata	-3310
▁inglese	-3311
▁CO	-3312
nia	-3313
petto	-3314
▁bianco	-3315
/201	-3316
ete	-3317
▁beni	-3318
eratore	-3319
del	-3320
gari	-3321
▁insta	-3322
dizione	-3323
rore	-3324
ttiva	-3325
▁testimoni	-3326
PO	-3327
volta	-3328
▁moglie	-3329
teca	-3330
enso	-3331
stro	-3332
▁tito	-3333
▁azioni	-3334
telle	-3335
▁distanza	-3336
▁Terra	-3337
alto	-3338
▁Ogni	-3339
cy	-3340
op	-3341
▁pie	-3342
boli	-3343
cs	-3344
conomia	-3345
unt	-3346
raggio	-3347
▁utilizzare	-3348
inse	-3349
▁possiamo	-3350
▁complessi	-3351
▁Lin	-3352
▁recu	-3353
▁probabilmente	-3354
▁pian	-3355
▁conoscere	-3356
▁naturali	-3357
mità	-3358
lib	-3359
▁contenuti	-3360
ppure	-3361
▁schi	-3362
▁0,	-3363
▁ipo	-3364
▁Nuo	-3365
▁raff	-3366
▁Germania	-3367
enn	-3368
▁Gui	-3369
▁monta	-3370
book	-3371
▁mecc	-3372
▁numeri	-3373
▁sub	-3374
▁passo	-3375
▁192	-3376
▁maggiori	-3377
▁aree	-3378
▁effettua	-3379
▁danno	-3380
▁sapere	-3381
merica	-3382
mme	-3383
▁Tutta	-3384
rori	-3385
ttivo	-3386
metri	-3387
▁www	-3388
▁Venezia	-3389
40	-3390
ttato	-3391
▁tren	-3392
▁Era	-3393
rea	-3394
15	-3395
▁letto	-3396
▁piena	-3397
▁ripro	-3398
▁reale	-3399
Ma	-3400
▁sani	-3401
▁sale	-3402
▁arg	-3403
perti	-3404
▁nessuno	-3405
▁Stra	-3406
▁attenzione	-3407
▁Durante	-3408
fano	-3409
▁addi	-3410
▁Sant	-3411
▁even	-3412
▁Tro	-3413
▁attrib	-3414
gimento	-3415
▁didatti	-3416
▁sovra	-3417
ombar	-3418
ssero	-3419
gnare	-3420
▁tradizione	-3421
▁portare	-3422
▁sangue	-3423
▁Bolo	-3424
▁Marco	-3425
ettato	-3426
▁discip	-3427
▁ove	-3428
▁unico	-3429
▁dovuto	-3430
▁poteva	-3431
▁Luigi	-3432
▁verrà	-3433
▁Capi	-3434
▁On	-3435
▁trovano	-3436
cialmente	-3437
tì	-3438
▁portato	-3439
erale	-3440
ftware	-3441
▁corte	-3442
scono	-3443
arci	-3444
usso	-3445
▁catego	-3446
▁completamente	-3447
3)	-3448
bbio	-3449
▁interesse	-3450
ons	-3451
▁Santo	-3452
▁numer	-3453
venzione	-3454
▁Bene	-3455
▁Tutti	-3456
ya	-3457
▁ere	-3458
▁prose	-3459
▁oggetto	-3460
▁realizzazione	-3461
▁riserva	-3462
ggere	-3463
▁intra	-3464
usione	-3465
▁motivo	-3466
rina	-3467
▁cielo	-3468
▁fam	-3469
▁2012	-3470
▁speri	-3471
▁alcuna	-3472
sh	-3473
ONI	-3474
anche	-3475
lante	-3476
prire	-3477
TER	-3478
▁niente	-3479
▁lasci	-3480
▁accesso	-3481
die	-3482
▁esperienza	-3483
vola	-3484
▁massimo	-3485
▁Palazzo	-3486
▁industria	-3487
▁cellu	-3488
mando	-3489
entra	-3490
▁illus	-3491
▁2,	-3492
estra	-3493
▁%	-3494
▁aggiorna	-3495
eroporto	-3496
rus	-3497
teriore	-3498
ressi	-3499
▁nucle	-3500
▁nego	-3501
▁Dire	-3502
▁mette	-3503
wi	-3504
▁regione	-3505
▁organizza	-3506
posito	-3507
▁conso	-3508
▁partecipazione	-3509
▁Sch	-3510
▁trib	-3511
ee	-3512
▁Padre	-3513
▁SC	-3514
▁Egli	-3515
▁inizi	-3516
▁costi	-3517
▁espri	-3518
▁assolu	-3519
contro	-3520
▁infine	-3521
▁fortuna	-3522
▁intera	-3523
dra	-3524
alla	-3525
▁soluzione	-3526
▁pensiero	-3527
▁differenza	-3528
damento	-3529
▁recente	-3530
▁pubblici	-3531
bur	-3532
up	-3533
ddo	-3534
▁Presidente	-3535
-2	-3536
bba	-3537
ambiente	-3538
▁capire	-3539
▁raccolta	-3540
▁multi	-3541
visione	-3542
difica	-3543
uire	-3544
mentari	-3545
▁Alc	-3546
▁strumento	-3547
rne	-3548
ziende	-3549
udo	-3550
▁presto	-3551
▁Mor	-3552
canza	-3553
▁esiste	-3554
▁soggetti	-3555
asse	-3556
▁Ex	-3557
▁PA	-3558
▁ufficiale	-3559
volo	-3560
esperienza	-3561
▁giro	-3562
▁trasferi	-3563
▁sali	-3564
anco	-3565
▁gua	-3566
cine	-3567
▁medio	-3568
▁eletto	-3569
▁impi	-3570
▁provo	-3571
genze	-3572
▁scorso	-3573
▁fisica	-3574
bina	-3575
▁educa	-3576
ook	-3577
gnano	-3578
isola	-3579
▁nonostante	-3580
▁località	-3581
▁costante	-3582
▁carattere	-3583
▁bisogna	-3584
▁questione	-3585
Europa	-3586
gro	-3587
▁particolari	-3588
▁rico	-3589
▁chiamato	-3590
▁ritorno	-3591
▁risulta	-3592
aria	-3593
▁distru	-3594
▁risol	-3595
derà	-3596
▁Spa	-3597
▁evitare	-3598
▁{	-3599
▁Sar	-3600
crizione	-3601
▁Ju	-3602
▁case	-3603
▁rendere	-3604
fti	-3605
▁noto	-3606
▁Es	-3607
▁appare	-3608
▁partito	-3609
trici	-3610
▁ritor	-3611
▁pom	-3612
▁disponibile	-3613
mini	-3614
donna	-3615
rla	-3616
▁influ	-3617
detta	-3618
▁bru	-3619
▁Società	-3620
EC	-3621
▁pr	-3622
▁camp	-3623
▁labo	-3624
▁rie	-3625
▁mira	-3626
▁membri	-3627
▁umani	-3628
▁El	-3629
essore	-3630
▁incontro	-3631
▁Bea	-3632
▁candi	-3633
stituto	-3634
▁venti	-3635
▁provve	-3636
▁rende	-3637
▁Ce	-3638
▁cur	-3639
ill	-3640
▁feri	-3641
▁concer	-3642
▁velocità	-3643
▁aspetti	-3644
wn	-3645
gnia	-3646
▁gener	-3647
▁particolarmente	-3648
rno	-3649
▁telef	-3650
ffo	-3651
▁urb	-3652
▁concentra	-3653
70	-3654
vile	-3655
▁partecip	-3656
▁scher	-3657
▁battaglia	-3658
▁tedes	-3659
▁post	-3660
ting	-3661
▁prosp	-3662
▁Vin	-3663
▁stand	-3664
▁Paese	-3665
▁dolce	-3666
biettivi	-3667
PA	-3668
▁vanno	-3669
▁papa	-3670
cché	-3671
▁fondamentale	-3672
▁colon	-3673
▁emo	-3674
▁Questi	-3675
▁circos	-3676
▁est	-3677
▁consenti	-3678
▁Ai	-3679
bbene	-3680
▁Città	-3681
come	-3682
je	-3683
▁idee	-3684
▁AN	-3685
pole	-3686
bil	-3687
▁potuto	-3688
terra	-3689
▁2014	-3690
▁1’	-3691
eserci	-3692
▁personaggi	-3693
TTO	-3694
ung	-3695
ces	-3696
▁pensare	-3697
ambito	-3698
▁politico	-3699
▁Parigi	-3700
▁Princi	-3701
▁2013	-3702
▁direzione	-3703
▁genti	-3704
dor	-3705
fta	-3706
liano	-3707
www	-3708
▁vicen	-3709
▁castello	-3710
▁confronti	-3711
gl	-3712
▁princip	-3713
▁COM	-3714
▁svilupp	-3715
fre	-3716
▁stanno	-3717
▁Oggi	-3718
▁rimane	-3719
▁passi	-3720
anca	-3721
▁ispi	-3722
▁auton	-3723
▁antichi	-3724
▁lettura	-3725
▁ancor	-3726
▁Bri	-3727
▁mura	-3728
▁Bologna	-3729
▁cru	-3730
▁Grazie	-3731
▁fua	-3732
dite	-3733
▁ogn	-3734
ji	-3735
▁festa	-3736
▁aziende	-3737
▁militare	-3738
▁pio	-3739
▁disponibili	-3740
vazione	-3741
riera	-3742
Or	-3743
▁ripre	-3744
▁arriva	-3745
▁utile	-3746
▁nonché	-3747
▁dina	-3748
▁chiaro	-3749
▁superficie	-3750
▁sino	-3751
▁dimensioni	-3752
▁computer	-3753
cque	-3754
▁preso	-3755
▁Fili	-3756
dy	-3757
▁Pla	-3758
▁assai	-3759
▁studia	-3760
stente	-3761
mula	-3762
gendo	-3763
▁messo	-3764
▁simile	-3765
▁principi	-3766
▁zu	-3767
anima	-3768
name	-3769
▁vive	-3770
pevole	-3771
razioni	-3772
▁virtù	-3773
ziali	-3774
erato	-3775
organi	-3776
▁spirito	-3777
turi	-3778
▁secoli	-3779
▁th	-3780
▁dedicato	-3781
atto	-3782
sizione	-3783
▁costru	-3784
▁illu	-3785
▁dieci	-3786
mate	-3787
gar	-3788
▁politiche	-3789
▁avendo	-3790
▁lunghe	-3791
▁conver	-3792
lamento	-3793
cchie	-3794
▁pubblicato	-3795
▁piani	-3796
▁posta	-3797
▁appre	-3798
▁strutture	-3799
▁tecniche	-3800
▁tratto	-3801
▁dimenti	-3802
uol	-3803
▁passaggio	-3804
PI	-3805
▁ricos	-3806
▁legno	-3807
▁carica	-3808
▁Tuttavia	-3809
▁campagna	-3810
▁cari	-3811
▁mona	-3812
gliato	-3813
▁Provin	-3814
mila	-3815
▁Qual	-3816
▁Sco	-3817
simi	-3818
unti	-3819
ccare	-3820
▁vendita	-3821
fu	-3822
▁energia	-3823
▁Spe	-3824
▁seguente	-3825
4)	-3826
▁ò	-3827
▁mie	-3828
trò	-3829
▁acce	-3830
sla	-3831
ratori	-3832
▁azienda	-3833
BI	-3834
indo	-3835
▁#	-3836
▁deciso	-3837
▁aspetta	-3838
cenze	-3839
▁aiuta	-3840
allo	-3841
▁Museo	-3842
▁gas	-3843
sì	-3844
US	-3845
onimo	-3846
▁esse	-3847
MI	-3848
▁originale	-3849
▁capitale	-3850
▁John	-3851
▁Nazionale	-3852
lice	-3853
▁funzioni	-3854
▁interno	-3855
▁Scri	-3856
▁responsabilità	-3857
▁nega	-3858
▁indiri	-3859
▁armi	-3860
CC	-3861
▁elettr	-3862
▁dir	-3863
▁volontà	-3864
bita	-3865
▁prende	-3866
▁perciò	-3867
fficiente	-3868
▁catto	-3869
▁libero	-3870
▁2011	-3871
▁interventi	-3872
teriori	-3873
inta	-3874
▁sezione	-3875
▁Ka	-3876
ample	-3877
▁imprese	-3878
▁Centro	-3879
evi	-3880
ttima	-3881
rone	-3882
▁2015	-3883
▁tuoi	-3884
coni	-3885
▁diventare	-3886
▁innova	-3887
ader	-3888
jo	-3889
und	-3890
▁supporto	-3891
cie	-3892
▁riuni	-3893
VO	-3894
▁archite	-3895
▁Ferra	-3896
▁contatto	-3897
▁economico	-3898
viamente	-3899
▁cucina	-3900
▁regionale	-3901
stono	-3902
vid	-3903
▁6.	-3904
▁Madonna	-3905
▁fabb	-3906
▁spiri	-3907
▁ripor	-3908
tela	-3909
riamente	-3910
▁peso	-3911
▁umana	-3912
lico	-3913
▁edizione	-3914
▁denomina	-3915
▁utilizzato	-3916
example	-3917
fr	-3918
lub	-3919
▁segno	-3920
▁esten	-3921
▁riporta	-3922
monte	-3923
andosi	-3924
▁codice	-3925
▁numerose	-3926
▁software	-3927
▁farma	-3928
▁incre	-3929
▁ric	-3930
▁terza	-3931
90	-3932
▁decreto	-3933
▁alterna	-3934
▁proposta	-3935
int	-3936
▁regole	-3937
bia	-3938
Università	-3939
▁Ciò	-3940
▁veramente	-3941
45	-3942
stname	-3943
▁dedicata	-3944
▁nero	-3945
▁mone	-3946
▁antica	-3947
utilizzo	-3948
▁Mis	-3949
▁risa	-3950
▁avete	-3951
▁trovato	-3952
▁massima	-3953
ht	-3954
▁Quindi	-3955
▁indipen	-3956
gici	-3957
cerdo	-3958
▁Conte	-3959
▁rosso	-3960
▁quarti	-3961
eranno	-3962
▁pieno	-3963
▁prossimo	-3964
▁Oltre	-3965
▁mezzi	-3966
▁valutazione	-3967
▁signo	-3968
▁modelli	-3969
tretto	-3970
▁vesti	-3971
esia	-3972
▁Santi	-3973
▁lor	-3974
astanza	-3975
▁desider	-3976
▁umano	-3977
▁nato	-3978
▁capp	-3979
▁perfetta	-3980
▁vittoria	-3981
▁termina	-3982
▁documenti	-3983
▁lettere	-3984
▁piane	-3985
▁cento	-3986
UN	-3987
▁posti	-3988
▁domenica	-3989
▁SI	-3990
▁Geno	-3991
▁micro	-3992
▁ecce	-3993
ED	-3994
▁60	-3995
▁occi	-3996
▁grave	-3997
▁Pres	-3998
▁abbi	-3999
guardo	-4000
▁passare	-4001
▁piccole	-4002
matico	-4003
ciano	-4004
▁Av	-4005
▁lancia	-4006
▁sfru	-4007
▁vorre	-4008
▁uo	-4009
▁Wil	-4010
stru	-4011
▁Sol	-4012
ster	-4013
▁2016	-4014
▁regno	-4015
gresso	-4016
guard	-4017
▁frazione	-4018
▁amico	-4019
▁Auto	-4020
▁condizione	-4021
▁mus	-4022
▁rega	-4023
anità	-4024
▁racco	-4025
▁Bal	-4026
▁zone	-4027
uer	-4028
onde	-4029
▁fiori	-4030
▁solle	-4031
fera	-4032
▁dio	-4033
duti	-4034
scri	-4035
▁Europe	-4036
▁aperto	-4037
▁sconfi	-4038
▁insegn	-4039
▁sess	-4040
▁prese	-4041
▁soste	-4042
▁finalmente	-4043
▁Sin	-4044
toni	-4045
ssociazione	-4046
rendi	-4047
▁consiglio	-4048
by	-4049
▁ria	-4050
▁straordina	-4051
▁dep	-4052
▁appunto	-4053
▁za	-4054
▁Sh	-4055
▁figlia	-4056
▁mate	-4057
▁Tutto	-4058
▁tecnica	-4059
ficata	-4060
▁sala	-4061
▁merito	-4062
ket	-4063
▁diretto	-4064
▁Perché	-4065
endere	-4066
bella	-4067
▁protagonista	-4068
▁ana	-4069
▁At	-4070
▁usare	-4071
isco	-4072
ker	-4073
▁abbastanza	-4074
▁8.	-4075
llare	-4076
▁reci	-4077
▁chiu	-4078
▁qualcuno	-4079
▁nomi	-4080
liare	-4081
▁acque	-4082
▁2010	-4083
mò	-4084
▁caccia	-4085
▁realizzare	-4086
▁competenze	-4087
fc	-4088
▁piacere	-4089
cate	-4090
SO	-4091
ens	-4092
tn	-4093
toriale	-4094
▁batter	-4095
18	-4096
vel	-4097
▁preferi	-4098
impor	-4099
▁Let	-4100
78	-4101
▁mera	-4102
▁qualunque	-4103
pore	-4104
atten	-4105
▁difesa	-4106
▁sottoline	-4107
▁rila	-4108
▁inc	-4109
▁sfor	-4110
▁dan	-4111
dotti	-4112
ky	-4113
▁estra	-4114
▁verde	-4115
▁facilmente	-4116
▁cr	-4117
▁stelle	-4118
▁ecco	-4119
TTI	-4120
▁livelli	-4121
▁tenere	-4122
▁Inf	-4123
enziale	-4124
▁promuo	-4125
▁correlate	-4126
▁realizzato	-4127
▁Emi	-4128
ple	-4129
▁protezione	-4130
rli	-4131
▁tess	-4132
▁Wi	-4133
▁sosteni	-4134
▁torn	-4135
▁origina	-4136
▁vale	-4137
occupa	-4138
▁prevede	-4139
mamente	-4140
▁cata	-4141
▁coper	-4142
▁impedi	-4143
▁ella	-4144
▁complesso	-4145
var	-4146
gin	-4147
▁effetto	-4148
▁avver	-4149
▁disco	-4150
▁Contin	-4151
▁rapporti	-4152
gante	-4153
▁contesto	-4154
▁simili	-4155
▁nascita	-4156
▁acquisi	-4157
▁contrario	-4158
▁Qua	-4159
▁poche	-4160
▁assicu	-4161
autore	-4162
▁mangia	-4163
▁giusto	-4164
▁approfon	-4165
▁macchina	-4166
▁oli	-4167
▁fossero	-4168
ves	-4169
▁unità	-4170
▁miglior	-4171
hia	-4172
▁dovrà	-4173
▁guer	-4174
▁diretta	-4175
▁perse	-4176
▁35	-4177
▁adegua	-4178
fficio	-4179
▁vino	-4180
▁sport	-4181
▁arrivare	-4182
articolo	-4183
16	-4184
dar	-4185
25	-4186
▁europea	-4187
▁calcio	-4188
▁obiettivi	-4189
▁Rus	-4190
▁comm	-4191
▁Ele	-4192
▁Andrea	-4193
▁avrà	-4194
▁vennero	-4195
▁umi	-4196
mber	-4197
xi	-4198
▁Bre	-4199
▁fratello	-4200
▁bus	-4201
▁Nord	-4202
▁interro	-4203
▁sugli	-4204
▁©	-4205
▁economica	-4206
▁Comuni	-4207
▁coordina	-4208
▁iso	-4209
▁semi	-4210
▁avesse	-4211
▁Super	-4212
▁formato	-4213
▁nazionali	-4214
▁Mas	-4215
▁personaggio	-4216
▁Chia	-4217
▁3,	-4218
▁ugu	-4219
ps	-4220
hat	-4221
▁succe	-4222
▁radio	-4223
▁basta	-4224
▁arte	-4225
pero	-4226
▁corsi	-4227
▁Pie	-4228
▁avanza	-4229
gr	-4230
▁As	-4231
▁parrocchia	-4232
▁LI	-4233
▁Fe	-4234
bale	-4235
GI	-4236
▁Sil	-4237
▁Cap	-4238
14	-4239
torio	-4240
vizz	-4241
▁certa	-4242
99	-4243
dis	-4244
▁somma	-4245
▁mediante	-4246
▁precedenti	-4247
▁femmini	-4248
▁dovre	-4249
▁linee	-4250
▁conseguenza	-4251
▁bos	-4252
▁mille	-4253
35	-4254
▁186	-4255
azienda	-4256
▁procedu	-4257
▁diverso	-4258
▁volume	-4259
ducia	-4260
ergia	-4261
▁este	-4262
cì	-4263
▁ammi	-4264
▁semplici	-4265
▁ap	-4266
▁det	-4267
▁sicuramente	-4268
▁paura	-4269
tional	-4270
▁medico	-4271
▁articolo	-4272
▁consigli	-4273
▁seguire	-4274
▁completa	-4275
zialmente	-4276
▁documento	-4277
▁pagine	-4278
▁campionato	-4279
▁puli	-4280
▁semplicemente	-4281
▁cosid	-4282
ori	-4283
BN	-4284
▁incom	-4285
rci	-4286
▁voluto	-4287
▁siti	-4288
▁Voi	-4289
▁spazi	-4290
▁giochi	-4291
▁scrivere	-4292
▁trattamento	-4293
venire	-4294
▁fri	-4295
▁lavorare	-4296
▁sba	-4297
▁fotogra	-4298
▁vecchio	-4299
▁rispetti	-4300
orig	-4301
mine	-4302
▁linguaggio	-4303
▁composto	-4304
▁Cara	-4305
immagine	-4306
CE	-4307
ore	-4308
▁conosci	-4309
▁sostegno	-4310
testo	-4311
ormi	-4312
uma	-4313
▁miglia	-4314
▁Valle	-4315
▁Et	-4316
fle	-4317
tire	-4318
▁pens	-4319
▁lotta	-4320
7)	-4321
▁Voci	-4322
▁rea	-4323
.000	-4324
▁ing	-4325
▁giar	-4326
▁speciale	-4327
▁dolore	-4328
gate	-4329
unni	-4330
▁autore	-4331
interesse	-4332
▁divenne	-4333
▁Nei	-4334
▁durata	-4335
tes	-4336
▁vn	-4337
▁terreno	-4338
lievo	-4339
▁porto	-4340
ction	-4341
▁riguardo	-4342
▁inferiore	-4343
▁veloce	-4344
Unione	-4345
nali	-4346
▁ponte	-4347
▁autorità	-4348
▁riguard	-4349
▁Bel	-4350
▁Regione	-4351
▁Sicilia	-4352
esca	-4353
▁mattina	-4354
▁successivamente	-4355
▁spese	-4356
▁bol	-4357
▁igno	-4358
▁medie	-4359
▁Internet	-4360
▁teatro	-4361
▁gratui	-4362
dd	-4363
▁nasce	-4364
estival	-4365
▁effettu	-4366
▁creazione	-4367
isti	-4368
▁Fre	-4369
▁contenuto	-4370
▁confli	-4371
▁vet	-4372
▁insi	-4373
▁afferma	-4374
▁farà	-4375
▁scegliere	-4376
▁modu	-4377
▁successivo	-4378
▁Spagna	-4379
▁canz	-4380
essero	-4381
▁cm	-4382
▁chiamata	-4383
▁verifica	-4384
antica	-4385
▁malattia	-4386
cuzione	-4387
▁monu	-4388
▁ger	-4389
mbolo	-4390
▁presti	-4391
inten	-4392
13	-4393
onata	-4394
ppone	-4395
damente	-4396
▁concetto	-4397
▁dubbio	-4398
usse	-4399
▁esigenze	-4400
RIA	-4401
▁Più	-4402
fare	-4403
▁pietra	-4404
stere	-4405
▁moto	-4406
▁relazioni	-4407
▁ministro	-4408
▁consente	-4409
▁Gro	-4410
anali	-4411
tena	-4412
iste	-4413
▁farlo	-4414
▁Pol	-4415
▁anch	-4416
▁ei	-4417
23	-4418
▁notizia	-4419
▁governa	-4420
modifica	-4421
tutto	-4422
▁danni	-4423
▁basi	-4424
mpe	-4425
▁monte	-4426
▁strade	-4427
▁corrente	-4428
▁DELLA	-4429
▁notizie	-4430
▁inda	-4431
eme	-4432
tudine	-4433
▁giustizia	-4434
ANO	-4435
▁occ	-4436
▁Giorgio	-4437
▁commi	-4438
▁usato	-4439
▁riesce	-4440
▁morti	-4441
▁Alessandro	-4442
▁Alle	-4443
▁potrebbero	-4444
arri	-4445
▁Mario	-4446
▁tecnologia	-4447
▁Sca	-4448
▁contratto	-4449
▁momenti	-4450
▁He	-4451
▁Oli	-4452
▁schia	-4453
bert	-4454
▁celeb	-4455
▁antico	-4456
▁democra	-4457
vamo	-4458
▁speranza	-4459
▁Br	-4460
▁standard	-4461
cheolo	-4462
gos	-4463
▁potenza	-4464
▁clima	-4465
▁cas	-4466
6)	-4467
▁elabo	-4468
▁clienti	-4469
24	-4470
▁risto	-4471
Le	-4472
▁valle	-4473
▁Je	-4474
▁posso	-4475
▁pena	-4476
*,	-4477
▁Scuola	-4478
▁coi	-4479
▁dirig	-4480
▁entrare	-4481
▁Gal	-4482
▁Gru	-4483
▁190	-4484
▁Ces	-4485
▁fonte	-4486
▁stesse	-4487
nità	-4488
▁occu	-4489
ux	-4490
▁Premio	-4491
mori	-4492
▁impro	-4493
▁bilan	-4494
▁CH	-4495
▁chiede	-4496
▁Tea	-4497
▁guada	-4498
giche	-4499
ong	-4500
▁Fonda	-4501
▁preghi	-4502
▁SU	-4503
▁pilo	-4504
urro	-4505
▁palazzo	-4506
▁alti	-4507
ìa	-4508
▁entrambi	-4509
omet	-4510
▁visione	-4511
como	-4512
▁geo	-4513
▁impegna	-4514
ttan	-4515
▁militari	-4516
▁fissa	-4517
▁moni	-4518
▁Interna	-4519
▁centri	-4520
rendimento	-4521
▁fres	-4522
▁soddisfa	-4523
▁lontano	-4524
▁condu	-4525
▁Cha	-4526
trali	-4527
▁spia	-4528
▁Corte	-4529
▁pertanto	-4530
rti	-4531
▁credo	-4532
▁test	-4533
▁Luca	-4534
▁coltiva	-4535
▁cercare	-4536
tine	-4537
▁Tur	-4538
2)	-4539
▁como	-4540
▁emi	-4541
▁fenomeno	-4542
▁minore	-4543
▁disciplina	-4544
▁soluzioni	-4545
▁sve	-4546
▁soggetto	-4547
▁esperienze	-4548
logico	-4549
▁scrive	-4550
ettori	-4551
uli	-4552
▁responsabile	-4553
▁romana	-4554
minare	-4555
dimenti	-4556
vello	-4557
gore	-4558
▁traccia	-4559
▁carne	-4560
▁episo	-4561
enato	-4562
▁pel	-4563
-3	-4564
mobili	-4565
gliare	-4566
▁significato	-4567
anis	-4568
▁annuncia	-4569
▁ISBN	-4570
▁ultimo	-4571
▁Due	-4572
▁decora	-4573
▁Des	-4574
fio	-4575
cus	-4576
▁AR	-4577
▁stimo	-4578
▁7.	-4579
stato	-4580
▁33	-4581
▁camera	-4582
▁componenti	-4583
▁sacri	-4584
▁tranqu	-4585
▁carico	-4586
dore	-4587
▁rispar	-4588
obiettivo	-4589
▁sel	-4590
unico	-4591
indows	-4592
ettazione	-4593
▁processi	-4594
▁2009	-4595
▁quadro	-4596
tuni	-4597
▁prove	-4598
▁sequ	-4599
▁partita	-4600
▁QU	-4601
▁dott	-4602
▁Commissione	-4603
▁inva	-4604
ordo	-4605
orno	-4606
pet	-4607
▁silen	-4608
dentale	-4609
▁operazioni	-4610
▁tecnico	-4611
Qu	-4612
▁Lombar	-4613
renti	-4614
▁chiave	-4615
▁commerciali	-4616
▁fl	-4617
▁domande	-4618
▁considerato	-4619
detti	-4620
cante	-4621
▁attorno	-4622
trin	-4623
fal	-4624
▁pale	-4625
attuale	-4626
▁professioni	-4627
▁Noi	-4628
17	-4629
▁pas	-4630
▁Cli	-4631
inge	-4632
tranno	-4633
▁Tren	-4634
▁voglio	-4635
▁motivi	-4636
angelo	-4637
mentato	-4638
▁Gar	-4639
mettere	-4640
▁ciclo	-4641
▁Za	-4642
▁direttore	-4643
▁Mal	-4644
▁LE	-4645
▁novità	-4646
▁fonti	-4647
▁stella	-4648
▁idea	-4649
▁compagni	-4650
',	-4651
▁costruire	-4652
▁Dani	-4653
erisce	-4654
tner	-4655
▁pon	-4656
▁cosci	-4657
minazione	-4658
quisi	-4659
uolo	-4660
▁York	-4661
▁mono	-4662
▁Tos	-4663
▁sicuro	-4664
▁bro	-4665
▁tera	-4666
▁devo	-4667
▁pianta	-4668
pito	-4669
▁romanzo	-4670
▁iniziative	-4671
▁morto	-4672
▁profonda	-4673
ppio	-4674
pon	-4675
▁consapevole	-4676
fli	-4677
▁feste	-4678
desco	-4679
▁temi	-4680
▁veniva	-4681
▁Regi	-4682
uogo	-4683
▁oro	-4684
▁Comi	-4685
▁Loren	-4686
▁preval	-4687
ggiato	-4688
▁vescovo	-4689
▁nessun	-4690
Ca	-4691
DE	-4692
gon	-4693
organizzazione	-4694
▁articoli	-4695
▁Dia	-4696
▁bellezza	-4697
1)	-4698
▁partenza	-4699
▁situazioni	-4700
erare	-4701
▁teoria	-4702
▁fr	-4703
▁temperatura	-4704
▁inde	-4705
vando	-4706
gento	-4707
vers	-4708
▁Sud	-4709
▁ricorda	-4710
cl	-4711
▁ragi	-4712
entali	-4713
parti	-4714
▁dominio	-4715
work	-4716
▁condanna	-4717
dò	-4718
tuniten	-4719
▁creato	-4720
sivo	-4721
vò	-4722
▁Hi	-4723
▁RA	-4724
▁spo	-4725
▁SO	-4726
▁fratelli	-4727
cni	-4728
▁potranno	-4729
▁previsto	-4730
▁diale	-4731
grazione	-4732
▁2008	-4733
▁viva	-4734
▁Colo	-4735
▁progressi	-4736
rittura	-4737
5)	-4738
oi	-4739
▁critica	-4740
andi	-4741
▁aspetto	-4742
dali	-4743
▁pp	-4744
▁aere	-4745
▁biblio	-4746
▁sarebbero	-4747
▁misure	-4748
ziano	-4749
▁azione	-4750
mpie	-4751
▁confronto	-4752
▁ara	-4753
▁piante	-4754
spe	-4755
▁metro	-4756
▁bello	-4757
Non	-4758
oli	-4759
▁ambiente	-4760
▁desidera	-4761
▁Geo	-4762
▁fiducia	-4763
▁ricche	-4764
▁migliora	-4765
▁Gian	-4766
▁ripa	-4767
▁email	-4768
▁solito	-4769
iu	-4770
▁mantenere	-4771
▁antici	-4772
operazione	-4773
tz	-4774
rì	-4775
▁Cir	-4776
inti	-4777
▁Uno	-4778
get	-4779
▁dimin	-4780
ltà	-4781
▁scelto	-4782
cero	-4783
rom	-4784
ontan	-4785
▁tanta	-4786
▁carriera	-4787
▁zucch	-4788
▁contemporanea	-4789
▁Genova	-4790
pt	-4791
▁Ori	-4792
nel	-4793
vina	-4794
▁puoi	-4795
end	-4796
▁Far	-4797
▁Vir	-4798
stenti	-4799
▁affrontare	-4800
rola	-4801
▁richied	-4802
ICA	-4803
▁suddi	-4804
▁migliorare	-4805
raneo	-4806
▁serve	-4807
▁culturali	-4808
▁opini	-4809
economia	-4810
▁congi	-4811
▁Paesi	-4812
▁contiene	-4813
dico	-4814
▁generali	-4815
▁Queste	-4816
coltura	-4817
dute	-4818
▁premio	-4819
▁Eu	-4820
▁spos	-4821
▁pan	-4822
▁Stefano	-4823
▁muni	-4824
▁comun	-4825
▁passe	-4826
▁Oh	-4827
▁truppe	-4828
▁statuniten	-4829
▁musicale	-4830
▁Por	-4831
rmi	-4832
▁presa	-4833
▁maschi	-4834
archi	-4835
▁competi	-4836
dem	-4837
▁volto	-4838
▁propone	-4839
-0	-4840
demia	-4841
ENA	-4842
▁quad	-4843
▁immagina	-4844
▁ieri	-4845
▁Infatti	-4846
▁giudizio	-4847
ONA	-4848
cari	-4849
▁scolastico	-4850
▁compagnia	-4851
▁tedesco	-4852
▁anda	-4853
▁principalmente	-4854
▁doveva	-4855
▁avvia	-4856
▁utilizza	-4857
▁meravi	-4858
▁perce	-4859
▁garantire	-4860
licazione	-4861
▁italiane	-4862
dazione	-4863
▁liqui	-4864
ght	-4865
tene	-4866
frica	-4867
▁trasporto	-4868
▁gon	-4869
▁smar	-4870
▁Solo	-4871
▁45	-4872
▁pagamento	-4873
________________	-4874
▁passione	-4875
celli	-4876
eff	-4877
▁possibili	-4878
▁adatta	-4879
bro	-4880
▁soff	-4881
▁Grande	-4882
48	-4883
▁sacerdo	-4884
dova	-4885
▁der	-4886
ttime	-4887
▁evidente	-4888
▁aperta	-4889
▁ragioni	-4890
▁FA	-4891
riamo	-4892
pie	-4893
▁2017	-4894
▁archi	-4895
▁stazione	-4896
▁programmi	-4897
diti	-4898
grazia	-4899
▁illustra	-4900
▁Tale	-4901
ms	-4902
pla	-4903
▁Art	-4904
Si	-4905
erdì	-4906
▁Mari	-4907
▁simbo	-4908
▁Fri	-4909
gliono	-4910
▁medesimo	-4911
▁messaggio	-4912
rt	-4913
▁Mentre	-4914
▁enti	-4915
▁avviene	-4916
▁efficace	-4917
▁onore	-4918
▁alunni	-4919
▁Maggio	-4920
Con	-4921
troppo	-4922
▁Bibliografia	-4923
▁signor	-4924
▁vuol	-4925
▁Windows	-4926
▁inizio	-4927
tanni	-4928
▁risal	-4929
▁Gri	-4930
rvi	-4931
▁Atti	-4932
▁scio	-4933
▁lavoratori	-4934
▁soffer	-4935
▁ii	-4936
▁Bro	-4937
arco	-4938
▁prefer	-4939
▁nem	-4940
▁perche	-4941
▁felice	-4942
▁Mu	-4943
mes	-4944
▁Prof	-4945
gene	-4946
▁cibo	-4947
epi	-4948
▁posse	-4949
▁addirittura	-4950
▁Piazza	-4951
▁predi	-4952
▁sorta	-4953
tività	-4954
▁analisi	-4955
▁frutto	-4956
▁insegna	-4957
▁chilo	-4958
▁simbolo	-4959
▁Camp	-4960
▁Pur	-4961
▁piatta	-4962
▁peggio	-4963
▁blog	-4964
▁dura	-4965
ghil	-4966
▁proposte	-4967
▁Acc	-4968
▁Bas	-4969
▁lum	-4970
▁design	-4971
tituzione	-4972
▁garan	-4973
▁custo	-4974
▁dena	-4975
▁manca	-4976
▁romano	-4977
▁eviden	-4978
▁scoperta	-4979
▁adesso	-4980
▁storie	-4981
▁distribuzione	-4982
▁conquis	-4983
▁importanza	-4984
▁scienza	-4985
▁attraversa	-4986
Imp	-4987
▁siete	-4988
▁inqu	-4989
▁propor	-4990
IL	-4991
▁reso	-4992
▁bocca	-4993
sili	-4994
▁fatte	-4995
▁quegli	-4996
▁energe	-4997
▁Ah	-4998
ov	-4999
▁Eli	-5000
▁europeo	-5001
▁gloria	-5002
▁Ponte	-5003
intera	-5004
▁decen	-5005
▁Abbiamo	-5006
▁relativi	-5007
▁180	-5008
▁canto	-5009
▁voto	-5010
▁costa	-5011
▁tornare	-5012
▁NA	-5013
▁patrimonio	-5014
▁differenti	-5015
▁circon	-5016
ERA	-5017
ciare	-5018
39	-5019
▁religione	-5020
▁finali	-5021
▁disegno	-5022
▁185	-5023
▁internazionali	-5024
▁proposito	-5025
▁tratti	-5026
mora	-5027
ther	-5028
▁conosce	-5029
rich	-5030
▁commercio	-5031
▁vento	-5032
▁Mos	-5033
▁convi	-5034
▁Op	-5035
ettiva	-5036
▁farsi	-5037
▁settimane	-5038
rendo	-5039
MENTO	-5040
▁vege	-5041
▁mancanza	-5042
▁professionale	-5043
▁perdere	-5044
▁padr	-5045
▁attuale	-5046
edì	-5047
▁leader	-5048
bole	-5049
▁dona	-5050
▁comprende	-5051
▁appari	-5052
zioso	-5053
tamento	-5054
▁Cosa	-5055
▁sullo	-5056
▁missione	-5057
mbro	-5058
▁agri	-5059
▁Ul	-5060
▁compito	-5061
▁Os	-5062
▁stare	-5063
▁dobbiamo	-5064
occasione	-5065
▁scamb	-5066
▁mila	-5067
▁consider	-5068
▁concre	-5069
▁utilizzando	-5070
'.	-5071
▁vostri	-5072
86	-5073
▁partecipare	-5074
▁esplo	-5075
▁vivo	-5076
▁ber	-5077
lis	-5078
▁minori	-5079
▁contributo	-5080
▁nor	-5081
▁36	-5082
talità	-5083
▁nutri	-5084
▁istituzioni	-5085
▁Face	-5086
▁infini	-5087
▁decisione	-5088
▁versa	-5089
Mi	-5090
ley	-5091
▁civili	-5092
▁scene	-5093
▁diversa	-5094
ZIONI	-5095
▁187	-5096
▁spagno	-5097
ondra	-5098
▁tardi	-5099
▁ultime	-5100
mal	-5101
▁Michele	-5102
▁artisti	-5103
lanti	-5104
▁racconta	-5105
▁mole	-5106
▁viss	-5107
▁ricevuto	-5108
▁Cons	-5109
Fi	-5110
ans	-5111
▁Porto	-5112
▁figure	-5113
▁cinema	-5114
guis	-5115
▁Capo	-5116
dori	-5117
▁ritra	-5118
▁capace	-5119
▁Ari	-5120
▁provenienti	-5121
▁quota	-5122
▁classifica	-5123
Pa	-5124
ndo	-5125
▁Indi	-5126
ghilterra	-5127
incontro	-5128
▁presentato	-5129
gramma	-5130
intero	-5131
▁inge	-5132
▁Sole	-5133
cipa	-5134
▁desiderio	-5135
.00	-5136
▁gl	-5137
▁popolare	-5138
▁facili	-5139
aff	-5140
▁discorso	-5141
issimo	-5142
▁inti	-5143
▁occa	-5144
▁ricordo	-5145
▁sig	-5146
▁digitale	-5147
▁violenza	-5148
▁combina	-5149
sile	-5150
▁ossia	-5151
▁porte	-5152
▁DA	-5153
▁metter	-5154
grafico	-5155
shi	-5156
89	-5157
▁stava	-5158
▁matrimonio	-5159
▁4,	-5160
omici	-5161
▁presentazione	-5162
pressione	-5163
nata	-5164
▁promozione	-5165
volmente	-5166
▁visuali	-5167
▁epoca	-5168
▁marito	-5169
▁internet	-5170
▁sape	-5171
85	-5172
vante	-5173
▁diffusione	-5174
▁Para	-5175
▁XVI	-5176
▁quarto	-5177
▁lasciare	-5178
▁intervento	-5179
dum	-5180
▁Nelle	-5181
ward	-5182
cido	-5183
▁pul	-5184
▁possano	-5185
cord	-5186
▁eventuali	-5187
GLI	-5188
▁permesso	-5189
▁scala	-5190
UO	-5191
▁cambio	-5192
▁richia	-5193
▁Filippo	-5194
▁Ren	-5195
▁chiese	-5196
loro	-5197
tuito	-5198
▁categoria	-5199
▁pubblicazione	-5200
44	-5201
▁aiuto	-5202
▁rim	-5203
cel	-5204
▁attualmente	-5205
peri	-5206
Se	-5207
Re	-5208
logica	-5209
▁plu	-5210
▁Della	-5211
▁paesa	-5212
▁sopp	-5213
▁sposta	-5214
▁Londra	-5215
▁Cala	-5216
▁70	-5217
▁caro	-5218
▁Roberto	-5219
▁mari	-5220
▁ripet	-5221
▁voci	-5222
▁avea	-5223
▁lista	-5224
▁lingue	-5225
▁preno	-5226
▁Matte	-5227
ermo	-5228
▁sore	-5229
▁prezzi	-5230
▁Cia	-5231
▁giuri	-5232
inare	-5233
abi	-5234
▁Card	-5235
▁dri	-5236
▁tenuto	-5237
▁grazia	-5238
▁fondamentali	-5239
▁32	-5240
▁splen	-5241
ciamo	-5242
▁docenti	-5243
▁certamente	-5244
▁fornire	-5245
▁Camera	-5246
estate	-5247
▁nemmeno	-5248
▁venire	-5249
canti	-5250
▁Parco	-5251
appro	-5252
▁vide	-5253
▁carte	-5254
▁accade	-5255
▁miliardi	-5256
vanti	-5257
▁irre	-5258
▁Negli	-5259
▁Pubbli	-5260
▁interessante	-5261
▁proi	-5262
▁PRE	-5263
erata	-5264
▁(200	-5265
▁Bru	-5266
▁falli	-5267
▁storica	-5268
▁solamente	-5269
dibile	-5270
▁Ab	-5271
▁fle	-5272
▁social	-5273
▁dramma	-5274
denze	-5275
▁rischi	-5276
esercito	-5277
ossibile	-5278
▁din	-5279
attenzione	-5280
▁moderna	-5281
▁pane	-5282
impre	-5283
▁nuovamente	-5284
The	-5285
▁sindaco	-5286
fte	-5287
▁capito	-5288
▁Lorenzo	-5289
▁evento	-5290
MP	-5291
▁popoli	-5292
▁affin	-5293
▁assieme	-5294
▁dico	-5295
▁2000	-5296
▁interessi	-5297
▁SA	-5298
eremo	-5299
."	-5300
orum	-5301
▁politici	-5302
▁GI	-5303
▁deriva	-5304
▁gusto	-5305
▁richiede	-5306
▁incontri	-5307
nato	-5308
▁copia	-5309
▁manu	-5310
eto	-5311
▁it	-5312
▁crede	-5313
▁Alcuni	-5314
▁Bos	-5315
▁definizione	-5316
▁relative	-5317
▁wiki	-5318
terie	-5319
▁sopravvi	-5320
energia	-5321
▁ferrovia	-5322
▁oper	-5323
chiamo	-5324
▁ripren	-5325
▁vantaggio	-5326
gura	-5327
▁RI	-5328
sori	-5329
▁scritta	-5330
zionato	-5331
▁maggioranza	-5332
evento	-5333
nio	-5334
ool	-5335
▁Cin	-5336
▁PRI	-5337
ence	-5338
▁psicolo	-5339
unno	-5340
---|---|	-5341
▁Dom	-5342
▁scoprire	-5343
▁immediatamente	-5344
iss	-5345
▁respi	-5346
orld	-5347
umere	-5348
▁potete	-5349
▁bassa	-5350
▁ovviamente	-5351
▁Lan	-5352
Istituto	-5353
▁Teatro	-5354
▁prossimi	-5355
lesia	-5356
ccome	-5357
iness	-5358
▁eccell	-5359
▁indu	-5360
▁buoni	-5361
sis	-5362
▁2007	-5363
cone	-5364
▁cambiare	-5365
gy	-5366
guire	-5367
▁faceva	-5368
▁riforma	-5369
alb	-5370
▁parlato	-5371
▁dimensione	-5372
▁TV	-5373
stia	-5374
▁sosp	-5375
▁magi	-5376
▁veder	-5377
▁Pra	-5378
cello	-5379
▁tutela	-5380
vra	-5381
PP	-5382
geli	-5383
▁comando	-5384
▁magari	-5385
▁aumento	-5386
▁storici	-5387
erali	-5388
py	-5389
▁500	-5390
▁vinci	-5391
ontana	-5392
▁intito	-5393
▁Natale	-5394
▁installa	-5395
▁Sì	-5396
▁Mona	-5397
▁Governo	-5398
▁perdita	-5399
▁tradizionale	-5400
we	-5401
▁sabato	-5402
▁..	-5403
▁racconto	-5404
té	-5405
▁carb	-5406
▁coppia	-5407
▁credere	-5408
▁dec	-5409
▁titoli	-5410
nale	-5411
▁limiti	-5412
▁perman	-5413
rum	-5414
▁pomeri	-5415
▁associazioni	-5416
verà	-5417
▁sentire	-5418
▁Aeroporto	-5419
▁conferma	-5420
▁ognuno	-5421
▁vene	-5422
▁diede	-5423
▁rinno	-5424
▁comunica	-5425
rc	-5426
▁rifu	-5427
▁Bern	-5428
ggiata	-5429
▁applicazioni	-5430
▁impegno	-5431
ici	-5432
tione	-5433
berg	-5434
▁partner	-5435
▁Cultura	-5436
fini	-5437
lievi	-5438
▁relativa	-5439
dal	-5440
▁Clau	-5441
ducazione	-5442
▁Continua	-5443
▁femminile	-5444
▁edifici	-5445
eva	-5446
▁cono	-5447
▁Musi	-5448
▁ricco	-5449
▁aus	-5450
gliano	-5451
ata	-5452
▁sguardo	-5453
▁meccani	-5454
ggiamento	-5455
▁scelte	-5456
▁Sy	-5457
▁latte	-5458
▁Italiana	-5459
▁ivi	-5460
▁meridi	-5461
▁spettacolo	-5462
▁patri	-5463
liari	-5464
▁dover	-5465
roni	-5466
▁Sig	-5467
▁costituito	-5468
▁sho	-5469
ula	-5470
sazione	-5471
stero	-5472
▁subi	-5473
▁comprendere	-5474
▁Alb	-5475
▁ospiti	-5476
BA	-5477
▁accetta	-5478
▁Amministrazione	-5479
otti	-5480
SE	-5481
iti	-5482
▁Chri	-5483
zano	-5484
8)	-5485
ood	-5486
▁segue	-5487
▁ottenuto	-5488
▁minimo	-5489
od	-5490
inato	-5491
75	-5492
▁extra	-5493
ttorio	-5494
▁conosciuto	-5495
▁pazienti	-5496
▁influenza	-5497
▁possesso	-5498
▁proto	-5499
▁laure	-5500
informa	-5501
utato	-5502
▁innanzi	-5503
▁effettuare	-5504
▁lasciato	-5505
▁soldati	-5506
▁avrebbero	-5507
▁fasci	-5508
erire	-5509
▁portata	-5510
▁territori	-5511
▁vecchia	-5512
▁Enrico	-5513
ys	-5514
▁Wa	-5515
▁olio	-5516
▁Nor	-5517
▁capol	-5518
▁34	-5519
▁circo	-5520
gori	-5521
▁Nove	-5522
▁conven	-5523
▁ricevere	-5524
▁svolge	-5525
▁soldi	-5526
titudine	-5527
▁Dei	-5528
fice	-5529
inità	-5530
▁Mod	-5531
▁gioia	-5532
▁dile	-5533
▁Min	-5534
▁motore	-5535
▁assolutamente	-5536
▁cambiamento	-5537
imento	-5538
▁render	-5539
▁intelli	-5540
▁Castel	-5541
▁volo	-5542
▁tol	-5543
▁Campi	-5544
▁90	-5545
▁ciascuno	-5546
▁riduzione	-5547
polo	-5548
▁apposi	-5549
▁Archite	-5550
▁narra	-5551
mblea	-5552
▁individ	-5553
analisi	-5554
▁wikitesto	-5555
▁Fil	-5556
▁latino	-5557
▁nessuna	-5558
▁regioni	-5559
▁Ministero	-5560
▁fc	-5561
▁Provincia	-5562
▁britanni	-5563
▁tue	-5564
cito	-5565
▁80	-5566
▁giocatori	-5567
▁NO	-5568
▁coscienza	-5569
▁accol	-5570
33	-5571
▁patria	-5572
▁sposa	-5573
▁unica	-5574
▁Natura	-5575
▁ulteriori	-5576
▁offrire	-5577
▁ob	-5578
▁parco	-5579
▁Franco	-5580
▁Micro	-5581
▁Giacomo	-5582
anora	-5583
▁FI	-5584
Un	-5585
cenzo	-5586
ressa	-5587
▁inver	-5588
▁ideale	-5589
▁vogliono	-5590
▁vigi	-5591
▁2020	-5592
▁assicura	-5593
▁Prog	-5594
tiamo	-5595
▁antiche	-5596
▁costu	-5597
▁premi	-5598
▁189	-5599
▁utilizzati	-5600
▁SP	-5601
tron	-5602
▁Bon	-5603
▁azz	-5604
▁polizia	-5605
▁Ali	-5606
▁colpo	-5607
danza	-5608
▁5,	-5609
▁Facebook	-5610
▁elemento	-5611
▁SE	-5612
▁specifica	-5613
erò	-5614
▁motiva	-5615
voro	-5616
▁rifiuti	-5617
▁pezzi	-5618
gs	-5619
▁Castello	-5620
▁Già	-5621
▁appassi	-5622
▁nata	-5623
▁vei	-5624
egli	-5625
▁digni	-5626
▁Sport	-5627
▁Signor	-5628
▁Rosa	-5629
▁dando	-5630
hotel	-5631
▁iniziato	-5632
▁inven	-5633
▁costruito	-5634
▁1'	-5635
▁commerciale	-5636
▁ut	-5637
▁comportamento	-5638
▁notevole	-5639
landa	-5640
ceo	-5641
▁aggi	-5642
bin	-5643
▁mobili	-5644
gitto	-5645
▁torre	-5646
▁sorpre	-5647
▁he	-5648
▁stri	-5649
▁successivi	-5650
▁Pio	-5651
▁spie	-5652
▁Signo	-5653
▁tecnologie	-5654
mus	-5655
▁zione	-5656
▁Dalla	-5657
dette	-5658
▁archeolo	-5659
▁contribu	-5660
▁dichiarato	-5661
wer	-5662
▁trattato	-5663
ftra	-5664
▁intende	-5665
esistenza	-5666
▁team	-5667
▁Ini	-5668
▁hotel	-5669
▁Gol	-5670
▁cittadino	-5671
▁dono	-5672
▁conoscenze	-5673
armi	-5674
▁terre	-5675
▁normale	-5676
▁opportunità	-5677
▁ridurre	-5678
▁giocare	-5679
tc	-5680
/200	-5681
▁blu	-5682
▁norme	-5683
versale	-5684
▁manifestazione	-5685
▁ricordare	-5686
mis	-5687
▁necessaria	-5688
cili	-5689
viamo	-5690
tas	-5691
-201	-5692
ingresso	-5693
▁singolo	-5694
erebbe	-5695
▁Ur	-5696
inisce	-5697
▁lago	-5698
dda	-5699
▁Leon	-5700
▁Russia	-5701
▁privati	-5702
▁percorsi	-5703
genzia	-5704
uiti	-5705
▁Batti	-5706
▁vel	-5707
ttive	-5708
▁Cina	-5709
▁imper	-5710
America	-5711
▁raffi	-5712
▁Bol	-5713
luzione	-5714
▁malattie	-5715
UR	-5716
vizzera	-5717
▁PO	-5718
riche	-5719
▁abbiano	-5720
▁fianco	-5721
▁varietà	-5722
▁partecipanti	-5723
▁gol	-5724
▁principe	-5725
fferta	-5726
▁richieste	-5727
▁confine	-5728
▁Lon	-5729
▁gene	-5730
▁restitu	-5731
arla	-5732
▁fondi	-5733
-4	-5734
▁continuare	-5735
▁accordo	-5736
inizia	-5737
▁ambientale	-5738
ST	-5739
▁denaro	-5740
▁pressione	-5741
degna	-5742
▁aria	-5743
▁ricerche	-5744
ologia	-5745
▁rispondere	-5746
▁sostenere	-5747
lì	-5748
rand	-5749
▁9.	-5750
▁Nonostante	-5751
79	-5752
arca	-5753
▁pianeta	-5754
▁letteratura	-5755
erati	-5756
▁specifico	-5757
▁diplo	-5758
▁VII	-5759
por	-5760
chino	-5761
▁situato	-5762
dari	-5763
etwork	-5764
▁gare	-5765
▁distur	-5766
▁dollari	-5767
▁punta	-5768
bria	-5769
fero	-5770
▁irri	-5771
▁privile	-5772
XX	-5773
ate	-5774
tarie	-5775
▁preghiera	-5776
▁Salva	-5777
▁bon	-5778
onese	-5779
gando	-5780
▁potenzia	-5781
▁legati	-5782
▁Serie	-5783
▁raccom	-5784
▁impianti	-5785
ave	-5786
Associazione	-5787
▁Nicola	-5788
fii	-5789
▁percen	-5790
▁vittime	-5791
▁chiesto	-5792
zare	-5793
▁televisi	-5794
▁idro	-5795
▁150	-5796
▁orienta	-5797
▁sorri	-5798
▁stranieri	-5799
▁Domen	-5800
▁lunghezza	-5801
▁cum	-5802
▁fio	-5803
▁verranno	-5804
▁Cle	-5805
▁Pier	-5806
▁tene	-5807
▁Porta	-5808
tomi	-5809
▁Am	-5810
▁controlla	-5811
▁insegnanti	-5812
▁Anna	-5813
vviso	-5814
▁MO	-5815
▁Gruppo	-5816
▁Mc	-5817
dando	-5818
▁Fondazione	-5819
▁preoccupa	-5820
▁celebre	-5821
▁giocatore	-5822
▁esclusivamente	-5823
▁santi	-5824
ccati	-5825
▁offerte	-5826
▁Bio	-5827
vis	-5828
▁Dante	-5829
▁banca	-5830
▁chiedere	-5831
▁Mil	-5832
unzione	-5833
accesso	-5834
▁consumo	-5835
accordo	-5836
▁cammino	-5837
▁silenzio	-5838
▁Spirito	-5839
▁fili	-5840
▁raggiunto	-5841
ull	-5842
▁Conf	-5843
contra	-5844
▁Apple	-5845
ttando	-5846
Per	-5847
▁sepol	-5848
▁fatica	-5849
▁ampia	-5850
▁CI	-5851
fficienza	-5852
▁RE	-5853
▁Vergine	-5854
fla	-5855
▁socio	-5856
▁tiene	-5857
▁morale	-5858
▁Ave	-5859
▁stanza	-5860
flo	-5861
▁nemici	-5862
▁SS	-5863
▁radica	-5864
▁guard	-5865
▁resistenza	-5866
abb	-5867
geno	-5868
▁_	-5869
ERE	-5870
sche	-5871
▁assol	-5872
▁Sette	-5873
▁tavola	-5874
▁bordo	-5875
▁inau	-5876
▁camere	-5877
▁Studi	-5878
▁osta	-5879
▁corsa	-5880
▁considerazione	-5881
▁vuoi	-5882
▁rit	-5883
TÀ	-5884
▁pratiche	-5885
yer	-5886
▁francesi	-5887
▁Palermo	-5888
▁Federico	-5889
▁esperti	-5890
▁Opera	-5891
▁ia	-5892
ted	-5893
▁stemma	-5894
associazione	-5895
messa	-5896
▁reti	-5897
▁accanto	-5898
▁consegna	-5899
VE	-5900
▁amma	-5901
▁occup	-5902
truttura	-5903
▁presi	-5904
glianza	-5905
▁preparazione	-5906
ttamento	-5907
▁cliente	-5908
▁attiva	-5909
▁industriale	-5910
▁soccor	-5911
▁Lega	-5912
endario	-5913
▁profon	-5914
inci	-5915
▁corpi	-5916
▁vicina	-5917
▁errori	-5918
INA	-5919
edificio	-5920
torie	-5921
▁ambito	-5922
▁monito	-5923
▁buono	-5924
▁bea	-5925
ortare	-5926
▁circ	-5927
troduzione	-5928
▁composta	-5929
▁debole	-5930
Te	-5931
▁sorge	-5932
▁intelle	-5933
▁giusta	-5934
▁10.	-5935
▁attre	-5936
vimento	-5937
26	-5938
Di	-5939
▁squa	-5940
sciu	-5941
▁utilizzo	-5942
ola	-5943
tava	-5944
▁pone	-5945
▁perfe	-5946
▁cercando	-5947
▁laboratorio	-5948
▁Siamo	-5949
▁fai	-5950
▁Monu	-5951
▁reca	-5952
▁tel	-5953
ctor	-5954
▁discussione	-5955
▁imb	-5956
usura	-5957
▁elen	-5958
ttor	-5959
▁nobili	-5960
▁promuovere	-5961
cur	-5962
▁superiori	-5963
industria	-5964
▁rientra	-5965
▁Capp	-5966
tevi	-5967
▁operatori	-5968
49	-5969
right	-5970
tern	-5971
▁Tar	-5972
▁minaccia	-5973
▁Har	-5974
▁pru	-5975
▁maestro	-5976
▁generazione	-5977
▁Ins	-5978
▁Marche	-5979
▁consiste	-5980
▁obiettivo	-5981
▁Lei	-5982
▁ottimi	-5983
librio	-5984
tch	-5985
▁venga	-5986
▁valuta	-5987
▁fabbrica	-5988
siva	-5989
soft	-5990
brei	-5991
▁bandi	-5992
▁Altre	-5993
▁prestazioni	-5994
▁(201	-5995
▁fopra	-5996
▁pubbliche	-5997
▁DO	-5998
▁Basi	-5999
▁greco	-6000
▁Son	-6001
ller	-6002
ttivi	-6003
▁completo	-6004
▁produrre	-6005
imperatore	-6006
▁spesa	-6007
▁legato	-6008
▁Sam	-6009
▁pronto	-6010
opp	-6011
▁Torre	-6012
zionare	-6013
della	-6014
▁coraggio	-6015
▁caldo	-6016
▁guarda	-6017
*.	-6018
▁UN	-6019
▁hi	-6020
origine	-6021
▁molta	-6022
▁dettagli	-6023
▁mul	-6024
▁gratuito	-6025
▁esistono	-6026
ccar	-6027
elice	-6028
▁elezioni	-6029
▁Mondo	-6030
▁core	-6031
pposizione	-6032
▁attesa	-6033
DU	-6034
onamento	-6035
▁2006	-6036
essioni	-6037
▁regime	-6038
marsi	-6039
enziali	-6040
▁link	-6041
▁Ara	-6042
onici	-6043
▁voler	-6044
meo	-6045
▁acquistare	-6046
ude	-6047
archite	-6048
▁Informa	-6049
▁aiutare	-6050
RIO	-6051
▁Infine	-6052
▁spalle	-6053
▁ragazzo	-6054
equi	-6055
▁retro	-6056
▁Quali	-6057
▁date	-6058
▁accogli	-6059
▁linguis	-6060
▁prio	-6061
▁scrittura	-6062
▁continui	-6063
▁Ness	-6064
importanza	-6065
▁riconoscimento	-6066
batti	-6067
▁Alberto	-6068
dinanza	-6069
▁PI	-6070
▁famoso	-6071
▁occorre	-6072
▁borgo	-6073
dienti	-6074
ENTI	-6075
▁consuma	-6076
▁privato	-6077
▁delega	-6078
▁nemico	-6079
ccademia	-6080
▁vice	-6081
▁Toscana	-6082
▁mali	-6083
▁fattori	-6084
▁pref	-6085
nella	-6086
▁indipendente	-6087
▁traffi	-6088
36	-6089
▁ricca	-6090
▁evidenzia	-6091
▁rilascia	-6092
...]	-6093
▁tempio	-6094
▁quartiere	-6095
▁sfo	-6096
forme	-6097
tusia	-6098
▁zucchero	-6099
▁talvolta	-6100
▁tentativo	-6101
▁croce	-6102
▁cambi	-6103
▁reddi	-6104
▁Ros	-6105
rle	-6106
TRA	-6107
sore	-6108
▁smart	-6109
nare	-6110
forte	-6111
▁aggiungere	-6112
▁ina	-6113
▁legisla	-6114
▁migliaia	-6115
▁aumen	-6116
▁ner	-6117
▁filosofia	-6118
▁lati	-6119
gliata	-6120
▁pagare	-6121
▁europei	-6122
▁occidentale	-6123
▁flu	-6124
▁voti	-6125
rescia	-6126
▁pensato	-6127
▁capelli	-6128
▁Festival	-6129
▁gradi	-6130
▁Medio	-6131
▁resti	-6132
▁Geografia	-6133
▁Pan	-6134
▁ambienti	-6135
▁metodi	-6136
▁aggiunge	-6137
ress	-6138
▁specialmente	-6139
dotte	-6140
87	-6141
phone	-6142
▁fui	-6143
▁sfida	-6144
▁Prop	-6145
stron	-6146
▁Ecc	-6147
▁area	-6148
▁medicina	-6149
grado	-6150
▁dicendo	-6151
55	-6152
▁Aug	-6153
intervento	-6154
▁Sto	-6155
▁giardino	-6156
▁dispositivi	-6157
ME	-6158
▁Bla	-6159
▁culto	-6160
bini	-6161
▁annun	-6162
--|	-6163
alta	-6164
▁splendi	-6165
▁top	-6166
▁uscire	-6167
liam	-6168
▁ragazza	-6169
▁compreso	-6170
▁vul	-6171
▁conflitto	-6172
elet	-6173
▁XII	-6174
▁limite	-6175
▁generalmente	-6176
▁fé	-6177
arli	-6178
▁fisico	-6179
▁Tom	-6180
▁caduta	-6181
▁pala	-6182
evo	-6183
▁Hotel	-6184
mpia	-6185
▁provinciale	-6186
▁uscita	-6187
tentri	-6188
minato	-6189
▁salva	-6190
▁scia	-6191
▁aggre	-6192
▁montagna	-6193
applicazione	-6194
arrivo	-6195
▁sostanze	-6196
▁celebra	-6197
lor	-6198
▁infi	-6199
▁vinto	-6200
▁ampio	-6201
▁continuo	-6202
▁origini	-6203
lun	-6204
voca	-6205
▁Croce	-6206
▁gestire	-6207
▁centina	-6208
:00	-6209
▁sviluppare	-6210
▁concorso	-6211
▁ille	-6212
▁ridu	-6213
▁Sotto	-6214
▁delib	-6215
iniziativa	-6216
asti	-6217
mazione	-6218
ance	-6219
ppiamo	-6220
▁sogno	-6221
▁ordini	-6222
▁semb	-6223
▁sufficiente	-6224
▁protagonisti	-6225
29	-6226
▁Forse	-6227
▁Romano	-6228
▁Piano	-6229
▁saper	-6230
▁Ir	-6231
▁gr	-6232
▁....	-6233
▁scrittore	-6234
ks	-6235
▁ec	-6236
ficati	-6237
▁Guar	-6238
▁panora	-6239
▁od	-6240
▁fondata	-6241
▁evol	-6242
▁pressi	-6243
▁soggior	-6244
▁ran	-6245
▁incor	-6246
▁maggiormente	-6247
▁avevo	-6248
▁recupero	-6249
FF	-6250
goli	-6251
tf	-6252
tuario	-6253
▁facc	-6254
▁chilometri	-6255
▁Lun	-6256
▁rappresentano	-6257
pertura	-6258
osamente	-6259
talmente	-6260
▁Costan	-6261
▁specifiche	-6262
▁ufficiali	-6263
▁profilo	-6264
▁ingi	-6265
▁Num	-6266
endosi	-6267
▁provare	-6268
▁Comunità	-6269
▁altret	-6270
tiene	-6271
▁rib	-6272
▁Vita	-6273
▁adulti	-6274
▁Lombardia	-6275
▁Quest	-6276
▁frequenza	-6277
▁("	-6278
▁conci	-6279
▁esemp	-6280
teranno	-6281
▁calore	-6282
▁capoluogo	-6283
yo	-6284
▁confini	-6285
84	-6286
▁sebbene	-6287
siste	-6288
▁religiose	-6289
insegna	-6290
ortuna	-6291
▁allena	-6292
27	-6293
due	-6294
orge	-6295
▁Sala	-6296
▁spar	-6297
▁Reli	-6298
▁inno	-6299
▁iP	-6300
▁barba	-6301
▁romani	-6302
tologia	-6303
▁ultima	-6304
GA	-6305
▁recupera	-6306
▁David	-6307
vamento	-6308
ciata	-6309
erai	-6310
▁poesia	-6311
▁Tutte	-6312
▁necessarie	-6313
▁Aus	-6314
▁costituisce	-6315
ERI	-6316
▁ghia	-6317
dam	-6318
▁necessari	-6319
▁ponti	-6320
reni	-6321
ciato	-6322
▁doppia	-6323
▁peccato	-6324
angolo	-6325
-,	-6326
▁colpa	-6327
▁suolo	-6328
▁recenti	-6329
▁troviamo	-6330
onio	-6331
vani	-6332
tane	-6333
mosfera	-6334
▁Vittorio	-6335
glione	-6336
▁assegna	-6337
▁Parte	-6338
▁Civi	-6339
▁istru	-6340
cidi	-6341
▁Tele	-6342
▁age	-6343
▁Star	-6344
▁cora	-6345
▁pomeriggio	-6346
TT	-6347
sato	-6348
uole	-6349
bate	-6350
▁dialogo	-6351
▁tranquil	-6352
▁legger	-6353
▁dichiara	-6354
impe	-6355
utente	-6356
▁prossima	-6357
tl	-6358
estero	-6359
offerta	-6360
▁fasi	-6361
▁Guerra	-6362
▁Quanto	-6363
,00	-6364
▁Ov	-6365
▁regista	-6366
▁dicono	-6367
keting	-6368
▁singoli	-6369
▁vicin	-6370
▁passò	-6371
▁2005	-6372
▁impossibile	-6373
eta	-6374
▁debb	-6375
UI	-6376
▁XIX	-6377
▁scritti	-6378
rur	-6379
▁potente	-6380
▁attivo	-6381
ipo	-6382
▁Web	-6383
▁America	-6384
▁favori	-6385
versario	-6386
▁Cesare	-6387
miglia	-6388
▁quotidiana	-6389
▁nascon	-6390
▁fanci	-6391
▁parrocchiale	-6392
▁ip	-6393
▁nov	-6394
▁fuggi	-6395
▁testimonianza	-6396
▁clic	-6397
▁Domenico	-6398
▁utilizzata	-6399
▁buone	-6400
▁movimenti	-6401
uda	-6402
ado	-6403
ìi	-6404
▁bron	-6405
▁perso	-6406
mendo	-6407
resta	-6408
▁Monti	-6409
▁sostan	-6410
▁profe	-6411
▁Pers	-6412
ANI	-6413
▁neo	-6414
▁Compa	-6415
ost	-6416
▁ripe	-6417
vedì	-6418
▁coll	-6419
▁PAR	-6420
▁(199	-6421
▁cause	-6422
▁ricom	-6423
▁Ama	-6424
raele	-6425
riere	-6426
▁sostanza	-6427
——	-6428
▁BA	-6429
messo	-6430
▁Dra	-6431
▁elettrica	-6432
▁membro	-6433
▁conseguenze	-6434
▁doppio	-6435
▁viaggi	-6436
▁aggiunto	-6437
▁riflessione	-6438
mino	-6439
-5	-6440
▁santo	-6441
▁altrimenti	-6442
▁Rai	-6443
▁trion	-6444
▁300	-6445
ulli	-6446
▁Wal	-6447
▁fac	-6448
▁Cana	-6449
▁poeta	-6450
▁Sempre	-6451
▁cavallo	-6452
▁collega	-6453
▁IX	-6454
▁traffico	-6455
▁priva	-6456
aspetto	-6457
▁esempi	-6458
▁certe	-6459
dol	-6460
▁produce	-6461
▁Sardegna	-6462
▁Padova	-6463
▁consoli	-6464
utati	-6465
▁Id	-6466
▁Nuova	-6467
ab	-6468
gger	-6469
larità	-6470
▁accedere	-6471
ames	-6472
▁cambiamenti	-6473
▁pelli	-6474
66	-6475
▁2004	-6476
vor	-6477
gurazione	-6478
▁indicato	-6479
▁canti	-6480
▁risolvere	-6481
▁svolta	-6482
▁rivista	-6483
▁studente	-6484
▁id	-6485
▁giallo	-6486
golare	-6487
▁mm	-6488
▁Forma	-6489
▁globale	-6490
giano	-6491
▁nucleo	-6492
▁Assi	-6493
pedale	-6494
▁Allora	-6495
▁scompar	-6496
▁fuga	-6497
▁venivano	-6498
▁affa	-6499
GG	-6500
▁Vis	-6501
▁benessere	-6502
▁nazione	-6503
atta	-6504
▁Piemonte	-6505
neo	-6506
▁canale	-6507
▁aumentare	-6508
▁disc	-6509
▁cancella	-6510
▁collezione	-6511
▁appunta	-6512
▁[...]	-6513
▁MI	-6514
▁Tel	-6515
▁vicenda	-6516
▁adotta	-6517
vente	-6518
▁segni	-6519
▁Mac	-6520
▁ritar	-6521
83	-6522
▁fratte	-6523
▁generico	-6524
▁fortemente	-6525
▁perfetto	-6526
▁magne	-6527
▁Parlamento	-6528
arma	-6529
▁Coo	-6530
▁attuali	-6531
▁Università	-6532
▁--	-6533
▁Ass	-6534
▁successiva	-6535
▁errore	-6536
▁matematica	-6537
▁Arti	-6538
renza	-6539
▁venerdì	-6540
▁infra	-6541
▁statunitense	-6542
▁indicazioni	-6543
▁accusa	-6544
▁bianca	-6545
▁disponibilità	-6546
▁}	-6547
estri	-6548
Ho	-6549
▁schermo	-6550
▁freddo	-6551
▁battu	-6552
▁pezzo	-6553
▁detti	-6554
▁fum	-6555
▁confe	-6556
ziosi	-6557
▁USA	-6558
▁apre	-6559
▁credito	-6560
▁privata	-6561
▁Patri	-6562
▁mandato	-6563
▁Teo	-6564
▁profondo	-6565
▁metropoli	-6566
▁realizzata	-6567
▁rime	-6568
▁trasmissione	-6569
ash	-6570
▁(3	-6571
▁osser	-6572
▁obbliga	-6573
uscita	-6574
▁squadre	-6575
▁compar	-6576
▁argomenti	-6577
▁batte	-6578
▁cogni	-6579
▁raffor	-6580
yn	-6581
▁alte	-6582
▁accessi	-6583
▁ripi	-6584
▁ui	-6585
ganti	-6586
En	-6587
▁capitolo	-6588
cti	-6589
▁nobile	-6590
▁cristiani	-6591
rca	-6592
tions	-6593
▁37	-6594
▁39	-6595
▁palla	-6596
▁braccia	-6597
▁facciata	-6598
47	-6599
entro	-6600
ges	-6601
▁demografica	-6602
▁Matteo	-6603
▁tradizionali	-6604
▁fenomeni	-6605
venza	-6606
isse	-6607
▁competenza	-6608
▁ton	-6609
▁bisogni	-6610
▁definito	-6611
▁estremamente	-6612
pli	-6613
▁PC	-6614
(^	-6615
▁XIII	-6616
▁pasto	-6617
rena	-6618
SC	-6619
▁bilancio	-6620
▁ced	-6621
▁ante	-6622
▁comma	-6623
▁domina	-6624
▁mori	-6625
▁Legge	-6626
To	-6627
▁Molti	-6628
▁Giulio	-6629
the	-6630
▁suono	-6631
▁mento	-6632
▁amo	-6633
▁frattempo	-6634
▁messi	-6635
▁Her	-6636
sante	-6637
osci	-6638
▁paio	-6639
▁dovrebbero	-6640
alleria	-6641
▁Acqu	-6642
det	-6643
▁cappella	-6644
▁notare	-6645
▁dispositivo	-6646
▁insedia	-6647
▁Quello	-6648
▁tutt	-6649
▁affinché	-6650
blo	-6651
▁terremo	-6652
▁fascia	-6653
ju	-6654
▁Sei	-6655
dier	-6656
▁indietro	-6657
▁vostre	-6658
▁mamma	-6659
▁condotta	-6660
▁SCENA	-6661
tex	-6662
ggono	-6663
▁pasta	-6664
▁Comitato	-6665
▁cristiana	-6666
ic	-6667
▁Romani	-6668
▁museo	-6669
doro	-6670
▁organizzato	-6671
▁piattaforma	-6672
▁tecnici	-6673
▁ringrazia	-6674
▁banche	-6675
TRO	-6676
▁album	-6677
strutture	-6678
fco	-6679
▁brevi	-6680
▁scoperto	-6681
▁fur	-6682
erimento	-6683
▁anco	-6684
metro	-6685
erano	-6686
▁abbra	-6687
▁piede	-6688
▁punte	-6689
▁deca	-6690
lesc	-6691
▁colui	-6692
▁rosa	-6693
vocato	-6694
▁curio	-6695
▁serata	-6696
▁rivi	-6697
▁immagine	-6698
▁dovranno	-6699
▁affres	-6700
ney	-6701
▁later	-6702
ttra	-6703
.'	-6704
▁voleva	-6705
▁devi	-6706
▁ebra	-6707
▁scientifica	-6708
gelo	-6709
▁rimase	-6710
Li	-6711
stare	-6712
▁dignità	-6713
▁conquista	-6714
▁allar	-6715
lusso	-6716
fin	-6717
▁muta	-6718
▁vantaggi	-6719
▁dipendenti	-6720
▁chiuso	-6721
▁°	-6722
▁imparare	-6723
ffè	-6724
▁48	-6725
▁medesima	-6726
▁incen	-6727
▁interessanti	-6728
▁signore	-6729
▁imperia	-6730
▁vincere	-6731
duca	-6732
dde	-6733
▁risposte	-6734
ansione	-6735
▁periodi	-6736
▁costruita	-6737
▁presentare	-6738
cell	-6739
▁les	-6740
rar	-6741
▁refer	-6742
▁pilota	-6743
stante	-6744
▁consapevolezza	-6745
▁poveri	-6746
alli	-6747
▁bigli	-6748
▁William	-6749
▁guardare	-6750
▁lezioni	-6751
▁telefono	-6752
▁trasfor	-6753
▁sur	-6754
▁medici	-6755
▁digitali	-6756
▁positivo	-6757
LU	-6758
▁larga	-6759
▁vicini	-6760
lastname	-6761
▁iniziale	-6762
▁organ	-6763
gel	-6764
43	-6765
▁sedi	-6766
▁dibatti	-6767
▁card	-6768
sion	-6769
▁diverti	-6770
▁Giappone	-6771
▁frutti	-6772
▁Senza	-6773
▁cofa	-6774
ulto	-6775
5%	-6776
urata	-6777
▁Primo	-6778
▁stili	-6779
▁magni	-6780
46	-6781
▁DELL	-6782
▁crescere	-6783
prile	-6784
▁Phi	-6785
let	-6786
▁comi	-6787
▁diam	-6788
▁anticipa	-6789
ormente	-6790
▁indisp	-6791
▁interamente	-6792
▁applicazione	-6793
▁XIV	-6794
▁Contro	-6795
▁didattica	-6796
▁Ten	-6797
▁fla	-6798
effetto	-6799
▁affatto	-6800
▁zo	-6801
▁Evoluzione	-6802
▁progettazione	-6803
erito	-6804
▁Generale	-6805
▁perfettamente	-6806
▁potesse	-6807
▁funzionamento	-6808
toriali	-6809
dei	-6810
erita	-6811
gricoltura	-6812
▁duca	-6813
ìo	-6814
resse	-6815
▁Siste	-6816
▁trascor	-6817
bali	-6818
▁petto	-6819
ding	-6820
tabile	-6821
sica	-6822
sen	-6823
tuo	-6824
▁domani	-6825
▁definire	-6826
▁Char	-6827
▁composi	-6828
▁sotti	-6829
▁cinqu	-6830
MB	-6831
▁formu	-6832
onore	-6833
▁Otto	-6834
▁sottop	-6835
▁Ag	-6836
▁dolci	-6837
Ti	-6838
▁nom	-6839
▁chiari	-6840
▁Universi	-6841
sch	-6842
▁ecclesia	-6843
▁Club	-6844
▁intero	-6845
▁ipotesi	-6846
▁recen	-6847
vino	-6848
▁abbond	-6849
▁pietà	-6850
▁alcuno	-6851
▁Svizzera	-6852
▁orientale	-6853
Ri	-6854
▁lettori	-6855
▁fama	-6856
.-	-6857
erto	-6858
▁elettro	-6859
▁imprendi	-6860
goro	-6861
▁operativo	-6862
▁riconoscere	-6863
▁TI	-6864
gredienti	-6865
▁universi	-6866
▁attua	-6867
▁riuscì	-6868
▁esterno	-6869
gola	-6870
cciano	-6871
▁Ani	-6872
UE	-6873
▁Benedetto	-6874
▁Campo	-6875
▁ottimo	-6876
▁Grecia	-6877
etre	-6878
▁posizioni	-6879
ccessi	-6880
▁favorire	-6881
▁guerre	-6882
▁braccio	-6883
▁dimostrato	-6884
▁club	-6885
.”	-6886
▁primavera	-6887
arch	-6888
▁magistra	-6889
▁specifici	-6890
ullo	-6891
ICO	-6892
ling	-6893
▁,,	-6894
▁chiusura	-6895
▁dovere	-6896
▁chiunque	-6897
▁rivela	-6898
CHE	-6899
▁settori	-6900
▁Microsoft	-6901
.30	-6902
▁Duca	-6903
inda	-6904
ae	-6905
cum	-6906
aiuto	-6907
tell	-6908
▁vogliamo	-6909
▁determinato	-6910
▁Mauri	-6911
▁Sulla	-6912
▁attivi	-6913
▁proposto	-6914
▁Principe	-6915
ENZA	-6916
ZO	-6917
INI	-6918
▁that	-6919
▁porti	-6920
▁Hu	-6921
▁imi	-6922
▁tedeschi	-6923
▁Vincenzo	-6924
▁assistenza	-6925
▁rivoluzione	-6926
▁XVII	-6927
▁acci	-6928
▁morire	-6929
cera	-6930
")	-6931
▁vicende	-6932
▁you	-6933
amministrazione	-6934
▁Ricor	-6935
▁pregi	-6936
dge	-6937
▁XVIII	-6938
malmente	-6939
▁ari	-6940
▁puni	-6941
▁classico	-6942
▁diventato	-6943
▁iniziare	-6944
▁bagno	-6945
▁indicare	-6946
▁superare	-6947
28	-6948
▁fp	-6949
▁corona	-6950
▁firma	-6951
▁mangiare	-6952
▁messaggi	-6953
RAN	-6954
▁1°	-6955
stina	-6956
▁ceri	-6957
collo	-6958
▁pesca	-6959
▁strin	-6960
▁Bus	-6961
▁debba	-6962
acquisto	-6963
▁aprire	-6964
▁fedeli	-6965
king	-6966
▁Asso	-6967
bel	-6968
▁canzone	-6969
▁Anti	-6970
ticamente	-6971
ceri	-6972
Pro	-6973
▁Madre	-6974
▁ricostrui	-6975
▁economiche	-6976
TALI	-6977
▁villaggio	-6978
▁2003	-6979
zionata	-6980
▁6,	-6981
▁danne	-6982
identi	-6983
ite	-6984
zan	-6985
hone	-6986
▁determin	-6987
rizzo	-6988
▁cinemato	-6989
▁neu	-6990
▁dista	-6991
▁orna	-6992
-6	-6993
▁offerta	-6994
tenze	-6995
▁espon	-6996
▁lasciando	-6997
▁traduzione	-6998
▁alber	-6999
▁risale	-7000
▁accer	-7001
landese	-7002
Pi	-7003
antico	-7004
▁firstname	-7005
uoli	-7006
▁docente	-7007
▁considerare	-7008
TTA	-7009
▁egu	-7010
▁transi	-7011
▁criteri	-7012
▁rigi	-7013
▁inizialmente	-7014
▁composizione	-7015
------------	-7016
grafo	-7017
▁rimanere	-7018
▁naturalmente	-7019
▁paziente	-7020
▁art	-7021
▁ciascun	-7022
▁conclusione	-7023
▁altrui	-7024
▁cellule	-7025
▁emozioni	-7026
tele	-7027
▁(1)	-7028
▁ricetta	-7029
▁quadri	-7030
▁dipende	-7031
▁regolare	-7032
▁Media	-7033
impegno	-7034
BB	-7035
▁Sor	-7036
▁pronuncia	-7037
▁artigi	-7038
▁sembrano	-7039
▁Sara	-7040
▁raffigu	-7041
▁Fino	-7042
▁rivolta	-7043
▁moderni	-7044
SP	-7045
logici	-7046
▁alberi	-7047
▁Cali	-7048
▁spirituale	-7049
ministra	-7050
▁osservare	-7051
▁portò	-7052
▁avvicina	-7053
▁colonna	-7054
▁biblioteca	-7055
▁Esp	-7056
▁quotidiano	-7057
▁lunedì	-7058
▁menti	-7059
▁imposta	-7060
▁distingu	-7061
▁Sha	-7062
▁gamma	-7063
▁selva	-7064
▁svolto	-7065
manu	-7066
ulo	-7067
asto	-7068
▁Fla	-7069
▁tedesca	-7070
▁differenze	-7071
▁Massimo	-7072
nie	-7073
▁rinnova	-7074
tedì	-7075
▁cl	-7076
▁cattura	-7077
▁settentri	-7078
oniche	-7079
▁Glo	-7080
zionati	-7081
▁Die	-7082
quisiti	-7083
nal	-7084
ror	-7085
▁nera	-7086
▁austria	-7087
▁informazione	-7088
sma	-7089
▁piatto	-7090
▁relativo	-7091
▁Hol	-7092
76	-7093
umanità	-7094
▁discen	-7095
dom	-7096
^.	-7097
▁prevenzione	-7098
▁88	-7099
▁cane	-7100
▁consiglia	-7101
▁parlando	-7102
▁TE	-7103
▁Pala	-7104
▁vigore	-7105
entato	-7106
▁luci	-7107
▁risoluzione	-7108
▁promo	-7109
bor	-7110
▁with	-7111
▁Verona	-7112
▁Ita	-7113
ttrice	-7114
educazione	-7115
▁Cari	-7116
▁sente	-7117
▁foglie	-7118
bol	-7119
▁ful	-7120
▁sensibili	-7121
▁Ess	-7122
mona	-7123
▁versi	-7124
▁civiltà	-7125
▁Nu	-7126
9)	-7127
desi	-7128
utile	-7129
her	-7130
mbri	-7131
▁denuncia	-7132
chis	-7133
▁benefi	-7134
SSI	-7135
▁familiari	-7136
pria	-7137
ranzo	-7138
teo	-7139
▁prepara	-7140
▁procedura	-7141
▁Data	-7142
▁stima	-7143
▁tensione	-7144
▁mobile	-7145
▁Andro	-7146
▁familiare	-7147
▁Seconda	-7148
▁legale	-7149
▁andò	-7150
▁geomet	-7151
▁scheda	-7152
▁atle	-7153
olio	-7154
▁farina	-7155
▁soci	-7156
▁canali	-7157
▁spre	-7158
▁sorte	-7159
▁personalità	-7160
▁trono	-7161
celle	-7162
▁legate	-7163
ventura	-7164
▁smartphone	-7165
▁situata	-7166
▁Orig	-7167
▁Caro	-7168
impresa	-7169
Ta	-7170
giosi	-7171
▁facoltà	-7172
▁Pon	-7173
▁rispettivamente	-7174
▁prete	-7175
tola	-7176
▁professionisti	-7177
ftro	-7178
sole	-7179
▁considerata	-7180
ars	-7181
▁cofe	-7182
▁benché	-7183
gran	-7184
▁2001	-7185
▁tela	-7186
infanzia	-7187
Impero	-7188
▁Bur	-7189
▁§	-7190
▁38	-7191
▁precisa	-7192
,,	-7193
▁179	-7194
coledì	-7195
▁Barba	-7196
▁decise	-7197
▁Trib	-7198
▁Ved	-7199
▁chiaramente	-7200
▁ovest	-7201
▁inaugu	-7202
pica	-7203
▁fate	-7204
▁Angelo	-7205
soli	-7206
▁chiara	-7207
▁Italiano	-7208
▁Classi	-7209
▁gradu	-7210
▁Mess	-7211
▁solare	-7212
▁Emilia	-7213
▁matura	-7214
▁ej	-7215
▁segnale	-7216
▁scambio	-7217
estione	-7218
▁nipo	-7219
▁logica	-7220
▁propon	-7221
▁Sia	-7222
▁abilità	-7223
Ci	-7224
▁Tomma	-7225
▁Segre	-7226
▁traspar	-7227
ham	-7228
▁Banca	-7229
▁auten	-7230
▁viaggia	-7231
▁strategia	-7232
▁indispensa	-7233
▁formare	-7234
▁statua	-7235
▁pover	-7236
▁presentano	-7237
▁segreto	-7238
▁ol	-7239
male	-7240
▁porre	-7241
▁secondi	-7242
▁1)	-7243
▁arrivato	-7244
fci	-7245
▁agrico	-7246
▁grandezza	-7247
▁sacra	-7248
cheggio	-7249
▁uffici	-7250
▁prigioni	-7251
▁lettore	-7252
darietà	-7253
▁US	-7254
▁cucchia	-7255
▁vivono	-7256
▁ciascuna	-7257
▁Servizi	-7258
▁191	-7259
▁Tran	-7260
escovi	-7261
terio	-7262
▁denti	-7263
▁religiosa	-7264
▁55	-7265
▁materie	-7266
▁Ke	-7267
flì	-7268
▁Sarà	-7269
▁nominato	-7270
▁scientifico	-7271
▁Arri	-7272
▁partecipato	-7273
▁percentuale	-7274
ZZA	-7275
▁raggi	-7276
RU	-7277
omb	-7278
▁fecero	-7279
▁lunghi	-7280
▁apprendimento	-7281
▁tracce	-7282
▁entusia	-7283
cordia	-7284
quo	-7285
▁confor	-7286
▁Partito	-7287
▁precipi	-7288
▁alp	-7289
▁sentenza	-7290
▁rimasto	-7291
▁Lazio	-7292
▁grafica	-7293
▁Messa	-7294
rima	-7295
▁artifi	-7296
uita	-7297
▁sfu	-7298
▁visitare	-7299
▁economici	-7300
▁tocca	-7301
▁esattamente	-7302
tania	-7303
▁DEI	-7304
▁appli	-7305
▁inna	-7306
lusconi	-7307
▁Perchè	-7308
▁riceve	-7309
mann	-7310
▁Parma	-7311
fè	-7312
▁business	-7313
ttino	-7314
▁soggiorno	-7315
▁vecchi	-7316
▁umane	-7317
▁cani	-7318
77	-7319
bis	-7320
▁fpe	-7321
▁deten	-7322
▁collegamento	-7323
▁Codice	-7324
eld	-7325
▁rito	-7326
▁7,	-7327
tarsi	-7328
sy	-7329
▁STA	-7330
▁muro	-7331
XI	-7332
▁sviluppato	-7333
diali	-7334
▁quaran	-7335
▁volle	-7336
▁rinuncia	-7337
mosi	-7338
▁Cel	-7339
▁costretto	-7340
arne	-7341
▁isola	-7342
▁Leone	-7343
ziosa	-7344
▁deposi	-7345
▁eccessi	-7346
▁scienze	-7347
▁cittadina	-7348
▁]	-7349
lei	-7350
▁400	-7351
▁Dall	-7352
''	-7353
mbia	-7354
vide	-7355
▁vissuto	-7356
▁tenuta	-7357
▁mana	-7358
▁1*	-7359
▁frase	-7360
▁motori	-7361
▁popolazioni	-7362
▁volete	-7363
▁selezione	-7364
▁dialetto	-7365
▁Air	-7366
▁costre	-7367
▁alimentare	-7368
scio	-7369
▁miglioramento	-7370
zzazioni	-7371
zzò	-7372
onate	-7373
▁00	-7374
▁Stan	-7375
▁TA	-7376
▁trasporti	-7377
Sa	-7378
▁legata	-7379
▁Dove	-7380
▁partiti	-7381
▁caratteristica	-7382
▁eo	-7383
▁statu	-7384
lire	-7385
▁Entra	-7386
.:	-7387
▁nazioni	-7388
▁differenzia	-7389
▁43	-7390
ETTI	-7391
▁riba	-7392
inalità	-7393
▁passando	-7394
▁meridionale	-7395
41	-7396
▁Mel	-7397
▁Vati	-7398
▁Ricer	-7399
tagna	-7400
▁cena	-7401
▁Gas	-7402
cul	-7403
tem	-7404
▁entrambe	-7405
▁We	-7406
▁espressione	-7407
▁meda	-7408
▁moderno	-7409
▁stiamo	-7410
▁rappresentato	-7411
oggi	-7412
▁Senato	-7413
▁condividere	-7414
ANA	-7415
▁comand	-7416
▁interni	-7417
▁intanto	-7418
▁persino	-7419
quali	-7420
▁eseguire	-7421
▁fenza	-7422
▁tende	-7423
▁negozi	-7424
▁generi	-7425
▁forno	-7426
rl	-7427
▁Martino	-7428
dosso	-7429
luenza	-7430
App	-7431
▁tener	-7432
▁decide	-7433
▁ospita	-7434
▁residenti	-7435
▁conservazione	-7436
omas	-7437
▁vna	-7438
▁clini	-7439
Co	-7440
▁volontari	-7441
utore	-7442
▁racconti	-7443
atte	-7444
▁comportamenti	-7445
GRA	-7446
teriormente	-7447
▁corretta	-7448
tatore	-7449
▁verificare	-7450
▁cattolica	-7451
▁programmazione	-7452
▁scari	-7453
▁cere	-7454
▁procura	-7455
▁etc	-7456
▁marche	-7457
inea	-7458
▁credi	-7459
▁universale	-7460
ring	-7461
▁Valen	-7462
liamo	-7463
ferenza	-7464
▁preten	-7465
cf	-7466
▁sar	-7467
▁perfor	-7468
▁macchine	-7469
▁responsabili	-7470
para	-7471
animo	-7472
terni	-7473
▁Sopra	-7474
▁immobili	-7475
▁reazione	-7476
▁funzionalità	-7477
▁pole	-7478
▁venuto	-7479
▁permettere	-7480
▁2018	-7481
▁terrori	-7482
▁chiamati	-7483
▁indirizzo	-7484
▁dro	-7485
▁Angel	-7486
▁bici	-7487
▁Claudio	-7488
entazione	-7489
▁Biblioteca	-7490
%.	-7491
impi	-7492
tory	-7493
▁dette	-7494
GO	-7495
▁fram	-7496
▁guari	-7497
▁Cristi	-7498
venuto	-7499
▁argomento	-7500
▁mesco	-7501
▁Certo	-7502
▁allor	-7503
▁trasformazione	-7504
▁Ann	-7505
▁partite	-7506
▁costituita	-7507
▁svolgere	-7508
▁fila	-7509
▁napole	-7510
▁dotato	-7511
▁descrizione	-7512
core	-7513
gor	-7514
▁prò	-7515
▁network	-7516
▁categorie	-7517
▁calcolo	-7518
▁apertura	-7519
▁incer	-7520
pyright	-7521
gnò	-7522
▁delica	-7523
▁nave	-7524
▁vetro	-7525
biti	-7526
▁bis	-7527
▁improvvi	-7528
▁divisione	-7529
usei	-7530
▁simpa	-7531
▁pensieri	-7532
▁modulo	-7533
▁organizzazione	-7534
▁taglia	-7535
grafiche	-7536
▁dispone	-7537
▁realizzati	-7538
▁Monumenti	-7539
▁caratterizzato	-7540
▁Blu	-7541
▁Ore	-7542
▁campione	-7543
ellini	-7544
▁World	-7545
▁Napole	-7546
▁Anno	-7547
insieme	-7548
▁flo	-7549
▁risponde	-7550
▁assoluto	-7551
▁totalmente	-7552
tonio	-7553
▁arma	-7554
faccia	-7555
▁sanno	-7556
logiche	-7557
feo	-7558
▁Stre	-7559
▁seno	-7560
▁Tal	-7561
▁concerto	-7562
▁regionali	-7563
▁tagli	-7564
▁musicali	-7565
▁americano	-7566
informazione	-7567
▁propa	-7568
▁Salvatore	-7569
▁diffuso	-7570
▁Pisa	-7571
▁asciu	-7572
▁iniziò	-7573
▁identità	-7574
▁rimb	-7575
▁classica	-7576
▁Vangelo	-7577
▁finito	-7578
▁parere	-7579
▁potevano	-7580
▁visibile	-7581
▁valutare	-7582
,&	-7583
▁viso	-7584
glo	-7585
altezza	-7586
▁turismo	-7587
▁».	-7588
▁rappresentanti	-7589
▁Architetture	-7590
▁dottrina	-7591
▁Bari	-7592
▁purtroppo	-7593
▁Servizio	-7594
otto	-7595
▁riempi	-7596
zionario	-7597
▁morì	-7598
ennio	-7599
▁portando	-7600
▁sbar	-7601
elmo	-7602
uore	-7603
▁diceva	-7604
▁sorella	-7605
tè	-7606
▁colp	-7607
cto	-7608
▁vini	-7609
▁augu	-7610
▁fì	-7611
▁ferma	-7612
▁Pd	-7613
▁46	-7614
reste	-7615
▁seguendo	-7616
gone	-7617
▁portano	-7618
▁inta	-7619
▁episodi	-7620
▁compresa	-7621
▁assor	-7622
edizione	-7623
dizioni	-7624
▁controllare	-7625
UA	-7626
erio	-7627
canze	-7628
▁2019	-7629
▁coer	-7630
▁Europea	-7631
▁condotto	-7632
Tu	-7633
onalità	-7634
fficienti	-7635
▁aut	-7636
▁strategie	-7637
▁organizzazioni	-7638
quila	-7639
▁fuoi	-7640
▁sappiamo	-7641
▁occasioni	-7642
▁ple	-7643
▁professionali	-7644
▁rus	-7645
▁Paul	-7646
▁rilievo	-7647
▁orizz	-7648
▁Ze	-7649
itali	-7650
▁questioni	-7651
▁permettono	-7652
▁188	-7653
▁automatica	-7654
esterno	-7655
fran	-7656
▁modifiche	-7657
fri	-7658
▁praticamente	-7659
ira	-7660
ENTE	-7661
▁esterna	-7662
▁neanche	-7663
gersi	-7664
inasci	-7665
▁centinaia	-7666
artista	-7667
▁contrasto	-7668
▁profu	-7669
▁portale	-7670
▁finire	-7671
▁ebrei	-7672
ETTO	-7673
▁finché	-7674
▁compagno	-7675
▁individui	-7676
▁disposizioni	-7677
▁Quella	-7678
▁combattere	-7679
▁vor	-7680
▁ambientali	-7681
▁trenta	-7682
stri	-7683
▁originali	-7684
lese	-7685
▁44	-7686
stre	-7687
mella	-7688
▁band	-7689
uis	-7690
▁Pren	-7691
partimento	-7692
▁arricchi	-7693
▁ja	-7694
▁ulteriore	-7695
altare	-7696
▁probabilità	-7697
Vi	-7698
letto	-7699
mance	-7700
▁edificio	-7701
▁frutta	-7702
▁giudice	-7703
ttone	-7704
▁pittore	-7705
ZIA	-7706
▁diffusa	-7707
▁tv	-7708
▁religioso	-7709
▁yo	-7710
▁conser	-7711
▁cra	-7712
cane	-7713
▁brano	-7714
▁van	-7715
▁trovava	-7716
▁decenni	-7717
▁presid	-7718
▁procla	-7719
▁Ko	-7720
loso	-7721
▁Calabria	-7722
▁if	-7723
▁finestra	-7724
essori	-7725
▁You	-7726
▁dovuta	-7727
▁marina	-7728
UL	-7729
apertura	-7730
▁decisamente	-7731
▁siccome	-7732
datura	-7733
vezza	-7734
▁misteri	-7735
▁ottiene	-7736
▁richiesto	-7737
▁nacque	-7738
▁Veneto	-7739
▁Costituzione	-7740
riano	-7741
gru	-7742
▁Red	-7743
▁lenta	-7744
▁von	-7745
▁Cielo	-7746
▁medievale	-7747
rd	-7748
▁Ki	-7749
▁divina	-7750
▁satelli	-7751
▁Battista	-7752
▁inserire	-7753
▁49	-7754
mbas	-7755
▁primaria	-7756
▁cittadinanza	-7757
▁rischia	-7758
▁sentimenti	-7759
▁Ana	-7760
▁prospettiva	-7761
▁raggiunge	-7762
TM	-7763
▁metalli	-7764
▁Israele	-7765
▁mara	-7766
▁cala	-7767
▁zero	-7768
▁tabella	-7769
▁2002	-7770
▁cinese	-7771
▁sè	-7772
▁ricchezza	-7773
▁ghi	-7774
▁presentata	-7775
▁bensì	-7776
▁ripresa	-7777
inamento	-7778
▁definitivamente	-7779
ael	-7780
tted	-7781
rino	-7782
▁arrivo	-7783
▁riscal	-7784
▁lezione	-7785
▁ristruttura	-7786
▁tavolo	-7787
▁conveni	-7788
▁spet	-7789
▁star	-7790
ettive	-7791
mble	-7792
tudini	-7793
inqu	-7794
▁Jean	-7795
▁perde	-7796
ast	-7797
▁signori	-7798
▁spontan	-7799
▁riconosciuto	-7800
▁farmaci	-7801
▁arro	-7802
▁fedel	-7803
▁rapidamente	-7804
▁audio	-7805
▁Ferrari	-7806
▁Van	-7807
▁tiro	-7808
▁andato	-7809
ruzione	-7810
▁allievi	-7811
▁riuscito	-7812
▁paesaggio	-7813
▁Internazionale	-7814
▁capaci	-7815
if	-7816
▁DELLE	-7817
▁Rossi	-7818
▁fondazione	-7819
enni	-7820
▁formula	-7821
ttuale	-7822
cis	-7823
▁Corpo	-7824
▁legame	-7825
▁piatti	-7826
▁essenziale	-7827
falone	-7828
▁vere	-7829
▁esprimere	-7830
▁raccogliere	-7831
▁pesce	-7832
matici	-7833
CIA	-7834
▁Viene	-7835
▁circuito	-7836
▁resa	-7837
▁trans	-7838
▁radici	-7839
▁previsti	-7840
ulta	-7841
▁Rin	-7842
▁grosso	-7843
VER	-7844
▁ditta	-7845
mette	-7846
▁debito	-7847
▁componente	-7848
obbli	-7849
▁Sua	-7850
▁signora	-7851
asta	-7852
▁Utili	-7853
▁Gabri	-7854
▁Fioren	-7855
▁marchio	-7856
▁individuare	-7857
ara	-7858
INE	-7859
▁avvenuto	-7860
▁tasso	-7861
▁stadio	-7862
zionalità	-7863
colari	-7864
▁animale	-7865
▁sintesi	-7866
▁elettronica	-7867
stito	-7868
▁costrin	-7869
▁Leo	-7870
▁rasse	-7871
▁2)	-7872
▁assume	-7873
▁LIB	-7874
▁NON	-7875
pponese	-7876
▁importa	-7877
▁conduce	-7878
▁iniziativa	-7879
▁catena	-7880
▁manifestazioni	-7881
ostro	-7882
▁Istituto	-7883
▁Pom	-7884
▁prevista	-7885
uf	-7886
37	-7887
gus	-7888
▁cavali	-7889
▁fcri	-7890
▁Berlino	-7891
▁successive	-7892
▁Archi	-7893
▁collina	-7894
ban	-7895
▁feudo	-7896
▁affari	-7897
▁record	-7898
▁immer	-7899
▁enorme	-7900
rici	-7901
▁attacco	-7902
▁approccio	-7903
▁Are	-7904
▁Figlio	-7905
▁dettaglio	-7906
▁solidarietà	-7907
No	-7908
temi	-7909
▁commenti	-7910
▁sentito	-7911
▁Ligu	-7912
▁premia	-7913
▁profondità	-7914
▁spedizione	-7915
terraneo	-7916
▁ufficialmente	-7917
▁individuale	-7918
cifi	-7919
tic	-7920
▁120	-7921
▁Progetto	-7922
dt	-7923
▁adi	-7924
▁sten	-7925
▁Ancora	-7926
▁riportato	-7927
ye	-7928
▁amor	-7929
retto	-7930
▁fornisce	-7931
BO	-7932
viene	-7933
56	-7934
rete	-7935
▁efl	-7936
▁ministero	-7937
▁animo	-7938
▁Altro	-7939
▁rendono	-7940
▁compati	-7941
▁Lettera	-7942
▁Nello	-7943
▁disegni	-7944
STI	-7945
ones	-7946
schi	-7947
▁carità	-7948
▁terres	-7949
▁ges	-7950
▁dici	-7951
▁segretario	-7952
▁stretto	-7953
▁connessione	-7954
▁Fonte	-7955
].	-7956
▁orto	-7957
llazione	-7958
▁costituzione	-7959
▁Cine	-7960
▁Costantino	-7961
▁tradizioni	-7962
NE	-7963
▁remo	-7964
▁crimina	-7965
'8	-7966
Com	-7967
▁felicità	-7968
▁sospen	-7969
arg	-7970
▁uguale	-7971
▁garanzia	-7972
▁Ferrara	-7973
32	-7974
▁procedure	-7975
▁recipro	-7976
▁affida	-7977
plica	-7978
▁vite	-7979
▁indossa	-7980
▁industriali	-7981
TURA	-7982
▁Book	-7983
▁Dunque	-7984
rei	-7985
▁Sinda	-7986
▁sesso	-7987
▁Ron	-7988
▁usata	-7989
▁Formula	-7990
▁pesante	-7991
▁ristorante	-7992
▁volumi	-7993
▁neve	-7994
cultura	-7995
ucci	-7996
efa	-7997
▁tesi	-7998
▁vertica	-7999
▁seg	-8000
▁banda	-8001
ORMA	-8002
▁vasta	-8003
▁Rapp	-8004
▁ridi	-8005
evoluzione	-8006
inca	-8007
▁ucciso	-8008
▁corretto	-8009
▁commissione	-8010
ult	-8011
▁vuoto	-8012
38	-8013
▁infe	-8014
▁elevato	-8015
gamo	-8016
ggiano	-8017
▁Intanto	-8018
occhio	-8019
▁Brescia	-8020
▁semina	-8021
Ad	-8022
▁loco	-8023
▁morbi	-8024
▁decidere	-8025
▁desid	-8026
▁quarta	-8027
▁Mai	-8028
▁scul	-8029
▁turno	-8030
geni	-8031
▁manuten	-8032
▁vivi	-8033
▁dodici	-8034
▁iner	-8035
▁han	-8036
▁Rich	-8037
▁lava	-8038
cta	-8039
▁cure	-8040
▁santa	-8041
▁Marina	-8042
31	-8043
fimo	-8044
▁calo	-8045
▁giornale	-8046
▁Essa	-8047
▁Luna	-8048
▁procedere	-8049
pire	-8050
▁giù	-8051
▁lus	-8052
▁sapi	-8053
▁polvere	-8054
▁Berlusconi	-8055
ingere	-8056
▁storiche	-8057
pr	-8058
▁ped	-8059
ccata	-8060
▁anime	-8061
▁potenziale	-8062
▁documen	-8063
▁isole	-8064
urs	-8065
▁possiede	-8066
bano	-8067
▁Prote	-8068
▁Android	-8069
▁citato	-8070
▁raggio	-8071
messe	-8072
▁sussi	-8073
34	-8074
insta	-8075
eco	-8076
▁comprensione	-8077
.).	-8078
▁CD	-8079
▁ingresso	-8080
▁pista	-8081
ZE	-8082
▁riprese	-8083
▁benefici	-8084
500	-8085
▁Conos	-8086
bet	-8087
▁parall	-8088
▁person	-8089
▁pranzo	-8090
▁pronti	-8091
▁amministrazione	-8092
matiche	-8093
▁impresa	-8094
▁costituiscono	-8095
▁destino	-8096
sura	-8097
▁attesta	-8098
FA	-8099
▁altresì	-8100
▁Robert	-8101
▁versioni	-8102
sserva	-8103
▁Film	-8104
▁Peter	-8105
▁tessuto	-8106
▁tasti	-8107
▁vorrei	-8108
più	-8109
▁appartenenti	-8110
ccini	-8111
ismi	-8112
▁quod	-8113
▁neppure	-8114
▁Fal	-8115
▁sottoscri	-8116
curo	-8117
▁dormi	-8118
▁rappresentare	-8119
▁colpito	-8120
▁poca	-8121
▁tron	-8122
artiene	-8123
▁ossi	-8124
▁avranno	-8125
lemme	-8126
nu	-8127
ufficio	-8128
▁commento	-8129
.1	-8130
▁sva	-8131
▁tour	-8132
▁server	-8133
▁ira	-8134
▁vedo	-8135
▁capitali	-8136
ombra	-8137
▁nasc	-8138
▁alimenti	-8139
gò	-8140
▁antro	-8141
▁tari	-8142
▁stabilito	-8143
▁somministra	-8144
▁regolamento	-8145
gnante	-8146
ml	-8147
phi	-8148
▁seria	-8149
TORI	-8150
vedi	-8151
▁Comp	-8152
ciatore	-8153
▁zi	-8154
▁relativamente	-8155
▁Alex	-8156
ortunità	-8157
▁Sve	-8158
duci	-8159
perte	-8160
zionamento	-8161
▁Dipartimento	-8162
▁riferisce	-8163
▁basato	-8164
▁carcere	-8165
▁negozio	-8166
▁finora	-8167
▁faccio	-8168
orzio	-8169
cchetto	-8170
oolrich	-8171
cherà	-8172
▁salvare	-8173
▁Mare	-8174
▁domin	-8175
▁Direttore	-8176
▁dichiarazione	-8177
▁campagne	-8178
▁Carta	-8179
▁scrisse	-8180
▁episodio	-8181
▁out	-8182
ppie	-8183
▁coloni	-8184
▁diffon	-8185
▁provato	-8186
▁opinione	-8187
▁medica	-8188
busti	-8189
br	-8190
ot	-8191
▁soccorso	-8192
▁artistico	-8193
elen	-8194
▁book	-8195
▁maschile	-8196
▁preventi	-8197
▁sostenibile	-8198
▁inserito	-8199
▁Martin	-8200
▁tuttora	-8201
▁eco	-8202
▁attacchi	-8203
▁41	-8204
▁TRA	-8205
▁penso	-8206
mocra	-8207
▁tappa	-8208
▁slo	-8209
▁Inghilterra	-8210
▁generazioni	-8211
▁previste	-8212
▁47	-8213
curi	-8214
pedia	-8215
▁agenti	-8216
▁conferenza	-8217
▁Organi	-8218
▁lancio	-8219
rocco	-8220
▁bassi	-8221
▁famosa	-8222
▁aposto	-8223
enz	-8224
▁pubblicata	-8225
letti	-8226
▁concetti	-8227
hu	-8228
▁marmo	-8229
▁boschi	-8230
▁AI	-8231
▁lumin	-8232
▁attori	-8233
▁ridotto	-8234
▁sostiene	-8235
ciclo	-8236
▁riven	-8237
▁Insomma	-8238
▁leggermente	-8239
▁Epi	-8240
▁caffè	-8241
▁taglio	-8242
▁ME	-8243
▁cera	-8244
onima	-8245
▁padrone	-8246
▁cima	-8247
▁lievi	-8248
PS	-8249
plo	-8250
smi	-8251
▁ROM	-8252
argento	-8253
▁trasfer	-8254
▁10,	-8255
▁Comunale	-8256
burgo	-8257
▁Ese	-8258
▁giornate	-8259
▁esseri	-8260
▁collabora	-8261
▁sottra	-8262
▁8,	-8263
▁Sede	-8264
▁Ministro	-8265
▁nati	-8266
▁cervello	-8267
▁My	-8268
...)	-8269
▁Blo	-8270
▁ragazze	-8271
▁ricchi	-8272
▁Però	-8273
zzini	-8274
ett	-8275
▁definitiva	-8276
▁Bamb	-8277
▁appa	-8278
▁pareti	-8279
ttività	-8280
lanza	-8281
nei	-8282
xy	-8283
FI	-8284
pare	-8285
▁Jack	-8286
unzia	-8287
▁ster	-8288
▁mettendo	-8289
▁trattati	-8290
▁utilizzate	-8291
▁Pale	-8292
▁meravigli	-8293
aldo	-8294
▁sconfitta	-8295
urre	-8296
▁Elisa	-8297
▁sinte	-8298
▁nazi	-8299
▁terremoto	-8300
idi	-8301
▁ritiene	-8302
▁avvenuta	-8303
▁circonda	-8304
gnata	-8305
▁uova	-8306
▁9,	-8307
▁cessa	-8308
universo	-8309
▁(196	-8310
ama	-8311
▁Siena	-8312
▁fronti	-8313
▁AM	-8314
far	-8315
▁Magi	-8316
▁eser	-8317
▁vano	-8318
==	-8319
▁individuali	-8320
cht	-8321
▁spiegato	-8322
guardia	-8323
tton	-8324
▁fame	-8325
▁Ponti	-8326
▁massi	-8327
▁copertura	-8328
▁giornalista	-8329
▁LO	-8330
▁Milan	-8331
▁Cavali	-8332
▁Vienna	-8333
▁chitar	-8334
nello	-8335
▁corni	-8336
ule	-8337
▁compiti	-8338
▁colonne	-8339
▁pittura	-8340
▁pò	-8341
-20	-8342
▁Pin	-8343
▁cicli	-8344
▁chirur	-8345
ogni	-8346
▁largo	-8347
ón	-8348
▁publi	-8349
▁Michael	-8350
insegnamento	-8351
ettata	-8352
atmosfera	-8353
▁Leonardo	-8354
-8	-8355
▁resp	-8356
▁morta	-8357
ICE	-8358
▁Leggi	-8359
▁Aff	-8360
▁vedi	-8361
▁felici	-8362
▁educazione	-8363
chestra	-8364
anesimo	-8365
▁gonfalone	-8366
cno	-8367
▁musici	-8368
▁usu	-8369
▁contatti	-8370
▁angolo	-8371
▁fondato	-8372
▁ricorso	-8373
▁portati	-8374
▁mercati	-8375
’,	-8376
eris	-8377
▁guardia	-8378
▁Sacra	-8379
ac	-8380
▁riva	-8381
▁destinato	-8382
▁cardinale	-8383
▁prevalentemente	-8384
jì	-8385
▁dibattito	-8386
aller	-8387
▁riscontra	-8388
▁Ol	-8389
wser	-8390
▁Alcune	-8391
▁centrali	-8392
Is	-8393
▁PD	-8394
▁proprietario	-8395
▁Contra	-8396
▁riuscire	-8397
▁RIS	-8398
▁documentazione	-8399
▁frequenta	-8400
ald	-8401
▁ascoltare	-8402
▁ucc	-8403
trona	-8404
▁abitato	-8405
▁sorpren	-8406
▁facciamo	-8407
▁Sho	-8408
▁Trento	-8409
istruzione	-8410
▁calda	-8411
try	-8412
▁altezza	-8413
ag	-8414
redi	-8415
▁capitano	-8416
ettivo	-8417
▁dubbi	-8418
▁salvo	-8419
mboli	-8420
▁triste	-8421
▁esame	-8422
▁Proprio	-8423
▁residenza	-8424
▁convo	-8425
pati	-8426
\)	-8427
giorno	-8428
▁giunta	-8429
▁investimenti	-8430
▁Sti	-8431
▁Corso	-8432
▁frequenti	-8433
Lo	-8434
diso	-8435
▁studiare	-8436
cursi	-8437
▁susci	-8438
▁tem	-8439
▁difficili	-8440
▁giapponese	-8441
▁fecondo	-8442
▁giura	-8443
ettando	-8444
▁contributi	-8445
▁France	-8446
▁consenso	-8447
▁coinci	-8448
▁affas	-8449
▁sento	-8450
▁ulteriormente	-8451
▁comme	-8452
▁interessati	-8453
▁Dar	-8454
▁esce	-8455
▁suddivi	-8456
▁AD	-8457
pposi	-8458
rra	-8459
▁Pet	-8460
▁simboli	-8461
▁passati	-8462
▁sorpresa	-8463
-.	-8464
▁scorre	-8465
▁potenti	-8466
▁psico	-8467
missioni	-8468
▁esistenti	-8469
▁NEL	-8470
▁TO	-8471
▁potrete	-8472
▁annunciato	-8473
0.000	-8474
▁liberi	-8475
▁Rocca	-8476
▁batteria	-8477
▁insu	-8478
▁usati	-8479
▁crista	-8480
▁cercato	-8481
▁Nuovo	-8482
▁https	-8483
▁Isa	-8484
▁ebbero	-8485
▁normativa	-8486
espressione	-8487
▁spiegare	-8488
▁0.	-8489
▁deva	-8490
▁carro	-8491
▁decre	-8492
▁ingegn	-8493
acco	-8494
▁esprime	-8495
▁tendenza	-8496
▁Costa	-8497
▁terreni	-8498
▁combatti	-8499
stino	-8500
▁care	-8501
teche	-8502
cho	-8503
▁marketing	-8504
▁sforzo	-8505
▁centra	-8506
▁Scienze	-8507
▁sintomi	-8508
▁Emanu	-8509
▁andata	-8510
ade	-8511
▁usando	-8512
▁pioggia	-8513
witter	-8514
-9	-8515
ssia	-8516
▁REG	-8517
ellino	-8518
59	-8519
▁Usa	-8520
▁Fia	-8521
▁James	-8522
ls	-8523
▁raccomanda	-8524
▁laboratori	-8525
uano	-8526
▁pall	-8527
▁giovedì	-8528
▁assoluta	-8529
▁bril	-8530
▁sv	-8531
▁prender	-8532
cha	-8533
imm	-8534
▁Quel	-8535
vallo	-8536
▁accum	-8537
Ba	-8538
zoni	-8539
red	-8540
▁coniu	-8541
▁perdono	-8542
▁statale	-8543
▁COR	-8544
▁dor	-8545
▁ita	-8546
▁rivolu	-8547
▁disce	-8548
▁territoriale	-8549
▁rese	-8550
▁Giulia	-8551
goglio	-8552
cursioni	-8553
▁AC	-8554
▁11.	-8555
▁puro	-8556
▁spiaggia	-8557
▁Può	-8558
!!!	-8559
▁Ero	-8560
inione	-8561
esercizio	-8562
▁leggenda	-8563
▁organizzare	-8564
▁trasferimento	-8565
▁diso	-8566
▁brani	-8567
impa	-8568
tanta	-8569
▁voca	-8570
▁flusso	-8571
▁appartiene	-8572
▁abba	-8573
▁minima	-8574
▁accenna	-8575
▁servire	-8576
nis	-8577
▁avvicin	-8578
gorio	-8579
prima	-8580
▁cominciò	-8581
▁inviare	-8582
ben	-8583
▁Mala	-8584
▁plastica	-8585
▁conve	-8586
Austria	-8587
▁trovere	-8588
▁TER	-8589
▁decisioni	-8590
▁Radio	-8591
▁eredi	-8592
▁mistero	-8593
agricoltura	-8594
▁scolastica	-8595
ggeri	-8596
ggiate	-8597
df	-8598
osserva	-8599
▁accompa	-8600
▁sh	-8601
▁cass	-8602
▁cavalli	-8603
▁europee	-8604
▁Seb	-8605
%)	-8606
TRI	-8607
quale	-8608
▁dieta	-8609
Do	-8610
▁oma	-8611
▁torrente	-8612
▁fue	-8613
▁indo	-8614
▁osservazioni	-8615
▁occhio	-8616
▁circolare	-8617
gnosi	-8618
▁42	-8619
sogna	-8620
▁bina	-8621
▁gesto	-8622
▁recentemente	-8623
▁ATTO	-8624
▁Economia	-8625
▁prescri	-8626
▁coe	-8627
▁accettare	-8628
etu	-8629
▁raccontare	-8630
sin	-8631
▁giunto	-8632
▁Hen	-8633
▁arbi	-8634
▁pubblicità	-8635
▁fior	-8636
▁Unito	-8637
▁Dell	-8638
▁foglio	-8639
▁dee	-8640
ttedrale	-8641
▁registrazione	-8642
▁Rego	-8643
▁canzoni	-8644
quanto	-8645
clusione	-8646
▁Cra	-8647
▁elettorale	-8648
▁straordinaria	-8649
▁ricostruzione	-8650
,.	-8651
venuti	-8652
▁vittima	-8653
▁assumere	-8654
▁rivolto	-8655
giato	-8656
▁Reggio	-8657
▁calendario	-8658
foro	-8659
tinera	-8660
▁TU	-8661
▁aspi	-8662
▁comunicare	-8663
▁University	-8664
▁compli	-8665
▁Poiché	-8666
▁Attività	-8667
▁sportivo	-8668
▁att	-8669
▁dissi	-8670
▁estate	-8671
▁202	-8672
▁moneta	-8673
▁Picco	-8674
▁George	-8675
hr	-8676
▁povertà	-8677
▁affetto	-8678
▁stabilire	-8679
▁organizzata	-8680
▁licenza	-8681
▁alternativa	-8682
▁Anni	-8683
▁Conci	-8684
▁mesti	-8685
▁Raffa	-8686
▁rossa	-8687
▁discor	-8688
▁Domenica	-8689
▁ft	-8690
▁probabile	-8691
▁Successi	-8692
way	-8693
▁pene	-8694
mbiente	-8695
▁altrettanto	-8696
eu	-8697
▁opinioni	-8698
▁Liber	-8699
▁architett	-8700
sime	-8701
▁Svilu	-8702
▁elevata	-8703
42	-8704
GE	-8705
▁espresso	-8706
▁rami	-8707
▁marcia	-8708
▁tr	-8709
binieri	-8710
▁vediamo	-8711
ning	-8712
▁agire	-8713
han	-8714
▁preparare	-8715
▁testimonia	-8716
rolo	-8717
▁ottenne	-8718
▁coinvolti	-8719
▁Res	-8720
▁opportuno	-8721
▁minuto	-8722
cipio	-8723
riale	-8724
terina	-8725
▁americana	-8726
▁manutenzione	-8727
fino	-8728
▁Anzi	-8729
▁luna	-8730
cker	-8731
▁incora	-8732
▁sorgente	-8733
▁svolgimento	-8734
▁sacerdote	-8735
fs	-8736
▁persi	-8737
aeroporto	-8738
▁performance	-8739
devano	-8740
▁finalità	-8741
▁dimostrare	-8742
▁registrato	-8743
MS	-8744
▁Dice	-8745
▁sacro	-8746
▁ritrova	-8747
gona	-8748
▁flui	-8749
ciando	-8750
giana	-8751
▁appren	-8752
▁Visi	-8753
indirizzo	-8754
vanza	-8755
▁fotografia	-8756
▁).	-8757
ttimo	-8758
giati	-8759
▁inedi	-8760
▁comanda	-8761
▁coro	-8762
▁timore	-8763
▁acquisto	-8764
▁abita	-8765
ense	-8766
ington	-8767
ficazioni	-8768
▁12.	-8769
▁navigazione	-8770
▁Ferro	-8771
▁settentrionale	-8772
▁Gon	-8773
▁lire	-8774
▁poteri	-8775
▁bom	-8776
▁democrazia	-8777
%,	-8778
cuo	-8779
▁Ì	-8780
mbur	-8781
▁Mana	-8782
▁avversa	-8783
▁trovò	-8784
▁bronzo	-8785
ggiamenti	-8786
▁tappe	-8787
▁Borgo	-8788
▁pietre	-8789
pendenza	-8790
▁gel	-8791
▁sec	-8792
▁flessi	-8793
▁scienzia	-8794
▁Yo	-8795
vangeli	-8796
▁rendendo	-8797
▁testimonianze	-8798
▁impatto	-8799
▁modificare	-8800
▁sentimento	-8801
▁quinto	-8802
▁Cur	-8803
▁elo	-8804
▁monti	-8805
▁requisiti	-8806
▁coopera	-8807
mol	-8808
onario	-8809
fan	-8810
parte	-8811
terebbe	-8812
vescovo	-8813
▁Gugli	-8814
▁sinis	-8815
▁suggesti	-8816
▁scal	-8817
▁esercizi	-8818
▁bandiera	-8819
bola	-8820
▁vergo	-8821
▁salvezza	-8822
cciare	-8823
▁rispose	-8824
▁Tali	-8825
▁fiscale	-8826
ranei	-8827
▁65	-8828
asci	-8829
tarlo	-8830
▁cellulare	-8831
-200	-8832
ssario	-8833
▁alter	-8834
▁colleghi	-8835
▁Ada	-8836
▁Gali	-8837
letta	-8838
ortato	-8839
ds	-8840
entare	-8841
tralia	-8842
▁colazione	-8843
▁Novecento	-8844
▁parete	-8845
granti	-8846
Gi	-8847
00,	-8848
▁VO	-8849
▁lavorato	-8850
▁risparmia	-8851
▁immen	-8852
De	-8853
stem	-8854
destra	-8855
word	-8856
▁greca	-8857
▁conosciuta	-8858
▁Foto	-8859
▁alimentari	-8860
▁visitatori	-8861
▁avveni	-8862
▁Gala	-8863
▁condivisione	-8864
-7	-8865
off	-8866
▁Molto	-8867
▁artistica	-8868
cchetti	-8869
gliamento	-8870
cerà	-8871
miti	-8872
▁tetto	-8873
▁corrispondenza	-8874
▁1999	-8875
▁ciocco	-8876
??	-8877
▁raccolti	-8878
▁Savo	-8879
▁iu	-8880
load	-8881
▁ritiro	-8882
▁curiosità	-8883
▁sena	-8884
▁ripri	-8885
▁vitto	-8886
▁Modena	-8887
▁ritorn	-8888
inò	-8889
▁97	-8890
▁Citta	-8891
▁Ves	-8892
▁Regina	-8893
inna	-8894
▁Lago	-8895
dea	-8896
stein	-8897
dinando	-8898
▁regina	-8899
▁volontaria	-8900
▁Attu	-8901
▁Africa	-8902
zionalmente	-8903
vella	-8904
▁tenendo	-8905
ghese	-8906
.),	-8907
zer	-8908
▁GA	-8909
▁scrittori	-8910
Io	-8911
sten	-8912
vita	-8913
▁tipico	-8914
▁fero	-8915
▁provvi	-8916
ressione	-8917
▁St	-8918
▁besti	-8919
▁riass	-8920
65	-8921
▁Guida	-8922
appar	-8923
▁assenza	-8924
lon	-8925
ccando	-8926
impianto	-8927
▁esistenza	-8928
guito	-8929
▁schiavi	-8930
▁Ameri	-8931
▁compiere	-8932
▁stabile	-8933
▁Nè	-8934
▁Nova	-8935
▁Ton	-8936
▁75	-8937
▁anziani	-8938
▁annuale	-8939
▁istruzione	-8940
fono	-8941
▁religiosi	-8942
▁precisione	-8943
iii	-8944
▁perpet	-8945
▁saggio	-8946
▁costumi	-8947
▁offrono	-8948
▁sensazione	-8949
▁Ulti	-8950
▁scritte	-8951
▁Massa	-8952
▁pasti	-8953
▁mattino	-8954
grati	-8955
▁Simone	-8956
▁Imma	-8957
'^	-8958
trai	-8959
▁udi	-8960
▁rimar	-8961
fcia	-8962
colto	-8963
▁virus	-8964
apprendimento	-8965
▁discre	-8966
▁consent	-8967
▁consentire	-8968
▁Mani	-8969
grafici	-8970
▁iscritti	-8971
oggetto	-8972
▁monastero	-8973
ICI	-8974
Inter	-8975
▁GEN	-8976
▁Buon	-8977
▁famosi	-8978
▁Tommaso	-8979
nea	-8980
▁crescente	-8981
▁Emanuele	-8982
▁browser	-8983
▁terapia	-8984
mili	-8985
▁ricordi	-8986
▁vedono	-8987
fabe	-8988
▁corrispondente	-8989
▁var	-8990
▁circostanze	-8991
dc	-8992
▁Peru	-8993
ttica	-8994
tensione	-8995
hai	-8996
▁SEC	-8997
▁99	-8998
▁continuità	-8999
ée	-9000
anismo	-9001
▁reddito	-9002
▁MAR	-9003
▁quante	-9004
▁Successivamente	-9005
/19	-9006
▁Tru	-9007
▁stamp	-9008
▁contemp	-9009
▁monumento	-9010
vico	-9011
lizia	-9012
▁Bruno	-9013
gal	-9014
▁Guido	-9015
obbligo	-9016
▁critici	-9017
▁-,	-9018
▁studiosi	-9019
asp	-9020
ille	-9021
▁abili	-9022
▁Numero	-9023
hy	-9024
▁basata	-9025
interpre	-9026
▁fornito	-9027
▁effettuato	-9028
lc	-9029
HE	-9030
▁160	-9031
eve	-9032
importante	-9033
▁GIO	-9034
▁mappa	-9035
▁soddisfare	-9036
▁effettivamente	-9037
▁Sel	-9038
▁Gregorio	-9039
▁istruzioni	-9040
▁ze	-9041
cula	-9042
varsi	-9043
esame	-9044
▁cadere	-9045
▁fantasia	-9046
ttò	-9047
▁cassa	-9048
▁dovesse	-9049
lum	-9050
arle	-9051
▁Muni	-9052
▁operare	-9053
▁radia	-9054
dese	-9055
▁petro	-9056
▁precedenza	-9057
▁cambiato	-9058
lito	-9059
cei	-9060
▁visite	-9061
▁É	-9062
lay	-9063
▁coste	-9064
▁terzi	-9065
bino	-9066
inata	-9067
▁paga	-9068
▁Catto	-9069
▁accen	-9070
gire	-9071
▁variabile	-9072
▁laurea	-9073
▁duro	-9074
▁Puglia	-9075
.»	-9076
sibile	-9077
▁rifer	-9078
Mo	-9079
▁Dott	-9080
▁Ross	-9081
dete	-9082
▁allontana	-9083
▁pei	-9084
▁cifra	-9085
▁Gerusa	-9086
▁amplia	-9087
▁private	-9088
▁americani	-9089
TOLO	-9090
▁rock	-9091
▁compresi	-9092
istiche	-9093
▁vacanza	-9094
dero	-9095
espon	-9096
▁impianto	-9097
▁bosco	-9098
cchiere	-9099
▁concesso	-9100
▁Ono	-9101
▁Award	-9102
identità	-9103
▁montagne	-9104
▁fuor	-9105
▁economia	-9106
mberto	-9107
▁fiumi	-9108
▁indagini	-9109
▁riguardano	-9110
▁distruzione	-9111
▁hau	-9112
mie	-9113
▁1000	-9114
▁aggiornamento	-9115
gerà	-9116
asi	-9117
▁Maurizio	-9118
/1	-9119
▁rio	-9120
▁idone	-9121
gobar	-9122
▁retta	-9123
ficando	-9124
▁esercizio	-9125
ficate	-9126
▁cagione	-9127
▁riposo	-9128
▁altrove	-9129
opportunità	-9130
ku	-9131
anchi	-9132
▁Aposto	-9133
▁dili	-9134
▁Riccar	-9135
▁EN	-9136
▁Liv	-9137
▁peda	-9138
▁ep	-9139
▁CHE	-9140
▁popolari	-9141
▁Basilica	-9142
▁inevi	-9143
▁ricercatori	-9144
▁rad	-9145
ghezza	-9146
▁avrei	-9147
▁abbandon	-9148
▁assegnato	-9149
autorità	-9150
▁VA	-9151
▁secondaria	-9152
▁accel	-9153
▁2021	-9154
▁from	-9155
▁accon	-9156
▁Messi	-9157
▁mostrato	-9158
▁approvato	-9159
iale	-9160
▁pann	-9161
▁fermo	-9162
▁proporre	-9163
▁eliminare	-9164
▁straniere	-9165
pori	-9166
▁Napoleone	-9167
▁@	-9168
▁lode	-9169
▁Ricerca	-9170
▁raccolto	-9171
▁CAR	-9172
cimento	-9173
lized	-9174
euro	-9175
▁masch	-9176
▁Essi	-9177
gement	-9178
▁guerri	-9179
▁imperiale	-9180
▁Associazione	-9181
▁accompagnato	-9182
▁partendo	-9183
fp	-9184
▁sai	-9185
fce	-9186
▁quant	-9187
alza	-9188
▁sop	-9189
▁Bona	-9190
▁vince	-9191
▁professore	-9192
▁Associa	-9193
▁cimi	-9194
▁Piero	-9195
uite	-9196
▁fattore	-9197
▁War	-9198
▁ITALI	-9199
▁Sky	-9200
▁botti	-9201
▁interne	-9202
▁arrivano	-9203
▁Bergamo	-9204
▁candidato	-9205
gino	-9206
▁pub	-9207
argomento	-9208
▁Vedi	-9209
minati	-9210
▁Sistema	-9211
▁martedì	-9212
▁CE	-9213
▁conclude	-9214
▁cerimonia	-9215
alti	-9216
▁mail	-9217
▁Gerusalemme	-9218
▁56	-9219
▁Coppa	-9220
▁mancano	-9221
▁diparti	-9222
▁riuscita	-9223
ipotesi	-9224
▁disper	-9225
▁tipologia	-9226
leo	-9227
▁Fan	-9228
▁lavorazione	-9229
So	-9230
telo	-9231
▁aumenta	-9232
▁tratten	-9233
deri	-9234
▁treno	-9235
ttanta	-9236
▁amare	-9237
▁affian	-9238
▁immi	-9239
▁metropolitana	-9240
ONO	-9241
▁manda	-9242
▁produttori	-9243
▁Giochi	-9244
▁Brasile	-9245
▁appuntamento	-9246
▁caus	-9247
▁Maggiore	-9248
▁province	-9249
introduzione	-9250
▁ragg	-9251
▁Medici	-9252
▁diocesi	-9253
▁edizioni	-9254
ssio	-9255
gnando	-9256
dentali	-9257
▁destro	-9258
▁eccezione	-9259
▁sem	-9260
▁Festa	-9261
▁trovate	-9262
▁fte	-9263
plici	-9264
ficano	-9265
lò	-9266
▁opzioni	-9267
▁aggra	-9268
▁sogni	-9269
torni	-9270
▁farebbe	-9271
poi	-9272
▁prolun	-9273
entamento	-9274
erate	-9275
▁servono	-9276
http	-9277
ford	-9278
▁confermato	-9279
▁arco	-9280
gliate	-9281
▁poste	-9282
Accademia	-9283
▁Dol	-9284
onna	-9285
pita	-9286
▁necessariamente	-9287
uch	-9288
▁Candi	-9289
▁saputo	-9290
minata	-9291
▁Cappella	-9292
▁valorizzazione	-9293
vet	-9294
▁definita	-9295
urato	-9296
▁impon	-9297
▁ufficio	-9298
▁costantemente	-9299
▁pura	-9300
▁convento	-9301
Ordine	-9302
▁Iddio	-9303
▁sforzi	-9304
▁avvenne	-9305
▁64	-9306
▁dapp	-9307
aumento	-9308
▁dedicati	-9309
▁considerati	-9310
▁circolazione	-9311
gliendo	-9312
▁accres	-9313
▁Ei	-9314
▁quefto	-9315
▁Memo	-9316
▁prodi	-9317
▁sensibilità	-9318
▁sonno	-9319
impero	-9320
▁conseguente	-9321
▁chie	-9322
cona	-9323
elles	-9324
▁inglesi	-9325
▁pubblicati	-9326
▁solitamente	-9327
▁entrò	-9328
tona	-9329
▁gentile	-9330
▁pregiudi	-9331
▁tipici	-9332
▁offerto	-9333
▁campani	-9334
uit	-9335
▁coa	-9336
▁frazioni	-9337
sol	-9338
▁realizzate	-9339
▁Alpi	-9340
ship	-9341
▁sepp	-9342
▁insomma	-9343
teni	-9344
▁Libro	-9345
▁diventano	-9346
▁sportiva	-9347
▁ubi	-9348
reria	-9349
▁mete	-9350
▁giudica	-9351
rn	-9352
▁ami	-9353
▁divisa	-9354
▁fpi	-9355
▁armoni	-9356
CHI	-9357
erno	-9358
ondi	-9359
▁formano	-9360
▁operazione	-9361
vidu	-9362
▁Miglior	-9363
▁esor	-9364
▁inser	-9365
▁blocco	-9366
":	-9367
kin	-9368
▁adolesc	-9369
trio	-9370
retti	-9371
▁IT	-9372
▁essenziali	-9373
▁sessuale	-9374
▁patto	-9375
▁Ala	-9376
▁degno	-9377
▁Vescovo	-9378
▁corro	-9379
▁incari	-9380
doni	-9381
▁equilibrio	-9382
▁caratterizzata	-9383
▁À	-9384
tai	-9385
giani	-9386
▁ingredienti	-9387
▁scontro	-9388
▁autonomia	-9389
▁corto	-9390
▁mezza	-9391
▁colonia	-9392
▁discipline	-9393
▁170	-9394
▁gambe	-9395
▁variazioni	-9396
eek	-9397
rini	-9398
▁Donna	-9399
▁contraddi	-9400
▁determinare	-9401
ep	-9402
velo	-9403
▁(5	-9404
cea	-9405
uovo	-9406
album	-9407
uc	-9408
▁eri	-9409
▁quer	-9410
▁Gua	-9411
▁tematiche	-9412
▁rivesti	-9413
▁Crea	-9414
▁sovie	-9415
▁indispensabile	-9416
▁monete	-9417
▁chiudere	-9418
▁intervista	-9419
▁Manto	-9420
▁Eppure	-9421
▁riflettere	-9422
▁Simboli	-9423
▁250	-9424
citi	-9425
anese	-9426
▁Onde	-9427
▁diventata	-9428
▁automobili	-9429
▁straordinario	-9430
fen	-9431
ennale	-9432
▁Catania	-9433
▁temperature	-9434
▁comunali	-9435
osse	-9436
pus	-9437
gion	-9438
▁Max	-9439
▁parenti	-9440
▁risparmio	-9441
▁Poss	-9442
▁miracolo	-9443
vori	-9444
▁botte	-9445
▁realmente	-9446
ceano	-9447
▁(4	-9448
▁1998	-9449
conomi	-9450
▁Laura	-9451
▁incro	-9452
teli	-9453
▁eterna	-9454
▁pronta	-9455
trazione	-9456
▁veicoli	-9457
Inghilterra	-9458
▁omo	-9459
ggiati	-9460
▁settiman	-9461
▁scarica	-9462
▁mostrare	-9463
Ua	-9464
zzetta	-9465
istitu	-9466
▁inutile	-9467
anz	-9468
▁significativo	-9469
▁nottu	-9470
▁Lavoro	-9471
▁Nas	-9472
▁cominciare	-9473
▁mercoledì	-9474
▁danza	-9475
▁Strada	-9476
▁manifes	-9477
▁spagnolo	-9478
▁Tol	-9479
▁povero	-9480
architettura	-9481
ec	-9482
▁fedele	-9483
▁chimica	-9484
▁contratti	-9485
Otto	-9486
▁sicura	-9487
▁conversa	-9488
▁professione	-9489
▁vacc	-9490
▁adatto	-9491
pà	-9492
▁Fabio	-9493
▁scopri	-9494
disce	-9495
guerra	-9496
▁Sos	-9497
ppare	-9498
▁corrisponde	-9499
▁attore	-9500
▁boni	-9501
▁torri	-9502
▁adunque	-9503
zzino	-9504
attacco	-9505
▁certezza	-9506
▁Guglielmo	-9507
▁accordi	-9508
▁rista	-9509
▁zio	-9510
china	-9511
pers	-9512
ttente	-9513
▁arrivati	-9514
▁Jaco	-9515
▁autonoma	-9516
▁profondamente	-9517
▁prenotazione	-9518
▁cau	-9519
▁Sergio	-9520
▁andava	-9521
▁Programma	-9522
conti	-9523
▁amicizia	-9524
/2	-9525
-^	-9526
▁ovunque	-9527
▁Cata	-9528
gibile	-9529
▁avventura	-9530
!)	-9531
pevoli	-9532
▁dimora	-9533
▁proteggere	-9534
▁(2)	-9535
▁matri	-9536
▁Cinque	-9537
▁ritmo	-9538
troni	-9539
▁Bell	-9540
rs	-9541
▁esecuzione	-9542
▁scato	-9543
▁Istitu	-9544
▁estin	-9545
▁giunge	-9546
▁utente	-9547
▁Regionale	-9548
ftri	-9549
hop	-9550
ccano	-9551
fatto	-9552
▁grano	-9553
▁congiun	-9554
▁gioi	-9555
▁sequenza	-9556
mene	-9557
▁Caterina	-9558
ela	-9559
port	-9560
ny	-9561
▁gira	-9562
▁decine	-9563
piti	-9564
vasi	-9565
▁Descrizione	-9566
esempio	-9567
▁proprietari	-9568
▁Bartolo	-9569
▁raccolte	-9570
▁critico	-9571
▁ref	-9572
scina	-9573
ettere	-9574
▁bombar	-9575
▁cottura	-9576
top	-9577
▁alza	-9578
▁separa	-9579
▁ricordato	-9580
▁correre	-9581
▁difendere	-9582
▁Chiara	-9583
baldi	-9584
▁ecci	-9585
▁Lucia	-9586
trico	-9587
▁restare	-9588
▁Diri	-9589
▁gius	-9590
▁ecolo	-9591
▁riguardanti	-9592
▁inviato	-9593
▁succede	-9594
▁Black	-9595
▁puri	-9596
▁tute	-9597
▁staff	-9598
▁espressi	-9599
STA	-9600
▁monitoraggio	-9601
▁pianto	-9602
▁feu	-9603
▁miseri	-9604
▁Polonia	-9605
archia	-9606
cciato	-9607
ttuali	-9608
▁Mediterraneo	-9609
▁3)	-9610
▁aperte	-9611
▁esercita	-9612
▁introdotto	-9613
▁nipote	-9614
▁chiamate	-9615
▁International	-9616
▁permanente	-9617
▁Hanno	-9618
ONDO	-9619
▁qualora	-9620
▁realizza	-9621
blet	-9622
▁futuri	-9623
▁riconosce	-9624
endum	-9625
▁cristiano	-9626
▁eu	-9627
▁critiche	-9628
▁rimangono	-9629
▁prede	-9630
ggiatura	-9631
▁controlli	-9632
▁(18	-9633
▁verdu	-9634
▁foresta	-9635
▁descrive	-9636
▁Rocco	-9637
▁Mauro	-9638
▁aperti	-9639
▁chiusa	-9640
▁intitolato	-9641
▁piacevole	-9642
▁dipinto	-9643
endi	-9644
▁Arci	-9645
trus	-9646
▁gala	-9647
ologica	-9648
▁cada	-9649
▁Famiglia	-9650
▁temporale	-9651
▁(*	-9652
onaca	-9653
▁farne	-9654
retta	-9655
opinione	-9656
▁Conta	-9657
novazione	-9658
gnos	-9659
▁Como	-9660
▁sembrava	-9661
74	-9662
▁esercito	-9663
▁tira	-9664
▁diretti	-9665
▁riparti	-9666
lt	-9667
verna	-9668
lam	-9669
▁riser	-9670
▁incomin	-9671
▁Giove	-9672
sivi	-9673
▁parametri	-9674
▁stro	-9675
dele	-9676
▁Fur	-9677
▁fiore	-9678
▁seduta	-9679
▁parlar	-9680
▁oh	-9681
▁184	-9682
▁Sen	-9683
▁Lis	-9684
▁dotto	-9685
▁gratuitamente	-9686
▁concerti	-9687
▁occor	-9688
ak	-9689
▁Canada	-9690
▁getta	-9691
▁parlano	-9692
▁monumenti	-9693
▁cifre	-9694
▁evoluzione	-9695
▁ordin	-9696
▁veloci	-9697
pato	-9698
▁978	-9699
▁CAPI	-9700
ssemblea	-9701
▁City	-9702
▁Bia	-9703
▁riescono	-9704
▁cooperazione	-9705
▁denominazione	-9706
▁igi	-9707
▁impo	-9708
▁università	-9709
▁aiuti	-9710
ecc	-9711
▁somi	-9712
loghi	-9713
▁finestre	-9714
▁rap	-9715
▁supre	-9716
▁aziendale	-9717
mante	-9718
▁dt	-9719
ttle	-9720
▁creatività	-9721
fosi	-9722
▁ministri	-9723
▁recuperare	-9724
▁Abb	-9725
veranno	-9726
▁equipa	-9727
▁dimenticare	-9728
▁dovette	-9729
▁apprezza	-9730
▁Ferdinando	-9731
▁accessori	-9732
▁jo	-9733
HI	-9734
mobile	-9735
▁prati	-9736
Antonio	-9737
▁marti	-9738
▁appi	-9739
Chi	-9740
SSO	-9741
ustri	-9742
▁Studio	-9743
▁scarpe	-9744
▁creando	-9745
▁curi	-9746
▁volere	-9747
▁Hai	-9748
▁tavole	-9749
▁burro	-9750
▁assunto	-9751
▁bianchi	-9752
▁sezioni	-9753
▁Digilized	-9754
▁dita	-9755
▁destinazione	-9756
ìn	-9757
mea	-9758
▁tradu	-9759
▁Kar	-9760
69	-9761
▁compare	-9762
▁Vaticano	-9763
▁diametro	-9764
▁cantante	-9765
▁giudizia	-9766
til	-9767
tanea	-9768
▁appassionati	-9769
▁inferiori	-9770
nate	-9771
▁crema	-9772
▁cosiddetta	-9773
iche	-9774
ustizia	-9775
▁vincitore	-9776
emi	-9777
resto	-9778
▁Edizioni	-9779
▁meccanismo	-9780
▁teso	-9781
▁trovi	-9782
cile	-9783
▁glu	-9784
base	-9785
vini	-9786
▁curva	-9787
▁alquanto	-9788
camera	-9789
▁negativo	-9790
▁discri	-9791
cm	-9792
tilità	-9793
▁Tecni	-9794
▁sentiero	-9795
▁astron	-9796
gnazione	-9797
lita	-9798
▁mes	-9799
▁ader	-9800
▁affreschi	-9801
▁Calcio	-9802
▁istituti	-9803
▁tipologie	-9804
▁martire	-9805
▁amministrazioni	-9806
PE	-9807
▁Pavia	-9808
▁Mara	-9809
▁uscito	-9810
▁rare	-9811
▁essersi	-9812
▁Lea	-9813
▁Pis	-9814
bare	-9815
▁Pass	-9816
▁finanziaria	-9817
▁mill	-9818
▁muove	-9819
pite	-9820
▁venuta	-9821
▁descritto	-9822
OO	-9823
pino	-9824
▁coda	-9825
▁culture	-9826
▁folo	-9827
▁175	-9828
▁AB	-9829
▁gratuita	-9830
▁andando	-9831
▁frui	-9832
▁fondatore	-9833
▁ili	-9834
▁work	-9835
▁strettamente	-9836
▁Monaco	-9837
▁Mondiale	-9838
▁contribuire	-9839
tea	-9840
▁Caratter	-9841
▁successione	-9842
▁ea	-9843
▁rigoro	-9844
▁sostenuto	-9845
▁soddisfazione	-9846
iro	-9847
▁urbano	-9848
▁risalente	-9849
▁interessato	-9850
▁acu	-9851
▁Gari	-9852
▁pecu	-9853
▁assicurare	-9854
▁color	-9855
▁consumatori	-9856
▁Potre	-9857
▁Egitto	-9858
▁governi	-9859
▁elettrico	-9860
▁raccoglie	-9861
ZIO	-9862
▁nn	-9863
▁~	-9864
ttico	-9865
▁rall	-9866
▁amato	-9867
inverno	-9868
▁vacanze	-9869
▁prosegue	-9870
ssico	-9871
▁contare	-9872
raeli	-9873
uovere	-9874
▁Nazioni	-9875
cario	-9876
ccante	-9877
nes	-9878
▁1997	-9879
▁reda	-9880
▁Stampa	-9881
▁rimasta	-9882
▁vettura	-9883
▁peraltro	-9884
PU	-9885
inc	-9886
piano	-9887
▁funzion	-9888
Da	-9889
desse	-9890
unione	-9891
▁netta	-9892
sini	-9893
▁Collegio	-9894
tecni	-9895
▁lontani	-9896
wood	-9897
▁diversità	-9898
▁800	-9899
▁onda	-9900
▁impedire	-9901
bs	-9902
chiesta	-9903
▁destinati	-9904
fil	-9905
▁tasse	-9906
▁titolare	-9907
▁cinquanta	-9908
zj	-9909
mali	-9910
andro	-9911
▁esistente	-9912
▁eva	-9913
▁fta	-9914
▁convinto	-9915
▁”	-9916
▁racchi	-9917
▁residente	-9918
sare	-9919
▁Set	-9920
▁compiuto	-9921
▁rispettare	-9922
▁associazione	-9923
Bi	-9924
dit	-9925
▁Mura	-9926
▁Medioevo	-9927
iscrizione	-9928
▁consentito	-9929
fato	-9930
MENTI	-9931
▁avvol	-9932
▁usate	-9933
▁segreti	-9934
▁AS	-9935
▁deco	-9936
▁restauro	-9937
▁Ban	-9938
INO	-9939
▁panorama	-9940
▁schema	-9941
ruzzo	-9942
▁normali	-9943
zon	-9944
▁sciol	-9945
▁riservata	-9946
▁roves	-9947
▁rovina	-9948
71	-9949
▁gn	-9950
▁Allo	-9951
▁fusione	-9952
▁intervenire	-9953
esposizione	-9954
▁proveniente	-9955
esecuzione	-9956
▁esplici	-9957
università	-9958
▁educativo	-9959
▁comunicato	-9960
ERO	-9961
▁OR	-9962
mmet	-9963
gallo	-9964
andone	-9965
▁ribelli	-9966
▁Sare	-9967
▁casu	-9968
▁problematiche	-9969
vine	-9970
fazione	-9971
▁godere	-9972
▁finisce	-9973
▁correnti	-9974
▁visibili	-9975
hanno	-9976
zzante	-9977
▁uguali	-9978
▁singola	-9979
▁Pace	-9980
ggendo	-9981
▁esibi	-9982
▁imple	-9983
▁Riccardo	-9984
▁positiva	-9985
▁Fabri	-9986
▁abiti	-9987
▁folle	-9988
▁scanda	-9989
▁suoni	-9990
deranno	-9991
ccidente	-9992
▁Les	-9993
▁Sembra	-9994
▁Vicenza	-9995
▁Congresso	-9996
fort	-9997
▁dica	-9998
▁rapido	-9999
▁Sebasti	-10000
LOG	-10001
▁54	-10002
▁metallo	-10003
▁sinistro	-10004
▁efi	-10005
▁Infra	-10006
▁Savoia	-10007
fere	-10008
▁lasciò	-10009
▁sapore	-10010
▁stagioni	-10011
▁verti	-10012
▁mentale	-10013
▁Bretagna	-10014
▁Attra	-10015
▁sesto	-10016
▁Eventi	-10017
72	-10018
rerà	-10019
▁fragi	-10020
▁velocemente	-10021
▁Desi	-10022
lancio	-10023
▁intre	-10024
▁gigante	-10025
▁desideri	-10026
▁televisione	-10027
▁variabili	-10028
▁applicare	-10029
elenco	-10030
▁penet	-10031
▁tomba	-10032
▁evidenza	-10033
UM	-10034
quie	-10035
▁fresco	-10036
Roma	-10037
▁aro	-10038
ject	-10039
▁Var	-10040
▁usc	-10041
▁vario	-10042
▁Soli	-10043
▁pianura	-10044
vre	-10045
cchino	-10046
▁entrata	-10047
▁produttore	-10048
integrazione	-10049
lash	-10050
▁Hit	-10051
▁composti	-10052
▁Zu	-10053
BILI	-10054
▁Tempo	-10055
▁consentono	-10056
▁scaricare	-10057
▁Cr	-10058
▁comandante	-10059
▁continuamente	-10060
▁definisce	-10061
▁pesanti	-10062
▁Supp	-10063
▁concentrazione	-10064
▁Apol	-10065
▁segnali	-10066
darsi	-10067
▁Sche	-10068
em	-10069
▁cd	-10070
▁hu	-10071
bbre	-10072
▁veduto	-10073
▁bei	-10074
▁integrazione	-10075
▁arci	-10076
▁maga	-10077
▁pienamente	-10078
▁rei	-10079
ameri	-10080
gma	-10081
mita	-10082
▁Bet	-10083
▁gla	-10084
▁divul	-10085
▁||	-10086
▁ipoti	-10087
▁NE	-10088
▁canta	-10089
▁potenzialità	-10090
▁azzurro	-10091
▁Saint	-10092
▁sportive	-10093
▁rom	-10094
▁this	-10095
▁fredda	-10096
chen	-10097
▁Play	-10098
▁Editore	-10099
▁messe	-10100
▁offri	-10101
▁Oriente	-10102
▁comunicazioni	-10103
inga	-10104
▁facevano	-10105
▁coinvolgimento	-10106
Africa	-10107
▁elegante	-10108
tismo	-10109
jj	-10110
▁russo	-10111
▁infor	-10112
▁Lascia	-10113
tipo	-10114
sazioni	-10115
▁stretta	-10116
▁vorrebbe	-10117
81	-10118
sico	-10119
▁avvenire	-10120
▁hard	-10121
!...	-10122
▁Concilio	-10123
▁avessero	-10124
mise	-10125
▁INF	-10126
wnload	-10127
▁talmente	-10128
▁Inn	-10129
ssion	-10130
▁contenente	-10131
95	-10132
▁AU	-10133
sson	-10134
▁Dan	-10135
▁vers	-10136
▁patolo	-10137
▁sfondo	-10138
erlo	-10139
▁Clo	-10140
gostino	-10141
▁parente	-10142
▁difen	-10143
▁terrestre	-10144
▁Frank	-10145
▁ridotta	-10146
▁rispetta	-10147
▁energetico	-10148
▁cosiddetto	-10149
okie	-10150
▁ampli	-10151
utori	-10152
▁12,	-10153
▁ramo	-10154
dige	-10155
▁14.	-10156
▁esposi	-10157
▁tn	-10158
▁clo	-10159
▁spada	-10160
uoco	-10161
▁affetti	-10162
▁classici	-10163
▁cominciato	-10164
▁Genti	-10165
▁Marzo	-10166
▁particelle	-10167
dos	-10168
ganza	-10169
ggo	-10170
sive	-10171
mas	-10172
▁terribile	-10173
▁bia	-10174
▁dovevano	-10175
▁ritorna	-10176
▁Mili	-10177
▁Angeli	-10178
▁precedentemente	-10179
▁Austria	-10180
▁fisiche	-10181
▁adottato	-10182
utica	-10183
▁talento	-10184
▁riunione	-10185
▁Tras	-10186
▁trama	-10187
ternità	-10188
▁cade	-10189
▁Tanto	-10190
ggiando	-10191
▁preciso	-10192
▁singole	-10193
ville	-10194
▁leva	-10195
▁nò	-10196
▁600	-10197
▁Palla	-10198
▁disturbi	-10199
▁prezioso	-10200
tm	-10201
▁2012,	-10202
▁genio	-10203
▁sovrano	-10204
▁DAL	-10205
▁atmos	-10206
▁litur	-10207
▁news	-10208
▁ghiaccio	-10209
uss	-10210
urra	-10211
▁scol	-10212
▁strati	-10213
▁comprare	-10214
occupazione	-10215
là	-10216
▁cana	-10217
▁Sacro	-10218
▁aspettare	-10219
▁Attualmente	-10220
▁SER	-10221
▁1990	-10222
cetta	-10223
▁Ella	-10224
▁lomb	-10225
▁giungere	-10226
vn	-10227
▁puntata	-10228
▁back	-10229
▁Pesca	-10230
▁bontà	-10231
▁mise	-10232
▁sacco	-10233
▁́	-10234
▁Fun	-10235
▁ato	-10236
▁scomparsa	-10237
▁SAN	-10238
▁Impero	-10239
▁Sindaco	-10240
▁console	-10241
cialità	-10242
▁Aggiun	-10243
▁INTER	-10244
▁Richard	-10245
curio	-10246
▁musul	-10247
aa	-10248
REN	-10249
▁preda	-10250
▁Esi	-10251
▁equa	-10252
▁merita	-10253
▁paesaggi	-10254
▁concessi	-10255
▁repubbli	-10256
gedia	-10257
▁consumi	-10258
-*	-10259
stanti	-10260
▁Davide	-10261
▁suggeri	-10262
▁fola	-10263
▁mito	-10264
’.	-10265
▁21.	-10266
▁1995	-10267
▁concluso	-10268
pedali	-10269
▁Margh	-10270
▁Tempio	-10271
▁Bisogna	-10272
▁risultano	-10273
laborazione	-10274
riti	-10275
less	-10276
▁ine	-10277
ESTI	-10278
tribuzione	-10279
deli	-10280
▁vescovi	-10281
▁duo	-10282
▁rinasci	-10283
▁assass	-10284
▁Quattro	-10285
▁richiedere	-10286
tualità	-10287
iner	-10288
▁Francesca	-10289
▁identifica	-10290
▁2022	-10291
effica	-10292
▁vasto	-10293
influenza	-10294
▁amministrativa	-10295
my	-10296
▁usi	-10297
▁tosc	-10298
▁nucleare	-10299
▁preferito	-10300
▁rappresentante	-10301
▁frasi	-10302
▁Maestro	-10303
▁vendetta	-10304
▁(195	-10305
▁Cami	-10306
▁sfrutta	-10307
critto	-10308
quazione	-10309
▁vendere	-10310
▁equival	-10311
▁redazione	-10312
▁gus	-10313
▁licen	-10314
▁cresce	-10315
▁manuale	-10316
▁iPhone	-10317
▁consecu	-10318
▁orizzon	-10319
▁Tipo	-10320
▁Tribunale	-10321
▁posteriore	-10322
giata	-10323
▁Opere	-10324
▁Los	-10325
abitato	-10326
▁iper	-10327
▁It	-10328
▁paci	-10329
▁esecu	-10330
▁conteni	-10331
▁tranquilla	-10332
▁avviso	-10333
intervista	-10334
▁\(	-10335
▁hoc	-10336
▁fattura	-10337
▁limitato	-10338
▁correttamente	-10339
rr	-10340
▁fasc	-10341
▁retti	-10342
emer	-10343
▁efficaci	-10344
▁Esso	-10345
▁Amore	-10346
▁reazioni	-10347
▁LEG	-10348
▁Delle	-10349
▁franco	-10350
▁implica	-10351
alia	-10352
▁commen	-10353
guendo	-10354
strada	-10355
96	-10356
▁stabilità	-10357
▁King	-10358
prendo	-10359
▁consac	-10360
▁Poco	-10361
▁ST	-10362
▁bere	-10363
▁preparato	-10364
▁aiu	-10365
liche	-10366
ranze	-10367
▁fumo	-10368
▁assun	-10369
▁nobil	-10370
▁His	-10371
▁mobilità	-10372
▁brand	-10373
▁dc	-10374
▁13.	-10375
▁Stori	-10376
▁Religione	-10377
▁sostituzione	-10378
▁11,	-10379
▁predisp	-10380
▁incontrare	-10381
▁Open	-10382
▁debu	-10383
▁AV	-10384
▁Giuliano	-10385
zzia	-10386
▁eti	-10387
mpiego	-10388
▁Premi	-10389
▁positivi	-10390
viare	-10391
brica	-10392
▁diviso	-10393
▁considerando	-10394
▁53	-10395
▁verdi	-10396
▁Musica	-10397
▁cogn	-10398
▁andrà	-10399
▁formata	-10400
▁chiamare	-10401
▁dichiarazioni	-10402
▁gno	-10403
▁guidata	-10404
▁perduto	-10405
▁appropria	-10406
▁passaggi	-10407
▁Ji	-10408
▁Eri	-10409
▁defi	-10410
gatorio	-10411
▁fumetti	-10412
uori	-10413
▁Ind	-10414
▁Slo	-10415
gliati	-10416
:30	-10417
agg	-10418
ologico	-10419
▁provvedimento	-10420
mpere	-10421
XV	-10422
▁difetto	-10423
▁passata	-10424
Ottocento	-10425
▁Af	-10426
▁66	-10427
trando	-10428
burg	-10429
▁incidente	-10430
▁gravidanza	-10431
▁ram	-10432
gale	-10433
onari	-10434
▁1992	-10435
▁Jose	-10436
▁finanziamento	-10437
▁Pen	-10438
▁finita	-10439
▁deposito	-10440
alità	-10441
▁Renzi	-10442
assenza	-10443
▁grafico	-10444
▁intrapren	-10445
▁AG	-10446
ulso	-10447
▁Que	-10448
zzar	-10449
▁fro	-10450
cetti	-10451
▁Spesso	-10452
cosa	-10453
erta	-10454
tempo	-10455
";	-10456
derlo	-10457
▁lumino	-10458
▁rettan	-10459
carlo	-10460
▁show	-10461
mensi	-10462
chezza	-10463
▁molteplici	-10464
▁rimasti	-10465
cet	-10466
uar	-10467
spi	-10468
▁tassa	-10469
▁attravers	-10470
▁ù	-10471
▁firmato	-10472
pola	-10473
vito	-10474
▁Parti	-10475
▁degna	-10476
▁1996	-10477
▁estende	-10478
uria	-10479
▁intenzione	-10480
sei	-10481
▁abitazioni	-10482
▁Comple	-10483
▁contenere	-10484
ziani	-10485
▁faranno	-10486
▁perdite	-10487
▁contento	-10488
▁limitata	-10489
gressi	-10490
▁ritardo	-10491
▁impos	-10492
▁leggera	-10493
day	-10494
▁meccanica	-10495
▁Parro	-10496
▁COMP	-10497
▁garantisce	-10498
issima	-10499
▁rifiuta	-10500
▁pellicola	-10501
▁collezioni	-10502
▁BI	-10503
sodio	-10504
▁liberamente	-10505
▁sostituito	-10506
aming	-10507
▁deboli	-10508
▁acquistato	-10509
▁ville	-10510
▁rapida	-10511
▁Respon	-10512
▁amanti	-10513
.^	-10514
▁pulizia	-10515
▁Temp	-10516
▁prefi	-10517
▁mostrano	-10518
win	-10519
▁kg	-10520
▁Cinema	-10521
▁olimpi	-10522
▁strato	-10523
▁bicicle	-10524
▁vittorie	-10525
▁sonda	-10526
▁not	-10527
▁ava	-10528
▁Video	-10529
▁abbandonato	-10530
▁Mini	-10531
▁stress	-10532
▁tipica	-10533
▁teatrale	-10534
73	-10535
▁repubblica	-10536
▁1994	-10537
▁conversione	-10538
.;	-10539
ferno	-10540
▁impero	-10541
▁isla	-10542
▁accaduto	-10543
▁cit	-10544
▁glori	-10545
▁scende	-10546
▁stradale	-10547
▁progresso	-10548
▁scolastici	-10549
▁fasti	-10550
▁fiera	-10551
▁Umberto	-10552
▁combusti	-10553
gol	-10554
▁voli	-10555
▁ombre	-10556
▁piega	-10557
▁Messico	-10558
▁Rete	-10559
▁sottolinea	-10560
▁rappresentata	-10561
▁cerchio	-10562
▁superfi	-10563
Po	-10564
▁into	-10565
▁bellissima	-10566
▁acido	-10567
▁introdu	-10568
▁tessuti	-10569
dera	-10570
▁copie	-10571
▁milione	-10572
▁restano	-10573
▁sfera	-10574
▁delibera	-10575
▁ritenuto	-10576
ust	-10577
▁Pos	-10578
▁Rio	-10579
gliari	-10580
▁include	-10581
▁rec	-10582
gnere	-10583
▁lanciato	-10584
▁Ovviamente	-10585
▁effettuata	-10586
▁Lar	-10587
▁allesti	-10588
▁comunemente	-10589
▁presu	-10590
▁mettono	-10591
▁indicati	-10592
▁imba	-10593
▁separazione	-10594
lani	-10595
▁Mira	-10596
▁merce	-10597
▁Trieste	-10598
▁sorriso	-10599
▁campanile	-10600
▁peni	-10601
▁Twitter	-10602
bot	-10603
▁allun	-10604
▁compro	-10605
flb	-10606
▁terrà	-10607
▁scarsa	-10608
tsu	-10609
▁seguita	-10610
pis	-10611
inger	-10612
▁genero	-10613
▁rabbia	-10614
curezza	-10615
▁candidati	-10616
▁seri	-10617
ball	-10618
▁fiato	-10619
xa	-10620
▁svolgono	-10621
▁regolarmente	-10622
▁amiche	-10623
▁52	-10624
quio	-10625
▁muore	-10626
▁ritira	-10627
▁complessa	-10628
trica	-10629
▁Madri	-10630
▁fretta	-10631
▁ragion	-10632
▁Coro	-10633
▁prin	-10634
▁integ	-10635
▁Compagnia	-10636
Ro	-10637
-10	-10638
▁pecca	-10639
▁espressioni	-10640
put	-10641
▁miti	-10642
▁imperatore	-10643
▁vicine	-10644
▁normalmente	-10645
TORE	-10646
▁Cosi	-10647
▁Soci	-10648
▁rotta	-10649
▁veicolo	-10650
geva	-10651
▁arra	-10652
▁coni	-10653
▁architettura	-10654
▁merci	-10655
▁sanitaria	-10656
▁PU	-10657
▁Passa	-10658
▁proseguire	-10659
▁patr	-10660
▁tosto	-10661
▁Campania	-10662
▁cookie	-10663
moro	-10664
▁Quale	-10665
▁pensione	-10666
▁esemplari	-10667
chel	-10668
▁Buona	-10669
▁romanzi	-10670
▁dotata	-10671
▁Testa	-10672
▁giornalisti	-10673
"),	-10674
▁salire	-10675
hen	-10676
ère	-10677
▁Cio	-10678
mmatica	-10679
▁liquido	-10680
▁priorità	-10681
▁divertente	-10682
uisce	-10683
ziato	-10684
▁neri	-10685
▁arrivata	-10686
▁IP	-10687
▁vai	-10688
colata	-10689
▁automaticamente	-10690
▁Sabato	-10691
▁gratis	-10692
▁coinvolto	-10693
ESCO	-10694
▁Fel	-10695
▁vien	-10696
▁Galleria	-10697
▁ospedali	-10698
▁valido	-10699
▁chiude	-10700
pace	-10701
guono	-10702
▁Beni	-10703
▁Invece	-10704
▁attacca	-10705
tuato	-10706
▁festival	-10707
.*	-10708
onis	-10709
▁Guer	-10710
▁Messina	-10711
ttenti	-10712
▁occupato	-10713
nn	-10714
cabile	-10715
▁farci	-10716
▁pregio	-10717
▁cioccolato	-10718
jf	-10719
▁Trevi	-10720
▁Gianni	-10721
▁bando	-10722
▁giovanile	-10723
▁britannico	-10724
ospedale	-10725
▁incenti	-10726
gentina	-10727
▁tramon	-10728
▁Bella	-10729
▁Greci	-10730
glienza	-10731
▁parziale	-10732
now	-10733
stano	-10734
▁trovo	-10735
vs	-10736
▁Galli	-10737
-88	-10738
00.	-10739
▁rimbor	-10740
▁sicuri	-10741
-'	-10742
ampia	-10743
▁ruoli	-10744
▁Master	-10745
▁combinazione	-10746
bbazia	-10747
▁prendendo	-10748
unis	-10749
▁Asia	-10750
▁consigliere	-10751
▁ricre	-10752
▁stipu	-10753
utò	-10754
▁Bis	-10755
▁gravità	-10756
▁eso	-10757
▁Augusto	-10758
ELLI	-10759
▁serio	-10760
mul	-10761
rgli	-10762
nando	-10763
▁borsa	-10764
▁persua	-10765
▁tè	-10766
▁ima	-10767
▁melo	-10768
▁rumore	-10769
even	-10770
▁neuro	-10771
▁lentamente	-10772
▁Reali	-10773
▁altera	-10774
▁Alfon	-10775
▁vecchie	-10776
sale	-10777
eschi	-10778
▁bambina	-10779
▁solleci	-10780
▁abbandonare	-10781
▁amministrative	-10782
▁condotti	-10783
viazione	-10784
▁specchio	-10785
impatto	-10786
▁Franci	-10787
▁Aprile	-10788
▁riproduzione	-10789
zionate	-10790
▁quan	-10791
▁soffi	-10792
▁scru	-10793
▁semplicità	-10794
indipendenza	-10795
lti	-10796
▁perd	-10797
▁disposto	-10798
▁contengono	-10799
GGIO	-10800
▁use	-10801
▁India	-10802
gheria	-10803
ingo	-10804
betta	-10805
▁piloti	-10806
▁mg	-10807
▁One	-10808
ttini	-10809
teriale	-10810
▁59	-10811
▁Commer	-10812
▁Felice	-10813
▁registro	-10814
▁ROMA	-10815
▁eseguito	-10816
▁riusciti	-10817
assistenza	-10818
appa	-10819
▁estrema	-10820
▁affermato	-10821
▁Batta	-10822
▁deserto	-10823
▁Siria	-10824
▁spettacoli	-10825
▁lenti	-10826
rine	-10827
▁1993	-10828
▁razza	-10829
▁artista	-10830
▁uccelli	-10831
wit	-10832
▁lontana	-10833
▁05	-10834
▁teorie	-10835
▁prossimità	-10836
lotto	-10837
▁tornò	-10838
▁anziché	-10839
ange	-10840
▁rame	-10841
▁potrai	-10842
▁ammirare	-10843
iora	-10844
▁Nar	-10845
▁dipinti	-10846
▁condurre	-10847
▁ju	-10848
▁Den	-10849
▁finis	-10850
'11	-10851
▁agen	-10852
▁perfino	-10853
▁approfondire	-10854
▁Paola	-10855
▁piene	-10856
▁scopi	-10857
/10	-10858
▁sessanta	-10859
▁superato	-10860
ey	-10861
▁Arte	-10862
▁ascen	-10863
stata	-10864
▁etiche	-10865
▁didattico	-10866
ugh	-10867
▁Gil	-10868
▁Labo	-10869
▁181	-10870
▁creata	-10871
▁rifiuto	-10872
▁up	-10873
▁giri	-10874
▁Parola	-10875
ame	-10876
▁Nin	-10877
▁legali	-10878
▁aggiunta	-10879
▁multimedia	-10880
82	-10881
▁und	-10882
▁Daniele	-10883
xt	-10884
SIONE	-10885
ulle	-10886
▁densità	-10887
”:	-10888
arto	-10889
forza	-10890
organ	-10891
inati	-10892
▁Mosca	-10893
▁COS	-10894
▁virtu	-10895
▁turisti	-10896
▁competizione	-10897
▁torneo	-10898
▁scambia	-10899
▁personalmente	-10900
tativo	-10901
▁disoccupa	-10902
▁complessivo	-10903
gnati	-10904
▁logo	-10905
▁Paris	-10906
Ue	-10907
▁altamente	-10908
▁pomo	-10909
▁latina	-10910
▁Purtroppo	-10911
▁Hor	-10912
▁Bibbia	-10913
▁inteso	-10914
vecchia	-10915
LLA	-10916
▁afri	-10917
▁bevan	-10918
▁concreti	-10919
▁accoglienza	-10920
glioni	-10921
▁cbe	-10922
▁domes	-10923
▁Autore	-10924
▁svaria	-10925
▁darà	-10926
▁dinamica	-10927
gliamo	-10928
▁fedeltà	-10929
▁sfruttare	-10930
").	-10931
▁scale	-10932
▁Bosco	-10933
▁Giunta	-10934
▁ideali	-10935
▁Clemente	-10936
vedere	-10937
▁straniera	-10938
uel	-10939
▁Tour	-10940
▁dife	-10941
ttezza	-10942
▁portar	-10943
▁cho	-10944
▁addetti	-10945
▁concorrenza	-10946
▁·	-10947
▁Ern	-10948
▁nozze	-10949
▁adottare	-10950
▁ossa	-10951
▁favorevole	-10952
▁manti	-10953
istituzione	-10954
occu	-10955
▁2014,	-10956
▁Signori	-10957
én	-10958
▁Rei	-10959
▁contenute	-10960
▁omaggio	-10961
▁Cardinale	-10962
▁pola	-10963
64	-10964
/20	-10965
zar	-10966
viera	-10967
▁vasi	-10968
▁scadenza	-10969
▁trattare	-10970
▁fof	-10971
▁Aldo	-10972
▁utilizzano	-10973
▁privo	-10974
▁disagio	-10975
gom	-10976
▁radice	-10977
ashington	-10978
▁stanze	-10979
▁gino	-10980
VEN	-10981
▁fempre	-10982
▁contribuito	-10983
alth	-10984
▁cof	-10985
TORIA	-10986
▁padri	-10987
▁intendere	-10988
Ha	-10989
▁fogli	-10990
metter	-10991
▁Dai	-10992
▁Polizia	-10993
▁inutili	-10994
▁Sito	-10995
▁emissioni	-10996
side	-10997
▁tentativi	-10998
▁argento	-10999
▁br	-11000
▁leg	-11001
▁Nota	-11002
▁innamo	-11003
▁sessuali	-11004
▁disabilità	-11005
venna	-11006
ggiante	-11007
▁Pag	-11008
▁tes	-11009
velli	-11010
▁Molte	-11011
1%	-11012
lana	-11013
orni	-11014
▁doni	-11015
▁rari	-11016
▁tribù	-11017
▁porzione	-11018
▁scambi	-11019
▁replica	-11020
▁immaginare	-11021
▁Democra	-11022
▁National	-11023
▁prodotta	-11024
Mar	-11025
▁sotter	-11026
▁cibi	-11027
▁2011,	-11028
tandosi	-11029
▁Giugno	-11030
▁urbani	-11031
▁elementare	-11032
▁decennio	-11033
▁differente	-11034
pti	-11035
▁aereo	-11036
entieri	-11037
▁cattolici	-11038
▁solenne	-11039
ggero	-11040
▁Perugia	-11041
▁Pertanto	-11042
▁HD	-11043
▁minimi	-11044
▁otta	-11045
▁Pasqua	-11046
▁statue	-11047
▁giardini	-11048
▁liberazione	-11049
esplo	-11050
▁infia	-11051
▁ultra	-11052
▁atleti	-11053
▁sostituire	-11054
▁orari	-11055
▁organismi	-11056
▁notevolmente	-11057
ttendo	-11058
▁potendo	-11059
▁indicata	-11060
▁finanziario	-11061
▁vani	-11062
dovico	-11063
▁vendi	-11064
▁formale	-11065
▁prestito	-11066
▁virtuale	-11067
bie	-11068
anismi	-11069
▁angoli	-11070
▁maestri	-11071
▁procedimento	-11072
Che	-11073
▁delitto	-11074
▁moderne	-11075
▁promessa	-11076
▁destinata	-11077
▁vengano	-11078
▁ritratto	-11079
▁descrivere	-11080
▁Est	-11081
illu	-11082
tipi	-11083
▁Sebbene	-11084
lascio	-11085
urrezione	-11086
▁delia	-11087
▁arrivò	-11088
▁laterali	-11089
▁diventando	-11090
▁ah	-11091
polare	-11092
▁ferroviaria	-11093
▁coppie	-11094
▁accogliere	-11095
▁peccati	-11096
▁tribunale	-11097
VD	-11098
grammi	-11099
▁Settembre	-11100
▁parcheggio	-11101
▁Infrastrutture	-11102
/.	-11103
elezione	-11104
istituto	-11105
▁tardo	-11106
▁notato	-11107
▁cercano	-11108
▁barca	-11109
▁approfi	-11110
▁scenario	-11111
▁catalogo	-11112
▁vicinanze	-11113
elia	-11114
rami	-11115
▁sogg	-11116
▁ampie	-11117
▁sottile	-11118
▁verticale	-11119
▁albero	-11120
▁notevoli	-11121
▁protesta	-11122
uca	-11123
▁pero	-11124
▁Chiefa	-11125
▁finanziari	-11126
erità	-11127
terapia	-11128
▁vent	-11129
vengono	-11130
grini	-11131
▁migranti	-11132
▁benissimo	-11133
▁Mia	-11134
▁sfuggi	-11135
fei	-11136
▁sfa	-11137
▁calci	-11138
▁schede	-11139
▁Sper	-11140
▁dite	-11141
▁2015,	-11142
▁matrice	-11143
▁Cass	-11144
èn	-11145
▁funzionale	-11146
▁Girola	-11147
▁inclina	-11148
▁promosso	-11149
REA	-11150
sung	-11151
mondo	-11152
▁pc	-11153
▁legami	-11154
▁energetica	-11155
▁AT	-11156
▁Gene	-11157
▁disputa	-11158
▁Centrale	-11159
▁Stru	-11160
deria	-11161
▁sfide	-11162
▁doloro	-11163
▁costume	-11164
▁ravvi	-11165
▁giudici	-11166
▁cimitero	-11167
ttina	-11168
▁veste	-11169
▁continuano	-11170
▁1991	-11171
ortazione	-11172
zzanti	-11173
▁Marino	-11174
▁prendono	-11175
▁statunitensi	-11176
▁Anali	-11177
▁Sviluppo	-11178
▁sofferenza	-11179
▁Fontana	-11180
▁margine	-11181
▁sacerdoti	-11182
▁Informazioni	-11183
▁Zi	-11184
▁lusso	-11185
fit	-11186
gnolo	-11187
▁tablet	-11188
▁disastro	-11189
100	-11190
▁tab	-11191
▁Monda	-11192
tamenti	-11193
utamente	-11194
▁dirigenti	-11195
68	-11196
▁colli	-11197
▁atteggiamento	-11198
Ne	-11199
▁RO	-11200
rii	-11201
fornia	-11202
▁Ricon	-11203
▁celeste	-11204
▁complessità	-11205
ING	-11206
▁offi	-11207
▁sopran	-11208
▁strano	-11209
loga	-11210
▁divino	-11211
▁invita	-11212
▁contesti	-11213
▁agevo	-11214
▁conge	-11215
▁roccia	-11216
uen	-11217
lismo	-11218
Pre	-11219
▁Margherita	-11220
▁iscrizione	-11221
gure	-11222
▁dava	-11223
kes	-11224
▁Gae	-11225
▁compia	-11226
▁comprom	-11227
▁fidanza	-11228
nam	-11229
anesi	-11230
▁uniti	-11231
poni	-11232
▁chè	-11233
▁Muse	-11234
▁Miglio	-11235
▁giuris	-11236
▁Dif	-11237
cinio	-11238
▁provoca	-11239
▁we	-11240
▁moduli	-11241
guaglianza	-11242
vana	-11243
ciate	-11244
▁precisamente	-11245
▁lume	-11246
▁ampiamente	-11247
▁Som	-11248
Ufficio	-11249
▁Charles	-11250
▁regalo	-11251
▁Pontefice	-11252
▁Inno	-11253
▁XXI	-11254
dela	-11255
▁comprese	-11256
erei	-11257
albero	-11258
▁Direzione	-11259
parto	-11260
▁folla	-11261
▁	-11262
e	-11263
i	-11264
a	-11265
o	-11266
n	-11267
t	-11268
r	-11269
l	-11270
s	-11271
c	-11272
d	-11273
u	-11274
p	-11275
m	-11276
g	-11277
v	-11278
,	-11279
f	-11280
.	-11281
z	-11282
h	-11283
b	-11284
I	-11285
q	-11286
-	-11287
A	-11288
S	-11289
C	-11290
'	-11291
1	-11292
L	-11293
P	-11294
à	-11295
0	-11296
M	-11297
E	-11298
è	-11299
T	-11300
’	-11301
D	-11302
R	-11303
2	-11304
N	-11305
O	-11306
G	-11307
)	-11308
(	-11309
:	-11310
B	-11311
V	-11312
F	-11313
9	-11314
3	-11315
5	-11316
ò	-11317
4	-11318
U	-11319
ù	-11320
|	-11321
y	-11322
8	-11323
"	-11324
;	-11325
6	-11326
7	-11327
k	-11328
ì	-11329
*	-11330
w	-11331
^	-11332
é	-11333
/	-11334
H	-11335
Q	-11336
j	-11337
x	-11338
»	-11339
?	-11340
!	-11341
J	-11342
“	-11343
”	-11344
«	-11345
X	-11346
W	-11347
–	-11348
Z	-11349
K	-11350
_	-11351
—	-11352
•	-11353
%	-11354
>	-11355
&	-11356
\	-11357
[	-11358
È	-11359
]	-11360
Y	-11361
‘	-11362
=	-11363
<	-11364
°	-11365
$	-11366
+	-11367
■	-11368
{	-11369
}	-11370
ó	-11371
#	-11372
£	-11373
¬	-11374
€	-11375
@	-11376
„	-11377
Ì	-11378
À	-11379
©	-11380
ü	-11381
á	-11382
~	-11383
®	-11384
ö	-11385
í	-11386
­	-11387
É	-11388
`	-11389
§	-11390
î	-11391
ä	-11392
ā	-11393
α	-11394
ë	-11395
ō	-11396
č	-11397
Ù	-11398
ç	-11399
ο	-11400
Ó	-11401
â	-11402
ú	-11403
ν	-11404
·	-11405
́	-11406
Ò	-11407
♦	-11408
τ	-11409
š	-11410
′	-11411
‟	-11412
×	-11413
→	-11414
ι	-11415
ε	-11416
ς	-11417
−	-11418
μ	-11419
ρ	-11420
ñ	-11421
σ	-11422
λ	-11423
ô	-11424
ū	-11425
а	-11426
ī	-11427
□	-11428
ê	-11429
π	-11430
κ	-11431
о	-11432
†	-11433
±	-11434
ß	-11435
Î	-11436
и	-11437
ł	-11438
ć	-11439
е	-11440
Ŕ	-11441
β	-11442
‐	-11443
ã	-11444
ž	-11445
η	-11446
δ	-11447
ا	-11448
χ	-11449
ί	-11450
н	-11451
¥	-11452
р	-11453
γ	-11454
с	-11455
θ	-11456
æ	-11457
υ	-11458
✓	-11459
⁄	-11460
ل	-11461
●	-11462
ά	-11463
ό	-11464
ï	-11465
ʿ	-11466
Á	-11467
Š	-11468
ω	-11469
т	-11470
Č	-11471
►	-11472
в	-11473
к	-11474
▼	-11475
л	-11476
ø	-11477
φ	-11478
の	-11479
ś	-11480
Ö	-11481
☐	-11482
û	-11483
َ	-11484
έ	-11485
ă	-11486
̈	-11487
ý	-11488
ı	-11489
י	-11490
ʼ	-11491
ύ	-11492
å	-11493
ð	-11494
Ü	-11495
م	-11496
д	-11497
ي	-11498
ṣ	-11499
Ø	-11500
ē	-11501
ń	-11502
ή	-11503
у	-11504
ą	-11505
ن	-11506
ו	-11507
🙂	-11508
Ž	-11509
п	-11510
و	-11511
↑	-11512
い	-11513
Ú	-11514
ἐ	-11515
ر	-11516
ṇ	-11517
ὶ	-11518
й	-11519
ş	-11520
😉	-11521
ἀ	-11522
ș	-11523
ה	-11524
▶	-11525
し	-11526
м	-11527
ğ	-11528
ḥ	-11529
≥	-11530
★	-11531
た	-11532
。	-11533
ר	-11534
√	-11535
‒	-11536
ə	-11537
̨	-11538
я	-11539
ḍ	-11540
と	-11541
Δ	-11542
ę	-11543
に	-11544
、	-11545
ė	-11546
Ω	-11547
☉	-11548
ě	-11549
は	-11550
б	-11551
Ō	-11552
ř	-11553
Г	-11554
ы	-11555
ِ	-11556
❏	-11557
ْ	-11558
∙	-11559
な	-11560
з	-11561
א	-11562
ь	-11563
›	-11564
ب	-11565
œ	-11566
Π	-11567
て	-11568
ー	-11569
Σ	-11570
る	-11571
Ç	-11572
Å	-11573
で	-11574
ῦ	-11575
Ś	-11576
ὸ	-11577
Κ	-11578
ῖ	-11579
г	-11580
➢	-11581
ָ	-11582
ל	-11583
ὐ	-11584
ン	-11585
☺	-11586
Â	-11587
ま	-11588
ξ	-11589
Α	-11590
️	-11591
ב	-11592
ż	-11593
ώ	-11594
ه	-11595
ő	-11596
≤	-11597
ṭ	-11598
்	-11599
Ä	-11600
õ	-11601
が	-11602
を	-11603
्	-11604
¦	-11605
ت	-11606
「	-11607
」	-11608
س	-11609
ש	-11610
÷	-11611
ῶ	-11612
ُ	-11613
ὰ	-11614
♥	-11615
ת	-11616
В	-11617
ː	-11618
ع	-11619
😀	-11620
Í	-11621
מ	-11622
ч	-11623
Đ	-11624
⇒	-11625
ˈ	-11626
ق	-11627
М	-11628
♭	-11629
С	-11630
ְ	-11631
ὲ	-11632
ζ	-11633
د	-11634
←	-11635
う	-11636
ة	-11637
Ε	-11638
Ā	-11639
Τ	-11640
Ḥ	-11641
ス	-11642
イ	-11643
Ă	-11644
ّ	-11645
Ι	-11646
❖	-11647
す	-11648
і	-11649
ּ	-11650
ʾ	-11651
¢	-11652
أ	-11653
‚	-11654
か	-11655
ف	-11656
こ	-11657
נ	-11658
─	-11659
Μ	-11660
ṃ	-11661
ệ	-11662
А	-11663
ك	-11664
人	-11665
¿	-11666
ĥ	-11667
━	-11668
大	-11669
К	-11670
ح	-11671
ἰ	-11672
♀	-11673
Λ	-11674
Ο	-11675
あ	-11676
的	-11677
ら	-11678
り	-11679
∆	-11680
ț	-11681
х	-11682
↓	-11683
¡	-11684
Ν	-11685
ִ	-11686
Æ	-11687
ラ	-11688
Β	-11689
ַ	-11690
く	-11691
ὴ	-11692
¤	-11693
ц	-11694
っ	-11695
ד	-11696
ם	-11697
✔	-11698
れ	-11699
リ	-11700
П	-11701
כ	-11702
≠	-11703
ǎ	-11704
И	-11705
ע	-11706
þ	-11707
த	-11708
ج	-11709
ア	-11710
ŭ	-11711
Θ	-11712
♂	-11713
О	-11714
ׁ	-11715
◆	-11716
ル	-11717
ῆ	-11718
☆	-11719
一	-11720
Д	-11721
も	-11722
・	-11723
き	-11724
ト	-11725
ψ	-11726
ἄ	-11727
⮚	-11728
Р	-11729
་	-11730
ん	-11731
法	-11732
Ÿ	-11733
Φ	-11734
Χ	-11735
र	-11736
Ł	-11737
Γ	-11738
ṅ	-11739
‰	-11740
▲	-11741
ш	-11742
Ã	-11743
ů	-11744
ṛ	-11745
▬	-11746
ɛ	-11747
ж	-11748
ї	-11749
≡	-11750
子	-11751
≈	-11752
▪	-11753
日	-11754
Η	-11755
╚	-11756
ッ	-11757
◊	-11758
☎	-11759
Ë	-11760
ţ	-11761
Н	-11762
♉	-11763
Ė	-11764
ு	-11765
道	-11766
中	-11767
đ	-11768
座	-11769
ֶ	-11770
ा	-11771
ṉ	-11772
タ	-11773
ё	-11774
ג	-11775
ன	-11776
ח	-11777
―	-11778
ἡ	-11779
♯	-11780
ロ	-11781
ἔ	-11782
⬢	-11783
ÿ	-11784
Ѕ	-11785
∪	-11786
✗	-11787
そ	-11788
Б	-11789
さ	-11790
Т	-11791
◾	-11792
➔	-11793
😊	-11794
Þ	-11795
ź	-11796
ʃ	-11797
̓	-11798
ى	-11799
ἱ	-11800
פ	-11801
Л	-11802
ֵ	-11803
術	-11804
Ñ	-11805
ֹ	-11806
お	-11807
ĭ	-11808
ק	-11809
ὁ	-11810
ὺ	-11811
ク	-11812
Ρ	-11813
ן	-11814
‹	-11815
行	-11816
İ	-11817
ز	-11818
ش	-11819
だ	-11820
ŏ	-11821
̀	-11822
Е	-11823
ᾶ	-11824
↔	-11825
南	-11826
男	-11827
Œ	-11828
ὀ	-11829
シ	-11830
本	-11831
ň	-11832
ʻ	-11833
ص	-11834
ὃ	-11835
北	-11836
ɔ	-11837
خ	-11838
म	-11839
○	-11840
❤	-11841
山	-11842
♠	-11843
家	-11844
ط	-11845
三	-11846
国	-11847
天	-11848
ס	-11849
إ	-11850
み	-11851
オ	-11852
ம	-11853
ி	-11854
バ	-11855
上	-11856
ि	-11857
∞	-11858
え	-11859
カ	-11860
ǔ	-11861
拳	-11862
Ê	-11863
Ş	-11864
ˇ	-11865
न	-11866
ா	-11867
マ	-11868
ĕ	-11869
க	-11870
◦	-11871
二	-11872
З	-11873
♡	-11874
¶	-11875
Ṭ	-11876
め	-11877
ǐ	-11878
щ	-11879
け	-11880
年	-11881
̃	-11882
ю	-11883
グ	-11884
ド	-11885
レ	-11886
宗	-11887
𐌰	-11888
ņ	-11889
Ż	-11890
У	-11891
⸗	-11892
ŕ	-11893
Ș	-11894
ء	-11895
ὑ	-11896
ち	-11897
田	-11898
つ	-11899
ų	-11900
ذ	-11901
よ	-11902
Ð	-11903
ˆ	-11904
Υ	-11905
ז	-11906
文	-11907
語	-11908
ـ	-11909
ồ	-11910
∈	-11911
言	-11912
Ô	-11913
Ź	-11914
त	-11915
‡	-11916
⚠	-11917
わ	-11918
ミ	-11919
小	-11920
せ	-11921
流	-11922
部	-11923
ŋ	-11924
ט	-11925
ὄ	-11926
➲	-11927
ல	-11928
⭐	-11929
チ	-11930
和	-11931
神	-11932
Я	-11933
ф	-11934
ủ	-11935
ῷ	-11936
生	-11937
𐌹	-11938
Õ	-11939
ǫ	-11940
ガ	-11941
フ	-11942
東	-11943
花	-11944
ħ	-11945
ľ	-11946
ŝ	-11947
प	-11948
∀	-11949
♪	-11950
公	-11951
Ī	-11952
ی	-11953
ོ	-11954
ば	-11955
ض	-11956
ற	-11957
ễ	-11958
ὅ	-11959
⊕	-11960
├	-11961
☒	-11962
サ	-11963
正	-11964
物	-11965
第	-11966
य	-11967
व	-11968
Ἀ	-11969
新	-11970
有	-11971
林	-11972
ث	-11973
ა	-11974
在	-11975
高	-11976
😛	-11977
ɗ	-11978
ね	-11979
地	-11980
学	-11981
市	-11982
武	-11983
猫	-11984
記	-11985
話	-11986
金	-11987
ꞌ	-11988
͡	-11989
ய	-11990
✨	-11991
❑	-11992
ジ	-11993
女	-11994
少	-11995
Х	-11996
स	-11997
ṟ	-11998
ῇ	-11999
♫	-12000
プ	-12001
八	-12002
出	-12003
手	-12004
明	-12005
வ	-12006
ḳ	-12007
ộ	-12008
ュ	-12009
不	-12010
代	-12011
会	-12012
入	-12013
前	-12014
成	-12015
ъ	-12016
ῥ	-12017
テ	-12018
ム	-12019
メ	-12020
事	-12021
城	-12022
Ц	-12023
↩	-12024
▌	-12025
キ	-12026
京	-12027
十	-12028
見	-12029
Ï	-12030
Ć	-12031
Ψ	-12032
צ	-12033
غ	-12034
क	-12035
ῳ	-12036
‖	-12037
░	-12038
や	-12039
是	-12040
ũ	-12041
ј	-12042
ẓ	-12043
∗	-12044
ナ	-12045
之	-12046
五	-12047
名	-12048
海	-12049
能	-12050
ɪ	-12051
Ф	-12052
ך	-12053
ἶ	-12054
⋅	-12055
ズ	-12056
ダ	-12057
四	-12058
川	-12059
時	-12060
私	-12061
𐌽	-12062
˃	-12063
ế	-12064
ἑ	-12065
ἴ	-12066
ど	-12067
ウ	-12068
者	-12069
ơ	-12070
،	-12071
ந	-12072
ḏ	-12073
Ṣ	-12074
ṯ	-12075
ẽ	-12076
❓	-12077
》	-12078
エ	-12079
書	-12080
無	-12081
論	-12082
間	-12083
龍	-12084
🙁	-12085
Ě	-12086
ĝ	-12087
ű	-12088
ʒ	-12089
द	-12090
அ	-12091
ப	-12092
ი	-12093
∨	-12094
ポ	-12095
千	-12096
可	-12097
戦	-12098
月	-12099
村	-12100
来	-12101
都	-12102
馬	-12103
ʊ	-12104
ग	-12105
ạ	-12106
∧	-12107
ィ	-12108
デ	-12109
パ	-12110
合	-12111
太	-12112
租	-12113
飛	-12114
🟢	-12115
ǧ	-12116
Ț	-12117
̊	-12118
ས	-12119
下	-12120
九	-12121
分	-12122
区	-12123
統	-12124
長	-12125
Ļ	-12126
ѕ	-12127
ً	-12128
ल	-12129
ண	-12130
ར	-12131
Ḫ	-12132
│	-12133
へ	-12134
多	-12135
安	-12136
星	-12137
自	-12138
野	-12139
Ū	-12140
ɣ	-12141
̧	-12142
ह	-12143
ட	-12144
ர	-12145
Ἰ	-12146
ブ	-12147
更	-12148
王	-12149
白	-12150
經	-12151
𐍃	-12152
ǝ	-12153
ʹ	-12154
ئ	-12155
ु	-12156
ை	-12157
ན	-12158
ḷ	-12159
Ἐ	-12160
元	-12161
字	-12162
斗	-12163
木	-12164
段	-12165
立	-12166
茶	-12167
赁	-12168
頃	-12169
領	-12170
ď	-12171
ư	-12172
ʺ	-12173
̆	-12174
آ	-12175
۩	-12176
श	-12177
ད	-12178
བ	-12179
ὡ	-12180
⊙	-12181
❌	-12182
ニ	-12183
ャ	-12184
仙	-12185
体	-12186
使	-12187
傳	-12188
平	-12189
方	-12190
最	-12191
気	-12192
禅	-12193
食	-12194
ɲ	-12195
̔	-12196
Ӽ	-12197
े	-12198
ἢ	-12199
ケ	-12200
ビ	-12201
内	-12202
司	-12203
師	-12204
心	-12205
性	-12206
次	-12207
目	-12208
詞	-12209
ċ	-12210
ɑ	-12211
Ё	-12212
ḗ	-12213
ḫ	-12214
ῃ	-12215
‛	-12216
⃝	-12217
└	-12218
△	-12219
世	-12220
利	-12221
後	-12222
政	-12223
脿	-12224
要	-12225
魔	-12226
📞	-12227
ɓ	-12228
ɠ	-12229
ɾ	-12230
Ξ	-12231
э	-12232
ֲ	-12233
Ṛ	-12234
✉	-12235
び	-12236
ハ	-12237
何	-12238
場	-12239
定	-12240
寺	-12241
意	-12242
治	-12243
火	-12244
真	-12245
通	-12246
ĉ	-12247
Ę	-12248
Ľ	-12249
Ч	-12250
ச	-12251
མ	-12252
ྱ	-12253
ἥ	-12254
ὕ	-12255
ὼ	-12256
⇔	-12257
╢	-12258
べ	-12259
ろ	-12260
ベ	-12261
動	-12262
古	-12263
宮	-12264
思	-12265
情	-12266
我	-12267
教	-12268
用	-12269
空	-12270
表	-12271
西	-12272
ɕ	-12273
ֽ	-12274
᛫	-12275
ả	-12276
ἕ	-12277
∫	-12278
♣	-12279
《	-12280
ワ	-12281
了	-12282
作	-12283
信	-12284
全	-12285
慧	-12286
打	-12287
水	-12288
石	-12289
美	-12290
門	-12291
ģ	-12292
Э	-12293
֖	-12294
֣	-12295
ٍ	-12296
ི	-12297
ḕ	-12298
ṡ	-12299
ἵ	-12300
☑	-12301
➤	-12302
コ	-12303
他	-12304
先	-12305
后	-12306
指	-12307
朝	-12308
松	-12309
礼	-12310
葉	-12311
集	-12312
ǒ	-12313
ɨ	-12314
ٌ	-12315
உ	-12316
ნ	-12317
∃	-12318
∑	-12319
✷	-12320
万	-12321
为	-12322
如	-12323
強	-12324
形	-12325
或	-12326
氣	-12327
活	-12328
经	-12329
鈥	-12330
ƒ	-12331
̇	-12332
Ж	-12333
֔	-12334
ظ	-12335
ལ	-12336
ầ	-12337
ἷ	-12338
ὖ	-12339
以	-12340
六	-12341
刀	-12342
力	-12343
外	-12344
屋	-12345
岡	-12346
愛	-12347
戸	-12348
时	-12349
春	-12350
死	-12351
決	-12352
現	-12353
该	-12354
頭	-12355
𐌿	-12356
Ġ	-12357
Ř	-12358
ʁ	-12359
̄	-12360
ध	-12361
ी	-12362
ே	-12363
ུ	-12364
ე	-12365
რ	-12366
Ṃ	-12367
⁞	-12368
⬡	-12369
ネ	-12370
ノ	-12371
光	-12372
口	-12373
坐	-12374
始	-12375
宿	-12376
将	-12377
州	-12378
支	-12379
眠	-12380
禪	-12381
過	-12382
開	-12383
香	-12384
😄	-12385
Ē	-12386
ʂ	-12387
Έ	-12388
І	-12389
Ш	-12390
ज	-12391
ू	-12392
ो	-12393
อ	-12394
འ	-12395
ỹ	-12396
ὔ	-12397
∴	-12398
║	-12399
じ	-12400
七	-12401
个	-12402
乙	-12403
佛	-12404
原	-12405
史	-12406
問	-12407
島	-12408
巨	-12409
式	-12410
派	-12411
発	-12412
知	-12413
米	-12414
羅	-12415
解	-12416
説	-12417
足	-12418
𐌼	-12419
🔍	-12420
Ĉ	-12421
ť	-12422
ǜ	-12423
ʎ	-12424
ʧ	-12425
Ζ	-12426
Ю	-12427
ѣ	-12428
ோ	-12429
ག	-12430
ᾳ	-12431
┃	-12432
〉	-12433
ぐ	-12434
ェ	-12435
ゴ	-12436
モ	-12437
ョ	-12438
変	-12439
夫	-12440
孔	-12441
忍	-12442
所	-12443
湘	-12444
甲	-12445
答	-12446
紀	-12447
線	-12448
義	-12449
華	-12450
角	-12451
面	-12452
風	-12453
鶴	-12454
𐌴	-12455
𐤅	-12456
🐹	-12457
Ŏ	-12458
ϊ	-12459
־	-12460
ׇ	-12461
ड	-12462
ण	-12463
ब	-12464
भ	-12465
ள	-12466
ང	-12467
ἃ	-12468
ἦ	-12469
☹	-12470
☼	-12471
✰	-12472
セ	-12473
ピ	-12474
ボ	-12475
井	-12476
伽	-12477
到	-12478
制	-12479
同	-12480
回	-12481
士	-12482
夢	-12483
建	-12484
得	-12485
楽	-12486
江	-12487
漢	-12488
理	-12489
画	-12490
皇	-12491
習	-12492
貌	-12493
車	-12494
近	-12495
郎	-12496
ĩ	-12497
į	-12498
ɖ	-12499
ɦ	-12500
ʤ	-12501
ˁ	-12502
Ά	-12503
ա	-12504
ؤ	-12505
च	-12506
ཀ	-12507
པ	-12508
ლ	-12509
Ḳ	-12510
ẖ	-12511
Ὀ	-12512
ὠ	-12513
↳	-12514
┬	-12515
◗	-12516
々	-12517
ご	-12518
む	-12519
ょ	-12520
主	-12521
切	-12522
发	-12523
台	-12524
呼	-12525
品	-12526
垣	-12527
持	-12528
撃	-12529
期	-12530
棒	-12531
歌	-12532
民	-12533
波	-12534
然	-12535
直	-12536
英	-12537
飲	-12538
鴻	-12539
黃	-12540
𐌸	-12541
𐌻	-12542
🌩	-12543
Ý	-12544
̥	-12545
ं	-12546
ष	-12547
า	-12548
უ	-12549
ứ	-12550
Ῥ	-12551
✥	-12552
『	-12553
』	-12554
今	-12555
僧	-12556
初	-12557
反	-12558
器	-12559
図	-12560
國	-12561
声	-12562
孩	-12563
对	-12564
念	-12565
救	-12566
数	-12567
普	-12568
智	-12569
玄	-12570
玉	-12571
破	-12572
秀	-12573
老	-12574
草	-12575
觀	-12576
谷	-12577
軍	-12578
那	-12579
限	-12580
陽	-12581
青	-12582
音	-12583
이	-12584
😆	-12585
ļ	-12586
Ő	-12587
ɐ	-12588
ɬ	-12589
ʑ	-12590
ʦ	-12591
̯	-12592
؟	-12593
ک	-12594
ஆ	-12595
๠	-12596
ྒ	-12597
ვ	-12598
თ	-12599
ṑ	-12600
ị	-12601
ọ	-12602
⇄	-12603
∼	-12604
◄	-12605
✬	-12606
❶	-12607
❷	-12608
❸	-12609
ず	-12610
ぬ	-12611
ァ	-12612
ヴ	-12613
们	-12614
保	-12615
儿	-12616
其	-12617
化	-12618
去	-12619
吉	-12620
向	-12621
堂	-12622
室	-12623
寶	-12624
惊	-12625
房	-12626
摩	-12627
景	-12628
望	-12629
極	-12630
横	-12631
永	-12632
津	-12633
清	-12634
港	-12635
熊	-12636
町	-12637
秋	-12638
秘	-12639
肉	-12640
芸	-12641
読	-12642
记	-12643
话	-12644
资	-12645
身	-12646
連	-12647
際	-12648
雄	-12649
한	-12650
𐌷	-12651
𐍄	-12652
𐤉	-12653
🐿	-12654
😦	-12655
🚫	-12656
Ĕ	-12657
ġ	-12658
ĵ	-12659
ĺ	-12660
Ť	-12661
Ɛ	-12662
ɹ	-12663
ʨ	-12664
̅	-12665
Й	-12666
Ь	-12667
є	-12668
ո	-12669
֑	-12670
ֱ	-12671
گ	-12672
अ	-12673
आ	-12674
ख	-12675
ट	-12676
இ	-12677
ெ	-12678
เ	-12679
მ	-12680
ო	-12681
▯	-12682
❹	-12683
➡	-12684
げ	-12685
ぶ	-12686
ゼ	-12687
ヒ	-12688
书	-12689
兄	-12690
剣	-12691
医	-12692
危	-12693
厥	-12694
取	-12695
叫	-12696
号	-12697
吸	-12698
周	-12699
夜	-12700
學	-12701
官	-12702
密	-12703
尾	-12704
崎	-12705
开	-12706
当	-12707
彼	-12708
志	-12709
想	-12710
感	-12711
条	-12712
校	-12713
桜	-12714
森	-12715
殺	-12716
界	-12717
療	-12718
相	-12719
舞	-12720
蔵	-12721
虎	-12722
融	-12723
裏	-12724
銀	-12725
门	-12726
隊	-12727
雨	-12728
霉	-12729
鳥	-12730
가	-12731
지	-12732
Ą	-12733
ȍ	-12734
ɯ	-12735
ʈ	-12736
ˌ	-12737
Ј	-12738
ө	-12739
ի	-12740
ն	-12741
ץ	-12742
उ	-12743
ེ	-12744
ậ	-12745
ỉ	-12746
Ἄ	-12747
Ἡ	-12748
⋆	-12749
▒	-12750
▷	-12751
♈	-12752
✲	-12753
❺	-12754
⟩	-12755
ざ	-12756
ひ	-12757
ゃ	-12758
ザ	-12759
ソ	-12760
ヤ	-12761
与	-12762
东	-12763
丹	-12764
也	-12765
于	-12766
介	-12767
供	-12768
兵	-12769
具	-12770
加	-12771
君	-12772
命	-12773
土	-12774
基	-12775
完	-12776
寂	-12777
布	-12778
常	-12779
并	-12780
広	-12781
应	-12782
府	-12783
战	-12784
技	-12785
未	-12786
李	-12787
柔	-12788
根	-12789
楞	-12790
業	-12791
機	-12792
歩	-12793
母	-12794
氏	-12795
泉	-12796
洪	-12797
演	-12798
激	-12799
热	-12800
特	-12801
现	-12802
登	-12803
着	-12804
示	-12805
社	-12806
福	-12807
節	-12808
絶	-12809
若	-12810
蜜	-12811
血	-12812
詩	-12813
起	-12814
路	-12815
过	-12816
週	-12817
達	-12818
重	-12819
陀	-12820
院	-12821
雪	-12822
題	-12823
首	-12824
魚	-12825
ꜥ	-12826
는	-12827
﴾	-12828
﴿	-12829
𐍅	-12830
💡	-12831
😎	-12832
Û	-12833
Ŭ	-12834
ɡ	-12835
ɤ	-12836
Ѐ	-12837
Ы	-12838
ў	-12839
֥	-12840
׃	-12841
ङ	-12842
॰	-12843
எ	-12844
ஜ	-12845
ว	-12846
ს	-12847
ấ	-12848
ẵ	-12849
ề	-12850
ờ	-12851
ἁ	-12852
Ἔ	-12853
ἤ	-12854
Ὁ	-12855
ὗ	-12856
⊃	-12857
▹	-12858
✅	-12859
✠	-12860
⦁	-12861
⪻	-12862
ツ	-12863
ユ	-12864
丁	-12865
休	-12866
但	-12867
住	-12868
佐	-12869
再	-12870
功	-12871
动	-12872
半	-12873
印	-12874
味	-12875
壁	-12876
好	-12877
娘	-12878
宇	-12879
实	-12880
実	-12881
対	-12882
導	-12883
工	-12884
广	-12885
床	-12886
度	-12887
引	-12888
弘	-12889
影	-12890
徳	-12891
德	-12892
必	-12893
投	-12894
拉	-12895
桂	-12896
汉	-12897
沢	-12898
浜	-12899
牛	-12900
由	-12901
电	-12902
百	-12903
祖	-12904
精	-12905
続	-12906
繁	-12907
考	-12908
船	-12909
藤	-12910
訓	-12911
认	-12912
让	-12913
语	-12914
豊	-12915
輪	-12916
造	-12917
遠	-12918
里	-12919
间	-12920
館	-12921
體	-12922
구	-12923
도	-12924
𐌾	-12925
𐍂	-12926
Ń	-12927
ʔ	-12928
Ί	-12929
Ύ	-12930
ϟ	-12931
ս	-12932
ֿ	-12933
ׂ	-12934
ף	-12935
ः	-12936
ई	-12937
ठ	-12938
थ	-12939
ூ	-12940
ื	-12941
ཆ	-12942
ཏ	-12943
ཚ	-12944
ბ	-12945
Ṫ	-12946
ẩ	-12947
Ἱ	-12948
⃣	-12949
∅	-12950
∩	-12951
┓	-12952
╗	-12953
✆	-12954
⟶	-12955
⪼	-12956
ⴰ	-12957
両	-12958
争	-12959
交	-12960
价	-12961
伊	-12962
協	-12963
友	-12964
受	-12965
右	-12966
尋	-12967
尼	-12968
居	-12969
左	-12970
康	-12971
張	-12972
接	-12973
攻	-12974
料	-12975
无	-12976
會	-12977
案	-12978
止	-12979
此	-12980
残	-12981
漫	-12982
点	-12983
珠	-12984
管	-12985
素	-12986
紹	-12987
結	-12988
織	-12989
而	-12990
聖	-12991
至	-12992
良	-12993
色	-12994
蔡	-12995
蛇	-12996
说	-12997
賞	-12998
这	-12999
速	-13000
阿	-13001
陵	-13002
𐤄	-13003
😞	-13004
ʘ	-13005
ʥ	-13006
͜	-13007
ΰ	-13008
Є	-13009
Щ	-13010
њ	-13011
ե	-13012
ँ	-13013
घ	-13014
ढ	-13015
फ	-13016
ॐ	-13017
ொ	-13018
ค	-13019
አ	-13020
ỳ	-13021
Ἴ	-13022
⊆	-13023
⌘	-13024
⌧	-13025
☖	-13026
☗	-13027
☞	-13028
➛	-13029
⮲	-13030
ふ	-13031
ゆ	-13032
ギ	-13033
ペ	-13034
予	-13035
互	-13036
儀	-13037
列	-13038
別	-13039
區	-13040
午	-13041
嘉	-13042
图	-13043
威	-13044
存	-13045
宏	-13046
客	-13047
容	-13048
富	-13049
就	-13050
尺	-13051
干	-13052
庄	-13053
庭	-13054
庵	-13055
弟	-13056
待	-13057
復	-13058
戒	-13059
才	-13060
抗	-13061
掌	-13062
提	-13063
断	-13064
斯	-13065
旅	-13066
族	-13067
易	-13068
曲	-13069
服	-13070
果	-13071
橋	-13072
歳	-13073
求	-13074
浦	-13075
満	-13076
源	-13077
熱	-13078
留	-13079
皮	-13080
看	-13081
童	-13082
筑	-13083
系	-13084
置	-13085
聞	-13086
般	-13087
茅	-13088
菜	-13089
营	-13090
街	-13091
親	-13092
識	-13093
護	-13094
设	-13095
賀	-13096
走	-13097
込	-13098
透	-13099
錄	-13100
长	-13101
闘	-13102
阪	-13103
降	-13104
雙	-13105
馆	-13106
다	-13107
북	-13108
에	-13109
～	-13110
𐍆	-13111
𐍉	-13112
👍	-13113
💙	-13114
😂	-13115
Ď	-13116
Ů	-13117
ȃ	-13118
ɒ	-13119
ɳ	-13120
ɽ	-13121
ʀ	-13122
ʋ	-13123
ʐ	-13124
ʣ	-13125
̞	-13126
̶	-13127
Ό	-13128
ր	-13129
ײ	-13130
ٱ	-13131
ऽ	-13132
ृ	-13133
ଠ	-13134
ร	-13135
ี	-13136
ཕ	-13137
ྲ	-13138
ხ	-13139
ḇ	-13140
Ḍ	-13141
Ẓ	-13142
ắ	-13143
ố	-13144
ụ	-13145
ữ	-13146
ὥ	-13147
ᾷ	-13148
Ὶ	-13149
⍴	-13150
╥	-13151
❆	-13152
❻	-13153
⬆	-13154
ぎ	-13155
ぽ	-13156
ホ	-13157
乗	-13158
仕	-13159
令	-13160
仮	-13161
個	-13162
兔	-13163
况	-13164
則	-13165
助	-13166
勝	-13167
卦	-13168
历	-13169
员	-13170
唐	-13171
商	-13172
喜	-13173
场	-13174
备	-13175
奇	-13176
奥	-13177
孫	-13178
它	-13179
宣	-13180
對	-13181
岩	-13182
岸	-13183
帝	-13184
役	-13185
往	-13186
微	-13187
息	-13188
悟	-13189
您	-13190
悲	-13191
援	-13192
改	-13193
放	-13194
故	-13195
整	-13196
於	-13197
暗	-13198
栄	-13199
格	-13200
権	-13201
樹	-13202
殿	-13203
毛	-13204
没	-13205
河	-13206
深	-13207
灌	-13208
熙	-13209
燃	-13210
爻	-13211
版	-13212
犬	-13213
率	-13214
球	-13215
申	-13216
略	-13217
番	-13218
發	-13219
盆	-13220
眼	-13221
督	-13222
研	-13223
確	-13224
科	-13225
端	-13226
筋	-13227
简	-13228
終	-13229
経	-13230
统	-13231
背	-13232
臺	-13233
菊	-13234
藏	-13235
蝶	-13236
被	-13237
覚	-13238
覺	-13239
观	-13240
計	-13241
许	-13242
请	-13243
貓	-13244
資	-13245
还	-13246
送	-13247
逃	-13248
進	-13249
運	-13250
配	-13251
采	-13252
釜	-13253
隠	-13254
雲	-13255
霊	-13256
预	-13257
题	-13258
骨	-13259
麺	-13260
ꝙ	-13261
기	-13262
라	-13263
서	-13264
어	-13265
하	-13266
𐌲	-13267
𝄆	-13268
📚	-13269
😁	-13270
😍	-13271
🟡	-13272
🪨	-13273
Ğ	-13274
ķ	-13275
Ţ	-13276
Ə	-13277
ȧ	-13278
ɘ	-13279
ʌ	-13280
̂	-13281
̋	-13282
̠	-13283
ϝ	-13284
ә	-13285
հ	-13286
վ	-13287
़	-13288
ಠ	-13289
ง	-13290
่	-13291
ཟ	-13292
ྐ	-13293
ླ	-13294
დ	-13295
ἂ	-13296
Ἑ	-13297
ἠ	-13298
ῤ	-13299
ῴ	-13300
※	-13301
↬	-13302
≫	-13303
┌	-13304
┣	-13305
┤	-13306
┴	-13307
▸	-13308
✌	-13309
❄	-13310
➜	-13311
⫽	-13312
ⵜ	-13313
ヨ	-13314
乘	-13315
亡	-13316
亭	-13317
仁	-13318
件	-13319
伏	-13320
伝	-13321
伯	-13322
侘	-13323
便	-13324
修	-13325
們	-13326
值	-13327
像	-13328
優	-13329
允	-13330
児	-13331
共	-13332
冒	-13333
凌	-13334
刺	-13335
剧	-13336
劇	-13337
务	-13338
华	-13339
只	-13340
吹	-13341
告	-13342
善	-13343
嚴	-13344
因	-13345
域	-13346
堀	-13347
境	-13348
壇	-13349
壊	-13350
夏	-13351
妓	-13352
姫	-13353
寄	-13354
嵐	-13355
希	-13356
弾	-13357
律	-13358
快	-13359
急	-13360
恋	-13361
悪	-13362
拍	-13363
挑	-13364
探	-13365
換	-13366
敬	-13367
札	-13368
杉	-13369
束	-13370
查	-13371
棋	-13372
椀	-13373
様	-13374
檃	-13375
殴	-13376
液	-13377
済	-13378
游	-13379
澄	-13380
灣	-13381
烧	-13382
爆	-13383
片	-13384
牧	-13385
犯	-13386
琴	-13387
異	-13388
當	-13389
盗	-13390
盟	-13391
确	-13392
秒	-13393
究	-13394
突	-13395
策	-13396
紙	-13397
續	-13398
羽	-13399
翔	-13400
腹	-13401
舍	-13402
蓮	-13403
蔣	-13404
蟲	-13405
裁	-13406
视	-13407
评	-13408
財	-13409
質	-13410
賭	-13411
赤	-13412
越	-13413
跋	-13414
边	-13415
返	-13416
遇	-13417
関	-13418
阳	-13419
険	-13420
階	-13421
零	-13422
鳴	-13423
黄	-13424
黒	-13425
ꝯ	-13426
국	-13427
글	-13428
리	-13429
째	-13430
𐌱	-13431
𝄇	-13432
🌟	-13433
🍓	-13434
😐	-13435
😘	-13436
😢	-13437
😱	-13438
Ċ	-13439
Ĝ	-13440
Ű	-13441
ɜ	-13442
ʕ	-13443
ʽ	-13444
ˮ	-13445
̟	-13446
̳	-13447
͂	-13448
ΐ	-13449
ћ	-13450
қ	-13451
Հ	-13452
թ	-13453
կ	-13454
֠	-13455
֤	-13456
ֻ	-13457
װ	-13458
پ	-13459
ܐ	-13460
ஓ	-13461
ྤ	-13462
კ	-13463
ფ	-13464
ღ	-13465
შ	-13466
ሪ	-13467
ራ	-13468
ር	-13469
ብ	-13470
ḵ	-13471
Ḷ	-13472
ṁ	-13473
ự	-13474
ἅ	-13475
ὤ	-13476
ὦ	-13477
‿	-13478
⁊	-13479
₪	-13480
₹	-13481
↣	-13482
↵	-13483
∇	-13484
∓	-13485
≪	-13486
⊂	-13487
♩	-13488
✖	-13489
✿	-13490
❯	-13491
❼	-13492
ⵉ	-13493
づ	-13494
ゲ	-13495
ヘ	-13496
且	-13497
丸	-13498
久	-13499
从	-13500
來	-13501
例	-13502
倶	-13503
僕	-13504
免	-13505
关	-13506
几	-13507
判	-13508
割	-13509
勢	-13510
又	-13511
及	-13512
双	-13513
句	-13514
吾	-13515
哀	-13516
団	-13517
園	-13518
型	-13519
塚	-13520
失	-13521
奈	-13522
季	-13523
守	-13524
實	-13525
寳	-13526
封	-13527
射	-13528
巖	-13529
己	-13530
带	-13531
帰	-13532
庸	-13533
徒	-13534
從	-13535
御	-13536
惠	-13537
愀	-13538
態	-13539
懐	-13540
戯	-13541
抄	-13542
把	-13543
拨	-13544
据	-13545
推	-13546
攝	-13547
敗	-13548
斬	-13549
施	-13550
暴	-13551
曇	-13552
曜	-13553
末	-13554
材	-13555
杖	-13556
杜	-13557
杯	-13558
板	-13559
枯	-13560
桃	-13561
梅	-13562
構	-13563
樣	-13564
步	-13565
歴	-13566
歷	-13567
沖	-13568
泛	-13569
泰	-13570
洛	-13571
浅	-13572
淨	-13573
淳	-13574
温	-13575
湾	-13576
滑	-13577
為	-13578
照	-13579
猛	-13580
獅	-13581
甜	-13582
疲	-13583
盛	-13584
監	-13585
眞	-13586
短	-13587
砂	-13588
碧	-13589
禁	-13590
竹	-13591
笑	-13592
等	-13593
算	-13594
箱	-13595
篇	-13596
築	-13597
約	-13598
純	-13599
紗	-13600
紫	-13601
組	-13602
維	-13603
網	-13604
総	-13605
練	-13606
给	-13607
署	-13608
翻	-13609
臨	-13610
與	-13611
落	-13612
著	-13613
葛	-13614
蒼	-13615
薬	-13616
衆	-13617
襲	-13618
覇	-13619
誕	-13620
調	-13621
談	-13622
謙	-13623
證	-13624
警	-13625
象	-13626
豬	-13627
賢	-13628
購	-13629
费	-13630
超	-13631
跟	-13632
輩	-13633
进	-13634
远	-13635
邮	-13636
鉄	-13637
鎖	-13638
鏡	-13639
鐵	-13640
防	-13641
险	-13642
障	-13643
难	-13644
離	-13645
需	-13646
靈	-13647
静	-13648
顔	-13649
顯	-13650
项	-13651
风	-13652
鹿	-13653
麗	-13654
鼓	-13655
鼠	-13656
Ꜣ	-13657
ꜣ	-13658
네	-13659
대	-13660
데	-13661
로	-13662
부	-13663
안	-13664
오	-13665
요	-13666
인	-13667
제	-13668
𐌎	-13669
𐌳	-13670
🌐	-13671
🍐	-13672
🏁	-13673
👇	-13674
👯	-13675
🕿	-13676
😃	-13677
🚗	-13678
	-13679
Ĥ	-13680
Ň	-13681
Ŝ	-13682
ǁ	-13683
ǃ	-13684
ǚ	-13685
ǣ	-13686
Ȝ	-13687
ȟ	-13688
ȳ	-13689
ɟ	-13690
ɥ	-13691
ɫ	-13692
ɭ	-13693
ɰ	-13694
ɴ	-13695
ɸ	-13696
ʉ	-13697
ʍ	-13698
ʏ	-13699
˂	-13700
̍	-13701
̚	-13702
Ή	-13703
Ъ	-13704
ѐ	-13705
ղ	-13706
պ	-13707
֗	-13708
֛	-13709
֨	-13710
״	-13711
ػ	-13712
ؼ	-13713
چ	-13714
ھ	-13715
ہ	-13716
ञ	-13717
ै	-13718
ය	-13719
ි	-13720
ก	-13721
จ	-13722
ด	-13723
บ	-13724
ภ	-13725
ม	-13726
ล	-13727
ะ	-13728
ั	-13729
ํ	-13730
๒	-13731
າ	-13732
ཁ	-13733
ཡ	-13734
ྔ	-13735
ტ	-13736
መ	-13737
ስ	-13738
ቀ	-13739
ተ	-13740
ᚢ	-13741
ṓ	-13742
ṝ	-13743
Ṡ	-13744
ẞ	-13745
Ẻ	-13746
ớ	-13747
ợ	-13748
Ἕ	-13749
Ἥ	-13750
Ὠ	-13751
ᾰ	-13752
‵	-13753
↗	-13754
⇌	-13755
∂	-13756
∝	-13757
⏱	-13758
┏	-13759
╋	-13760
═	-13761
▓	-13762
◢	-13763
☏	-13764
☽	-13765
♮	-13766
⚫	-13767
⚭	-13768
✧	-13769
✺	-13770
✾	-13771
❦	-13772
❨	-13773
❩	-13774
➙	-13775
➽	-13776
⟹	-13777
⤝	-13778
⬇	-13779
ⵎ	-13780
ⵔ	-13781
ⵣ	-13782
〈	-13783
【	-13784
】	-13785
ゥ	-13786
ォ	-13787
ヱ	-13788
ヽ	-13789
㳟	-13790
丈	-13791
专	-13792
两	-13793
並	-13794
么	-13795
义	-13796
亀	-13797
些	-13798
产	-13799
仏	-13800
仔	-13801
付	-13802
仪	-13803
任	-13804
众	-13805
你	-13806
侧	-13807
倉	-13808
倒	-13809
假	-13810
健	-13811
備	-13812
兒	-13813
典	-13814
円	-13815
冕	-13816
冥	-13817
击	-13818
刈	-13819
剛	-13820
劃	-13821
劍	-13822
勤	-13823
升	-13824
卓	-13825
即	-13826
变	-13827
叶	-13828
吳	-13829
呢	-13830
唾	-13831
嘆	-13832
困	-13833
圓	-13834
坂	-13835
執	-13836
報	-13837
墨	-13838
夕	-13839
头	-13840
奔	-13841
妙	-13842
姐	-13843
婚	-13844
孤	-13845
宁	-13846
宅	-13847
宋	-13848
宝	-13849
宫	-13850
宴	-13851
寝	-13852
察	-13853
審	-13854
届	-13855
岁	-13856
岐	-13857
岳	-13858
嵩	-13859
差	-13860
巴	-13861
帯	-13862
帶	-13863
幽	-13864
底	-13865
强	-13866
征	-13867
怕	-13868
怪	-13869
悩	-13870
戰	-13871
戻	-13872
折	-13873
授	-13874
掛	-13875
敵	-13876
斎	-13877
旦	-13878
旧	-13879
映	-13880
昧	-13881
晶	-13882
曼	-13883
杓	-13884
杨	-13885
极	-13886
枕	-13887
柏	-13888
柱	-13889
样	-13890
棍	-13891
楚	-13892
每	-13893
毘	-13894
池	-13895
沙	-13896
油	-13897
注	-13898
泳	-13899
洋	-13900
浩	-13901
涯	-13902
添	-13903
渋	-13904
湖	-13905
潮	-13906
濟	-13907
瀬	-13908
灵	-13909
烈	-13910
焼	-13911
煙	-13912
燈	-13913
爀	-13914
爐	-13915
爭	-13916
爱	-13917
狩	-13918
独	-13919
狼	-13920
獣	-13921
玲	-13922
瑞	-13923
璨	-13924
病	-13925
矛	-13926
碁	-13927
祭	-13928
种	-13929
秦	-13930
移	-13931
稚	-13932
竜	-13933
竺	-13934
箸	-13935
範	-13936
糖	-13937
糸	-13938
級	-13939
細	-13940
綠	-13941
緒	-13942
縄	-13943
總	-13944
繰	-13945
纪	-13946
编	-13947
网	-13948
罪	-13949
群	-13950
耶	-13951
肠	-13952
育	-13953
胡	-13954
脚	-13955
腕	-13956
臣	-13957
舊	-13958
芝	-13959
菓	-13960
藍	-13961
蘆	-13962
虑	-13963
蛋	-13964
衛	-13965
衣	-13966
裂	-13967
装	-13968
規	-13969
視	-13970
规	-13971
觉	-13972
設	-13973
認	-13974
誠	-13975
說	-13976
誰	-13977
諜	-13978
諸	-13979
譜	-13980
讃	-13981
订	-13982
诚	-13983
豆	-13984
豚	-13985
踊	-13986
転	-13987
載	-13988
輝	-13989
辞	-13990
辺	-13991
达	-13992
述	-13993
迷	-13994
追	-13995
逆	-13996
途	-13997
遁	-13998
違	-13999
醒	-14000
鋼	-14001
鍵	-14002
铁	-14003
閣	-14004
關	-14005
问	-14006
闹	-14007
际	-14008
除	-14009
陰	-14010
陳	-14011
雞	-14012
難	-14013
雷	-14014
電	-14015
非	-14016
革	-14017
韩	-14018
頂	-14019
順	-14020
須	-14021
顗	-14022
餅	-14023
養	-14024
騎	-14025
魅	-14026
鱼	-14027
麒	-14028
麟	-14029
黑	-14030
鼻	-14031
龙	-14032
건	-14033
경	-14034
고	-14035
되	-14036
려	-14037
마	-14038
법	-14039
보	-14040
사	-14041
상	-14042
생	-14043
스	-14044
시	-14045
신	-14046
아	-14047
을	-14048
자	-14049
추	-14050
키	-14051
터	-14052
했	-14053
𐌺	-14054
🇦	-14055
🇳	-14056
🌿	-14057
🍏	-14058
👀	-14059
👌	-14060
📦	-14061
🔁	-14062
🔸	-14063
🖥	-14064
😕	-14065
😜	-14066
😥	-14067
😹	-14068
🚩	-14069
Ķ	-14070
Ņ	-14071
ŵ	-14072
ƚ	-14073
ƞ	-14074
Ƨ	-14075
ƨ	-14076
ǀ	-14077
ǂ	-14078
ǟ	-14079
Ǧ	-14080
Ǫ	-14081
ǽ	-14082
ȋ	-14083
ɢ	-14084
ɱ	-14085
ɻ	-14086
ʄ	-14087
ʇ	-14088
ʙ	-14089
ʜ	-14090
ʝ	-14091
ˑ	-14092
̌	-14093
̪	-14094
̵	-14095
͐	-14096
Ѓ	-14097
Љ	-14098
Ў	-14099
љ	-14100
џ	-14101
Ѡ	-14102
ѡ	-14103
ѳ	-14104
Ѻ	-14105
ѻ	-14106
ғ	-14107
Ү	-14108
ҳ	-14109
ӡ	-14110
Ե	-14111
՚	-14112
բ	-14113
գ	-14114
է	-14115
֧	-14116
֫	-14117
٠	-14118
٭	-14119
ٰ	-14120
ۚ	-14121
ܝ	-14122
ܠ	-14123
इ	-14124
ऋ	-14125
ए	-14126
ऐ	-14127
छ	-14128
झ	-14129
ौ	-14130
।	-14131
२	-14132
ং	-14133
ீ	-14134
ද	-14135
ව	-14136
ු	-14137
ต	-14138
ท	-14139
น	-14140
ฟ	-14141
ห	-14142
ุ	-14143
ງ	-14144
ລ	-14145
້	-14146
ྙ	-14147
ྟ	-14148
ྨ	-14149
ზ	-14150
ሃ	-14151
ሕ	-14152
ባ	-14153
ን	-14154
ኛ	-14155
ኣ	-14156
ይ	-14157
ፍ	-14158
ᑦ	-14159
ᓄ	-14160
ᓇ	-14161
ᗅ	-14162
ᚠ	-14163
ᚦ	-14164
ᚫ	-14165
ᚱ	-14166
ᚲ	-14167
ᚷ	-14168
ᚹ	-14169
ᚺ	-14170
ᚾ	-14171
ᛁ	-14172
ᛃ	-14173
ᛇ	-14174
ᛈ	-14175
ᛉ	-14176
ᛋ	-14177
ᛏ	-14178
ᛒ	-14179
ᛖ	-14180
ᛗ	-14181
ᛚ	-14182
ᛜ	-14183
ᛞ	-14184
ᛟ	-14185
ល	-14186
ូ	-14187
ᠠ	-14188
᷈	-14189
᷑	-14190
ḡ	-14191
Ḵ	-14192
Ṅ	-14193
ṿ	-14194
ặ	-14195
Ẹ	-14196
ẹ	-14197
Ọ	-14198
ổ	-14199
ỗ	-14200
ừ	-14201
Ἂ	-14202
ἧ	-14203
Ἵ	-14204
Ὄ	-14205
Ὅ	-14206
Ὡ	-14207
ῑ	-14208
ῡ	-14209
₤	-14210
℧	-14211
ↄ	-14212
↦	-14213
⇢	-14214
∏	-14215
∘	-14216
≅	-14217
⊗	-14218
⌀	-14219
┳	-14220
╔	-14221
█	-14222
▢	-14223
▫	-14224
◂	-14225
◇	-14226
◎	-14227
☀	-14228
☭	-14229
♅	-14230
♊	-14231
⚔	-14232
⚪	-14233
✕	-14234
✡	-14235
✱	-14236
❛	-14237
❜	-14238
❞	-14239
❽	-14240
❾	-14241
⠬	-14242
⤬	-14243
⤭	-14244
ⲣ	-14245
ⵍ	-14246
〒	-14247
ぜ	-14248
ぞ	-14249
ぱ	-14250
ぺ	-14251
ほ	-14252
ゅ	-14253
ゑ	-14254
゚	-14255
丑	-14256
业	-14257
丧	-14258
丰	-14259
乱	-14260
乳	-14261
乾	-14262
亚	-14263
享	-14264
什	-14265
仍	-14266
仲	-14267
伟	-14268
传	-14269
伤	-14270
伴	-14271
位	-14272
価	-14273
俊	-14274
俠	-14275
俳	-14276
俺	-14277
倚	-14278
偏	-14279
傲	-14280
傷	-14281
儒	-14282
充	-14283
克	-14284
兎	-14285
內	-14286
兩	-14287
册	-14288
军	-14289
冨	-14290
决	-14291
冷	-14292
准	-14293
函	-14294
刚	-14295
创	-14296
别	-14297
刻	-14298
削	-14299
副	-14300
劔	-14301
办	-14302
努	-14303
勇	-14304
勿	-14305
匀	-14306
包	-14307
卒	-14308
单	-14309
単	-14310
博	-14311
卡	-14312
卫	-14313
卻	-14314
参	-14315
吠	-14316
含	-14317
呪	-14318
咬	-14319
哉	-14320
員	-14321
唯	-14322
唱	-14323
噂	-14324
园	-14325
圖	-14326
埋	-14327
堺	-14328
塌	-14329
处	-14330
复	-14331
夷	-14332
奉	-14333
奏	-14334
套	-14335
奘	-14336
妻	-14337
姑	-14338
姿	-14339
媒	-14340
媛	-14341
孝	-14342
孟	-14343
宙	-14344
宜	-14345
宰	-14346
导	-14347
尔	-14348
局	-14349
展	-14350
屠	-14351
崇	-14352
巧	-14353
巻	-14354
巾	-14355
帆	-14356
师	-14357
帛	-14358
幇	-14359
幡	-14360
幸	-14361
幹	-14362
幻	-14363
幼	-14364
库	-14365
庶	-14366
弈	-14367
张	-14368
弥	-14369
弱	-14370
彌	-14371
彦	-14372
徐	-14373
怨	-14374
总	-14375
恐	-14376
恶	-14377
悔	-14378
惑	-14379
愚	-14380
慎	-14381
慢	-14382
憎	-14383
憶	-14384
扇	-14385
扑	-14386
扫	-14387
批	-14388
护	-14389
报	-14390
抵	-14391
抹	-14392
担	-14393
拠	-14394
拿	-14395
振	-14396
捕	-14397
排	-14398
描	-14399
揚	-14400
揮	-14401
撈	-14402
操	-14403
攀	-14404
收	-14405
斌	-14406
旁	-14407
旋	-14408
早	-14409
旭	-14410
昔	-14411
昭	-14412
显	-14413
曳	-14414
曾	-14415
朗	-14416
术	-14417
权	-14418
柳	-14419
栗	-14420
株	-14421
棲	-14422
検	-14423
楊	-14424
楼	-14425
榎	-14426
槍	-14427
樂	-14428
標	-14429
樞	-14430
模	-14431
櫭	-14432
欲	-14433
殘	-14434
毎	-14435
毒	-14436
汇	-14437
汗	-14438
汚	-14439
汪	-14440
沼	-14441
泥	-14442
洞	-14443
洲	-14444
浄	-14445
浏	-14446
浮	-14447
消	-14448
減	-14449
渡	-14450
湯	-14451
準	-14452
滅	-14453
满	-14454
滾	-14455
漆	-14456
潜	-14457
澤	-14458
濃	-14459
灯	-14460
炉	-14461
烟	-14462
焦	-14463
爵	-14464
父	-14465
爸	-14466
牟	-14467
牡	-14468
状	-14469
狂	-14470
狸	-14471
猪	-14472
猴	-14473
獄	-14474
獨	-14475
獵	-14476
玛	-14477
珍	-14478
瑠	-14479
璃	-14480
璧	-14481
瓶	-14482
產	-14483
畏	-14484
畳	-14485
痴	-14486
瘋	-14487
癲	-14488
益	-14489
盤	-14490
眉	-14491
県	-14492
睡	-14493
矢	-14494
砲	-14495
碗	-14496
磨	-14497
禮	-14498
离	-14499
称	-14500
稀	-14501
程	-14502
稠	-14503
穴	-14504
窓	-14505
站	-14506
競	-14507
筅	-14508
签	-14509
紅	-14510
紋	-14511
納	-14512
紧	-14513
継	-14514
綱	-14515
編	-14516
縣	-14517
约	-14518
细	-14519
终	-14520
续	-14521
绿	-14522
缘	-14523
羊	-14524
翳	-14525
翼	-14526
耿	-14527
联	-14528
聡	-14529
聯	-14530
聲	-14531
肇	-14532
股	-14533
肥	-14534
胸	-14535
脈	-14536
脑	-14537
腿	-14538
膽	-14539
舟	-14540
艾	-14541
节	-14542
苦	-14543
苫	-14544
茂	-14545
荼	-14546
莫	-14547
菩	-14548
萬	-14549
薙	-14550
藁	-14551
藝	-14552
藪	-14553
蘭	-14554
虐	-14555
處	-14556
虚	-14557
虞	-14558
虫	-14559
虹	-14560
蚣	-14561
蜈	-14562
蝎	-14563
螂	-14564
螳	-14565
蠤	-14566
衒	-14567
袱	-14568
裕	-14569
補	-14570
観	-14571
览	-14572
触	-14573
觸	-14574
許	-14575
訳	-14576
試	-14577
誌	-14578
課	-14579
諦	-14580
講	-14581
譚	-14582
議	-14583
计	-14584
议	-14585
访	-14586
词	-14587
试	-14588
诗	-14589
诺	-14590
调	-14591
貝	-14592
負	-14593
貫	-14594
趙	-14595
趣	-14596
距	-14597
躍	-14598
躺	-14599
軒	-14600
軽	-14601
輔	-14602
轻	-14603
载	-14604
退	-14605
這	-14606
遊	-14607
遣	-14608
遥	-14609
遭	-14610
選	-14611
遺	-14612
避	-14613
邪	-14614
鄭	-14615
釋	-14616
量	-14617
銅	-14618
鋒	-14619
録	-14620
鍋	-14621
鎌	-14622
鎧	-14623
鏢	-14624
鑑	-14625
钟	-14626
铭	-14627
閉	-14628
阮	-14629
阴	-14630
陸	-14631
随	-14632
險	-14633
雀	-14634
雅	-14635
雑	-14636
雜	-14637
震	-14638
露	-14639
靜	-14640
頑	-14641
顳	-14642
领	-14643
飢	-14644
飾	-14645
马	-14646
鬼	-14647
鯨	-14648
鴎	-14649
鷹	-14650
麵	-14651
麻	-14652
黙	-14653
ꝛ	-14654
ꝶ	-14655
Ꞷ	-14656
ꞷ	-14657
개	-14658
거	-14659
공	-14660
과	-14661
관	-14662
군	-14663
니	-14664
달	-14665
동	-14666
들	-14667
런	-14668
림	-14669
목	-14670
문	-14671
방	-14672
백	-14673
별	-14674
불	-14675
비	-14676
삼	-14677
석	-14678
설	-14679
세	-14680
실	-14681
야	-14682
양	-14683
언	-14684
예	-14685
유	-14686
은	-14687
의	-14688
일	-14689
작	-14690
절	-14691
정	-14692
진	-14693
채	-14694
천	-14695
츠	-14696
퓨	-14697
피	-14698
학	-14699
해	-14700
혹	-14701
화	-14702
￿	-14703
𐌀	-14704
𐌈	-14705
𐌍	-14706
𐌐	-14707
𐌑	-14708
𐌙	-14709
𒀭	-14710
🇬	-14711
🇮	-14712
🇲	-14713
🌵	-14714
🍊	-14715
🍒	-14716
🍷	-14717
🎨	-14718
🎮	-14719
🎵	-14720
🏗	-14721
🏻	-14722
👿	-14723
💎	-14724
💖	-14725
💪	-14726
📈	-14727
📬	-14728
🔄	-14729
🔒	-14730
🔗	-14731
🕾	-14732
🖶	-14733
😅	-14734
😏	-14735
😭	-14736
😮	-14737
🙌	-14738
🚀	-14739
🛠	-14740
🟠	-14741
🤔	-14742
Ģ	-14743
Ħ	-14744
Į	-14745
Ĺ	-14746
Ŗ	-14747
ŗ	-14748
Ų	-14749
ŷ	-14750
Ʃ	-14751
ƫ	-14752
Ʒ	-14753
Ƹ	-14754
Ǔ	-14755
ǖ	-14756
ǭ	-14757
ǵ	-14758
ȅ	-14759
ȓ	-14760
ȕ	-14761
ȝ	-14762
ȫ	-14763
ȭ	-14764
ȯ	-14765
ȼ	-14766
ɚ	-14767
ɝ	-14768
ɞ	-14769
ɧ	-14770
ɮ	-14771
ɵ	-14772
ɶ	-14773
ɷ	-14774
ɺ	-14775
ʖ	-14776
ʗ	-14777
ʛ	-14778
ʟ	-14779
ʡ	-14780
ʢ	-14781
˞	-14782
̑	-14783
̡	-14784
̩	-14785
̱	-14786
Ώ	-14787
ϋ	-14788
Ϙ	-14789
ϙ	-14790
Ђ	-14791
Ї	-14792
ђ	-14793
ѓ	-14794
ќ	-14795
ѝ	-14796
ѧ	-14797
ѵ	-14798
ґ	-14799
ң	-14800
ү	-14801
Ӝ	-14802
ӧ	-14803
ӳ	-14804
ԛ	-14805
Բ	-14806
Դ	-14807
Յ	-14808
Ց	-14809
Օ	-14810
Ֆ	-14811
դ	-14812
լ	-14813
ծ	-14814
մ	-14815
ռ	-14816
տ	-14817
ւ	-14818
օ	-14819
ױ	-14820
ؽ	-14821
١	-14822
٨	-14823
ۖ	-14824
ۗ	-14825
۲	-14826
۹	-14827
ܒ	-14828
ܕ	-14829
ܘ	-14830
ܙ	-14831
ܟ	-14832
ܢ	-14833
ܦ	-14834
ܪ	-14835
ޅ	-14836
އ	-14837
ތ	-14838
ަ	-14839
ު	-14840
ޮ	-14841
ࠤ	-14842
ऊ	-14843
ऩ	-14844
ऱ	-14845
ळ	-14846
ऴ	-14847
॑	-14848
॒	-14849
॓	-14850
॔	-14851
॥	-14852
५	-14853
ॻ	-14854
ॼ	-14855
ॽ	-14856
ॾ	-14857
ॿ	-14858
ঃ	-14859
ক	-14860
ঽ	-14861
৳	-14862
৺	-14863
ਜ	-14864
ਪ	-14865
ਬ	-14866
ਾ	-14867
ੰ	-14868
ஒ	-14869
ங	-14870
ழ	-14871
ం	-14872
ణ	-14873
ద	-14874
ర	-14875
వ	-14876
ా	-14877
్	-14878
ක	-14879
ත	-14880
ල	-14881
ෂ	-14882
්	-14883
ෝ	-14884
ช	-14885
ป	-14886
พ	-14887
ู	-14888
๊	-14889
์	-14890
๙	-14891
ຊ	-14892
ນ	-14893
ມ	-14894
ວ	-14895
ອ	-14896
ື	-14897
ເ	-14898
໫	-14899
໹	-14900
།	-14901
ཇ	-14902
ཐ	-14903
ཙ	-14904
ཛ	-14905
ཞ	-14906
ཤ	-14907
ཧ	-14908
ྡ	-14909
ྥ	-14910
ྩ	-14911
ྷ	-14912
გ	-14913
პ	-14914
ქ	-14915
წ	-14916
ჭ	-14917
ჯ	-14918
ᅠ	-14919
ለ	-14920
ሊ	-14921
ማ	-14922
ም	-14923
ቃ	-14924
ቅ	-14925
ቤ	-14926
ኒ	-14927
ና	-14928
እ	-14929
ካ	-14930
የ	-14931
ያ	-14932
ደ	-14933
ድ	-14934
ጋ	-14935
ጣ	-14936
ᐅ	-14937
ᐊ	-14938
ᐢ	-14939
ᑑ	-14940
ᑿ	-14941
ᓂ	-14942
ᓯ	-14943
ᕗ	-14944
ᕽ	-14945
ᖅ	-14946
ᗷ	-14947
ᗺ	-14948
᛭	-14949
ជ	-14950
ញ	-14951
ផ	-14952
ម	-14953
វ	-14954
ហ	-14955
ិ	-14956
ី	-14957
ំ	-14958
្	-14959
ᠦ	-14960
ᠪ	-14961
ᠭ	-14962
ᠲ	-14963
ᠷ	-14964
ᴚ	-14965
ᶓ	-14966
ḁ	-14967
Ḕ	-14968
ḝ	-14969
ḣ	-14970
ṏ	-14971
ṙ	-14972
Ṥ	-14973
ṥ	-14974
Ṧ	-14975
ṧ	-14976
Ṩ	-14977
ṩ	-14978
ṻ	-14979
ẑ	-14980
Ẕ	-14981
Ạ	-14982
ằ	-14983
ẳ	-14984
ở	-14985
Ụ	-14986
Ἁ	-14987
Ἃ	-14988
Ἅ	-14989
ἓ	-14990
Ἓ	-14991
ἣ	-14992
Ἢ	-14993
ὂ	-14994
Ὑ	-14995
Ὗ	-14996
ὢ	-14997
ὧ	-14998
Ὧ	-14999
ᾍ	-15000
ᾠ	-15001
ᾧ	-15002
ᾱ	-15003
Ὴ	-15004
ῠ	-15005
Ὸ	-15006
ῼ	-15007
‍	-15008
₏	-15009
₧	-15010
₯	-15011
℟	-15012
↘	-15013
↙	-15014
↻	-15015
⇐	-15016
∁	-15017
∉	-15018
∣	-15019
∽	-15020
≃	-15021
⋯	-15022
⌂	-15023
⌃	-15024
⍺	-15025
⏚	-15026
⏪	-15027
⏫	-15028
┐	-15029
┼	-15030
╝	-15031
╣	-15032
╧	-15033
▮	-15034
◀	-15035
◉	-15036
☓	-15037
☔	-15038
☚	-15039
☠	-15040
☿	-15041
♃	-15042
♍	-15043
♘	-15044
⚊	-15045
⚋	-15046
⚓	-15047
⚡	-15048
✁	-15049
✈	-15050
✊	-15051
✋	-15052
✝	-15053
❅	-15054
❐	-15055
❒	-15056
❝	-15057
❱	-15058
➞	-15059
⤽	-15060
⦠	-15061
⧼	-15062
⧽	-15063
⩱	-15064
⩲	-15065
ⲟ	-15066
ⲡ	-15067
ⴳ	-15068
ⴷ	-15069
ⵖ	-15070
ⵞ	-15071
ⵡ	-15072
〇	-15073
ぃ	-15074
ぷ	-15075
ぼ	-15076
ヌ	-15077
ヰ	-15078
ヶ	-15079
丘	-15080
乃	-15081
乌	-15082
乎	-15083
乐	-15084
习	-15085
乡	-15086
买	-15087
亢	-15088
亩	-15089
亿	-15090
仅	-15091
仑	-15092
企	-15093
伎	-15094
估	-15095
低	-15096
余	-15097
佩	-15098
佳	-15099
侍	-15100
侏	-15101
侠	-15102
侣	-15103
侯	-15104
侵	-15105
侶	-15106
係	-15107
俄	-15108
俩	-15109
俱	-15110
倀	-15111
倆	-15112
候	-15113
値	-15114
倦	-15115
倭	-15116
做	-15117
偶	-15118
傀	-15119
傍	-15120
傘	-15121
储	-15122
催	-15123
働	-15124
僵	-15125
億	-15126
儡	-15127
兆	-15128
党	-15129
兰	-15130
兴	-15131
兼	-15132
冊	-15133
冠	-15134
冬	-15135
冶	-15136
凝	-15137
凤	-15138
凰	-15139
刁	-15140
刃	-15141
刘	-15142
删	-15143
刹	-15144
剂	-15145
剌	-15146
劈	-15147
劉	-15148
劫	-15149
勉	-15150
務	-15151
勧	-15152
匠	-15153
匹	-15154
卍	-15155
协	-15156
卖	-15157
卧	-15158
卯	-15159
卵	-15160
卸	-15161
压	-15162
厘	-15163
厦	-15164
县	-15165
參	-15166
叔	-15167
叛	-15168
叟	-15169
另	-15170
吀	-15171
各	-15172
吐	-15173
吗	-15174
吧	-15175
吱	-15176
吴	-15177
吵	-15178
吼	-15179
呂	-15180
呆	-15181
呈	-15182
呉	-15183
呕	-15184
咸	-15185
哲	-15186
唄	-15187
唖	-15188
啟	-15189
啷	-15190
喇	-15191
喊	-15192
喘	-15193
喝	-15194
喧	-15195
喰	-15196
嘛	-15197
嘩	-15198
嘴	-15199
囲	-15200
围	-15201
固	-15202
圆	-15203
圍	-15204
團	-15205
圣	-15206
圭	-15207
址	-15208
坊	-15209
坑	-15210
坤	-15211
坪	-15212
垂	-15213
垓	-15214
埼	-15215
堤	-15216
塊	-15217
塩	-15218
塵	-15219
増	-15220
壞	-15221
壮	-15222
売	-15223
壺	-15224
够	-15225
央	-15226
奄	-15227
奋	-15228
契	-15229
奖	-15230
奴	-15231
娜	-15232
婉	-15233
婦	-15234
婴	-15235
媽	-15236
嬉	-15237
宽	-15238
寇	-15239
寓	-15240
寛	-15241
寬	-15242
寸	-15243
寻	-15244
寿	-15245
將	-15246
尖	-15247
尚	-15248
层	-15249
屆	-15250
屈	-15251
屏	-15252
属	-15253
層	-15254
岑	-15255
峡	-15256
峨	-15257
峰	-15258
崖	-15259
崩	-15260
嵋	-15261
嶋	-15262
嶺	-15263
嶽	-15264
巌	-15265
已	-15266
巳	-15267
巷	-15268
帮	-15269
帳	-15270
幅	-15271
幌	-15272
幾	-15273
店	-15274
庙	-15275
庫	-15276
廊	-15277
廚	-15278
廟	-15279
廬	-15280
延	-15281
弄	-15282
弓	-15283
弛	-15284
弧	-15285
录	-15286
彪	-15287
彫	-15288
彰	-15289
従	-15290
徹	-15291
忘	-15292
忙	-15293
応	-15294
忠	-15295
忽	-15296
怀	-15297
怎	-15298
怒	-15299
怡	-15300
恕	-15301
恣	-15302
悉	-15303
患	-15304
悶	-15305
惣	-15306
惯	-15307
愠	-15308
慈	-15309
慌	-15310
慮	-15311
慶	-15312
憂	-15313
憲	-15314
憺	-15315
應	-15316
懸	-15317
戀	-15318
戈	-15319
戌	-15320
戏	-15321
戠	-15322
戮	-15323
戶	-15324
户	-15325
扉	-15326
扮	-15327
扶	-15328
承	-15329
抑	-15330
抒	-15331
抓	-15332
抖	-15333
抛	-15334
抜	-15335
抱	-15336
押	-15337
拒	-15338
拔	-15339
招	-15340
拡	-15341
择	-15342
拼	-15343
拾	-15344
挂	-15345
按	-15346
挖	-15347
挠	-15348
挤	-15349
挺	-15350
损	-15351
捨	-15352
採	-15353
措	-15354
掲	-15355
握	-15356
揭	-15357
揺	-15358
搬	-15359
携	-15360
摂	-15361
摔	-15362
摺	-15363
撒	-15364
撥	-15365
撫	-15366
擊	-15367
擴	-15368
敖	-15369
敢	-15370
散	-15371
敦	-15372
敲	-15373
敷	-15374
斉	-15375
斜	-15376
斧	-15377
旗	-15378
既	-15379
昆	-15380
昇	-15381
昌	-15382
昼	-15383
晉	-15384
晋	-15385
晦	-15386
晴	-15387
暁	-15388
暘	-15389
暮	-15390
曆	-15391
曉	-15392
曌	-15393
曽	-15394
替	-15395
朕	-15396
朱	-15397
朴	-15398
机	-15399
杀	-15400
杲	-15401
杵	-15402
析	-15403
枚	-15404
枪	-15405
柄	-15406
柑	-15407
染	-15408
柴	-15409
柵	-15410
査	-15411
栀	-15412
标	-15413
栖	-15414
核	-15415
桐	-15416
桑	-15417
桥	-15418
桴	-15419
梁	-15420
條	-15421
梦	-15422
梨	-15423
梯	-15424
棄	-15425
棗	-15426
棚	-15427
植	-15428
楓	-15429
楢	-15430
楯	-15431
楷	-15432
槃	-15433
槻	-15434
樋	-15435
樓	-15436
樵	-15437
樽	-15438
檜	-15439
櫓	-15440
櫻	-15441
款	-15442
歡	-15443
歯	-15444
殉	-15445
殊	-15446
殷	-15447
比	-15448
毙	-15449
毫	-15450
毯	-15451
气	-15452
氷	-15453
沟	-15454
沪	-15455
沫	-15456
洙	-15457
洹	-15458
浪	-15459
浴	-15460
涂	-15461
涅	-15462
淓	-15463
淞	-15464
淡	-15465
淧	-15466
淮	-15467
混	-15468
渀	-15469
渁	-15470
渇	-15471
渉	-15472
渓	-15473
測	-15474
渾	-15475
湛	-15476
湡	-15477
溢	-15478
溪	-15479
滋	-15480
滝	-15481
滥	-15482
滿	-15483
漁	-15484
漂	-15485
漠	-15486
漸	-15487
潟	-15488
潤	-15489
潰	-15490
澳	-15491
濹	-15492
灭	-15493
灰	-15494
炎	-15495
烏	-15496
焔	-15497
煎	-15498
熹	-15499
燕	-15500
爛	-15501
爪	-15502
爲	-15503
爷	-15504
爾	-15505
牌	-15506
牙	-15507
牲	-15508
牵	-15509
牽	-15510
犀	-15511
犠	-15512
狄	-15513
狐	-15514
狗	-15515
狭	-15516
猀	-15517
献	-15518
獃	-15519
獩	-15520
獻	-15521
玩	-15522
珈	-15523
班	-15524
琲	-15525
瑩	-15526
瑪	-15527
瑾	-15528
璽	-15529
瓜	-15530
瓣	-15531
瓦	-15532
甀	-15533
甄	-15534
甘	-15535
甚	-15536
畷	-15537
畿	-15538
疯	-15539
疾	-15540
痛	-15541
痫	-15542
癖	-15543
癫	-15544
皿	-15545
盂	-15546
盖	-15547
盘	-15548
盲	-15549
盾	-15550
省	-15551
睛	-15552
瞑	-15553
瞞	-15554
瞬	-15555
瞳	-15556
矯	-15557
码	-15558
础	-15559
硝	-15560
硬	-15561
磐	-15562
磯	-15563
礫	-15564
祁	-15565
祓	-15566
祝	-15567
祥	-15568
祩	-15569
禹	-15570
禽	-15571
积	-15572
稱	-15573
稿	-15574
穂	-15575
穆	-15576
積	-15577
窦	-15578
窪	-15579
窺	-15580
竇	-15581
章	-15582
竿	-15583
笔	-15584
笛	-15585
笠	-15586
符	-15587
笹	-15588
筠	-15589
箇	-15590
箕	-15591
箭	-15592
箴	-15593
篆	-15594
篤	-15595
篭	-15596
簡	-15597
簿	-15598
粤	-15599
粥	-15600
粵	-15601
糊	-15602
糕	-15603
紐	-15604
紛	-15605
紡	-15606
索	-15607
絕	-15608
絡	-15609
給	-15610
綸	-15611
綺	-15612
綾	-15613
緣	-15614
緯	-15615
縁	-15616
縱	-15617
績	-15618
繫	-15619
繭	-15620
红	-15621
级	-15622
纸	-15623
线	-15624
绀	-15625
结	-15626
绝	-15627
缶	-15628
罕	-15629
罗	-15630
罟	-15631
罠	-15632
羯	-15633
羲	-15634
翁	-15635
耗	-15636
聊	-15637
职	-15638
聴	-15639
職	-15640
肌	-15641
胆	-15642
胤	-15643
胴	-15644
脅	-15645
脆	-15646
脇	-15647
脊	-15648
脩	-15649
脫	-15650
脱	-15651
脳	-15652
腔	-15653
腰	-15654
腸	-15655
腾	-15656
膖	-15657
膚	-15658
膝	-15659
膠	-15660
臀	-15661
臂	-15662
臥	-15663
致	-15664
臼	-15665
舌	-15666
舒	-15667
航	-15668
艮	-15669
艺	-15670
芋	-15671
芦	-15672
芬	-15673
苍	-15674
苏	-15675
苑	-15676
苔	-15677
范	-15678
茨	-15679
荀	-15680
荐	-15681
荚	-15682
药	-15683
莊	-15684
菱	-15685
菲	-15686
萌	-15687
萨	-15688
萩	-15689
萱	-15690
董	-15691
葬	-15692
蒂	-15693
蓋	-15694
蓝	-15695
蓼	-15696
蔽	-15697
蕅	-15698
蕭	-15699
薄	-15700
薤	-15701
薩	-15702
薮	-15703
藉	-15704
藻	-15705
蘇	-15706
號	-15707
虽	-15708
蛉	-15709
蛛	-15710
蜓	-15711
蜘	-15712
蜻	-15713
蝘	-15714
螺	-15715
蟠	-15716
蟹	-15717
蠅	-15718
衍	-15719
衰	-15720
袋	-15721
袾	-15722
裹	-15723
製	-15724
複	-15725
褒	-15726
襪	-15727
覆	-15728
覽	-15729
訊	-15730
討	-15731
訪	-15732
訴	-15733
訶	-15734
証	-15735
評	-15736
詠	-15737
詮	-15738
該	-15739
詳	-15740
誇	-15741
誉	-15742
誓	-15743
誘	-15744
誤	-15745
請	-15746
諗	-15747
謀	-15748
謝	-15749
謡	-15750
譞	-15751
譯	-15752
譲	-15753
變	-15754
讓	-15755
讖	-15756
讚	-15757
讯	-15758
讲	-15759
论	-15760
识	-15761
译	-15762
详	-15763
误	-15764
谁	-15765
谈	-15766
谍	-15767
豌	-15768
豫	-15769
豹	-15770
豺	-15771
貉	-15772
貞	-15773
貢	-15774
貴	-15775
買	-15776
貿	-15777
賊	-15778
賦	-15779
賴	-15780
贈	-15781
贛	-15782
责	-15783
贤	-15784
货	-15785
贸	-15786
赋	-15787
赛	-15788
赵	-15789
赶	-15790
跡	-15791
跤	-15792
跳	-15793
践	-15794
踏	-15795
踪	-15796
躇	-15797
躊	-15798
躙	-15799
較	-15800
輸	-15801
轉	-15802
车	-15803
转	-15804
软	-15805
辉	-15806
辑	-15807
辨	-15808
辭	-15809
辱	-15810
迁	-15811
迄	-15812
迅	-15813
迎	-15814
运	-15815
迦	-15816
迪	-15817
迫	-15818
选	-15819
逍	-15820
逢	-15821
逮	-15822
遅	-15823
遗	-15824
適	-15825
遮	-15826
邊	-15827
郡	-15828
郭	-15829
郵	-15830
郷	-15831
鄉	-15832
鄧	-15833
酒	-15834
酷	-15835
醤	-15836
釈	-15837
釧	-15838
釵	-15839
鈴	-15840
鉛	-15841
鉤	-15842
銛	-15843
鋭	-15844
鎚	-15845
鎮	-15846
鑓	-15847
针	-15848
钱	-15849
钺	-15850
铜	-15851
铸	-15852
锋	-15853
镜	-15854
閩	-15855
闇	-15856
闖	-15857
闡	-15858
闪	-15859
闭	-15860
闵	-15861
闸	-15862
闻	-15863
阜	-15864
阶	-15865
附	-15866
陈	-15867
陣	-15868
陶	-15869
隅	-15870
隆	-15871
隋	-15872
隐	-15873
隔	-15874
隣	-15875
隱	-15876
隸	-15877
雇	-15878
雛	-15879
雾	-15880
霞	-15881
霸	-15882
靑	-15883
韵	-15884
韻	-15885
響	-15886
頁	-15887
頌	-15888
預	-15889
頓	-15890
頬	-15891
頷	-15892
頸	-15893
頼	-15894
額	-15895
顒	-15896
願	-15897
页	-15898
顺	-15899
颤	-15900
飞	-15901
飯	-15902
餐	-15903
餓	-15904
饒	-15905
馳	-15906
騒	-15907
騨	-15908
騷	-15909
驀	-15910
髄	-15911
髮	-15912
鬱	-15913
魂	-15914
魏	-15915
魯	-15916
鮮	-15917
鯉	-15918
鯑	-15919
鲁	-15920
鲜	-15921
鲤	-15922
鳝	-15923
鳩	-15924
鳳	-15925
鴉	-15926
鴨	-15927
鴫	-15928
鴿	-15929
鵑	-15930
鵝	-15931
鷲	-15932
鸞	-15933
鸟	-15934
鸡	-15935
鸿	-15936
鹤	-15937
鹰	-15938
鹵	-15939
麦	-15940
麩	-15941
麼	-15942
點	-15943
각	-15944
걱	-15945
걸	-15946
괴	-15947
교	-15948
귀	-15949
근	-15950
금	-15951
긴	-15952
까	-15953
나	-15954
날	-15955
너	-15956
녀	-15957
노	-15958
눇	-15959
눉	-15960
닌	-15961
닫	-15962
더	-15963
뒤	-15964
드	-15965
듯	-15966
등	-15967
디	-15968
때	-15969
떡	-15970
뜨	-15971
랑	-15972
러	-15973
류	-15974
률	-15975
르	-15976
를	-15977
만	-15978
면	-15979
명	-15980
무	-15981
물	-15982
뭔	-15983
미	-15984
민	-15985
반	-15986
받	-15987
배	-15988
버	-15989
번	-15990
벌	-15991
벡	-15992
볼	-15993
봤	-15994
분	-15995
브	-15996
빈	-15997
살	-15998
섭	-15999
성	-16000
센	-16001
소	-16002
송	-16003
수	-16004
심	-16005
씨	-16006
얘	-16007
억	-16008
여	-16009
역	-16010
였	-16011
우	-16012
월	-16013
으	-16014
익	-16015
임	-16016
적	-16017
전	-16018
젠	-16019
존	-16020
좋	-16021
주	-16022
준	-16023
집	-16024
차	-16025
찮	-16026
찾	-16027
처	-16028
첫	-16029
체	-16030
치	-16031
컴	-16032
콤	-16033
쿼	-16034
퀄	-16035
타	-16036
탈	-16037
투	-16038
트	-16039
티	-16040
편	-16041
평	-16042
표	-16043
합	-16044
행	-16045
향	-16046
현	-16047
혜	-16048
활	-16049
후	-16050
히	-16051
힘	-16052
𐀏	-16053
𐀙	-16054
𐀷	-16055
𐌄	-16056
𐌓	-16057
𐌔	-16058
𐌘	-16059
𐌵	-16060
𐤀	-16061
𐤁	-16062
𐤍	-16063
𐤔	-16064
𒀏	-16065
𒆠	-16066
𒈠	-16067
𒌷	-16068
𒍪	-16069
🇨	-16070
🇩	-16071
🇭	-16072
🇱	-16073
🇴	-16074
🇷	-16075
🇹	-16076
🇺	-16077
🌈	-16078
🌞	-16079
🌷	-16080
🍎	-16081
🍪	-16082
🍭	-16083
🎂	-16084
🎙	-16085
🎥	-16086
🎧	-16087
🎸	-16088
🎾	-16089
🏃	-16090
🏆	-16091
🏍	-16092
🏙	-16093
🐃	-16094
🐈	-16095
🐦	-16096
🐰	-16097
🐱	-16098
🐴	-16099
🐶	-16100
🐾	-16101
👏	-16102
👑	-16103
👤	-16104
👦	-16105
💐	-16106
💓	-16107
💕	-16108
💚	-16109
💝	-16110
💧	-16111
💩	-16112
📄	-16113
📜	-16114
📣	-16115
📸	-16116
🔔	-16117
🔝	-16118
🔨	-16119
🔴	-16120
