<unk>	0
<s>	0
</s>	0
<pad>	0
<system>	0
<user>	0
<assistant>	0
<0x00>	0
<0x01>	0
<0x02>	0
<0x03>	0
<0x04>	0
<0x05>	0
<0x06>	0
<0x07>	0
<0x08>	0
<0x09>	0
<0x0A>	0
<0x0B>	0
<0x0C>	0
<0x0D>	0
<0x0E>	0
<0x0F>	0
<0x10>	0
<0x11>	0
<0x12>	0
<0x13>	0
<0x14>	0
<0x15>	0
<0x16>	0
<0x17>	0
<0x18>	0
<0x19>	0
<0x1A>	0
<0x1B>	0
<0x1C>	0
<0x1D>	0
<0x1E>	0
<0x1F>	0
<0x20>	0
<0x21>	0
<0x22>	0
<0x23>	0
<0x24>	0
<0x25>	0
<0x26>	0
<0x27>	0
<0x28>	0
<0x29>	0
<0x2A>	0
<0x2B>	0
<0x2C>	0
<0x2D>	0
<0x2E>	0
<0x2F>	0
<0x30>	0
<0x31>	0
<0x32>	0
<0x33>	0
<0x34>	0
<0x35>	0
<0x36>	0
<0x37>	0
<0x38>	0
<0x39>	0
<0x3A>	0
<0x3B>	0
<0x3C>	0
<0x3D>	0
<0x3E>	0
<0x3F>	0
<0x40>	0
<0x41>	0
<0x42>	0
<0x43>	0
<0x44>	0
<0x45>	0
<0x46>	0
<0x47>	0
<0x48>	0
<0x49>	0
<0x4A>	0
<0x4B>	0
<0x4C>	0
<0x4D>	0
<0x4E>	0
<0x4F>	0
<0x50>	0
<0x51>	0
<0x52>	0
<0x53>	0
<0x54>	0
<0x55>	0
<0x56>	0
<0x57>	0
<0x58>	0
<0x59>	0
<0x5A>	0
<0x5B>	0
<0x5C>	0
<0x5D>	0
<0x5E>	0
<0x5F>	0
<0x60>	0
<0x61>	0
<0x62>	0
<0x63>	0
<0x64>	0
<0x65>	0
<0x66>	0
<0x67>	0
<0x68>	0
<0x69>	0
<0x6A>	0
<0x6B>	0
<0x6C>	0
<0x6D>	0
<0x6E>	0
<0x6F>	0
<0x70>	0
<0x71>	0
<0x72>	0
<0x73>	0
<0x74>	0
<0x75>	0
<0x76>	0
<0x77>	0
<0x78>	0
<0x79>	0
<0x7A>	0
<0x7B>	0
<0x7C>	0
<0x7D>	0
<0x7E>	0
<0x7F>	0
<0x80>	0
<0x81>	0
<0x82>	0
<0x83>	0
<0x84>	0
<0x85>	0
<0x86>	0
<0x87>	0
<0x88>	0
<0x89>	0
<0x8A>	0
<0x8B>	0
<0x8C>	0
<0x8D>	0
<0x8E>	0
<0x8F>	0
<0x90>	0
<0x91>	0
<0x92>	0
<0x93>	0
<0x94>	0
<0x95>	0
<0x96>	0
<0x97>	0
<0x98>	0
<0x99>	0
<0x9A>	0
<0x9B>	0
<0x9C>	0
<0x9D>	0
<0x9E>	0
<0x9F>	0
<0xA0>	0
<0xA1>	0
<0xA2>	0
<0xA3>	0
<0xA4>	0
<0xA5>	0
<0xA6>	0
<0xA7>	0
<0xA8>	0
<0xA9>	0
<0xAA>	0
<0xAB>	0
<0xAC>	0
<0xAD>	0
<0xAE>	0
<0xAF>	0
<0xB0>	0
<0xB1>	0
<0xB2>	0
<0xB3>	0
<0xB4>	0
<0xB5>	0
<0xB6>	0
<0xB7>	0
<0xB8>	0
<0xB9>	0
<0xBA>	0
<0xBB>	0
<0xBC>	0
<0xBD>	0
<0xBE>	0
<0xBF>	0
<0xC0>	0
<0xC1>	0
<0xC2>	0
<0xC3>	0
<0xC4>	0
<0xC5>	0
<0xC6>	0
<0xC7>	0
<0xC8>	0
<0xC9>	0
<0xCA>	0
<0xCB>	0
<0xCC>	0
<0xCD>	0
<0xCE>	0
<0xCF>	0
<0xD0>	0
<0xD1>	0
<0xD2>	0
<0xD3>	0
<0xD4>	0
<0xD5>	0
<0xD6>	0
<0xD7>	0
<0xD8>	0
<0xD9>	0
<0xDA>	0
<0xDB>	0
<0xDC>	0
<0xDD>	0
<0xDE>	0
<0xDF>	0
<0xE0>	0
<0xE1>	0
<0xE2>	0
<0xE3>	0
<0xE4>	0
<0xE5>	0
<0xE6>	0
<0xE7>	0
<0xE8>	0
<0xE9>	0
<0xEA>	0
<0xEB>	0
<0xEC>	0
<0xED>	0
<0xEE>	0
<0xEF>	0
<0xF0>	0
<0xF1>	0
<0xF2>	0
<0xF3>	0
<0xF4>	0
<0xF5>	0
<0xF6>	0
<0xF7>	0
<0xF8>	0
<0xF9>	0
<0xFA>	0
<0xFB>	0
<0xFC>	0
<0xFD>	0
<0xFE>	0
<0xFF>	0
▁d	-0
on	-1
er	-2
▁c	-3
▁s	-4
▁p	-5
▁a	-6
re	-7
to	-8
in	-9
ta	-10
en	-11
ti	-12
la	-13
▁di	-14
ri	-15
el	-16
ra	-17
li	-18
▁e	-19
te	-20
le	-21
an	-22
un	-23
▁m	-24
▁i	-25
ro	-26
zi	-27
▁in	-28
▁n	-29
si	-30
he	-31
▁del	-32
or	-33
ia	-34
▁f	-35
▁un	-36
es	-37
ca	-38
▁v	-39
▁per	-40
▁con	-41
one	-42
▁la	-43
lo	-44
os	-45
▁al	-46
qu	-47
▁g	-48
om	-49
▁t	-50
▁il	-51
ar	-52
co	-53
▁che	-54
ci	-55
al	-56
men	-57
et	-58
di	-59
▁qu	-60
do	-61
▁ri	-62
▁S	-63
ma	-64
▁o	-65
zione	-66
no	-67
▁C	-68
so	-69
za	-70
▁su	-71
gi	-72
▁b	-73
▁l	-74
▁è	-75
ere	-76
▁pro	-77
▁P	-78
vi	-79
ol	-80
tu	-81
▁da	-82
mp	-83
▁le	-84
▁de	-85
▁si	-86
mo	-87
▁I	-88
▁L	-89
sa	-90
va	-91
gli	-92
bi	-93
▁com	-94
oni	-95
▁an	-96
▁A	-97
▁M	-98
ono	-99
ch	-100
da	-101
ter	-102
tto	-103
ce	-104
che	-105
as	-106
pp	-107
▁una	-108
tà	-109
▁h	-110
▁se	-111
▁della	-112
▁pre	-113
ni	-114
▁ca	-115
tra	-116
vo	-117
▁re	-118
▁nel	-119
mi	-120
tti	-121
▁ma	-122
▁pi	-123
na	-124
io	-125
▁non	-126
ve	-127
de	-128
era	-129
se	-130
fi	-131
is	-132
ina	-133
▁D	-134
▁so	-135
mente	-136
ona	-137
ggi	-138
▁po	-139
ran	-140
uo	-141
▁1	-142
sp	-143
▁2	-144
tro	-145
ano	-146
cia	-147
▁G	-148
▁fa	-149
▁T	-150
zza	-151
▁dal	-152
ten	-153
▁sta	-154
▁B	-155
bb	-156
▁R	-157
eri	-158
▁sp	-159
▁(	-160
▁vi	-161
tta	-162
▁tra	-163
▁tu	-164
▁F	-165
▁N	-166
▁ha	-167
ver	-168
▁ques	-169
ga	-170
mento	-171
▁par	-172
ini	-173
zioni	-174
▁dei	-175
ui	-176
▁ci	-177
▁E	-178
tre	-179
ssi	-180
enti	-181
▁u	-182
▁sono	-183
po	-184
tan	-185
▁te	-186
ff	-187
ine	-188
▁lo	-189
cc	-190
▁più	-191
ali	-192
ente	-193
▁do	-194
tori	-195
tri	-196
▁gi	-197
ino	-198
▁dell	-199
▁es	-200
▁pa	-201
enza	-202
▁ra	-203
ru	-204
▁alla	-205
con	-206
▁V	-207
▁anche	-208
▁sul	-209
ani	-210
pa	-211
▁mi	-212
go	-213
▁La	-214
ul	-215
▁mo	-216
hi	-217
mb	-218
▁delle	-219
▁ne	-220
sti	-221
▁pos	-222
▁come	-223
▁me	-224
▁“	-225
chi	-226
me	-227
▁Il	-228
pi	-229
sta	-230
anno	-231
tura	-232
..	-233
lu	-234
ale	-235
▁20	-236
▁cos	-237
du	-238
ero	-239
zz	-240
ando	-241
gg	-242
etto	-243
▁pri	-244
▁ad	-245
rio	-246
▁U	-247
▁co	-248
bili	-249
are	-250
uto	-251
▁for	-252
▁sc	-253
▁pu	-254
ven	-255
▁In	-256
▁li	-257
gu	-258
▁gli	-259
tare	-260
ria	-261
▁all	-262
bile	-263
▁imp	-264
ggio	-265
▁comp	-266
cu	-267
tali	-268
sso	-269
▁ar	-270
etti	-271
▁av	-272
▁du	-273
▁O	-274
▁quel	-275
glio	-276
▁no	-277
▁prop	-278
ene	-279
▁fi	-280
00	-281
cco	-282
iamo	-283
zia	-284
▁inter	-285
tte	-286
▁app	-287
gna	-288
▁ed	-289
▁ess	-290
ziona	-291
dere	-292
▁questo	-293
▁Ma	-294
us	-295
tato	-296
▁ai	-297
sione	-298
per	-299
▁gra	-300
uni	-301
esso	-302
fica	-303
menti	-304
▁nella	-305
ele	-306
gni	-307
ne	-308
▁alle	-309
▁ti	-310
▁3	-311
▁Q	-312
▁sa	-313
ing	-314
▁-	-315
gno	-316
▁chi	-317
▁"	-318
for	-319
▁col	-320
▁mol	-321
tico	-322
▁essere	-323
▁ris	-324
zio	-325
▁ta	-326
▁nos	-327
▁ter	-328
▁cor	-329
▁nuo	-330
▁H	-331
▁201	-332
mpo	-333
gra	-334
glia	-335
▁–	-336
tel	-337
ffi	-338
▁semp	-339
etta	-340
▁pres	-341
anti	-342
ana	-343
▁gior	-344
▁va	-345
▁tro	-346
ren	-347
▁Qu	-348
▁parte	-349
▁to	-350
▁pers	-351
cor	-352
cca	-353
▁cui	-354
lare	-355
ze	-356
res	-357
▁Ca	-358
▁gio	-359
▁at	-360
cio	-361
▁Per	-362
bo	-363
pe	-364
▁vol	-365
um	-366
▁ba	-367
▁suo	-368
▁lavo	-369
▁hanno	-370
der	-371
dia	-372
▁Le	-373
uro	-374
essi	-375
cato	-376
ese	-377
ron	-378
esti	-379
▁ser	-380
▁Con	-381
▁ver	-382
zzo	-383
▁dis	-384
▁pas	-385
▁dalla	-386
ba	-387
▁tutti	-388
tru	-389
▁bi	-390
uti	-391
endo	-392
il	-393
ge	-394
ur	-395
▁Com	-396
▁anni	-397
▁na	-398
▁por	-399
▁degli	-400
▁vo	-401
bbli	-402
▁due	-403
mma	-404
▁prima	-405
tore	-406
ante	-407
tica	-408
▁disp	-409
▁Se	-410
enta	-411
vol	-412
▁Al	-413
bbe	-414
▁ven	-415
▁4	-416
▁solo	-417
▁Pa	-418
ss	-419
ena	-420
ppo	-421
▁An	-422
tiva	-423
lan	-424
▁acc	-425
).	-426
▁possi	-427
fa	-428
▁risp	-429
ello	-430
▁stato	-431
▁5	-432
▁Si	-433
dio	-434
sid	-435
▁sempre	-436
▁questa	-437
),	-438
tivo	-439
mbi	-440
anto	-441
▁or	-442
ché	-443
▁molto	-444
▁cre	-445
ste	-446
▁gran	-447
▁loro	-448
▁ve	-449
gia	-450
cqu	-451
ura	-452
ess	-453
pera	-454
▁men	-455
▁cer	-456
▁mon	-457
▁W	-458
tante	-459
▁qual	-460
man	-461
rà	-462
▁pun	-463
rin	-464
▁sua	-465
▁sia	-466
▁gen	-467
▁esp	-468
bilità	-469
elli	-470
cora	-471
ie	-472
▁en	-473
▁abb	-474
ella	-475
essa	-476
lizza	-477
▁ro	-478
▁dire	-479
▁spe	-480
gn	-481
▁Mi	-482
▁uno	-483
▁tutto	-484
arà	-485
▁Re	-486
forma	-487
ento	-488
ad	-489
ffer	-490
▁via	-491
at	-492
tin	-493
▁ste	-494
cch	-495
cer	-496
mm	-497
▁tempo	-498
▁servi	-499
esta	-500
▁cons	-501
▁può	-502
▁ho	-503
▁quali	-504
▁sulla	-505
▁indi	-506
▁man	-507
”.	-508
▁ga	-509
ette	-510
▁uti	-511
▁pubbli	-512
▁w	-513
▁diver	-514
une	-515
vità	-516
zie	-517
▁ogni	-518
ltre	-519
▁dopo	-520
tt	-521
▁sca	-522
▁persona	-523
▁ch	-524
ttura	-525
▁au	-526
indi	-527
▁stra	-528
▁fare	-529
▁car	-530
inis	-531
▁bas	-532
▁Di	-533
mpi	-534
tale	-535
talia	-536
...	-537
uta	-538
▁secon	-539
zzi	-540
▁nei	-541
▁conf	-542
via	-543
sc	-544
ttu	-545
rie	-546
▁senza	-547
que	-548
▁J	-549
osa	-550
tter	-551
ccia	-552
▁pia	-553
età	-554
zionale	-555
▁poi	-556
ggiun	-557
▁dall	-558
▁contro	-559
ck	-560
zo	-561
ggia	-562
▁ancora	-563
ranno	-564
▁sarà	-565
!!	-566
▁cen	-567
▁fo	-568
▁far	-569
vare	-570
▁19	-571
gui	-572
▁pen	-573
tati	-574
▁sos	-575
sto	-576
▁alc	-577
▁fatto	-578
rare	-579
cen	-580
▁vis	-581
▁can	-582
▁Gi	-583
anza	-584
▁atti	-585
osi	-586
▁K	-587
pri	-588
ico	-589
▁forma	-590
▁os	-591
▁nell	-592
mer	-593
▁Un	-594
▁Non	-595
▁lib	-596
alizza	-597
▁6	-598
▁dove	-599
▁prodo	-600
clu	-601
▁sotto	-602
inter	-603
▁prog	-604
▁bu	-605
▁mar	-606
▁proprio	-607
olo	-608
▁parti	-609
▁stu	-610
▁Mar	-611
▁altri	-612
▁Pro	-613
▁modo	-614
rante	-615
▁dov	-616
amo	-617
ed	-618
▁quello	-619
▁vita	-620
vano	-621
▁prof	-622
▁comple	-623
sse	-624
▁regi	-625
st	-626
▁euro	-627
▁arri	-628
razione	-629
mina	-630
▁cir	-631
tamente	-632
▁già	-633
lità	-634
▁miglio	-635
orto	-636
ssa	-637
elle	-638
▁chia	-639
▁nelle	-640
pra	-641
cchi	-642
vere	-643
care	-644
almente	-645
▁lavoro	-646
▁quando	-647
▁sin	-648
tanti	-649
▁tec	-650
▁stori	-651
▁così	-652
ord	-653
▁stru	-654
▁Ri	-655
▁tratta	-656
tivi	-657
▁perché	-658
ho	-659
anta	-660
▁dom	-661
▁quanto	-662
▁ini	-663
tua	-664
onda	-665
▁tre	-666
pre	-667
esto	-668
20	-669
▁era	-670
▁itali	-671
▁casa	-672
lla	-673
enze	-674
▁sco	-675
▁Na	-676
▁sal	-677
▁questi	-678
▁grande	-679
tive	-680
ble	-681
▁Vi	-682
ett	-683
▁Da	-684
▁Ci	-685
ciale	-686
assi	-687
line	-688
elo	-689
▁fino	-690
rato	-691
zien	-692
ure	-693
▁ul	-694
asi	-695
▁impor	-696
▁mondo	-697
▁cal	-698
ostra	-699
▁Lo	-700
▁Po	-701
▁rapp	-702
tiche	-703
▁poss	-704
▁giu	-705
▁nostro	-706
oma	-707
osta	-708
▁num	-709
lmente	-710
▁el	-711
▁ten	-712
ort	-713
▁Sa	-714
▁acqu	-715
▁10	-716
ggior	-717
▁7	-718
com	-719
usi	-720
▁stata	-721
▁spa	-722
▁sopra	-723
▁primo	-724
stra	-725
▁sol	-726
gono	-727
▁sicu	-728
ane	-729
tor	-730
▁fu	-731
▁dai	-732
▁tuo	-733
denti	-734
▁tras	-735
▁cli	-736
▁nuovo	-737
▁quindi	-738
ulti	-739
▁fun	-740
vato	-741
▁mom	-742
▁tutte	-743
▁oltre	-744
eni	-745
sioni	-746
▁sti	-747
tui	-748
unque	-749
gani	-750
▁z	-751
▁Do	-752
▁gu	-753
▁auto	-754
tazione	-755
tina	-756
ttà	-757
mbre	-758
▁Pi	-759
▁sen	-760
▁volta	-761
gina	-762
▁legg	-763
fatti	-764
▁ore	-765
▁bene	-766
▁dalle	-767
▁lu	-768
▁on	-769
▁ave	-770
esa	-771
▁informa	-772
▁De	-773
tano	-774
▁caso	-775
▁inf	-776
▁aff	-777
tenza	-778
colo	-779
▁rip	-780
▁quella	-781
▁deci	-782
▁fin	-783
▁condi	-784
ok	-785
▁possibile	-786
ghi	-787
ell	-788
tanto	-789
▁partico	-790
▁nec	-791
▁colo	-792
▁siste	-793
cita	-794
”,	-795
▁potre	-796
tici	-797
▁«	-798
▁picco	-799
▁persone	-800
▁oggi	-801
▁comuni	-802
gione	-803
▁mili	-804
▁Mo	-805
▁consi	-806
rsi	-807
▁fra	-808
ard	-809
▁passa	-810
▁scri	-811
▁giorno	-812
▁capi	-813
col	-814
▁ese	-815
▁lun	-816
oso	-817
▁ricer	-818
mpa	-819
▁Fa	-820
▁Co	-821
chia	-822
feri	-823
▁San	-824
▁risul	-825
osto	-826
▁poli	-827
▁ora	-828
▁ben	-829
▁giorni	-830
▁eff	-831
am	-832
▁fami	-833
▁off	-834
cere	-835
▁realizza	-836
▁attra	-837
edi	-838
▁foto	-839
vin	-840
▁produ	-841
▁8	-842
▁des	-843
▁Italia	-844
it	-845
▁mani	-846
▁maggio	-847
▁conos	-848
▁allo	-849
ber	-850
ome	-851
torio	-852
cip	-853
tten	-854
▁mer	-855
▁contin	-856
tion	-857
▁cla	-858
▁quale	-859
▁200	-860
lazione	-861
cina	-862
etro	-863
▁richi	-864
dare	-865
▁mis	-866
ture	-867
usa	-868
ON	-869
erie	-870
▁tor	-871
omo	-872
lica	-873
▁città	-874
dente	-875
▁dello	-876
▁Li	-877
ssione	-878
▁visi	-879
▁opera	-880
▁fine	-881
▁Ar	-882
▁possono	-883
lia	-884
pen	-885
▁secondo	-886
▁cu	-887
▁cosa	-888
▁proble	-889
▁sito	-890
uno	-891
▁momento	-892
glie	-893
and	-894
▁esi	-895
▁min	-896
▁So	-897
▁9	-898
cci	-899
trib	-900
▁uni	-901
▁k	-902
verso	-903
▁Pre	-904
llo	-905
▁assi	-906
cre	-907
una	-908
lato	-909
erà	-910
sie	-911
▁Ra	-912
▁giorna	-913
ER	-914
▁altre	-915
use	-916
ffici	-917
tata	-918
▁nuova	-919
qui	-920
ssimo	-921
▁posi	-922
▁cara	-923
▁colle	-924
tr	-925
▁cas	-926
ha	-927
▁sempli	-928
rezza	-929
vece	-930
▁succ	-931
lari	-932
▁utilizza	-933
▁ele	-934
vilu	-935
mato	-936
cce	-937
cipa	-938
arti	-939
▁nostra	-940
▁perm	-941
▁bamb	-942
lano	-943
ganizza	-944
omi	-945
▁contra	-946
▁go	-947
▁loca	-948
▁viene	-949
▁segui	-950
▁las	-951
▁sui	-952
cità	-953
▁stesso	-954
▁Nel	-955
▁mentre	-956
▁ricerca	-957
tando	-958
▁infatti	-959
gine	-960
teria	-961
▁agli	-962
imp	-963
vero	-964
guar	-965
▁Una	-966
val	-967
▁15	-968
▁disponi	-969
▁scel	-970
▁don	-971
▁mai	-972
tanza	-973
dì	-974
▁numero	-975
▁diven	-976
inistra	-977
▁grazie	-978
vento	-979
▁progra	-980
▁stati	-981
dica	-982
▁invece	-983
▁cri	-984
▁fil	-985
▁Tu	-986
logi	-987
▁ren	-988
▁super	-989
▁ricor	-990
▁tecni	-991
▁sistema	-992
dre	-993
gre	-994
▁centro	-995
▁pe	-996
▁Su	-997
▁scor	-998
sidente	-999
▁circa	-1000
▁svilu	-1001
▁stan	-1002
▁abbiamo	-1003
▁ulti	-1004
▁Ro	-1005
▁prin	-1006
▁servizio	-1007
TA	-1008
▁fe	-1009
".	-1010
venti	-1011
gen	-1012
▁durante	-1013
▁No	-1014
▁noi	-1015
all	-1016
▁0	-1017
ttore	-1018
▁punto	-1019
▁Mon	-1020
cri	-1021
▁ori	-1022
gh	-1023
▁Tra	-1024
onale	-1025
ei	-1026
▁prodotti	-1027
▁giov	-1028
mar	-1029
▁avere	-1030
orta	-1031
vole	-1032
▁Ho	-1033
dita	-1034
smo	-1035
zienda	-1036
labo	-1037
▁Z	-1038
fer	-1039
▁rispetto	-1040
mpio	-1041
▁liv	-1042
ppa	-1043
ranti	-1044
rica	-1045
▁.	-1046
ser	-1047
▁asp	-1048
mon	-1049
▁incon	-1050
▁Roma	-1051
▁conten	-1052
gio	-1053
fo	-1054
▁Fran	-1055
ciali	-1056
▁fre	-1057
▁disposi	-1058
▁terri	-1059
▁conta	-1060
ut	-1061
▁Ba	-1062
▁setti	-1063
vvero	-1064
ute	-1065
▁suoi	-1066
▁presso	-1067
▁soli	-1068
▁natura	-1069
▁and	-1070
▁tele	-1071
▁È	-1072
▁anno	-1073
esi	-1074
▁18	-1075
▁alcuni	-1076
dono	-1077
▁dati	-1078
eb	-1079
▁sulle	-1080
▁meno	-1081
▁attività	-1082
▁qualche	-1083
▁tutta	-1084
▁attraverso	-1085
▁aver	-1086
▁rappres	-1087
▁r	-1088
▁gesti	-1089
▁medi	-1090
iore	-1091
ea	-1092
▁Fi	-1093
sieme	-1094
corso	-1095
gere	-1096
▁aggiun	-1097
▁qualità	-1098
lio	-1099
▁base	-1100
▁ambi	-1101
eno	-1102
▁er	-1103
▁continu	-1104
▁vin	-1105
rebbe	-1106
uoi	-1107
ccio	-1108
▁però	-1109
ttutto	-1110
▁progetto	-1111
esse	-1112
eli	-1113
ultura	-1114
este	-1115
▁asso	-1116
ddi	-1117
▁mod	-1118
▁opp	-1119
▁musi	-1120
▁bo	-1121
▁soci	-1122
▁altro	-1123
▁qui	-1124
▁gru	-1125
▁raga	-1126
▁edi	-1127
▁,	-1128
▁crea	-1129
app	-1130
▁necessa	-1131
anda	-1132
▁porta	-1133
▁corso	-1134
▁scon	-1135
▁servizi	-1136
lore	-1137
bito	-1138
▁presenta	-1139
ccu	-1140
▁storia	-1141
tari	-1142
▁conse	-1143
anni	-1144
gliere	-1145
▁professi	-1146
▁compa	-1147
▁genera	-1148
▁rela	-1149
dini	-1150
▁biso	-1151
▁12	-1152
▁ide	-1153
▁us	-1154
mbra	-1155
esco	-1156
▁Par	-1157
▁tipo	-1158
stica	-1159
uzione	-1160
quad	-1161
▁programma	-1162
▁soprattutto	-1163
cro	-1164
▁nostri	-1165
▁fas	-1166
▁Come	-1167
▁diri	-1168
etri	-1169
▁Lu	-1170
▁cres	-1171
▁rin	-1172
▁evi	-1173
▁fer	-1174
▁raggiun	-1175
▁trova	-1176
▁forni	-1177
▁Car	-1178
mbia	-1179
bre	-1180
▁sare	-1181
▁organizza	-1182
▁posto	-1183
▁fon	-1184
▁particolare	-1185
▁faci	-1186
▁saranno	-1187
▁dice	-1188
▁cam	-1189
▁gui	-1190
▁pes	-1191
▁classi	-1192
versi	-1193
▁informazioni	-1194
usto	-1195
▁racc	-1196
▁svol	-1197
▁Ne	-1198
deo	-1199
▁entra	-1200
poli	-1201
▁val	-1202
▁pren	-1203
▁arti	-1204
▁ag	-1205
▁Chi	-1206
▁molti	-1207
▁Questo	-1208
zionali	-1209
▁insieme	-1210
bbero	-1211
000	-1212
ose	-1213
▁lega	-1214
sidera	-1215
▁situa	-1216
▁citta	-1217
sare	-1218
▁atten	-1219
▁the	-1220
mana	-1221
fici	-1222
▁Cas	-1223
EN	-1224
▁Ga	-1225
cente	-1226
cono	-1227
▁previ	-1228
ty	-1229
▁otti	-1230
▁otten	-1231
meno	-1232
▁ass	-1233
▁fuo	-1234
AN	-1235
ssima	-1236
arsi	-1237
ghe	-1238
▁semplice	-1239
gue	-1240
tino	-1241
▁speci	-1242
▁serie	-1243
uso	-1244
▁film	-1245
▁Gra	-1246
▁materia	-1247
orre	-1248
fini	-1249
rata	-1250
▁rice	-1251
▁meglio	-1252
▁econ	-1253
▁pra	-1254
▁mio	-1255
▁deve	-1256
tate	-1257
▁tua	-1258
▁Uni	-1259
▁nor	-1260
▁negli	-1261
▁inizia	-1262
cazione	-1263
lar	-1264
spon	-1265
▁poco	-1266
▁line	-1267
▁possibilità	-1268
tar	-1269
».	-1270
▁appro	-1271
ton	-1272
▁ospi	-1273
gua	-1274
▁tito	-1275
ciato	-1276
30	-1277
▁rego	-1278
▁Ch	-1279
dato	-1280
▁perio	-1281
▁op	-1282
veni	-1283
tente	-1284
tenti	-1285
▁queste	-1286
▁ins	-1287
ettore	-1288
▁prote	-1289
▁luo	-1290
▁ann	-1291
▁cura	-1292
TI	-1293
ettere	-1294
▁fina	-1295
▁collabo	-1296
▁importante	-1297
cchia	-1298
▁squad	-1299
▁sull	-1300
▁offer	-1301
▁caratter	-1302
ll	-1303
▁siamo	-1304
moni	-1305
▁sor	-1306
▁diversi	-1307
car	-1308
▁term	-1309
iega	-1310
▁ami	-1311
▁Bi	-1312
enzi	-1313
▁qualc	-1314
rico	-1315
▁aveva	-1316
▁società	-1317
▁musica	-1318
▁verso	-1319
uole	-1320
▁utili	-1321
isce	-1322
▁aper	-1323
cano	-1324
▁massi	-1325
▁perf	-1326
▁costi	-1327
eter	-1328
▁confer	-1329
▁30	-1330
▁minuti	-1331
TO	-1332
▁Sp	-1333
▁Gli	-1334
▁For	-1335
▁tri	-1336
tuale	-1337
▁trovare	-1338
ass	-1339
mministra	-1340
AR	-1341
▁Ti	-1342
▁gratui	-1343
▁acquis	-1344
▁potrebbe	-1345
▁propri	-1346
▁livello	-1347
▁tanto	-1348
▁vos	-1349
acqu	-1350
▁bambini	-1351
chio	-1352
▁interna	-1353
bbi	-1354
cino	-1355
▁am	-1356
▁partecipa	-1357
▁mesi	-1358
▁conte	-1359
▁online	-1360
unta	-1361
▁16	-1362
stitu	-1363
▁mercato	-1364
ttamente	-1365
▁sue	-1366
interno	-1367
▁grandi	-1368
▁quo	-1369
▁senti	-1370
▁Sono	-1371
▁abi	-1372
erienza	-1373
LI	-1374
oste	-1375
▁Me	-1376
mite	-1377
▁Go	-1378
▁fonda	-1379
▁segna	-1380
▁nas	-1381
▁prodotto	-1382
rre	-1383
sce	-1384
▁grado	-1385
logia	-1386
▁spesso	-1387
erra	-1388
▁cambia	-1389
▁sembra	-1390
▁mese	-1391
▁milioni	-1392
ggiorna	-1393
▁inten	-1394
▁cultura	-1395
terà	-1396
iori	-1397
▁struttura	-1398
lli	-1399
▁Cor	-1400
▁territorio	-1401
▁sera	-1402
▁lavora	-1403
▁ban	-1404
▁Y	-1405
▁raccon	-1406
▁Milano	-1407
▁velo	-1408
▁mia	-1409
▁lin	-1410
▁11	-1411
▁esempio	-1412
▁imma	-1413
▁video	-1414
▁propria	-1415
vamente	-1416
trice	-1417
terna	-1418
▁veri	-1419
▁of	-1420
ger	-1421
▁gia	-1422
est	-1423
stico	-1424
posi	-1425
cati	-1426
▁prezzo	-1427
In	-1428
▁14	-1429
▁volte	-1430
▁affi	-1431
201	-1432
th	-1433
gini	-1434
ner	-1435
▁ecc	-1436
▁sicurezza	-1437
▁quasi	-1438
ciare	-1439
▁ricon	-1440
▁im	-1441
▁paga	-1442
cin	-1443
denza	-1444
▁gruppo	-1445
▁mor	-1446
▁impe	-1447
vesti	-1448
▁Euro	-1449
▁seconda	-1450
▁problema	-1451
▁as	-1452
bietti	-1453
stenza	-1454
min	-1455
onato	-1456
▁visto	-1457
▁Val	-1458
▁vari	-1459
sato	-1460
▁settore	-1461
▁famiglia	-1462
vono	-1463
▁Sal	-1464
fia	-1465
▁racco	-1466
tario	-1467
▁quelli	-1468
▁campo	-1469
sia	-1470
▁paro	-1471
uola	-1472
▁Ta	-1473
▁inte	-1474
▁campi	-1475
Italia	-1476
▁tradi	-1477
▁vista	-1478
▁prece	-1479
▁Gio	-1480
▁nuovi	-1481
▁17	-1482
▁apri	-1483
▁gioco	-1484
▁Dopo	-1485
▁pubblico	-1486
rati	-1487
ke	-1488
verno	-1489
▁riguar	-1490
▁effet	-1491
eria	-1492
▁piano	-1493
▁sf	-1494
▁presidente	-1495
▁prepa	-1496
ede	-1497
▁mas	-1498
▁davvero	-1499
▁punti	-1500
▁den	-1501
ossi	-1502
▁mostra	-1503
nova	-1504
▁pron	-1505
▁zona	-1506
▁ru	-1507
▁poter	-1508
▁vedere	-1509
▁migliori	-1510
tag	-1511
roni	-1512
gle	-1513
▁web	-1514
acc	-1515
▁subito	-1516
▁X	-1517
▁rius	-1518
▁inol	-1519
▁25	-1520
cchio	-1521
▁corre	-1522
▁24	-1523
ft	-1524
▁Bo	-1525
las	-1526
▁Ha	-1527
▁detto	-1528
▁ciò	-1529
▁causa	-1530
▁strada	-1531
▁media	-1532
atti	-1533
▁lui	-1534
rire	-1535
ccasione	-1536
▁13	-1537
▁Du	-1538
▁defini	-1539
▁sci	-1540
▁sce	-1541
▁impre	-1542
tero	-1543
▁capa	-1544
ccupa	-1545
▁commer	-1546
▁proc	-1547
▁Te	-1548
▁nuove	-1549
▁cap	-1550
gnifica	-1551
▁diverse	-1552
▁confron	-1553
▁quelle	-1554
cos	-1555
▁garanti	-1556
▁tecno	-1557
chè	-1558
vata	-1559
▁detta	-1560
▁differ	-1561
▁noti	-1562
anzia	-1563
au	-1564
fiche	-1565
▁desi	-1566
ordina	-1567
opera	-1568
▁periodo	-1569
▁bian	-1570
▁io	-1571
▁personale	-1572
-1	-1573
mia	-1574
▁bra	-1575
▁Ad	-1576
altro	-1577
▁dare	-1578
cendo	-1579
▁favo	-1580
fico	-1581
▁supp	-1582
▁real	-1583
▁En	-1584
zze	-1585
▁contrib	-1586
ly	-1587
▁guida	-1588
ulla	-1589
uma	-1590
▁ruo	-1591
mane	-1592
OR	-1593
▁tanti	-1594
▁uffi	-1595
scri	-1596
vvi	-1597
spi	-1598
▁alcune	-1599
....	-1600
ES	-1601
▁seguito	-1602
▁sosten	-1603
▁inoltre	-1604
▁cuo	-1605
mentare	-1606
▁scelta	-1607
▁sette	-1608
▁modi	-1609
▁giovani	-1610
coli	-1611
▁stagione	-1612
telli	-1613
dice	-1614
par	-1615
dine	-1616
▁stessa	-1617
▁anti	-1618
▁lungo	-1619
▁dichia	-1620
lori	-1621
ssimi	-1622
be	-1623
net	-1624
▁Ver	-1625
▁nome	-1626
▁ani	-1627
ttori	-1628
▁To	-1629
ramente	-1630
bri	-1631
vati	-1632
▁is	-1633
attro	-1634
▁princip	-1635
▁ness	-1636
IN	-1637
rea	-1638
▁giornata	-1639
ambi	-1640
▁mano	-1641
▁Ber	-1642
▁fuori	-1643
▁settimana	-1644
ppe	-1645
▁legge	-1646
tuali	-1647
media	-1648
La	-1649
▁spiega	-1650
▁cin	-1651
esp	-1652
▁rappresenta	-1653
▁significa	-1654
▁sarebbe	-1655
▁popo	-1656
dro	-1657
siasi	-1658
lle	-1659
▁vengono	-1660
dendo	-1661
tendo	-1662
bbiamo	-1663
▁fis	-1664
▁conclu	-1665
ph	-1666
▁respon	-1667
▁registra	-1668
cher	-1669
mai	-1670
▁blo	-1671
▁squadra	-1672
",	-1673
cche	-1674
stri	-1675
▁esa	-1676
▁mini	-1677
▁dato	-1678
▁fron	-1679
▁successo	-1680
▁realtà	-1681
▁bar	-1682
▁quest	-1683
▁ex	-1684
ordo	-1685
▁stre	-1686
▁studio	-1687
▁‘	-1688
▁Cos	-1689
▁provin	-1690
▁ali	-1691
torno	-1692
▁Anche	-1693
▁norma	-1694
▁viaggio	-1695
▁Pu	-1696
versa	-1697
▁comune	-1698
▁forte	-1699
IA	-1700
▁inizi	-1701
▁coin	-1702
turo	-1703
▁sei	-1704
▁qualsiasi	-1705
▁considera	-1706
▁esclu	-1707
▁vero	-1708
cando	-1709
pu	-1710
▁comunque	-1711
ann	-1712
▁21	-1713
tere	-1714
▁terra	-1715
▁sap	-1716
▁europe	-1717
▁Ser	-1718
▁aggiorna	-1719
▁presente	-1720
altra	-1721
▁presenti	-1722
▁Cen	-1723
▁percorso	-1724
centi	-1725
▁trasp	-1726
▁avvi	-1727
▁offre	-1728
▁artico	-1729
ddis	-1730
▁tramite	-1731
auto	-1732
▁responsa	-1733
▁primi	-1734
lata	-1735
▁Questa	-1736
▁pare	-1737
▁ada	-1738
▁tran	-1739
▁moda	-1740
EL	-1741
▁dif	-1742
ork	-1743
▁rivol	-1744
▁otto	-1745
ato	-1746
len	-1747
▁vera	-1748
▁prom	-1749
▁dagli	-1750
▁sele	-1751
▁Gu	-1752
▁acco	-1753
▁funziona	-1754
▁App	-1755
▁Pri	-1756
▁docu	-1757
eo	-1758
▁'	-1759
▁ni	-1760
▁Tor	-1761
▁sviluppo	-1762
ciazione	-1763
alla	-1764
▁dol	-1765
▁messa	-1766
orti	-1767
▁nu	-1768
▁tema	-1769
▁nazionale	-1770
ziende	-1771
▁presenza	-1772
▁cose	-1773
▁italiano	-1774
▁spazio	-1775
▁riconos	-1776
▁hai	-1777
tagoni	-1778
▁fini	-1779
▁proce	-1780
▁telef	-1781
ppi	-1782
asso	-1783
▁torna	-1784
▁libro	-1785
▁disposizione	-1786
▁(1	-1787
.000	-1788
▁2017	-1789
book	-1790
▁preci	-1791
ws	-1792
▁riferi	-1793
▁state	-1794
▁2018	-1795
▁successi	-1796
▁spetta	-1797
▁produzione	-1798
▁Bar	-1799
▁troppo	-1800
▁presen	-1801
bato	-1802
▁dedica	-1803
enica	-1804
yo	-1805
▁sinda	-1806
ggetti	-1807
▁atte	-1808
▁scorso	-1809
▁senso	-1810
▁pote	-1811
▁bre	-1812
bra	-1813
vera	-1814
▁compi	-1815
▁partire	-1816
▁spor	-1817
▁limi	-1818
▁Col	-1819
dino	-1820
▁invi	-1821
▁origina	-1822
▁problemi	-1823
rono	-1824
ari	-1825
▁bisogno	-1826
zzazione	-1827
▁km	-1828
▁almeno	-1829
▁para	-1830
▁peso	-1831
IC	-1832
▁ultimi	-1833
▁importanti	-1834
ondi	-1835
▁dim	-1836
dina	-1837
ppia	-1838
mio	-1839
▁fos	-1840
▁migliore	-1841
▁100	-1842
▁quattro	-1843
ultimo	-1844
▁proprie	-1845
??	-1846
ts	-1847
uri	-1848
cata	-1849
▁deter	-1850
Il	-1851
voli	-1852
▁donne	-1853
▁2016	-1854
▁rif	-1855
erci	-1856
▁condivi	-1857
mati	-1858
▁gara	-1859
▁applica	-1860
▁coinvol	-1861
▁clienti	-1862
▁fotogra	-1863
▁pol	-1864
▁riso	-1865
genza	-1866
▁Bu	-1867
missione	-1868
▁data	-1869
ttare	-1870
▁elet	-1871
▁luogo	-1872
▁annun	-1873
den	-1874
▁pelle	-1875
ware	-1876
50	-1877
▁pla	-1878
▁rete	-1879
▁oppure	-1880
ficazione	-1881
teri	-1882
▁necessario	-1883
dra	-1884
unale	-1885
▁pagina	-1886
bilmente	-1887
tezza	-1888
▁preve	-1889
▁Fo	-1890
▁protagoni	-1891
▁diff	-1892
▁deli	-1893
▁avuto	-1894
diamo	-1895
tello	-1896
mare	-1897
cenza	-1898
▁50	-1899
▁risultati	-1900
biettivo	-1901
▁potra	-1902
▁disponibili	-1903
▁raccol	-1904
▁aziende	-1905
▁qualcosa	-1906
alle	-1907
▁stile	-1908
▁&	-1909
▁Comune	-1910
more	-1911
anze	-1912
▁vuole	-1913
▁ener	-1914
▁diffici	-1915
▁gestione	-1916
▁Che	-1917
▁meri	-1918
▁condizioni	-1919
▁sfi	-1920
ompa	-1921
▁pochi	-1922
azienda	-1923
2,	-1924
▁ridu	-1925
▁prezzi	-1926
cura	-1927
▁corpo	-1928
RA	-1929
tego	-1930
▁manif	-1931
▁situazione	-1932
▁resta	-1933
▁finale	-1934
▁continua	-1935
IS	-1936
▁testa	-1937
▁Inter	-1938
ide	-1939
gato	-1940
▁fru	-1941
▁collaborazione	-1942
bu	-1943
ir	-1944
▁vendita	-1945
▁The	-1946
▁nove	-1947
essione	-1948
tture	-1949
▁formazione	-1950
▁lan	-1951
▁cucina	-1952
▁Franc	-1953
LE	-1954
zzare	-1955
▁singo	-1956
▁giugno	-1957
lati	-1958
▁scuola	-1959
▁donna	-1960
▁riusci	-1961
ficare	-1962
▁compren	-1963
▁erano	-1964
▁futuro	-1965
arta	-1966
▁economi	-1967
▁posizione	-1968
vanti	-1969
▁valore	-1970
uire	-1971
▁finanzia	-1972
tidi	-1973
▁titolo	-1974
▁linea	-1975
▁affron	-1976
▁investi	-1977
▁piu	-1978
mica	-1979
▁Ale	-1980
gente	-1981
▁Man	-1982
▁andare	-1983
mano	-1984
▁dia	-1985
▁ottenere	-1986
▁inclu	-1987
▁letto	-1988
▁molte	-1989
TE	-1990
▁integra	-1991
lina	-1992
segna	-1993
▁vanta	-1994
naio	-1995
▁Cer	-1996
▁Sta	-1997
mata	-1998
▁amici	-1999
▁direttamente	-2000
Uni	-2001
gare	-2002
▁cittadini	-2003
▁matt	-2004
omini	-2005
▁inseri	-2006
▁preno	-2007
▁visita	-2008
▁consul	-2009
▁soddis	-2010
▁indivi	-2011
▁turi	-2012
▁Grazie	-2013
▁:	-2014
▁piace	-2015
▁siano	-2016
!!!	-2017
▁file	-2018
van	-2019
▁azienda	-2020
▁termine	-2021
▁tipi	-2022
▁pratica	-2023
▁trattamento	-2024
telle	-2025
cal	-2026
▁fisi	-2027
▁puoi	-2028
RE	-2029
▁mezzo	-2030
▁lascia	-2031
unto	-2032
pia	-2033
▁nego	-2034
bbra	-2035
▁caratteris	-2036
mu	-2037
▁settembre	-2038
▁creare	-2039
titu	-2040
▁parole	-2041
ardi	-2042
▁/	-2043
truzione	-2044
▁Ino	-2045
cale	-2046
▁temp	-2047
▁dimostra	-2048
cra	-2049
dustri	-2050
omma	-2051
▁maggior	-2052
versità	-2053
▁ormai	-2054
▁tempi	-2055
▁utenti	-2056
onali	-2057
▁buona	-2058
▁tale	-2059
▁Nella	-2060
unità	-2061
▁riguarda	-2062
▁marzo	-2063
▁2019	-2064
▁gioca	-2065
▁ragazzi	-2066
rito	-2067
▁destina	-2068
▁disponibile	-2069
▁permette	-2070
▁cio	-2071
▁centra	-2072
▁anima	-2073
▁Inoltre	-2074
▁2015	-2075
▁san	-2076
simo	-2077
ostante	-2078
ee	-2079
▁Consi	-2080
orse	-2081
▁hotel	-2082
▁autori	-2083
wn	-2084
▁effetti	-2085
▁Giu	-2086
▁spi	-2087
▁presta	-2088
ora	-2089
▁1.	-2090
rando	-2091
▁vostro	-2092
▁fronte	-2093
▁risultato	-2094
▁fanno	-2095
cial	-2096
pro	-2097
▁ur	-2098
▁Napoli	-2099
gne	-2100
eti	-2101
▁forse	-2102
▁luce	-2103
▁italiana	-2104
▁dedi	-2105
▁necessi	-2106
▁versione	-2107
id	-2108
azione	-2109
▁perchè	-2110
▁pari	-2111
ggiare	-2112
▁Ste	-2113
▁insta	-2114
▁nostre	-2115
▁arre	-2116
▁DI	-2117
▁dipen	-2118
anis	-2119
▁controllo	-2120
2.	-2121
ww	-2122
menta	-2123
▁interess	-2124
▁Ter	-2125
▁mare	-2126
ultima	-2127
▁acca	-2128
entale	-2129
▁digi	-2130
▁pur	-2131
▁accesso	-2132
toni	-2133
mentale	-2134
▁richiesta	-2135
▁voi	-2136
OS	-2137
▁sede	-2138
ttere	-2139
▁alta	-2140
▁cuore	-2141
▁moder	-2142
▁ce	-2143
▁catego	-2144
vate	-2145
▁stampa	-2146
▁cro	-2147
▁prossimo	-2148
ttan	-2149
lando	-2150
▁dicembre	-2151
dici	-2152
▁ottobre	-2153
ki	-2154
▁casi	-2155
▁macch	-2156
▁Dis	-2157
▁forza	-2158
▁generale	-2159
▁affer	-2160
acqua	-2161
▁assolu	-2162
tenzione	-2163
10	-2164
▁sto	-2165
up	-2166
arte	-2167
rale	-2168
▁offerte	-2169
▁notte	-2170
▁rica	-2171
▁italiani	-2172
▁piccolo	-2173
▁disa	-2174
late	-2175
▁luglio	-2176
▁esperienza	-2177
duto	-2178
▁199	-2179
umi	-2180
▁Secon	-2181
▁buon	-2182
▁crescita	-2183
▁carta	-2184
omia	-2185
▁possa	-2186
▁puli	-2187
▁gennaio	-2188
▁manten	-2189
▁Tri	-2190
▁lavori	-2191
▁amministra	-2192
▁ruolo	-2193
▁ospiti	-2194
▁Ni	-2195
1,	-2196
▁ado	-2197
OM	-2198
taria	-2199
▁valori	-2200
dito	-2201
tana	-2202
▁belle	-2203
ficato	-2204
vimento	-2205
▁impa	-2206
▁politica	-2207
▁Or	-2208
▁design	-2209
▁appena	-2210
▁compet	-2211
▁Quando	-2212
▁parla	-2213
mmi	-2214
osti	-2215
▁colore	-2216
▁fir	-2217
▁avven	-2218
▁costo	-2219
▁Gran	-2220
mbo	-2221
▁modello	-2222
▁locali	-2223
ree	-2224
ssioni	-2225
des	-2226
zzato	-2227
samente	-2228
▁frequ	-2229
▁paese	-2230
▁23	-2231
▁soluzione	-2232
ffica	-2233
▁processo	-2234
▁giornali	-2235
utare	-2236
▁promo	-2237
sola	-2238
▁dimen	-2239
zzando	-2240
▁acqua	-2241
area	-2242
▁accompa	-2243
ggetto	-2244
▁die	-2245
tis	-2246
▁vac	-2247
▁scegliere	-2248
mail	-2249
ume	-2250
logie	-2251
▁rega	-2252
toria	-2253
gge	-2254
▁misura	-2255
gano	-2256
▁internazionale	-2257
▁fase	-2258
▁quanti	-2259
▁fran	-2260
▁coper	-2261
od	-2262
▁entro	-2263
▁resi	-2264
▁be	-2265
▁interessa	-2266
▁scar	-2267
▁cine	-2268
▁voglia	-2269
▁costr	-2270
▁sociale	-2271
▁eventi	-2272
genze	-2273
cle	-2274
▁totale	-2275
▁facile	-2276
icolo	-2277
ellu	-2278
▁segu	-2279
gico	-2280
▁sensi	-2281
dida	-2282
mmo	-2283
▁ov	-2284
▁novembre	-2285
coltà	-2286
▁€	-2287
mentazione	-2288
▁partita	-2289
▁genere	-2290
▁deciso	-2291
illa	-2292
lie	-2293
▁camere	-2294
▁esclusi	-2295
▁passato	-2296
▁rapporto	-2297
▁mettere	-2298
▁proba	-2299
▁colori	-2300
▁conto	-2301
▁nulla	-2302
▁vicino	-2303
▁illu	-2304
▁specia	-2305
mart	-2306
▁quad	-2307
▁iscri	-2308
▁certo	-2309
bbraio	-2310
▁2014	-2311
▁IN	-2312
AS	-2313
▁dovrebbe	-2314
▁scena	-2315
trimoni	-2316
▁capo	-2317
▁immagini	-2318
▁prova	-2319
▁nello	-2320
▁riferimento	-2321
▁civi	-2322
rere	-2323
▁guar	-2324
▁quotidi	-2325
prire	-2326
volo	-2327
▁sani	-2328
▁pensi	-2329
▁certi	-2330
gica	-2331
▁lon	-2332
▁aprile	-2333
tal	-2334
▁provincia	-2335
▁Gia	-2336
▁22	-2337
ZI	-2338
▁piccoli	-2339
▁rapi	-2340
▁capacità	-2341
vio	-2342
bar	-2343
▁set	-2344
su	-2345
rlo	-2346
▁emer	-2347
▁risto	-2348
uito	-2349
ry	-2350
▁domenica	-2351
/201	-2352
▁maggiore	-2353
▁manifesta	-2354
▁Giov	-2355
ker	-2356
▁capire	-2357
gom	-2358
▁volon	-2359
▁j	-2360
▁manu	-2361
▁istitu	-2362
▁belli	-2363
▁alto	-2364
▁bella	-2365
isto	-2366
▁fanta	-2367
▁verrà	-2368
▁individu	-2369
▁metri	-2370
etter	-2371
▁ieri	-2372
uomo	-2373
rate	-2374
gnato	-2375
ai	-2376
▁emo	-2377
▁rischio	-2378
▁pubblica	-2379
omina	-2380
▁locale	-2381
▁rappresen	-2382
▁camera	-2383
▁dunque	-2384
data	-2385
▁occasione	-2386
▁effettua	-2387
▁professioni	-2388
0,	-2389
▁fosse	-2390
mos	-2391
ista	-2392
▁collega	-2393
▁faccia	-2394
▁Can	-2395
tenzi	-2396
ex	-2397
onna	-2398
▁testi	-2399
▁diritto	-2400
ssime	-2401
▁devono	-2402
uzioni	-2403
▁pazi	-2404
▁governo	-2405
rano	-2406
▁profi	-2407
son	-2408
gazione	-2409
▁allora	-2410
▁salute	-2411
▁rile	-2412
▁massimo	-2413
▁cele	-2414
sità	-2415
▁Vene	-2416
▁part	-2417
dotto	-2418
stiche	-2419
monia	-2420
▁principali	-2421
metri	-2422
fe	-2423
▁diffi	-2424
▁Hotel	-2425
tazioni	-2426
attività	-2427
▁male	-2428
▁pot	-2429
AL	-2430
▁utilizzare	-2431
mbio	-2432
ka	-2433
ori	-2434
▁Ru	-2435
mico	-2436
▁rispon	-2437
▁imprese	-2438
OL	-2439
diale	-2440
▁strate	-2441
▁sugg	-2442
▁elettri	-2443
▁even	-2444
▁varie	-2445
▁invia	-2446
damento	-2447
▁conc	-2448
▁riconosci	-2449
▁meto	-2450
▁Secondo	-2451
▁progetti	-2452
▁letter	-2453
▁Regione	-2454
1.	-2455
▁distrib	-2456
▁giovane	-2457
▁post	-2458
ettare	-2459
lay	-2460
▁recu	-2461
▁ade	-2462
▁40	-2463
▁tuoi	-2464
▁conn	-2465
▁mal	-2466
tur	-2467
▁sche	-2468
▁divi	-2469
dos	-2470
3,	-2471
▁atta	-2472
ket	-2473
/0	-2474
derà	-2475
▁difficile	-2476
▁tar	-2477
▁sicuramente	-2478
rai	-2479
▁scritto	-2480
▁Via	-2481
ffa	-2482
▁usci	-2483
▁Francesco	-2484
▁stabili	-2485
▁Itali	-2486
ande	-2487
▁rifle	-2488
ris	-2489
▁atto	-2490
▁esper	-2491
mani	-2492
▁potrà	-2493
▁febbraio	-2494
▁determina	-2495
▁maniera	-2496
▁sapere	-2497
larmente	-2498
▁esigenze	-2499
▁bagno	-2500
vendo	-2501
▁Jo	-2502
▁innova	-2503
onati	-2504
inizio	-2505
▁consegu	-2506
lub	-2507
▁prov	-2508
▁aiuta	-2509
▁uomini	-2510
An	-2511
▁veloce	-2512
▁stanno	-2513
▁2.	-2514
▁Dal	-2515
trimonio	-2516
▁raggiungere	-2517
enso	-2518
▁edizione	-2519
▁breve	-2520
vista	-2521
▁+	-2522
▁simi	-2523
rendi	-2524
▁amp	-2525
▁cinque	-2526
▁avrebbe	-2527
viamente	-2528
▁ries	-2529
▁note	-2530
enne	-2531
▁uomo	-2532
remo	-2533
essore	-2534
▁rive	-2535
▁Vo	-2536
dità	-2537
vazione	-2538
logo	-2539
zion	-2540
anna	-2541
RO	-2542
▁prevede	-2543
▁prendere	-2544
▁posti	-2545
latti	-2546
▁lei	-2547
▁occupa	-2548
▁domanda	-2549
▁spazi	-2550
▁compre	-2551
▁arriva	-2552
▁vas	-2553
▁attenzione	-2554
cipale	-2555
▁equi	-2556
▁impi	-2557
▁yo	-2558
ct	-2559
▁ritro	-2560
▁minis	-2561
ment	-2562
▁psi	-2563
▁regionale	-2564
▁valuta	-2565
▁maga	-2566
▁Spa	-2567
▁prose	-2568
▁nota	-2569
▁comin	-2570
▁prime	-2571
▁segre	-2572
▁perfetta	-2573
▁Pia	-2574
lini	-2575
▁bal	-2576
lin	-2577
▁All	-2578
Ar	-2579
ader	-2580
▁como	-2581
▁avanti	-2582
RI	-2583
ftware	-2584
▁tal	-2585
tella	-2586
▁Poli	-2587
▁Ecco	-2588
▁fondo	-2589
ondo	-2590
dale	-2591
chite	-2592
▁sola	-2593
▁Maria	-2594
▁28	-2595
▁th	-2596
omico	-2597
utili	-2598
▁anzi	-2599
▁rep	-2600
▁portare	-2601
▁spia	-2602
terno	-2603
▁perdere	-2604
▁ric	-2605
▁tecnico	-2606
pren	-2607
fort	-2608
▁arrivare	-2609
cola	-2610
▁leggere	-2611
▁caratteri	-2612
▁sale	-2613
▁storico	-2614
▁facendo	-2615
▁abbia	-2616
5,	-2617
cana	-2618
▁raff	-2619
▁meta	-2620
land	-2621
av	-2622
▁asse	-2623
edere	-2624
▁lingua	-2625
▁sabato	-2626
▁cliente	-2627
▁Cal	-2628
mila	-2629
▁26	-2630
genti	-2631
▁caratteristiche	-2632
▁associa	-2633
estival	-2634
ogle	-2635
▁completamente	-2636
rente	-2637
▁riman	-2638
▁unico	-2639
▁riser	-2640
tini	-2641
centra	-2642
▁precedente	-2643
▁ingre	-2644
▁naturale	-2645
▁Cla	-2646
ticolo	-2647
ttoria	-2648
▁effica	-2649
▁vostra	-2650
▁stessi	-2651
ay	-2652
▁Ris	-2653
gri	-2654
▁supera	-2655
▁fatti	-2656
▁siti	-2657
▁mattina	-2658
▁piazza	-2659
▁distanza	-2660
▁contempo	-2661
▁pass	-2662
▁necessità	-2663
idea	-2664
▁Mol	-2665
mere	-2666
▁preferi	-2667
▁regola	-2668
▁famiglie	-2669
tualmente	-2670
▁modalità	-2671
rus	-2672
▁sottoline	-2673
▁discu	-2674
▁figu	-2675
▁speciali	-2676
teriore	-2677
esperienza	-2678
▁strumenti	-2679
ms	-2680
▁vali	-2681
nno	-2682
3.	-2683
11	-2684
▁Cri	-2685
▁possiamo	-2686
eranno	-2687
▁memo	-2688
▁opere	-2689
▁Mas	-2690
▁Pal	-2691
▁27	-2692
▁fal	-2693
alisi	-2694
▁studenti	-2695
▁bianco	-2696
▁risposta	-2697
rno	-2698
ang	-2699
ps	-2700
▁tante	-2701
hotel	-2702
contro	-2703
▁ufficiale	-2704
cebook	-2705
▁sindaco	-2706
▁immedia	-2707
▁Ju	-2708
iscono	-2709
▁stand	-2710
▁campa	-2711
▁agosto	-2712
▁evitare	-2713
ortunità	-2714
▁Consiglio	-2715
itori	-2716
▁Dom	-2717
▁tess	-2718
▁cm	-2719
▁scoper	-2720
▁Stato	-2721
▁trov	-2722
▁Ora	-2723
▁passo	-2724
SA	-2725
▁vede	-2726
resso	-2727
▁difficoltà	-2728
▁Pe	-2729
tiene	-2730
▁Io	-2731
▁bus	-2732
▁pom	-2733
▁conoscere	-2734
lici	-2735
200	-2736
colare	-2737
phone	-2738
▁corri	-2739
,5	-2740
cini	-2741
▁collo	-2742
▁calcio	-2743
▁resid	-2744
▁concor	-2745
orsa	-2746
mera	-2747
▁potranno	-2748
▁vivere	-2749
dri	-2750
▁conser	-2751
▁imm	-2752
▁trasforma	-2753
▁libera	-2754
▁indica	-2755
▁consigli	-2756
▁comunicazione	-2757
▁usa	-2758
gioni	-2759
▁Stati	-2760
▁Pala	-2761
▁Oggi	-2762
▁rispar	-2763
▁potenzi	-2764
▁novità	-2765
▁pal	-2766
etra	-2767
▁seguire	-2768
▁davanti	-2769
▁recen	-2770
ire	-2771
▁identi	-2772
inte	-2773
ardo	-2774
▁piedi	-2775
sivo	-2776
berto	-2777
ons	-2778
▁ero	-2779
▁pensa	-2780
aren	-2781
▁x	-2782
▁vole	-2783
▁agg	-2784
▁soluzioni	-2785
vid	-2786
▁sho	-2787
creto	-2788
▁dedicato	-2789
▁bio	-2790
estra	-2791
▁Gen	-2792
▁colpi	-2793
▁Gior	-2794
duzione	-2795
▁libri	-2796
▁giusto	-2797
sci	-2798
▁Ven	-2799
▁trovato	-2800
▁ascol	-2801
uter	-2802
rone	-2803
▁favore	-2804
▁basso	-2805
▁recente	-2806
▁tempera	-2807
▁mette	-2808
▁rendere	-2809
erdì	-2810
mobili	-2811
▁aspetta	-2812
▁Centro	-2813
▁cerca	-2814
▁scher	-2815
stici	-2816
▁Th	-2817
▁rima	-2818
▁sole	-2819
mici	-2820
▁smart	-2821
▁proprietà	-2822
▁malatti	-2823
▁Pas	-2824
CI	-2825
▁modelli	-2826
▁cia	-2827
▁percor	-2828
▁realizzazione	-2829
art	-2830
▁inca	-2831
AM	-2832
▁ideale	-2833
bbia	-2834
llare	-2835
▁consenti	-2836
▁cellu	-2837
ld	-2838
▁supporto	-2839
▁occhi	-2840
lib	-2841
ccato	-2842
▁materiali	-2843
▁Paese	-2844
▁parlare	-2845
▁sper	-2846
eso	-2847
▁piccola	-2848
▁tea	-2849
matica	-2850
▁consente	-2851
cine	-2852
▁giro	-2853
▁interventi	-2854
▁Tro	-2855
▁amm	-2856
▁garan	-2857
duta	-2858
▁Andre	-2859
▁Marco	-2860
▁Giovanni	-2861
▁Tre	-2862
▁cic	-2863
▁voce	-2864
▁Torino	-2865
▁software	-2866
untamento	-2867
▁Be	-2868
9,	-2869
▁categoria	-2870
▁effettu	-2871
▁luoghi	-2872
▁seleziona	-2873
▁messo	-2874
▁mos	-2875
▁materiale	-2876
▁Mer	-2877
▁Sco	-2878
ttima	-2879
▁Paolo	-2880
▁rifi	-2881
evento	-2882
▁proveni	-2883
meri	-2884
▁risorse	-2885
▁social	-2886
op	-2887
▁ricev	-2888
glior	-2889
onte	-2890
▁estre	-2891
▁tecnologia	-2892
▁Ogni	-2893
▁sviluppa	-2894
▁chiu	-2895
▁alb	-2896
▁piatta	-2897
▁31	-2898
▁principale	-2899
ast	-2900
▁concer	-2901
▁viol	-2902
▁Gre	-2903
▁comunità	-2904
▁incontra	-2905
ania	-2906
dersi	-2907
▁compon	-2908
mone	-2909
▁classifica	-2910
II	-2911
alità	-2912
obiettivo	-2913
din	-2914
▁serata	-2915
catore	-2916
▁tecnica	-2917
▁Tutti	-2918
▁Casa	-2919
▁contenuti	-2920
▁elementi	-2921
▁descri	-2922
▁nonostante	-2923
▁partecipazione	-2924
▁Ex	-2925
▁personali	-2926
ati	-2927
gie	-2928
▁batter	-2929
▁partner	-2930
▁metà	-2931
wi	-2932
▁portato	-2933
▁motivo	-2934
▁incontri	-2935
ettato	-2936
▁Ger	-2937
▁ameri	-2938
arci	-2939
▁terzo	-2940
cali	-2941
▁...	-2942
rizzo	-2943
▁Prima	-2944
▁utile	-2945
▁Stu	-2946
80	-2947
ko	-2948
aria	-2949
date	-2950
▁partecip	-2951
▁Presidente	-2952
lora	-2953
essere	-2954
60	-2955
bora	-2956
▁comporta	-2957
▁campionato	-2958
▁antici	-2959
▁schi	-2960
orso	-2961
gliato	-2962
cole	-2963
▁Servi	-2964
▁pagamento	-2965
▁straordina	-2966
▁infer	-2967
▁avre	-2968
▁gol	-2969
▁morte	-2970
tone	-2971
▁crisi	-2972
▁legno	-2973
▁bigli	-2974
▁macchina	-2975
cilia	-2976
▁realizzare	-2977
▁studi	-2978
▁complessi	-2979
estre	-2980
▁realizzato	-2981
▁Europa	-2982
▁abbas	-2983
anche	-2984
isi	-2985
erop	-2986
▁completa	-2987
mbe	-2988
▁interpre	-2989
▁dettagli	-2990
▁esegui	-2991
▁Win	-2992
ONE	-2993
▁convin	-2994
▁costante	-2995
ght	-2996
▁speciale	-2997
tesi	-2998
▁incontro	-2999
▁ovvero	-3000
lazioni	-3001
▁alterna	-3002
teriori	-3003
dizione	-3004
ky	-3005
▁osser	-3006
5.	-3007
ambiente	-3008
▁inci	-3009
▁Cre	-3010
▁incre	-3011
▁dip	-3012
razioni	-3013
▁micro	-3014
▁gri	-3015
▁soggior	-3016
dati	-3017
fondi	-3018
▁obbli	-3019
troppo	-3020
.,	-3021
▁farma	-3022
▁sport	-3023
inda	-3024
▁eserci	-3025
▁intro	-3026
ettroni	-3027
ranea	-3028
enda	-3029
lizzato	-3030
▁massima	-3031
▁pubblicato	-3032
▁acce	-3033
9.	-3034
▁aree	-3035
ficio	-3036
▁conosci	-3037
▁giar	-3038
cy	-3039
▁Fer	-3040
zzano	-3041
▁Fin	-3042
presa	-3043
▁Google	-3044
by	-3045
▁strumento	-3046
▁pomeri	-3047
▁superiore	-3048
▁feli	-3049
▁Ja	-3050
arlo	-3051
▁presti	-3052
▁bambino	-3053
!!!!	-3054
entra	-3055
▁testo	-3056
ent	-3057
▁resto	-3058
▁2020	-3059
ambito	-3060
▁soddisfa	-3061
tera	-3062
▁Bra	-3063
▁fondamentale	-3064
ricare	-3065
riamo	-3066
bina	-3067
▁rilas	-3068
▁risol	-3069
tonio	-3070
▁giochi	-3071
gnia	-3072
umo	-3073
▁tecniche	-3074
▁questione	-3075
▁eli	-3076
ccare	-3077
ete	-3078
udi	-3079
mate	-3080
▁Poi	-3081
▁dubbi	-3082
turi	-3083
▁bri	-3084
ssand	-3085
▁settimane	-3086
▁gratuito	-3087
utilizzo	-3088
▁lunga	-3089
end	-3090
▁consiglio	-3091
▁team	-3092
Euro	-3093
tanze	-3094
▁diritti	-3095
▁pericolo	-3096
▁Monte	-3097
▁lista	-3098
▁comunale	-3099
ster	-3100
ingra	-3101
▁Ros	-3102
erazione	-3103
▁reali	-3104
▁ge	-3105
vra	-3106
rand	-3107
▁Mich	-3108
▁bisogna	-3109
.00	-3110
gante	-3111
occasione	-3112
▁Dio	-3113
▁dedicata	-3114
bblica	-3115
▁mino	-3116
renti	-3117
▁sezione	-3118
renze	-3119
▁impegna	-3120
▁niente	-3121
▁dimenti	-3122
▁scom	-3123
▁liber	-3124
▁dovre	-3125
▁professionale	-3126
▁telefono	-3127
▁diretta	-3128
▁navi	-3129
▁contatto	-3130
zzur	-3131
unica	-3132
▁dovrà	-3133
▁figli	-3134
arto	-3135
▁provve	-3136
▁sali	-3137
▁multi	-3138
fano	-3139
▁perdita	-3140
und	-3141
IM	-3142
▁filo	-3143
▁classe	-3144
▁protagonista	-3145
amore	-3146
▁potrebbero	-3147
▁giudi	-3148
ung	-3149
▁lavorare	-3150
▁Siamo	-3151
▁garantire	-3152
aper	-3153
▁nero	-3154
▁confronti	-3155
anca	-3156
ttivo	-3157
▁zu	-3158
ill	-3159
▁strutture	-3160
▁migliorare	-3161
▁rende	-3162
▁basta	-3163
▁sistemi	-3164
mministrazione	-3165
useo	-3166
▁fam	-3167
tch	-3168
▁industri	-3169
truttura	-3170
▁proposta	-3171
▁fres	-3172
▁funzione	-3173
genzia	-3174
▁sm	-3175
4,	-3176
LA	-3177
eremo	-3178
▁capelli	-3179
▁trasferi	-3180
▁29	-3181
sco	-3182
▁figlio	-3183
▁Giuse	-3184
▁Sul	-3185
rti	-3186
▁Lui	-3187
verna	-3188
▁coloro	-3189
dimento	-3190
▁sala	-3191
▁visu	-3192
mentari	-3193
▁previsto	-3194
▁consegna	-3195
ins	-3196
▁elettroni	-3197
▁60	-3198
▁ripor	-3199
▁Imp	-3200
tus	-3201
▁numerosi	-3202
▁uso	-3203
▁assicu	-3204
▁epi	-3205
Le	-3206
ssociazione	-3207
▁dimensioni	-3208
ada	-3209
▁termini	-3210
fra	-3211
▁condu	-3212
▁verde	-3213
▁centrale	-3214
lino	-3215
Al	-3216
▁aperto	-3217
▁regione	-3218
▁vanno	-3219
▁aspetti	-3220
camente	-3221
▁installa	-3222
▁ritorno	-3223
▁presto	-3224
▁Fe	-3225
tela	-3226
▁economico	-3227
▁bel	-3228
sca	-3229
▁fatta	-3230
▁miei	-3231
▁femm	-3232
8,	-3233
▁relazione	-3234
▁raccolta	-3235
▁New	-3236
▁nessuno	-3237
▁maggiori	-3238
ppure	-3239
12	-3240
anco	-3241
▁presentato	-3242
▁Sc	-3243
▁Oltre	-3244
▁diventare	-3245
▁inse	-3246
▁originale	-3247
▁usare	-3248
▁internet	-3249
:00	-3250
▁direttore	-3251
zzata	-3252
▁Nazionale	-3253
▁pubblici	-3254
▁sba	-3255
▁inda	-3256
▁Minis	-3257
▁gro	-3258
▁ingle	-3259
DI	-3260
▁passione	-3261
▁sicuro	-3262
ciano	-3263
▁diventa	-3264
non	-3265
▁qualcuno	-3266
▁piacere	-3267
.30	-3268
ttiva	-3269
▁scelto	-3270
▁procedu	-3271
▁propone	-3272
▁posso	-3273
▁pensare	-3274
▁tranqu	-3275
▁facilmente	-3276
onia	-3277
▁consa	-3278
▁spese	-3279
▁durata	-3280
▁lettera	-3281
tivamente	-3282
▁giocare	-3283
▁fri	-3284
▁concentra	-3285
▁preso	-3286
▁vittoria	-3287
gan	-3288
▁pieno	-3289
▁On	-3290
ttosto	-3291
▁completo	-3292
▁genitori	-3293
▁formato	-3294
▁Facebook	-3295
rci	-3296
scono	-3297
▁tue	-3298
▁leader	-3299
sh	-3300
▁costitu	-3301
ple	-3302
▁piani	-3303
▁adatta	-3304
▁miglior	-3305
▁Giuseppe	-3306
▁capito	-3307
▁conoscenza	-3308
%.	-3309
▁scopo	-3310
imma	-3311
ologna	-3312
lancio	-3313
▁case	-3314
onare	-3315
lante	-3316
▁lavoratori	-3317
arri	-3318
trici	-3319
siva	-3320
▁differenza	-3321
ressi	-3322
ddo	-3323
▁intra	-3324
▁animali	-3325
▁Nuo	-3326
▁addi	-3327
40	-3328
▁scoprire	-3329
▁Cia	-3330
▁soggetti	-3331
ET	-3332
▁Spe	-3333
▁Medi	-3334
▁Fra	-3335
pero	-3336
99	-3337
▁ultime	-3338
▁TV	-3339
▁1,	-3340
▁Abbiamo	-3341
▁intorno	-3342
▁codice	-3343
▁soggiorno	-3344
▁scuole	-3345
ensa	-3346
▁Dire	-3347
artamento	-3348
▁#	-3349
▁preo	-3350
venire	-3351
▁Alla	-3352
endere	-3353
▁dovuto	-3354
dano	-3355
▁soltanto	-3356
▁cercare	-3357
ermo	-3358
▁vir	-3359
▁partenza	-3360
▁Fed	-3361
▁campagna	-3362
ranza	-3363
enziale	-3364
▁Alessand	-3365
▁spettacolo	-3366
Ho	-3367
uovere	-3368
▁consuma	-3369
▁pomeriggio	-3370
bal	-3371
▁Sca	-3372
▁oggetti	-3373
cella	-3374
-2	-3375
mba	-3376
▁bru	-3377
▁test	-3378
▁danni	-3379
▁terre	-3380
▁reale	-3381
anora	-3382
▁prossimi	-3383
▁rosso	-3384
▁offrire	-3385
▁Cro	-3386
load	-3387
▁contratto	-3388
8.	-3389
▁ispi	-3390
▁sfru	-3391
anzi	-3392
▁metodo	-3393
▁superfici	-3394
unedì	-3395
▁esperi	-3396
▁né	-3397
▁mera	-3398
▁adesso	-3399
▁giocatori	-3400
▁età	-3401
▁avrà	-3402
▁particolarmente	-3403
▁modu	-3404
7,	-3405
▁mondiale	-3406
iness	-3407
▁risposte	-3408
▁affrontare	-3409
▁smartphone	-3410
▁tradizione	-3411
bio	-3412
▁pan	-3413
fficiente	-3414
teo	-3415
▁Andrea	-3416
▁Santa	-3417
ersi	-3418
▁Bas	-3419
▁magari	-3420
▁paesi	-3421
4.	-3422
6,	-3423
▁ricevere	-3424
▁zone	-3425
▁Yo	-3426
▁Europe	-3427
▁passare	-3428
▁interesse	-3429
▁tren	-3430
▁allena	-3431
Qu	-3432
▁televi	-3433
fferta	-3434
▁|	-3435
▁Lon	-3436
uncia	-3437
▁veramente	-3438
▁protezione	-3439
detto	-3440
▁fort	-3441
▁avete	-3442
▁composto	-3443
ction	-3444
▁Villa	-3445
alto	-3446
▁Qual	-3447
work	-3448
tuto	-3449
▁appar	-3450
▁?	-3451
▁semplicemente	-3452
▁glo	-3453
▁gusto	-3454
CA	-3455
▁riten	-3456
▁diretto	-3457
▁piuttosto	-3458
▁culturale	-3459
▁velocità	-3460
▁Tutto	-3461
Università	-3462
vale	-3463
▁disco	-3464
lizzazione	-3465
▁dallo	-3466
▁Cu	-3467
▁soste	-3468
▁presentazione	-3469
sima	-3470
▁professionisti	-3471
ffe	-3472
▁competi	-3473
▁acquistare	-3474
▁ovviamente	-3475
»,	-3476
▁deri	-3477
▁venerdì	-3478
▁accompagna	-3479
▁padre	-3480
▁Qui	-3481
ya	-3482
▁varia	-3483
▁fur	-3484
NA	-3485
riera	-3486
▁effettuare	-3487
ettono	-3488
▁merito	-3489
▁vet	-3490
liare	-3491
▁roman	-3492
▁direzione	-3493
▁esperti	-3494
▁memb	-3495
▁Antonio	-3496
▁passe	-3497
▁dietro	-3498
▁chiaro	-3499
▁miliardi	-3500
into	-3501
ttato	-3502
stente	-3503
▁qua	-3504
▁mus	-3505
MA	-3506
incontro	-3507
▁conqu	-3508
▁scola	-3509
▁idee	-3510
VI	-3511
▁Durante	-3512
venzione	-3513
▁nega	-3514
▁cercando	-3515
▁om	-3516
▁cond	-3517
liano	-3518
▁trovano	-3519
▁articolo	-3520
▁Luca	-3521
inizia	-3522
miche	-3523
▁vuoi	-3524
▁domande	-3525
isco	-3526
▁corsi	-3527
ordine	-3528
▁pagine	-3529
▁lar	-3530
▁azioni	-3531
dite	-3532
estro	-3533
▁appassi	-3534
▁Au	-3535
▁Del	-3536
▁manifestazione	-3537
▁Bologna	-3538
▁labora	-3539
▁Va	-3540
▁Uniti	-3541
▁italiane	-3542
gimento	-3543
▁rico	-3544
minare	-3545
▁nonché	-3546
▁dichiarato	-3547
▁piena	-3548
▁gente	-3549
▁2013	-3550
▁fortuna	-3551
▁Wi	-3552
▁studia	-3553
▁ripro	-3554
▁cinema	-3555
▁ordina	-3556
▁mobili	-3557
▁vacanza	-3558
enna	-3559
mentato	-3560
▁dentro	-3561
▁coordina	-3562
▁Perché	-3563
▁sociali	-3564
golo	-3565
▁attre	-3566
▁computer	-3567
▁stelle	-3568
▁Firenze	-3569
Non	-3570
▁evento	-3571
▁Camp	-3572
inf	-3573
▁ir	-3574
▁demo	-3575
ting	-3576
▁festa	-3577
▁consape	-3578
ggere	-3579
▁rim	-3580
▁danno	-3581
▁conferma	-3582
▁standard	-3583
▁operatori	-3584
rori	-3585
▁precedenti	-3586
▁apprezza	-3587
▁dispositivo	-3588
▁responsabilità	-3589
▁quota	-3590
▁Dani	-3591
evi	-3592
▁premi	-3593
posito	-3594
▁potete	-3595
▁[	-3596
▁meravi	-3597
▁splen	-3598
dows	-3599
bini	-3600
▁utilizzato	-3601
▁Bor	-3602
▁momenti	-3603
▁numeri	-3604
▁assicura	-3605
▁Is	-3606
▁piccole	-3607
iniziativa	-3608
▁mila	-3609
▁movimento	-3610
▁Natale	-3611
▁partecipare	-3612
impor	-3613
▁particolari	-3614
VA	-3615
▁Vin	-3616
▁notizia	-3617
▁fen	-3618
▁pure	-3619
▁sostegno	-3620
▁tenere	-3621
▁Ben	-3622
▁Scar	-3623
▁digitale	-3624
▁Don	-3625
▁Men	-3626
▁madre	-3627
▁massa	-3628
▁cata	-3629
▁prossima	-3630
▁probabilmente	-3631
▁198	-3632
SI	-3633
wnload	-3634
ers	-3635
▁bellezza	-3636
▁speri	-3637
▁passi	-3638
ruppo	-3639
▁cioè	-3640
▁guerra	-3641
▁sugli	-3642
▁rimane	-3643
▁fuoco	-3644
▁este	-3645
▁intervento	-3646
▁livelli	-3647
6.	-3648
gata	-3649
▁medio	-3650
tiamo	-3651
▁perfetto	-3652
▁Così	-3653
fare	-3654
▁tenta	-3655
▁farlo	-3656
▁feste	-3657
esca	-3658
▁pad	-3659
▁blog	-3660
▁prefer	-3661
cone	-3662
▁ripa	-3663
▁abbastanza	-3664
mamente	-3665
▁scienti	-3666
▁coppia	-3667
done	-3668
▁libero	-3669
eroporto	-3670
▁mecc	-3671
les	-3672
▁articoli	-3673
▁quarti	-3674
acquisto	-3675
▁bello	-3676
▁voluto	-3677
▁responsabile	-3678
▁iP	-3679
vamo	-3680
▁serve	-3681
quisi	-3682
▁vicen	-3683
▁Super	-3684
uale	-3685
▁ottimo	-3686
▁personaggi	-3687
▁fol	-3688
▁Vol	-3689
▁provo	-3690
▁attesa	-3691
▁gamma	-3692
raggio	-3693
pol	-3694
▁bol	-3695
ducia	-3696
▁memoria	-3697
▁visualizza	-3698
▁Ed	-3699
▁tera	-3700
iss	-3701
▁dise	-3702
▁Fonda	-3703
▁noto	-3704
▁ama	-3705
▁ferro	-3706
▁trasm	-3707
▁impianti	-3708
▁progetta	-3709
▁gratis	-3710
▁conso	-3711
dibile	-3712
▁negozi	-3713
scina	-3714
▁inglese	-3715
▁organi	-3716
im	-3717
▁diverti	-3718
▁verranno	-3719
▁eventuali	-3720
▁moni	-3721
▁lato	-3722
▁ottimi	-3723
mentali	-3724
▁ambiente	-3725
dy	-3726
-0	-3727
▁giusti	-3728
▁intera	-3729
▁Carlo	-3730
▁distin	-3731
pubblica	-3732
▁blu	-3733
▁infine	-3734
▁fornire	-3735
▁parola	-3736
▁Sil	-3737
ua	-3738
▁medico	-3739
▁interno	-3740
forte	-3741
▁sud	-3742
ciata	-3743
▁richieste	-3744
unti	-3745
▁messaggio	-3746
▁3.	-3747
▁Quindi	-3748
▁avvia	-3749
lice	-3750
ppare	-3751
▁ciasc	-3752
▁ragione	-3753
▁desidera	-3754
usura	-3755
▁misure	-3756
▁ringra	-3757
▁commerciali	-3758
▁compagnia	-3759
▁forme	-3760
▁moto	-3761
▁legi	-3762
7.	-3763
▁LA	-3764
asp	-3765
▁tru	-3766
TU	-3767
▁mangia	-3768
▁domani	-3769
▁sinistra	-3770
guard	-3771
▁sfida	-3772
IL	-3773
▁approfondi	-3774
▁nasce	-3775
▁pronto	-3776
▁eccell	-3777
volta	-3778
▁Provin	-3779
▁fed	-3780
▁consiglia	-3781
▁rispetti	-3782
▁dolore	-3783
▁dra	-3784
▁vino	-3785
▁prestazioni	-3786
associazione	-3787
pore	-3788
▁DEL	-3789
verti	-3790
▁comba	-3791
▁Ang	-3792
▁ecco	-3793
▁chilo	-3794
▁vantaggio	-3795
▁2012	-3796
▁proposte	-3797
tani	-3798
▁Cha	-3799
tutto	-3800
cese	-3801
▁canz	-3802
▁solito	-3803
▁bor	-3804
▁tornare	-3805
▁trasporto	-3806
IO	-3807
damente	-3808
▁amore	-3809
ap	-3810
▁migliora	-3811
▁quei	-3812
▁link	-3813
▁espri	-3814
▁cambiare	-3815
▁decisione	-3816
minazione	-3817
▁quantità	-3818
▁Emi	-3819
▁accor	-3820
▁assolutamente	-3821
rom	-3822
▁Festival	-3823
▁Ge	-3824
▁piattaforma	-3825
▁camm	-3826
grafia	-3827
can	-3828
▁giusta	-3829
guardo	-3830
vedì	-3831
▁mente	-3832
▁fenom	-3833
▁poche	-3834
▁Massi	-3835
▁riti	-3836
▁riesce	-3837
cate	-3838
ganizzazione	-3839
▁naturali	-3840
gnano	-3841
▁femmini	-3842
▁sé	-3843
▁agi	-3844
▁costruzione	-3845
▁Cons	-3846
eto	-3847
▁mezzi	-3848
▁efficace	-3849
sazione	-3850
▁urb	-3851
▁carico	-3852
▁energe	-3853
CO	-3854
lizzata	-3855
▁fan	-3856
mazione	-3857
▁dieci	-3858
hone	-3859
▁rie	-3860
onica	-3861
Europa	-3862
▁assistenza	-3863
▁by	-3864
mini	-3865
▁promozione	-3866
vola	-3867
▁sve	-3868
▁capitale	-3869
▁alber	-3870
▁avevano	-3871
rla	-3872
▁Lega	-3873
▁bro	-3874
▁pul	-3875
fficio	-3876
▁chiesto	-3877
▁passaggio	-3878
mpe	-3879
▁interessante	-3880
▁venti	-3881
licazione	-3882
▁vie	-3883
▁banca	-3884
▁Tutta	-3885
▁Nico	-3886
▁fiori	-3887
▁Sh	-3888
▁estra	-3889
▁stare	-3890
▁iniziative	-3891
▁vinci	-3892
▁confronto	-3893
dire	-3894
▁et	-3895
▁alcun	-3896
▁contributo	-3897
▁CON	-3898
▁Venezia	-3899
toriale	-3900
▁2,	-3901
▁Internet	-3902
usione	-3903
▁riuni	-3904
▁Tea	-3905
▁res	-3906
▁Chia	-3907
gro	-3908
ces	-3909
▁ecce	-3910
ciu	-3911
▁Ferra	-3912
▁panora	-3913
▁gre	-3914
▁adegua	-3915
▁lunghe	-3916
▁cambio	-3917
ciamo	-3918
▁risulta	-3919
offerta	-3920
▁gruppi	-3921
▁Soci	-3922
stituto	-3923
▁div	-3924
▁sosteni	-3925
▁pio	-3926
immagine	-3927
ot	-3928
▁inizio	-3929
▁iniziato	-3930
▁aere	-3931
estate	-3932
▁entrambi	-3933
verà	-3934
▁avanza	-3935
gin	-3936
vali	-3937
fera	-3938
▁Gro	-3939
▁provare	-3940
▁soldi	-3941
bus	-3942
▁forti	-3943
▁auton	-3944
▁carica	-3945
▁collezione	-3946
get	-3947
▁devi	-3948
▁specie	-3949
zzati	-3950
▁Bri	-3951
rittura	-3952
▁appare	-3953
posizione	-3954
▁secolo	-3955
CH	-3956
▁perso	-3957
ettendo	-3958
▁tan	-3959
▁economica	-3960
mania	-3961
▁premio	-3962
ppio	-3963
▁idea	-3964
▁lettura	-3965
▁contenuto	-3966
lus	-3967
▁costitui	-3968
ziale	-3969
▁mu	-3970
▁riguard	-3971
▁monta	-3972
▁numer	-3973
ond	-3974
▁giardino	-3975
70	-3976
▁parche	-3977
▁mantenere	-3978
ted	-3979
▁politiche	-3980
▁aperta	-3981
▁semplici	-3982
▁Cosa	-3983
▁lasciare	-3984
▁decora	-3985
eek	-3986
SO	-3987
dali	-3988
▁artisti	-3989
▁diverso	-3990
▁motore	-3991
▁Palazzo	-3992
Associazione	-3993
tività	-3994
▁linee	-3995
▁modifica	-3996
▁destra	-3997
▁abband	-3998
▁cur	-3999
▁conce	-4000
ith	-4001
▁finalmente	-4002
);	-4003
▁Ve	-4004
▁nessun	-4005
▁protagonisti	-4006
▁Nell	-4007
▁Rom	-4008
keting	-4009
▁obietti	-4010
articolo	-4011
▁impegno	-4012
▁El	-4013
90	-4014
▁compagni	-4015
▁Geno	-4016
▁squadre	-4017
▁Windows	-4018
conomia	-4019
▁Palermo	-4020
▁opportunità	-4021
▁Uno	-4022
lamento	-4023
chiamo	-4024
▁partecipanti	-4025
▁civile	-4026
ED	-4027
▁temi	-4028
▁lunedì	-4029
▁treno	-4030
▁edu	-4031
▁reli	-4032
mble	-4033
▁Rai	-4034
forme	-4035
▁abbi	-4036
45	-4037
unt	-4038
▁guada	-4039
▁Inf	-4040
▁aggiunto	-4041
▁Nord	-4042
allo	-4043
▁*	-4044
▁tali	-4045
▁Sci	-4046
▁At	-4047
stro	-4048
▁acquisi	-4049
attenzione	-4050
cla	-4051
▁fiducia	-4052
gati	-4053
▁Gian	-4054
▁ottima	-4055
▁ulteriori	-4056
isola	-4057
▁utilizzando	-4058
▁zucch	-4059
▁sepa	-4060
poca	-4061
onalità	-4062
ssia	-4063
operazione	-4064
▁credo	-4065
mando	-4066
rina	-4067
▁70	-4068
▁negozio	-4069
▁inti	-4070
▁appli	-4071
▁vogli	-4072
▁ricevuto	-4073
▁dolce	-4074
▁Repubblica	-4075
ciando	-4076
▁Francia	-4077
▁energia	-4078
▁Piazza	-4079
▁internazionali	-4080
etwork	-4081
spetti	-4082
▁racconta	-4083
▁oggetto	-4084
▁marchio	-4085
▁som	-4086
erale	-4087
leggio	-4088
▁vio	-4089
▁tecnici	-4090
Ma	-4091
tria	-4092
▁club	-4093
▁Interna	-4094
▁segno	-4095
▁scaricare	-4096
ley	-4097
shi	-4098
▁Sport	-4099
binieri	-4100
▁minimo	-4101
▁selezione	-4102
veri	-4103
▁confi	-4104
▁Stra	-4105
ud	-4106
▁francese	-4107
inare	-4108
BI	-4109
▁partite	-4110
liari	-4111
▁aggiunge	-4112
▁verifica	-4113
▁pazienti	-4114
Or	-4115
▁email	-4116
ccup	-4117
org	-4118
▁4.	-4119
▁strade	-4120
cante	-4121
▁liqui	-4122
▁dina	-4123
▁volo	-4124
▁forze	-4125
▁possibili	-4126
▁aumento	-4127
▁stimo	-4128
▁tari	-4129
▁pensato	-4130
▁Milan	-4131
renza	-4132
▁candida	-4133
▁Ce	-4134
▁(2	-4135
▁Sar	-4136
▁appuntamento	-4137
gendo	-4138
▁nato	-4139
▁Av	-4140
▁addirittura	-4141
▁difesa	-4142
▁regole	-4143
▁mobile	-4144
▁concre	-4145
lab	-4146
▁archite	-4147
▁indipen	-4148
▁2010	-4149
stare	-4150
▁muo	-4151
▁viaggi	-4152
▁terza	-4153
▁superficie	-4154
▁vive	-4155
tional	-4156
▁immobili	-4157
ding	-4158
▁Sud	-4159
▁ab	-4160
▁clima	-4161
▁Stefano	-4162
▁dispositivi	-4163
dotta	-4164
▁sì	-4165
▁vostri	-4166
cs	-4167
impre	-4168
▁vale	-4169
▁Matte	-4170
▁esperienze	-4171
▁entrare	-4172
▁carriera	-4173
▁alti	-4174
▁ministro	-4175
cel	-4176
teca	-4177
▁cibo	-4178
▁paura	-4179
//	-4180
sio	-4181
ffè	-4182
stato	-4183
▁recensioni	-4184
▁organizzato	-4185
sias	-4186
cur	-4187
▁www	-4188
terni	-4189
▁sottop	-4190
Con	-4191
▁35	-4192
erato	-4193
▁punta	-4194
▁cento	-4195
cipi	-4196
▁Lom	-4197
▁PER	-4198
rendo	-4199
▁Lazio	-4200
▁bordo	-4201
▁reso	-4202
ndo	-4203
▁occ	-4204
mmeno	-4205
▁desider	-4206
▁strani	-4207
▁vesti	-4208
▁potere	-4209
boli	-4210
▁miglia	-4211
▁tuttavia	-4212
▁porte	-4213
▁centri	-4214
▁dimin	-4215
EG	-4216
▁lì	-4217
▁chiave	-4218
▁ipo	-4219
▁accedere	-4220
int	-4221
▁corrispon	-4222
oro	-4223
▁provenienti	-4224
▁Regi	-4225
▁mina	-4226
▁libertà	-4227
▁benessere	-4228
▁chiedere	-4229
▁vorre	-4230
▁formu	-4231
US	-4232
gore	-4233
▁soff	-4234
▁indos	-4235
▁unica	-4236
stono	-4237
▁Tos	-4238
://	-4239
▁viaggia	-4240
▁effetto	-4241
▁gestire	-4242
▁calo	-4243
▁profilo	-4244
%,	-4245
15	-4246
▁500	-4247
rne	-4248
▁necessaria	-4249
▁motivi	-4250
zioso	-4251
▁Andro	-4252
▁rischi	-4253
▁Ama	-4254
▁Questi	-4255
▁Chiesa	-4256
vel	-4257
▁cari	-4258
cani	-4259
▁figura	-4260
enco	-4261
bas	-4262
▁semi	-4263
▁inn	-4264
▁apparten	-4265
▁visione	-4266
mme	-4267
▁scarpe	-4268
▁europea	-4269
▁dà	-4270
▁ordine	-4271
tine	-4272
▁corsa	-4273
▁Za	-4274
▁Bene	-4275
▁Edi	-4276
▁pala	-4277
▁traccia	-4278
missioni	-4279
▁Lib	-4280
▁documento	-4281
▁Apple	-4282
▁creato	-4283
▁AL	-4284
▁basa	-4285
▁devo	-4286
▁Ele	-4287
▁tagli	-4288
accordo	-4289
▁ottenuto	-4290
fie	-4291
stenti	-4292
▁eletto	-4293
▁Ins	-4294
lizzati	-4295
▁potuto	-4296
▁chiede	-4297
▁Tuttavia	-4298
▁asciu	-4299
applicazione	-4300
▁obiettivi	-4301
▁influ	-4302
▁continuare	-4303
ja	-4304
▁brand	-4305
▁commerciale	-4306
▁cook	-4307
▁accessori	-4308
▁cul	-4309
▁assa	-4310
titui	-4311
▁ristorante	-4312
▁Ai	-4313
coledì	-4314
ZIONE	-4315
Fi	-4316
▁..	-4317
arda	-4318
▁tecnologie	-4319
▁Cara	-4320
▁iniziare	-4321
▁prende	-4322
▁concorso	-4323
▁polizia	-4324
▁Auto	-4325
▁esiste	-4326
▁popolazione	-4327
pedale	-4328
▁programmi	-4329
▁schermo	-4330
▁combina	-4331
▁dipendenti	-4332
blio	-4333
▁garanzia	-4334
▁Colo	-4335
▁dura	-4336
▁costru	-4337
▁funzioni	-4338
▁tur	-4339
▁Teatro	-4340
▁piatto	-4341
▁costa	-4342
▁episo	-4343
▁numerose	-4344
bale	-4345
mità	-4346
▁disponibilità	-4347
dazione	-4348
▁arrivato	-4349
ende	-4350
inta	-4351
▁radio	-4352
▁luci	-4353
ong	-4354
▁potrai	-4355
▁temperatura	-4356
▁giocatore	-4357
▁tv	-4358
dienti	-4359
utente	-4360
▁discip	-4361
▁singolo	-4362
ler	-4363
▁gas	-4364
▁attualmente	-4365
we	-4366
▁fia	-4367
▁Comuni	-4368
▁Android	-4369
▁caldo	-4370
issimo	-4371
▁chiusura	-4372
orno	-4373
):	-4374
▁Infatti	-4375
▁gratuita	-4376
organizzazione	-4377
▁associazioni	-4378
▁tour	-4379
▁sostitu	-4380
▁nomina	-4381
Per	-4382
▁aprire	-4383
ence	-4384
▁Pari	-4385
▁morbi	-4386
▁inser	-4387
▁peggio	-4388
▁visitare	-4389
uli	-4390
▁malattia	-4391
▁controlla	-4392
minato	-4393
▁rifiuti	-4394
▁vincere	-4395
▁spesa	-4396
▁villa	-4397
▁pagare	-4398
ici	-4399
▁conquis	-4400
▁nemmeno	-4401
▁dele	-4402
▁Sicilia	-4403
▁privato	-4404
▁valutazione	-4405
▁Serie	-4406
▁accogli	-4407
▁vogliono	-4408
-3	-4409
mpia	-4410
▁sconfi	-4411
▁laure	-4412
▁aiutare	-4413
▁Blu	-4414
▁Fondazione	-4415
raneo	-4416
▁olio	-4417
unico	-4418
▁area	-4419
▁privati	-4420
▁sequ	-4421
▁aggiungere	-4422
▁2011	-4423
cchie	-4424
▁artigi	-4425
▁componenti	-4426
nata	-4427
▁perfor	-4428
▁raggiunto	-4429
▁rispondere	-4430
▁pie	-4431
▁90	-4432
▁analisi	-4433
icoli	-4434
▁oli	-4435
logico	-4436
▁ricetta	-4437
ergia	-4438
▁dollari	-4439
ue	-4440
▁sedi	-4441
cento	-4442
▁piscina	-4443
▁imprendi	-4444
▁augu	-4445
intervento	-4446
intera	-4447
ensi	-4448
▁tavolo	-4449
▁orari	-4450
▁mie	-4451
▁audio	-4452
▁dobbiamo	-4453
▁aspetto	-4454
rmi	-4455
▁partito	-4456
▁Roberto	-4457
▁offerta	-4458
▁consapevole	-4459
▁Matteo	-4460
▁tutela	-4461
▁rinno	-4462
▁colazione	-4463
▁riguardo	-4464
▁Colle	-4465
▁musicale	-4466
▁psicolo	-4467
▁contesto	-4468
pposi	-4469
▁nazionali	-4470
tedì	-4471
▁preoccupa	-4472
onico	-4473
▁facili	-4474
▁credito	-4475
▁relativi	-4476
▁obiettivo	-4477
▁opzioni	-4478
▁illustra	-4479
▁extra	-4480
▁complesso	-4481
▁pale	-4482
fre	-4483
▁stiamo	-4484
▁ridurre	-4485
voro	-4486
▁manutenzione	-4487
▁business	-4488
▁nord	-4489
▁lontano	-4490
▁competenze	-4491
▁comm	-4492
▁stazione	-4493
hn	-4494
▁fondi	-4495
▁0,	-4496
accesso	-4497
▁Ul	-4498
▁metter	-4499
▁Gui	-4500
matico	-4501
▁colla	-4502
▁preventi	-4503
▁Musi	-4504
▁applicazioni	-4505
asse	-4506
▁usato	-4507
▁mono	-4508
▁Mario	-4509
▁pilo	-4510
wer	-4511
▁nar	-4512
▁Capi	-4513
▁umani	-4514
▁Ka	-4515
simi	-4516
▁prosegui	-4517
autore	-4518
▁utilizzo	-4519
▁volume	-4520
▁tradizionale	-4521
▁Sky	-4522
rore	-4523
▁ampio	-4524
▁ricos	-4525
▁dubbio	-4526
▁spiegato	-4527
tusias	-4528
▁Acc	-4529
▁ucci	-4530
Un	-4531
▁notizie	-4532
ffico	-4533
▁potrete	-4534
▁fle	-4535
▁moglie	-4536
▁197	-4537
▁possano	-4538
▁apposi	-4539
zionato	-4540
▁dan	-4541
▁sostitui	-4542
▁imb	-4543
▁sconto	-4544
▁teatro	-4545
▁specifico	-4546
▁monito	-4547
▁dettaglio	-4548
enziali	-4549
▁bon	-4550
▁you	-4551
ras	-4552
▁atle	-4553
▁Semp	-4554
▁reddi	-4555
osso	-4556
▁utilizzati	-4557
▁chiama	-4558
▁versa	-4559
ranzo	-4560
▁creazione	-4561
▁rosa	-4562
▁afferma	-4563
▁Alle	-4564
Mi	-4565
▁argom	-4566
dor	-4567
▁quadro	-4568
▁sentire	-4569
▁parlato	-4570
▁ricorda	-4571
▁Cli	-4572
PA	-4573
erare	-4574
spe	-4575
/1	-4576
eff	-4577
▁Germania	-4578
▁aumen	-4579
▁località	-4580
▁forno	-4581
▁normale	-4582
▁Alessandro	-4583
▁Commissione	-4584
▁Solo	-4585
▁chiamato	-4586
rli	-4587
▁lum	-4588
rovvi	-4589
stere	-4590
sano	-4591
▁siete	-4592
▁storie	-4593
▁Noi	-4594
lack	-4595
▁sub	-4596
▁farà	-4597
▁preparazione	-4598
▁Paesi	-4599
rur	-4600
▁vento	-4601
▁rientra	-4602
▁mille	-4603
▁collabora	-4604
ves	-4605
▁inferiore	-4606
▁classico	-4607
▁paio	-4608
▁Conf	-4609
▁affa	-4610
▁esplo	-4611
▁scelte	-4612
▁Pietro	-4613
▁sosp	-4614
inato	-4615
▁recupera	-4616
▁politico	-4617
▁europeo	-4618
▁lava	-4619
▁gravi	-4620
anismo	-4621
iego	-4622
▁paesa	-4623
▁testimoni	-4624
▁simile	-4625
▁Grande	-4626
▁with	-4627
▁Infine	-4628
▁é	-4629
▁nutri	-4630
ortare	-4631
▁sullo	-4632
▁metro	-4633
ttica	-4634
▁rivi	-4635
▁vice	-4636
▁dover	-4637
▁situazioni	-4638
▁lotta	-4639
▁star	-4640
▁anticipa	-4641
ZA	-4642
intero	-4643
parto	-4644
DA	-4645
Se	-4646
asto	-4647
▁viss	-4648
stalla	-4649
▁Museo	-4650
erta	-4651
▁Sch	-4652
▁bici	-4653
▁torn	-4654
rali	-4655
▁uscita	-4656
▁spiaggia	-4657
▁respi	-4658
▁costre	-4659
▁recupero	-4660
▁operazioni	-4661
vando	-4662
monte	-4663
UN	-4664
entemente	-4665
gici	-4666
▁carattere	-4667
zon	-4668
▁!	-4669
hia	-4670
▁Prop	-4671
▁fabb	-4672
▁chilometri	-4673
▁interessanti	-4674
▁giovedì	-4675
▁permesso	-4676
▁condizione	-4677
▁pasta	-4678
▁giallo	-4679
ziato	-4680
▁solle	-4681
▁buoni	-4682
▁ambientale	-4683
▁Ciao	-4684
,00	-4685
▁Camera	-4686
▁Sarà	-4687
Istituto	-4688
▁purtroppo	-4689
▁latte	-4690
teranno	-4691
▁IL	-4692
▁ristruttura	-4693
▁cittadino	-4694
come	-4695
▁gare	-4696
▁Tren	-4697
utato	-4698
▁Lin	-4699
▁contemporanea	-4700
nia	-4701
ggiato	-4702
▁PC	-4703
▁ogn	-4704
▁volontà	-4705
▁esten	-4706
▁sogno	-4707
vizz	-4708
▁funzionalità	-4709
tena	-4710
▁vigi	-4711
itato	-4712
▁Mis	-4713
▁poiché	-4714
▁196	-4715
ress	-4716
▁Acqu	-4717
▁lasciato	-4718
dotti	-4719
▁aumentare	-4720
▁ricco	-4721
▁ricordo	-4722
▁ragazza	-4723
▁Nei	-4724
▁ciclo	-4725
▁dovranno	-4726
▁traffico	-4727
▁propon	-4728
▁caffè	-4729
▁parco	-4730
rvi	-4731
▁esposi	-4732
▁immediatamente	-4733
dari	-4734
▁patrimonio	-4735
▁beni	-4736
▁manc	-4737
ttime	-4738
▁vinto	-4739
▁capace	-4740
▁sfor	-4741
cni	-4742
▁PD	-4743
diti	-4744
▁Assi	-4745
▁scrivere	-4746
▁corte	-4747
mine	-4748
king	-4749
▁tif	-4750
▁vacanze	-4751
▁quotidiana	-4752
▁oro	-4753
xi	-4754
▁succe	-4755
▁annunciato	-4756
aming	-4757
▁gener	-4758
▁affida	-4759
ggiata	-4760
▁Lombar	-4761
▁sfo	-4762
▁carte	-4763
nio	-4764
▁decreto	-4765
▁presa	-4766
Re	-4767
▁matrimonio	-4768
▁documenti	-4769
▁stesse	-4770
▁esclusivamente	-4771
oo	-4772
gento	-4773
▁slo	-4774
▁cottura	-4775
ctor	-4776
▁aiuto	-4777
▁azione	-4778
qua	-4779
▁pezzi	-4780
vis	-4781
▁Fu	-4782
▁tratti	-4783
▁Gruppo	-4784
sis	-4785
▁rapporti	-4786
▁Pd	-4787
▁calda	-4788
bur	-4789
▁Prof	-4790
▁risa	-4791
▁match	-4792
orld	-4793
ciuto	-4794
▁occa	-4795
24	-4796
onata	-4797
sando	-4798
vimenti	-4799
▁essendo	-4800
fficienza	-4801
UR	-4802
▁arrivo	-4803
25	-4804
▁riduzione	-4805
▁grave	-4806
▁circos	-4807
▁portata	-4808
▁predi	-4809
▁cambi	-4810
▁consumo	-4811
arrivo	-4812
▁sovra	-4813
anità	-4814
▁femminile	-4815
▁dida	-4816
cord	-4817
rl	-4818
▁II	-4819
▁presentare	-4820
duti	-4821
▁Bel	-4822
▁custo	-4823
▁em	-4824
Ad	-4825
▁Gol	-4826
merica	-4827
▁Home	-4828
▁interro	-4829
▁emozioni	-4830
▁iso	-4831
imento	-4832
▁voli	-4833
TER	-4834
▁US	-4835
▁elabo	-4836
▁trovi	-4837
▁richiede	-4838
▁simili	-4839
▁tenuto	-4840
▁trib	-4841
anager	-4842
▁obbliga	-4843
▁nomi	-4844
▁sangue	-4845
▁vivo	-4846
▁posta	-4847
▁Città	-4848
▁avevo	-4849
vile	-4850
▁mamma	-4851
▁quarto	-4852
▁chied	-4853
▁verità	-4854
▁insegna	-4855
uf	-4856
apertura	-4857
ingresso	-4858
vie	-4859
▁80	-4860
▁Micro	-4861
▁taglia	-4862
▁positivo	-4863
verai	-4864
▁generazione	-4865
▁impiega	-4866
ore	-4867
▁terrà	-4868
▁son	-4869
▁Scopri	-4870
▁dispone	-4871
▁titoli	-4872
▁evol	-4873
▁rimb	-4874
▁annunci	-4875
▁sostenere	-4876
▁unità	-4877
▁Luigi	-4878
▁successivo	-4879
▁rila	-4880
▁suggeri	-4881
▁terreno	-4882
▁bilancio	-4883
▁date	-4884
▁Due	-4885
▁compli	-4886
▁pensiero	-4887
▁spedizione	-4888
▁inserire	-4889
cli	-4890
▁premia	-4891
bia	-4892
▁batta	-4893
▁tranquil	-4894
▁Ori	-4895
▁Br	-4896
▁Puoi	-4897
wa	-4898
▁gratuitamente	-4899
CE	-4900
▁trasparen	-4901
▁perce	-4902
▁migliaia	-4903
eme	-4904
▁out	-4905
▁confe	-4906
▁ampia	-4907
ant	-4908
▁45	-4909
▁tessuto	-4910
▁differenti	-4911
▁contribu	-4912
estero	-4913
▁scheda	-4914
mance	-4915
▁tratto	-4916
detti	-4917
▁chiesa	-4918
▁prevista	-4919
▁ragazzo	-4920
ance	-4921
don	-4922
▁ripren	-4923
▁fotografia	-4924
▁scoperta	-4925
▁sposta	-4926
▁chiuso	-4927
▁guardare	-4928
▁vantaggi	-4929
▁farsi	-4930
▁culturali	-4931
mber	-4932
▁mm	-4933
▁network	-4934
assessore	-4935
▁Club	-4936
▁commi	-4937
▁perfettamente	-4938
stitui	-4939
▁Alc	-4940
▁conseguenza	-4941
▁aggiornamenti	-4942
ziosi	-4943
▁sorri	-4944
lanti	-4945
▁bos	-4946
▁det	-4947
▁feri	-4948
deranno	-4949
▁prenotazione	-4950
ttamento	-4951
▁rit	-4952
▁sess	-4953
▁Ges	-4954
▁piatti	-4955
▁voglio	-4956
▁enti	-4957
▁aggi	-4958
▁costruire	-4959
▁Mal	-4960
▁nessuna	-4961
▁Mod	-4962
▁Terra	-4963
▁conveni	-4964
▁relative	-4965
gon	-4966
trale	-4967
▁ammi	-4968
▁Parco	-4969
giche	-4970
▁Provincia	-4971
Inter	-4972
sero	-4973
▁pato	-4974
crizione	-4975
▁Italiana	-4976
▁pranzo	-4977
ossibile	-4978
orme	-4979
▁caval	-4980
▁Web	-4981
blo	-4982
▁amico	-4983
▁Loren	-4984
▁origine	-4985
▁batteria	-4986
arla	-4987
▁300	-4988
▁risolvere	-4989
▁As	-4990
ks	-4991
▁condividere	-4992
▁riporta	-4993
▁doppio	-4994
rò	-4995
▁MA	-4996
inge	-4997
▁week	-4998
nella	-4999
▁speranza	-5000
vante	-5001
peri	-5002
▁riscal	-5003
▁secondi	-5004
▁attorno	-5005
▁Mari	-5006
▁age	-5007
▁ambienti	-5008
▁specifiche	-5009
dom	-5010
pie	-5011
NO	-5012
▁ria	-5013
▁sarebbero	-5014
opp	-5015
▁marketing	-5016
sile	-5017
sili	-5018
▁accade	-5019
▁Società	-5020
▁adatto	-5021
ficati	-5022
▁mater	-5023
▁Ministero	-5024
▁ultimo	-5025
Si	-5026
▁Fil	-5027
mosfera	-5028
▁Bro	-5029
▁percen	-5030
▁attuale	-5031
▁nata	-5032
cciaio	-5033
▁der	-5034
▁•	-5035
zzate	-5036
▁autore	-5037
▁Las	-5038
▁top	-5039
grazione	-5040
▁voto	-5041
impe	-5042
▁Comp	-5043
enaro	-5044
▁processi	-5045
▁Bal	-5046
▁appunto	-5047
▁Cina	-5048
▁3,	-5049
▁romanzo	-5050
▁Eli	-5051
▁viso	-5052
▁stanza	-5053
▁́	-5054
▁York	-5055
▁scrive	-5056
▁commenti	-5057
▁Oli	-5058
▁vicenda	-5059
▁trovere	-5060
▁frutto	-5061
eta	-5062
▁Genova	-5063
’,	-5064
▁Pie	-5065
▁vogliamo	-5066
▁pelli	-5067
▁Governo	-5068
▁pressione	-5069
▁Cir	-5070
▁percorsi	-5071
▁vor	-5072
▁fai	-5073
▁trascor	-5074
inn	-5075
Hotel	-5076
▁camp	-5077
tes	-5078
▁dar	-5079
▁show	-5080
Ca	-5081
▁celeb	-5082
▁vini	-5083
▁Scarpe	-5084
▁risparmia	-5085
▁crema	-5086
▁AN	-5087
▁contrario	-5088
▁socc	-5089
epi	-5090
Unione	-5091
erico	-5092
▁crescere	-5093
dustria	-5094
▁taglio	-5095
▁Er	-5096
▁motiva	-5097
epoca	-5098
▁troviamo	-5099
viamo	-5100
vocato	-5101
▁priva	-5102
ull	-5103
▁svolta	-5104
▁ingredienti	-5105
14	-5106
gs	-5107
arma	-5108
ach	-5109
▁ripresa	-5110
▁violenza	-5111
▁evidente	-5112
▁provato	-5113
▁maggioranza	-5114
gnare	-5115
▁concerto	-5116
▁Toscana	-5117
16	-5118
▁circo	-5119
sho	-5120
▁Donna	-5121
▁farmaci	-5122
▁regioni	-5123
▁sinto	-5124
▁legger	-5125
impresa	-5126
▁Mor	-5127
▁prove	-5128
▁Calab	-5129
▁partecipato	-5130
▁pulizia	-5131
talmente	-5132
▁umi	-5133
▁32	-5134
▁Clau	-5135
▁commercio	-5136
sla	-5137
▁membri	-5138
zionata	-5139
grafica	-5140
blet	-5141
▁operativo	-5142
etterà	-5143
▁Gri	-5144
▁Corte	-5145
▁Mos	-5146
▁distribuzione	-5147
▁finis	-5148
EC	-5149
▁Porto	-5150
▁spie	-5151
▁uffici	-5152
▁coltiva	-5153
▁attivi	-5154
▁album	-5155
▁5.	-5156
▁svolto	-5157
▁analizza	-5158
entali	-5159
▁quell	-5160
▁ingresso	-5161
olio	-5162
▁mq	-5163
▁Quali	-5164
▁contiene	-5165
▁istituzioni	-5166
andi	-5167
▁settori	-5168
▁rinnova	-5169
▁medici	-5170
▁possesso	-5171
cuzione	-5172
▁Campi	-5173
▁diversa	-5174
▁professionali	-5175
▁fisica	-5176
gando	-5177
ans	-5178
▁indirizzo	-5179
▁procedura	-5180
▁Bre	-5181
▁pace	-5182
▁alcuna	-5183
▁retro	-5184
▁immagina	-5185
▁Pur	-5186
analisi	-5187
▁spirito	-5188
▁indicazioni	-5189
lizzare	-5190
▁giornate	-5191
▁originali	-5192
▁cambiamento	-5193
gori	-5194
denze	-5195
mori	-5196
▁ambito	-5197
▁conti	-5198
mbolo	-5199
sante	-5200
▁Massimo	-5201
neo	-5202
▁cielo	-5203
▁mediante	-5204
▁potenza	-5205
▁staff	-5206
▁interven	-5207
alti	-5208
▁sotti	-5209
rini	-5210
ventus	-5211
▁quartiere	-5212
▁36	-5213
▁adulti	-5214
▁circon	-5215
▁mancanza	-5216
▁Insomma	-5217
▁Londra	-5218
economia	-5219
ssegna	-5220
▁denaro	-5221
torie	-5222
▁ritor	-5223
▁meravigli	-5224
▁dovrebbero	-5225
tabile	-5226
▁150	-5227
▁offrono	-5228
iste	-5229
▁regista	-5230
▁biglietti	-5231
▁esso	-5232
▁carne	-5233
▁decisamente	-5234
▁Por	-5235
mozione	-5236
pito	-5237
▁minuto	-5238
▁specifica	-5239
▁iPhone	-5240
▁porto	-5241
▁verificare	-5242
▁’	-5243
▁Valen	-5244
lievo	-5245
▁marito	-5246
vello	-5247
▁piante	-5248
ttive	-5249
▁buono	-5250
▁estremamente	-5251
arre	-5252
tevi	-5253
logica	-5254
▁sel	-5255
▁aut	-5256
▁mercoledì	-5257
▁pian	-5258
▁flu	-5259
▁Anna	-5260
▁vetro	-5261
▁sufficiente	-5262
▁progettazione	-5263
▁apre	-5264
▁esterno	-5265
librio	-5266
aff	-5267
▁fissa	-5268
▁ritar	-5269
▁fattura	-5270
uscita	-5271
▁parcheggio	-5272
▁distur	-5273
ITA	-5274
▁vege	-5275
soft	-5276
appro	-5277
PS	-5278
augu	-5279
▁Sinda	-5280
▁stai	-5281
▁»	-5282
▁riconoscimento	-5283
arli	-5284
▁You	-5285
▁chie	-5286
endario	-5287
informa	-5288
▁preval	-5289
▁viva	-5290
EM	-5291
▁fenomeno	-5292
ppone	-5293
DO	-5294
ula	-5295
▁insegn	-5296
▁Play	-5297
▁democra	-5298
▁4,	-5299
erata	-5300
▁Tutte	-5301
▁centina	-5302
▁abitanti	-5303
zare	-5304
▁reti	-5305
▁fascia	-5306
▁vostre	-5307
▁accordo	-5308
▁investimenti	-5309
▁spos	-5310
▁Franco	-5311
▁soffer	-5312
▁umano	-5313
▁acquisto	-5314
parti	-5315
▁subi	-5316
▁reparto	-5317
▁visitatori	-5318
▁agri	-5319
unno	-5320
▁Parti	-5321
▁leggi	-5322
▁punte	-5323
▁prevenzione	-5324
▁requisi	-5325
▁colpo	-5326
dute	-5327
ola	-5328
TM	-5329
▁attiva	-5330
▁territori	-5331
cell	-5332
▁nascita	-5333
▁sorta	-5334
artista	-5335
▁ana	-5336
▁cena	-5337
▁frutta	-5338
▁pronti	-5339
indirizzo	-5340
▁considerazione	-5341
let	-5342
▁Bon	-5343
ppiamo	-5344
▁Fili	-5345
▁He	-5346
▁automatica	-5347
atte	-5348
▁legale	-5349
▁spalle	-5350
▁assieme	-5351
▁veni	-5352
▁risolu	-5353
▁economici	-5354
gerà	-5355
▁necessari	-5356
▁>	-5357
▁Parigi	-5358
ttimo	-5359
▁personaggio	-5360
▁Pol	-5361
▁Lea	-5362
▁turno	-5363
prese	-5364
▁apertura	-5365
▁def	-5366
▁scio	-5367
▁2000	-5368
▁Conte	-5369
▁martedì	-5370
Ri	-5371
35	-5372
▁ricca	-5373
▁cosid	-5374
▁figlia	-5375
cenze	-5376
detta	-5377
tudine	-5378
gy	-5379
cchetto	-5380
▁entusias	-5381
ormi	-5382
tile	-5383
▁oper	-5384
▁doccia	-5385
▁realizzati	-5386
impegno	-5387
dova	-5388
▁corrente	-5389
▁previsti	-5390
▁azzur	-5391
▁cookie	-5392
▁legati	-5393
ttando	-5394
▁realizzata	-5395
▁sino	-5396
sion	-5397
▁aria	-5398
▁Ag	-5399
▁zucchero	-5400
▁Air	-5401
▁dieta	-5402
▁Calabria	-5403
vini	-5404
▁connessione	-5405
OC	-5406
▁Mentre	-5407
▁maschi	-5408
▁conferenza	-5409
gliamento	-5410
▁conclude	-5411
▁imparare	-5412
▁zero	-5413
▁Mu	-5414
yl	-5415
▁promuovere	-5416
▁intende	-5417
▁Lombardia	-5418
▁porti	-5419
▁Maggio	-5420
▁Bari	-5421
▁manca	-5422
▁essi	-5423
sign	-5424
zano	-5425
gistra	-5426
▁avendo	-5427
“.	-5428
▁prospetti	-5429
▁contatta	-5430
▁comprende	-5431
▁ricordare	-5432
red	-5433
▁europei	-5434
AP	-5435
▁laboratorio	-5436
SS	-5437
▁Salva	-5438
taly	-5439
▁palla	-5440
▁profonda	-5441
abi	-5442
▁performance	-5443
▁pubblicazione	-5444
▁fili	-5445
▁poteva	-5446
▁modulo	-5447
▁considerato	-5448
▁SU	-5449
tarie	-5450
18	-5451
▁Queste	-5452
▁uscire	-5453
▁plu	-5454
ttività	-5455
▁bassa	-5456
▁agenti	-5457
▁Nonostante	-5458
▁arte	-5459
▁felice	-5460
▁puntata	-5461
▁Bos	-5462
▁doppia	-5463
port	-5464
oli	-5465
▁genti	-5466
gnore	-5467
▁medie	-5468
▁salva	-5469
▁estate	-5470
gliare	-5471
▁Media	-5472
App	-5473
▁download	-5474
bbene	-5475
▁Tur	-5476
rui	-5477
▁Hi	-5478
▁accessi	-5479
▁vecchio	-5480
pole	-5481
▁pena	-5482
▁irri	-5483
▁Ciò	-5484
▁comfort	-5485
▁battu	-5486
▁Era	-5487
19	-5488
▁interni	-5489
▁prese	-5490
▁peri	-5491
amministrazione	-5492
▁cellulare	-5493
▁filoso	-5494
▁principi	-5495
tania	-5496
▁richiesto	-5497
umere	-5498
▁insi	-5499
aeroporto	-5500
▁Michele	-5501
▁ristoranti	-5502
▁Fri	-5503
▁buone	-5504
▁Cap	-5505
▁composta	-5506
▁Più	-5507
▁avversa	-5508
17	-5509
▁scegli	-5510
rona	-5511
▁indipendente	-5512
▁qualunque	-5513
▁limite	-5514
▁globale	-5515
▁cane	-5516
▁riuscito	-5517
trimonia	-5518
▁vittime	-5519
▁elegante	-5520
▁messaggi	-5521
duce	-5522
tia	-5523
▁Esp	-5524
▁gradi	-5525
-201	-5526
▁Sho	-5527
▁scorsa	-5528
▁faccio	-5529
ioren	-5530
▁caccia	-5531
▁imposta	-5532
▁moderno	-5533
▁impedi	-5534
▁simbolo	-5535
▁pertanto	-5536
▁resistenza	-5537
▁band	-5538
▁dimensione	-5539
▁medicina	-5540
▁norme	-5541
▁Mac	-5542
▁dando	-5543
▁andata	-5544
▁pista	-5545
enzia	-5546
▁affin	-5547
▁avviene	-5548
▁malattie	-5549
▁ono	-5550
▁imper	-5551
▁opini	-5552
▁preparare	-5553
▁comunica	-5554
▁popolo	-5555
isci	-5556
grafico	-5557
▁divano	-5558
▁Sant	-5559
▁Cultura	-5560
▁intelli	-5561
▁sguardo	-5562
▁continui	-5563
▁dramma	-5564
▁coni	-5565
▁Cin	-5566
essioni	-5567
▁clini	-5568
▁Giorgio	-5569
▁CH	-5570
gram	-5571
▁rimanere	-5572
fri	-5573
dinanza	-5574
▁Bru	-5575
▁Verona	-5576
13	-5577
▁controllare	-5578
Tu	-5579
▁ragazze	-5580
▁Bea	-5581
▁trasmissione	-5582
ost	-5583
▁UN	-5584
aller	-5585
▁registrazione	-5586
▁occasioni	-5587
▁disciplina	-5588
cherà	-5589
▁onda	-5590
▁Contin	-5591
▁appassionati	-5592
▁Juventus	-5593
▁regalo	-5594
▁bocca	-5595
▁familiari	-5596
gar	-5597
▁soggetto	-5598
talità	-5599
▁Scuola	-5600
▁stri	-5601
▁gratuiti	-5602
gnolo	-5603
▁quotidiano	-5604
▁Wil	-5605
▁limiti	-5606
assa	-5607
▁conosce	-5608
ys	-5609
▁Gesù	-5610
▁permettono	-5611
ttrice	-5612
▁suggesti	-5613
ggiamento	-5614
▁strategia	-5615
ward	-5616
ony	-5617
▁CO	-5618
▁live	-5619
▁candi	-5620
▁mercati	-5621
▁attivo	-5622
▁accetta	-5623
▁paziente	-5624
▁recenti	-5625
▁Pres	-5626
▁bassi	-5627
▁perman	-5628
▁richiedere	-5629
mpianto	-5630
▁chiamata	-5631
▁SP	-5632
coni	-5633
▁John	-5634
witter	-5635
installa	-5636
▁interessati	-5637
▁curio	-5638
▁pasti	-5639
▁consider	-5640
ciò	-5641
▁tiro	-5642
▁industriale	-5643
onamento	-5644
▁lezioni	-5645
▁riba	-5646
▁Ov	-5647
▁Valle	-5648
▁inva	-5649
▁relazioni	-5650
▁raffor	-5651
ttivi	-5652
▁ognuno	-5653
▁dotato	-5654
▁nascon	-5655
ttempo	-5656
▁Hai	-5657
▁discussione	-5658
onti	-5659
▁turismo	-5660
▁din	-5661
▁elemento	-5662
MI	-5663
▁là	-5664
▁piacevole	-5665
atta	-5666
▁accol	-5667
ller	-5668
ficata	-5669
lui	-5670
▁ugu	-5671
▁sape	-5672
▁certamente	-5673
▁mappa	-5674
▁streaming	-5675
▁occorre	-5676
dis	-5677
▁Ali	-5678
▁allu	-5679
▁Nelle	-5680
▁altra	-5681
▁Leon	-5682
▁nera	-5683
▁semb	-5684
contra	-5685
▁essa	-5686
▁veicoli	-5687
▁pezzo	-5688
▁ciocco	-5689
▁frattempo	-5690
coltura	-5691
▁copertura	-5692
▁sviluppare	-5693
▁mesco	-5694
▁Forse	-5695
▁mira	-5696
▁inaugu	-5697
mergenza	-5698
je	-5699
▁Ness	-5700
industria	-5701
▁digitali	-5702
▁superare	-5703
▁fianco	-5704
tle	-5705
▁Spi	-5706
▁raccom	-5707
▁famoso	-5708
▁gradu	-5709
gene	-5710
▁canali	-5711
▁comprare	-5712
▁Lorenzo	-5713
genzie	-5714
top	-5715
▁Rosa	-5716
▁Capo	-5717
▁biglietto	-5718
▁interessi	-5719
▁scene	-5720
▁valutare	-5721
quali	-5722
▁moderna	-5723
▁storica	-5724
▁sportivo	-5725
▁rischia	-5726
▁soddisfare	-5727
▁Polizia	-5728
▁termina	-5729
▁effettuato	-5730
▁nucle	-5731
▁nuovamente	-5732
▁Ces	-5733
▁vicin	-5734
▁banche	-5735
▁comunicato	-5736
ux	-5737
▁alimentare	-5738
gate	-5739
▁chirur	-5740
▁tablet	-5741
▁tifosi	-5742
ressione	-5743
▁dolci	-5744
▁tradizionali	-5745
▁desid	-5746
▁Veneto	-5747
DE	-5748
▁mangiare	-5749
▁controlli	-5750
entro	-5751
erebbe	-5752
inten	-5753
▁attuali	-5754
▁applicazione	-5755
▁Es	-5756
▁teo	-5757
▁comun	-5758
▁Emilia	-5759
▁dimostrato	-5760
▁sostanze	-5761
▁primavera	-5762
▁Quest	-5763
.0	-5764
rino	-5765
unzione	-5766
▁indisp	-5767
▁Entra	-5768
▁convi	-5769
visione	-5770
▁compito	-5771
▁rendono	-5772
▁sensibili	-5773
▁occup	-5774
▁allesti	-5775
▁firma	-5776
▁segue	-5777
sori	-5778
▁dri	-5779
▁vene	-5780
▁33	-5781
▁canale	-5782
del	-5783
▁Stre	-5784
▁aziendale	-5785
▁elettrica	-5786
▁dona	-5787
▁praticamente	-5788
▁Star	-5789
▁fungo	-5790
attuale	-5791
▁popolare	-5792
▁diventato	-5793
▁totalmente	-5794
cialmente	-5795
▁Ab	-5796
▁prepara	-5797
▁canti	-5798
▁campione	-5799
▁Dia	-5800
chino	-5801
▁2009	-5802
▁affas	-5803
liamo	-5804
▁Ricor	-5805
▁silen	-5806
▁diffusione	-5807
▁penso	-5808
▁organizzata	-5809
▁garantisce	-5810
low	-5811
arco	-5812
▁allar	-5813
▁scoperto	-5814
alb	-5815
ool	-5816
▁Bus	-5817
▁Min	-5818
▁seguendo	-5819
▁cru	-5820
▁irre	-5821
▁professionalità	-5822
erali	-5823
▁dec	-5824
▁risparmio	-5825
▁titolare	-5826
▁za	-5827
▁geo	-5828
▁ulteriore	-5829
ingle	-5830
▁Gar	-5831
▁plastica	-5832
abb	-5833
▁Sala	-5834
▁Tru	-5835
▁fisico	-5836
▁denomina	-5837
▁motori	-5838
▁proto	-5839
▁refer	-5840
onde	-5841
▁rea	-5842
minio	-5843
▁Papa	-5844
▁presi	-5845
IT	-5846
▁pratiche	-5847
sivi	-5848
▁falli	-5849
▁guarda	-5850
▁opport	-5851
▁sposa	-5852
▁Mauri	-5853
bin	-5854
ugia	-5855
▁Santo	-5856
▁seguenti	-5857
▁sembrano	-5858
▁governa	-5859
▁produttori	-5860
▁rapidamente	-5861
erimento	-5862
▁varietà	-5863
degna	-5864
▁iscritti	-5865
LO	-5866
letta	-5867
▁rivesti	-5868
▁racconto	-5869
erire	-5870
▁voci	-5871
▁Sol	-5872
▁necessarie	-5873
▁corretto	-5874
▁rappresentano	-5875
ash	-5876
▁religi	-5877
stina	-5878
▁indicato	-5879
▁Pla	-5880
▁Sei	-5881
▁superiori	-5882
guardia	-5883
cona	-5884
▁certa	-5885
▁usuf	-5886
."	-5887
▁fondamentali	-5888
▁dep	-5889
mor	-5890
▁Proprio	-5891
▁funzionamento	-5892
▁ceri	-5893
▁immer	-5894
▁cani	-5895
▁fonti	-5896
▁giuri	-5897
▁troverete	-5898
▁gioi	-5899
▁eviden	-5900
▁errori	-5901
darietà	-5902
▁svolge	-5903
▁bur	-5904
▁simpa	-5905
www	-5906
▁decidere	-5907
terra	-5908
▁Natura	-5909
ONI	-5910
▁neanche	-5911
ziamo	-5912
▁Ini	-5913
▁Adesso	-5914
▁Senza	-5915
▁Spagna	-5916
energia	-5917
▁decen	-5918
▁condanna	-5919
▁consulenza	-5920
▁pann	-5921
▁abbiano	-5922
▁venire	-5923
▁categorie	-5924
▁Vincen	-5925
▁appartamento	-5926
36	-5927
▁Mad	-5928
avvi	-5929
▁avranno	-5930
▁organizzare	-5931
▁desiderio	-5932
batti	-5933
▁schia	-5934
'.	-5935
isti	-5936
▁Informa	-5937
CC	-5938
▁successivamente	-5939
▁ille	-5940
enato	-5941
importanza	-5942
▁giun	-5943
anima	-5944
▁giornalista	-5945
▁archi	-5946
▁montagna	-5947
IG	-5948
▁fonte	-5949
▁Puglia	-5950
▁militari	-5951
hat	-5952
▁finestra	-5953
▁regionali	-5954
▁basi	-5955
▁esercizi	-5956
▁indietro	-5957
▁macchine	-5958
▁richia	-5959
▁configu	-5960
▁proposito	-5961
▁Castel	-5962
celli	-5963
durre	-5964
▁inqu	-5965
▁disegno	-5966
▁vuo	-5967
ccante	-5968
▁competenza	-5969
▁Des	-5970
▁registrato	-5971
▁kg	-5972
zionare	-5973
▁League	-5974
▁andato	-5975
Ci	-5976
▁Uomo	-5977
▁Studi	-5978
▁face	-5979
▁andrà	-5980
▁straordinaria	-5981
▁5,	-5982
▁concetto	-5983
▁tariffe	-5984
▁bonus	-5985
volmente	-5986
▁ricerche	-5987
her	-5988
▁volto	-5989
▁pianta	-5990
inamento	-5991
msung	-5992
▁prenotare	-5993
erati	-5994
terior	-5995
▁riuscire	-5996
sche	-5997
▁Quanto	-5998
▁freddo	-5999
▁elezioni	-6000
ANO	-6001
▁spre	-6002
▁tenuta	-6003
▁classica	-6004
asta	-6005
▁consoli	-6006
▁potenzialità	-6007
onese	-6008
tele	-6009
astron	-6010
▁elettronica	-6011
▁2008	-6012
▁danne	-6013
▁piede	-6014
▁conosciuto	-6015
ling	-6016
▁confermato	-6017
way	-6018
ganti	-6019
▁mul	-6020
▁cristi	-6021
▁economiche	-6022
alleria	-6023
rt	-6024
▁Ave	-6025
▁fiscale	-6026
▁flessi	-6027
aspetto	-6028
marsi	-6029
▁scorsi	-6030
▁piane	-6031
▁alcoli	-6032
▁accanto	-6033
▁periodi	-6034
▁prestigi	-6035
▁bianca	-6036
No	-6037
▁400	-6038
blioteca	-6039
▁indispensa	-6040
▁gioia	-6041
resta	-6042
▁viaggiatori	-6043
--	-6044
ppie	-6045
▁Dalla	-6046
AT	-6047
ressa	-6048
dando	-6049
drà	-6050
emergenza	-6051
▁Rossi	-6052
▁autorità	-6053
▁messi	-6054
▁lunghezza	-6055
inti	-6056
▁saper	-6057
ade	-6058
▁Sicu	-6059
▁benefici	-6060
zionamento	-6061
▁battaglia	-6062
▁htt	-6063
innova	-6064
▁Arri	-6065
▁arrivata	-6066
▁corretta	-6067
▁responsabili	-6068
derlo	-6069
▁noleggio	-6070
▁mura	-6071
▁fasi	-6072
MO	-6073
▁conclusione	-6074
▁perse	-6075
▁stili	-6076
▁Marche	-6077
▁relativo	-6078
▁immagine	-6079
▁tipologia	-6080
▁minori	-6081
▁scomm	-6082
ontan	-6083
▁altrettan	-6084
▁Servizio	-6085
▁distru	-6086
▁scala	-6087
▁bom	-6088
▁edifici	-6089
▁Microsoft	-6090
▁sottoscri	-6091
dori	-6092
rescia	-6093
▁sottolinea	-6094
▁vasta	-6095
▁miglioramento	-6096
▁chiari	-6097
▁veicolo	-6098
▁Asso	-6099
▁Pra	-6100
ttino	-6101
cheolo	-6102
ciate	-6103
▁rifer	-6104
▁situato	-6105
▁progressi	-6106
gersi	-6107
▁look	-6108
▁Premio	-6109
▁grafica	-6110
▁farina	-6111
▁Usa	-6112
Pa	-6113
ustra	-6114
nice	-6115
riere	-6116
▁Buon	-6117
▁raccontare	-6118
inio	-6119
▁Arti	-6120
▁portale	-6121
▁previste	-6122
▁prosegue	-6123
▁risoluzione	-6124
▁Sy	-6125
camera	-6126
veranno	-6127
▁meccani	-6128
▁profondi	-6129
▁calore	-6130
▁pane	-6131
▁comprendere	-6132
',	-6133
▁QU	-6134
▁Catania	-6135
▁critica	-6136
▁Pelle	-6137
▁preferito	-6138
▁singoli	-6139
23	-6140
vide	-6141
ccar	-6142
▁Disp	-6143
uogo	-6144
▁mail	-6145
▁Tele	-6146
▁consumatori	-6147
sì	-6148
▁educa	-6149
eserci	-6150
demia	-6151
gegn	-6152
▁ripet	-6153
▁chiudere	-6154
▁Amazon	-6155
▁iniziativa	-6156
▁pole	-6157
▁Pubbli	-6158
▁acque	-6159
▁alternativa	-6160
78	-6161
%)	-6162
__	-6163
▁tappa	-6164
▁centinaia	-6165
my	-6166
uova	-6167
▁neve	-6168
▁circ	-6169
▁rimasto	-6170
▁tedes	-6171
▁(+	-6172
manti	-6173
cic	-6174
ney	-6175
▁simbo	-6176
▁account	-6177
omici	-6178
▁matura	-6179
▁arrivano	-6180
▁cancella	-6181
▁aggiornato	-6182
▁commento	-6183
▁COM	-6184
▁vendite	-6185
dimenti	-6186
▁indiri	-6187
letti	-6188
▁1°	-6189
▁Basi	-6190
▁contributi	-6191
▁chiunque	-6192
cili	-6193
▁Negli	-6194
▁°	-6195
500	-6196
▁indagini	-6197
▁fornisce	-6198
▁lavorato	-6199
▁neo	-6200
▁angolo	-6201
▁Bol	-6202
landa	-6203
mblea	-6204
▁consigliere	-6205
▁visite	-6206
edizione	-6207
▁Domenica	-6208
istitu	-6209
▁record	-6210
▁carabinieri	-6211
▁concluso	-6212
▁Europea	-6213
opportunità	-6214
dal	-6215
mal	-6216
▁utilizzata	-6217
ye	-6218
▁PRO	-6219
pla	-6220
▁provinciale	-6221
▁esibi	-6222
▁copia	-6223
voca	-6224
▁normativa	-6225
▁fid	-6226
▁arricchi	-6227
▁bellissima	-6228
pedia	-6229
▁impossibile	-6230
▁naturalmente	-6231
▁relativa	-6232
interesse	-6233
impianto	-6234
ness	-6235
▁requisiti	-6236
vizzera	-6237
ontana	-6238
insegna	-6239
▁guard	-6240
ood	-6241
▁inc	-6242
▁aggiornamento	-6243
▁pietra	-6244
▁ultima	-6245
▁esser	-6246
▁denuncia	-6247
▁cambiamenti	-6248
▁benefi	-6249
▁sintomi	-6250
gliano	-6251
▁esistono	-6252
equi	-6253
orbi	-6254
▁tasso	-6255
▁privata	-6256
▁navigazione	-6257
▁Nor	-6258
▁masch	-6259
▁calendario	-6260
tenze	-6261
▁consapevolezza	-6262
▁agrico	-6263
▁contatti	-6264
▁metodi	-6265
▁familiare	-6266
lico	-6267
tù	-6268
▁aggre	-6269
tern	-6270
▁HD	-6271
▁universi	-6272
▁compati	-6273
En	-6274
/200	-6275
▁cosi	-6276
▁mone	-6277
▁esattamente	-6278
lesc	-6279
▁solamente	-6280
▁scompar	-6281
▁vorrei	-6282
rle	-6283
▁avvicina	-6284
bba	-6285
▁tavola	-6286
Pro	-6287
▁cass	-6288
▁stress	-6289
▁Campania	-6290
cello	-6291
▁Parma	-6292
▁priori	-6293
▁up	-6294
▁fattori	-6295
tò	-6296
ARE	-6297
▁informazione	-6298
▁Sardegna	-6299
▁elettro	-6300
▁venga	-6301
▁costrui	-6302
ceo	-6303
▁canzone	-6304
ase	-6305
▁fortemente	-6306
aiuto	-6307
▁(3	-6308
▁entrambe	-6309
▁Ten	-6310
▁bando	-6311
▁politici	-6312
ccell	-6313
frica	-6314
mbiente	-6315
▁desideri	-6316
▁continuo	-6317
▁Piano	-6318
▁ragioni	-6319
cesi	-6320
cito	-6321
rena	-6322
▁idro	-6323
48	-6324
mes	-6325
collo	-6326
orzio	-6327
▁soddisfazione	-6328
▁volete	-6329
▁parlando	-6330
▁Res	-6331
▁proi	-6332
ziamento	-6333
uol	-6334
▁proposto	-6335
▁divertimento	-6336
’.	-6337
▁2007	-6338
zzino	-6339
entato	-6340
▁Quello	-6341
▁temperature	-6342
virus	-6343
▁tappe	-6344
▁mettendo	-6345
▁tab	-6346
pressione	-6347
▁leggermente	-6348
▁voti	-6349
▁alberghi	-6350
▁Pier	-6351
▁pubbliche	-6352
gliari	-6353
▁procedure	-6354
▁sensazione	-6355
▁finito	-6356
ink	-6357
▁sappiamo	-6358
▁esterni	-6359
tola	-6360
▁Nicola	-6361
▁calcia	-6362
▁sconti	-6363
▁socio	-6364
22	-6365
▁Prote	-6366
ds	-6367
▁segnale	-6368
▁finali	-6369
▁pubblicita	-6370
xy	-6371
pping	-6372
▁coraggio	-6373
▁istru	-6374
ufficio	-6375
▁splendi	-6376
▁botti	-6377
▁dista	-6378
▁silenzio	-6379
▁sorpresa	-6380
unciare	-6381
▁ricette	-6382
▁terapia	-6383
▁residenti	-6384
▁giudizio	-6385
▁Sempre	-6386
▁transi	-6387
▁Molto	-6388
▁lievi	-6389
▁marchi	-6390
▁aro	-6391
▁forum	-6392
▁virus	-6393
ars	-6394
lievi	-6395
stre	-6396
▁festival	-6397
▁solidarietà	-6398
▁scritta	-6399
onimo	-6400
▁100%	-6401
▁incom	-6402
▁free	-6403
▁inviare	-6404
cchetti	-6405
▁sh	-6406
onal	-6407
▁Prog	-6408
estici	-6409
▁vecchia	-6410
die	-6411
gger	-6412
▁definizione	-6413
▁ditta	-6414
▁trasfer	-6415
▁Sabato	-6416
▁accusa	-6417
▁lancio	-6418
▁acquisti	-6419
▁Nu	-6420
▁legato	-6421
sconi	-6422
effetto	-6423
cket	-6424
▁attori	-6425
▁Porta	-6426
▁gambe	-6427
▁moderni	-6428
▁ferrovia	-6429
▁splendida	-6430
ruire	-6431
▁sinc	-6432
▁percentuale	-6433
▁pronta	-6434
mpions	-6435
▁maglia	-6436
giorno	-6437
▁dibatti	-6438
▁sorpren	-6439
▁fatica	-6440
artamenti	-6441
▁precisa	-6442
▁passando	-6443
▁carb	-6444
▁Sindaco	-6445
▁morti	-6446
▁Aggiun	-6447
nali	-6448
▁sopravvi	-6449
ship	-6450
▁Radio	-6451
▁dichiara	-6452
alli	-6453
▁Comitato	-6454
▁volontari	-6455
▁elettorale	-6456
erno	-6457
▁procedere	-6458
▁stadio	-6459
▁debu	-6460
zialmente	-6461
▁assoluto	-6462
▁svolgere	-6463
▁cinese	-6464
▁laurea	-6465
▁artistico	-6466
▁caro	-6467
▁principalmente	-6468
▁sanno	-6469
▁fede	-6470
atmosfera	-6471
▁acciaio	-6472
▁work	-6473
lusconi	-6474
▁attrib	-6475
alta	-6476
cari	-6477
▁favori	-6478
▁Contro	-6479
▁avrebbero	-6480
▁spina	-6481
▁Cine	-6482
▁tela	-6483
▁Ancora	-6484
▁Padova	-6485
▁Fabio	-6486
▁Black	-6487
▁umana	-6488
PR	-6489
mosi	-6490
▁Articolo	-6491
▁avver	-6492
▁Samsung	-6493
▁docenti	-6494
▁esterna	-6495
lizzate	-6496
roga	-6497
stino	-6498
▁brani	-6499
▁venne	-6500
Sono	-6501
▁this	-6502
▁Banca	-6503
▁2018.	-6504
▁inde	-6505
▁favorire	-6506
▁divertente	-6507
▁sospen	-6508
tz	-6509
venuto	-6510
▁conve	-6511
▁pressi	-6512
▁ascoltare	-6513
▁interamente	-6514
wser	-6515
▁Anton	-6516
▁richied	-6517
nea	-6518
yer	-6519
▁produrre	-6520
▁sva	-6521
▁Scri	-6522
▁Nove	-6523
▁impatto	-6524
▁panorama	-6525
installazione	-6526
▁collegamento	-6527
▁Alberto	-6528
inata	-6529
tolo	-6530
▁scolastico	-6531
▁oma	-6532
75	-6533
▁vedo	-6534
▁iniziale	-6535
▁clo	-6536
▁eliminare	-6537
▁bellissimo	-6538
▁americano	-6539
teli	-6540
▁deten	-6541
▁veloci	-6542
untamenti	-6543
▁conseguenze	-6544
▁lanciato	-6545
▁magistra	-6546
:30	-6547
Vi	-6548
AG	-6549
▁)	-6550
diali	-6551
chis	-6552
▁Pan	-6553
▁Gala	-6554
▁colleghi	-6555
▁affinché	-6556
▁Siste	-6557
ottima	-6558
mestre	-6559
▁notevole	-6560
▁giustizia	-6561
▁sentito	-6562
▁compreso	-6563
’8	-6564
▁NO	-6565
apos	-6566
▁Codice	-6567
▁tranquilla	-6568
▁personalità	-6569
▁inna	-6570
ensore	-6571
▁legate	-6572
ospedale	-6573
▁aumenta	-6574
▁Blo	-6575
98	-6576
ny	-6577
▁riuscita	-6578
▁idra	-6579
▁ripe	-6580
▁tanta	-6581
▁comportamento	-6582
▁sostanza	-6583
nel	-6584
▁decide	-6585
▁episodi	-6586
try	-6587
▁prossime	-6588
▁osta	-6589
▁riportato	-6590
▁Crea	-6591
▁infi	-6592
▁posizioni	-6593
▁manager	-6594
nale	-6595
logici	-6596
▁diplo	-6597
▁book	-6598
rella	-6599
▁vuol	-6600
▁gravid	-6601
VO	-6602
ggeri	-6603
▁Lan	-6604
▁riven	-6605
uali	-6606
▁ufficio	-6607
▁popolari	-6608
▁perfe	-6609
▁que	-6610
▁segretario	-6611
▁abbra	-6612
pt	-6613
▁trovate	-6614
▁Trib	-6615
inci	-6616
▁vissuto	-6617
▁propor	-6618
▁permettere	-6619
46	-6620
▁capp	-6621
▁Studio	-6622
▁catalogo	-6623
▁fossero	-6624
▁modifiche	-6625
▁privacy	-6626
▁principio	-6627
▁importanza	-6628
tili	-6629
▁trasfor	-6630
▁stava	-6631
▁appa	-6632
The	-6633
▁AR	-6634
▁stamp	-6635
word	-6636
▁sentenza	-6637
▁Insta	-6638
▁arrivati	-6639
▁impianto	-6640
▁lasciando	-6641
box	-6642
ossa	-6643
▁Vincenzo	-6644
preso	-6645
▁atleti	-6646
▁discorso	-6647
▁Comple	-6648
teriormente	-6649
▁notifiche	-6650
stata	-6651
▁cerimonia	-6652
▁minima	-6653
▁pò	-6654
▁Renzi	-6655
▁turisti	-6656
▁Ulti	-6657
▁reddito	-6658
▁eccessi	-6659
▁conoscenze	-6660
▁appuntamenti	-6661
▁canzoni	-6662
gnora	-6663
▁Gabri	-6664
▁contrasto	-6665
▁modificare	-6666
vic	-6667
identi	-6668
▁musici	-6669
▁”	-6670
▁Champions	-6671
esia	-6672
▁altrimenti	-6673
▁significato	-6674
▁diam	-6675
▁cassa	-6676
▁fabbrica	-6677
▁funzion	-6678
▁include	-6679
▁ghia	-6680
▁commissione	-6681
▁Ur	-6682
▁Mare	-6683
loni	-6684
▁cucchia	-6685
▁cioccolato	-6686
▁destinazione	-6687
prima	-6688
▁news	-6689
▁sopp	-6690
▁presentata	-6691
▁clic	-6692
▁denti	-6693
Bo	-6694
▁ricercatori	-6695
▁treni	-6696
▁38	-6697
▁sapore	-6698
▁improvvi	-6699
▁Sce	-6700
ellino	-6701
▁molta	-6702
▁anticipo	-6703
xt	-6704
▁essenziale	-6705
ave	-6706
▁portando	-6707
▁pubblicità	-6708
gamo	-6709
▁ber	-6710
▁mede	-6711
▁chitar	-6712
▁giunta	-6713
▁precisione	-6714
umu	-6715
tinera	-6716
▁riforma	-6717
▁linguaggio	-6718
metro	-6719
▁Compa	-6720
▁palco	-6721
▁portati	-6722
▁intervista	-6723
▁specifici	-6724
▁Lei	-6725
▁bir	-6726
▁alimentari	-6727
▁dedicati	-6728
▁straordinario	-6729
▁Tom	-6730
▁box	-6731
cciano	-6732
pisce	-6733
▁bina	-6734
▁Angel	-6735
▁tentativo	-6736
▁relax	-6737
21	-6738
▁avvenuto	-6739
▁scia	-6740
cabile	-6741
▁pioggia	-6742
▁individuare	-6743
▁2018,	-6744
▁professionista	-6745
cker	-6746
dico	-6747
acco	-6748
▁alte	-6749
▁lettore	-6750
berg	-6751
▁eseguire	-6752
pori	-6753
▁dialogo	-6754
26	-6755
▁notare	-6756
▁Twitter	-6757
▁Coppa	-6758
▁trattamenti	-6759
▁Prin	-6760
▁raccogliere	-6761
enico	-6762
▁ted	-6763
▁=	-6764
▁Italy	-6765
▁orienta	-6766
utile	-6767
Com	-6768
▁elen	-6769
▁riempi	-6770
▁meteo	-6771
▁affermato	-6772
▁anch	-6773
▁riflessione	-6774
como	-6775
esterno	-6776
▁scarica	-6777
▁recuperare	-6778
▁Sto	-6779
▁intervenire	-6780
▁—	-6781
▁34	-6782
▁ricche	-6783
rerà	-6784
▁Opera	-6785
▁scopri	-6786
▁definire	-6787
▁Far	-6788
▁ja	-6789
iale	-6790
ennale	-6791
▁lumin	-6792
lun	-6793
ames	-6794
▁USA	-6795
▁voler	-6796
sive	-6797
▁fatte	-6798
▁cammino	-6799
▁formula	-6800
▁marca	-6801
▁Russia	-6802
▁inserito	-6803
▁scadenza	-6804
▁Sha	-6805
▁Sor	-6806
▁aci	-6807
▁City	-6808
▁imprenditori	-6809
ccando	-6810
▁bere	-6811
ltà	-6812
▁dimenticare	-6813
▁Claudio	-6814
ros	-6815
tic	-6816
▁gravidanza	-6817
▁ricorso	-6818
elenco	-6819
▁tedesco	-6820
ICA	-6821
▁World	-6822
▁ponte	-6823
ssero	-6824
ziosa	-6825
▁comma	-6826
Di	-6827
ggiate	-6828
▁musicali	-6829
▁rassegna	-6830
95	-6831
gnosi	-6832
Do	-6833
▁Design	-6834
▁attacco	-6835
▁One	-6836
▁potente	-6837
▁vigore	-6838
torni	-6839
▁verdu	-6840
▁missione	-6841
▁storici	-6842
▁Comunale	-6843
▁Fre	-6844
▁cinemato	-6845
entono	-6846
▁Italiano	-6847
▁maggiormente	-6848
▁sviluppato	-6849
▁Marina	-6850
▁mix	-6851
▁Purtroppo	-6852
▁ambientali	-6853
▁Lavoro	-6854
▁recensione	-6855
▁rappresentanti	-6856
SE	-6857
▁195	-6858
▁armi	-6859
▁Intanto	-6860
▁agenzie	-6861
day	-6862
vamento	-6863
▁6,	-6864
ens	-6865
▁fila	-6866
▁milli	-6867
▁conver	-6868
▁sostenibile	-6869
ning	-6870
▁sottolineato	-6871
▁Nuova	-6872
▁parro	-6873
onavirus	-6874
ETA	-6875
▁compagnie	-6876
▁fred	-6877
gramma	-6878
-4	-6879
▁tiene	-6880
▁movimenti	-6881
ghie	-6882
lette	-6883
▁Vir	-6884
gliata	-6885
▁sportiva	-6886
▁Parlamento	-6887
▁Mc	-6888
▁escur	-6889
▁browser	-6890
▁offerto	-6891
Lo	-6892
▁mobilità	-6893
▁strategie	-6894
ult	-6895
▁ges	-6896
ate	-6897
▁PDF	-6898
ticità	-6899
▁Brescia	-6900
uch	-6901
▁comincia	-6902
var	-6903
▁Fabri	-6904
▁pilota	-6905
▁fornito	-6906
▁Risp	-6907
▁bicicle	-6908
▁dicono	-6909
▁risparmiare	-6910
▁ton	-6911
▁info	-6912
▁agevo	-6913
▁infras	-6914
▁consecu	-6915
▁fate	-6916
trimoniale	-6917
▁proprietario	-6918
33	-6919
▁brevi	-6920
▁rilass	-6921
trutture	-6922
▁Mess	-6923
▁Maurizio	-6924
▁influenza	-6925
▁consentire	-6926
obbli	-6927
▁cantante	-6928
▁bril	-6929
▁Cristo	-6930
▁artigian	-6931
▁laboratori	-6932
▁spiri	-6933
▁predisp	-6934
▁Piemonte	-6935
▁eco	-6936
▁recentemente	-6937
▁capol	-6938
▁approccio	-6939
▁2017,	-6940
▁minaccia	-6941
▁attraver	-6942
mobile	-6943
▁attrezza	-6944
▁cambiato	-6945
▁regolare	-6946
tarsi	-6947
▁weekend	-6948
TR	-6949
▁ader	-6950
▁rivista	-6951
PP	-6952
UO	-6953
▁resa	-6954
▁risponde	-6955
▁finire	-6956
▁rivolto	-6957
nare	-6958
altezza	-6959
▁aspettare	-6960
▁Para	-6961
▁crimina	-6962
cchiere	-6963
zionati	-6964
▁cifra	-6965
ji	-6966
▁Dall	-6967
▁lavorando	-6968
usei	-6969
▁diffuso	-6970
▁disegna	-6971
▁was	-6972
▁versioni	-6973
▁VI	-6974
▁deposi	-6975
▁espresso	-6976
▁Ovviamente	-6977
▁riserva	-6978
▁trasferimento	-6979
▁ulteriormente	-6980
:0	-6981
telo	-6982
▁monu	-6983
▁Torre	-6984
gari	-6985
▁sacri	-6986
less	-6987
▁furono	-6988
▁regime	-6989
dge	-6990
▁48	-6991
▁borsa	-6992
▁programmazione	-6993
Li	-6994
cus	-6995
tuni	-6996
▁lusso	-6997
▁viaggiare	-6998
▁sogni	-6999
▁pulsante	-7000
enatore	-7001
osci	-7002
▁Guar	-7003
▁Certo	-7004
▁auten	-7005
▁facciamo	-7006
▁cittadinanza	-7007
▁cicli	-7008
▁Indi	-7009
▁persino	-7010
AC	-7011
▁arma	-7012
▁cosci	-7013
▁conforte	-7014
▁provvedimento	-7015
dotte	-7016
▁NON	-7017
▁definito	-7018
▁brano	-7019
▁are	-7020
▁unghie	-7021
▁(4	-7022
▁My	-7023
▁solare	-7024
▁Berlusconi	-7025
28	-7026
▁confli	-7027
▁alimenti	-7028
▁Potre	-7029
▁seduta	-7030
UT	-7031
▁espan	-7032
▁bandi	-7033
▁scambio	-7034
▁leggero	-7035
lash	-7036
▁Har	-7037
ttico	-7038
▁errore	-7039
▁schede	-7040
▁legisla	-7041
▁Dove	-7042
▁cause	-7043
▁tendenza	-7044
▁curiosità	-7045
aut	-7046
▁vicini	-7047
nis	-7048
▁Fia	-7049
gusta	-7050
▁cercato	-7051
▁ante	-7052
faccia	-7053
▁riscaldamento	-7054
▁Internazionale	-7055
▁Os	-7056
▁it	-7057
utore	-7058
▁2019.	-7059
▁seguente	-7060
▁candidato	-7061
mora	-7062
▁vittima	-7063
▁Simone	-7064
bro	-7065
▁salvare	-7066
▁ap	-7067
ttorio	-7068
voluzione	-7069
▁Ligu	-7070
▁2017.	-7071
▁Premi	-7072
▁finalità	-7073
dar	-7074
dore	-7075
▁radica	-7076
▁rispettivamente	-7077
▁Costa	-7078
▁tardi	-7079
logiche	-7080
▁rivela	-7081
Pre	-7082
▁dichiarazione	-7083
enz	-7084
▁reca	-7085
▁condotto	-7086
esame	-7087
▁Alex	-7088
▁vicina	-7089
▁posteriore	-7090
▁confor	-7091
▁fratello	-7092
▁America	-7093
▁finanziamento	-7094
gran	-7095
lizia	-7096
,.	-7097
▁creatività	-7098
▁Master	-7099
▁Feed	-7100
▁rime	-7101
▁slot	-7102
▁Ke	-7103
▁250	-7104
▁studente	-7105
????	-7106
Agenzia	-7107
tuniten	-7108
▁Dra	-7109
▁automobili	-7110
▁chiude	-7111
▁vivono	-7112
▁automaticamente	-7113
▁consenso	-7114
ric	-7115
vani	-7116
siste	-7117
▁muni	-7118
glianza	-7119
▁SC	-7120
▁danza	-7121
ciati	-7122
▁Giulia	-7123
▁DE	-7124
▁Foto	-7125
▁AS	-7126
gliamo	-7127
▁firmato	-7128
importante	-7129
▁pall	-7130
▁destinato	-7131
▁espon	-7132
39	-7133
▁neri	-7134
rola	-7135
▁Civi	-7136
▁inverna	-7137
▁stradale	-7138
Co	-7139
▁consentono	-7140
▁Reggio	-7141
▁perde	-7142
pposizione	-7143
▁morto	-7144
set	-7145
▁pesante	-7146
▁Online	-7147
▁domici	-7148
ipo	-7149
▁6.	-7150
ziano	-7151
▁crede	-7152
▁riusciti	-7153
▁rib	-7154
aperto	-7155
▁costu	-7156
▁contattare	-7157
▁scato	-7158
▁stranieri	-7159
▁amministrazione	-7160
sole	-7161
torità	-7162
▁fiume	-7163
▁DA	-7164
▁finora	-7165
visor	-7166
▁approfi	-7167
▁approvato	-7168
df	-7169
▁raccomanda	-7170
▁tasse	-7171
▁Alcuni	-7172
▁capaci	-7173
▁figure	-7174
▁metropoli	-7175
maco	-7176
tene	-7177
▁Regno	-7178
▁inedi	-7179
▁assegna	-7180
▁colpito	-7181
▁mari	-7182
▁We	-7183
:5	-7184
▁indu	-7185
impa	-7186
▁polvere	-7187
▁etc	-7188
▁parere	-7189
▁contare	-7190
▁costruito	-7191
orsi	-7192
tron	-7193
bole	-7194
▁ossia	-7195
zzini	-7196
▁server	-7197
ttata	-7198
▁sconfitta	-7199
▁Federico	-7200
▁Ban	-7201
▁sostan	-7202
ingere	-7203
▁accura	-7204
▁mattino	-7205
▁spagnolo	-7206
▁ospe	-7207
▁contratti	-7208
▁Ko	-7209
▁Cana	-7210
▁lettori	-7211
▁applicare	-7212
▁velocemente	-7213
lanza	-7214
▁ricom	-7215
▁emergenza	-7216
1%	-7217
▁statuniten	-7218
▁Wal	-7219
▁passati	-7220
▁lavorazione	-7221
27	-7222
▁tipologie	-7223
▁condivisione	-7224
tanni	-7225
GG	-7226
▁idone	-7227
▁consegui	-7228
▁Cagliari	-7229
erai	-7230
▁produttore	-7231
andosi	-7232
▁ripri	-7233
▁Nero	-7234
▁ritra	-7235
▁europee	-7236
▁Mil	-7237
▁rendendo	-7238
▁@	-7239
▁determinato	-7240
▁dipende	-7241
jo	-7242
▁affian	-7243
▁ovunque	-7244
▁poe	-7245
FF	-7246
▁difficili	-7247
▁problematiche	-7248
granti	-7249
▁Molti	-7250
▁sar	-7251
▁fum	-7252
oss	-7253
▁delib	-7254
▁aiu	-7255
▁Fla	-7256
▁composi	-7257
bli	-7258
mona	-7259
china	-7260
tatore	-7261
archite	-7262
▁trattare	-7263
goro	-7264
PU	-7265
ccata	-7266
▁Universi	-7267
▁prestazione	-7268
▁fresco	-7269
▁comunicare	-7270
▁abili	-7271
▁display	-7272
▁profondo	-7273
▁circolazione	-7274
▁Hol	-7275
▁ufficiali	-7276
ccupazione	-7277
ado	-7278
goglio	-7279
cerà	-7280
▁2016,	-7281
▁Sulla	-7282
tail	-7283
▁coniu	-7284
▁scrittura	-7285
▁usufruire	-7286
vente	-7287
▁Fino	-7288
onate	-7289
▁David	-7290
▁bagni	-7291
▁interessato	-7292
▁soccorso	-7293
destra	-7294
▁Corso	-7295
▁coinvolti	-7296
▁120	-7297
▁Visi	-7298
versario	-7299
.)	-7300
sson	-7301
▁anziani	-7302
▁acquistato	-7303
▁Apri	-7304
giano	-7305
▁Signore	-7306
▁organizzazioni	-7307
▁enorme	-7308
MEN	-7309
▁rimar	-7310
5%	-7311
▁Rober	-7312
ampia	-7313
PI	-7314
▁sacco	-7315
▁serra	-7316
▁Ferrari	-7317
▁carcere	-7318
▁semina	-7319
........	-7320
▁militare	-7321
▁Sara	-7322
ccini	-7323
▁Instagram	-7324
▁Sin	-7325
▁lago	-7326
▁Leonardo	-7327
▁Consul	-7328
▁offerti	-7329
▁Regionale	-7330
▁ufficialmente	-7331
▁sfruttare	-7332
Amministrazione	-7333
▁37	-7334
gas	-7335
shop	-7336
sen	-7337
colari	-7338
▁concerti	-7339
▁vediamo	-7340
▁consiste	-7341
▁costantemente	-7342
fono	-7343
Pi	-7344
▁Già	-7345
▁infini	-7346
▁Daniele	-7347
▁comodo	-7348
▁famosi	-7349
▁Op	-7350
▁forn	-7351
▁rigi	-7352
gement	-7353
VE	-7354
▁argomenti	-7355
▁Chri	-7356
utazione	-7357
inqu	-7358
▁spo	-7359
tensione	-7360
▁Salvini	-7361
▁Diparti	-7362
▁utente	-7363
▁appartamenti	-7364
▁procura	-7365
geni	-7366
▁Inn	-7367
▁restare	-7368
sore	-7369
▁tessuti	-7370
▁ospedali	-7371
▁energetico	-7372
▁occi	-7373
▁consumi	-7374
▁acu	-7375
▁tende	-7376
escovo	-7377
▁suddi	-7378
ettando	-7379
▁quadri	-7380
▁pareti	-7381
hai	-7382
▁anali	-7383
▁godere	-7384
nato	-7385
▁tel	-7386
▁regolamento	-7387
giu	-7388
▁osserva	-7389
▁prenotazioni	-7390
▁ner	-7391
▁lunghi	-7392
▁deposito	-7393
▁pensione	-7394
sal	-7395
▁Ki	-7396
pria	-7397
uovo	-7398
▁esor	-7399
venza	-7400
▁core	-7401
terapia	-7402
▁docente	-7403
▁congi	-7404
▁ritmo	-7405
▁seria	-7406
▁avvol	-7407
▁gusti	-7408
▁Tour	-7409
▁from	-7410
▁tute	-7411
EO	-7412
▁valido	-7413
▁sanitaria	-7414
▁Film	-7415
▁prestito	-7416
▁proporre	-7417
▁dichiarazioni	-7418
▁appo	-7419
▁Sergio	-7420
▁cerchi	-7421
▁Salvatore	-7422
▁candidati	-7423
glione	-7424
▁produce	-7425
▁ciascuno	-7426
▁cittadina	-7427
▁back	-7428
▁frequenta	-7429
▁terrori	-7430
▁stomaco	-7431
▁Messa	-7432
▁tipici	-7433
ttate	-7434
▁Fami	-7435
appuntamento	-7436
▁studiare	-7437
▁frequenza	-7438
stante	-7439
▁conven	-7440
dr	-7441
dizioni	-7442
▁accompagnato	-7443
▁benissimo	-7444
▁realizzate	-7445
▁manuale	-7446
▁bilan	-7447
▁pesca	-7448
estri	-7449
▁gesto	-7450
doro	-7451
▁Park	-7452
▁museo	-7453
▁circuito	-7454
ucci	-7455
▁Giappone	-7456
▁utilizzate	-7457
itore	-7458
▁Fioren	-7459
▁Servizi	-7460
guono	-7461
▁segni	-7462
unni	-7463
ganza	-7464
▁esprimere	-7465
▁ran	-7466
▁famosa	-7467
▁aziendali	-7468
▁aspi	-7469
cellona	-7470
▁elettrico	-7471
▁Pisa	-7472
▁stagi	-7473
▁centroca	-7474
▁incor	-7475
scia	-7476
essero	-7477
▁telefoni	-7478
▁proteggere	-7479
tono	-7480
intervista	-7481
▁albergo	-7482
▁preventivo	-7483
▁Red	-7484
camere	-7485
▁comunali	-7486
▁paesaggio	-7487
▁grigio	-7488
▁Pers	-7489
▁Je	-7490
▁amanti	-7491
ticamente	-7492
▁Conta	-7493
▁profondità	-7494
▁burro	-7495
▁giocato	-7496
▁Download	-7497
▁180	-7498
commer	-7499
▁ricordi	-7500
▁amb	-7501
▁gene	-7502
▁attua	-7503
▁natali	-7504
assistenza	-7505
▁pone	-7506
▁Enrico	-7507
fficienti	-7508
moro	-7509
▁riguardano	-7510
.....	-7511
▁uova	-7512
▁pc	-7513
▁settiman	-7514
landese	-7515
▁Altri	-7516
▁private	-7517
▁incontrare	-7518
▁ultra	-7519
▁ospita	-7520
▁riparti	-7521
AI	-7522
▁Lun	-7523
▁artistica	-7524
▁industriali	-7525
.1	-7526
▁Ide	-7527
▁selezionare	-7528
▁sil	-7529
▁Commer	-7530
▁palazzo	-7531
▁Pen	-7532
▁minore	-7533
▁parete	-7534
▁scorre	-7535
▁assisti	-7536
▁ferma	-7537
▁psico	-7538
▁ere	-7539
ditore	-7540
▁asciuga	-7541
▁ancor	-7542
▁comprom	-7543
▁y	-7544
▁borse	-7545
▁porterà	-7546
back	-7547
▁abiti	-7548
▁fratelli	-7549
▁visualizzare	-7550
▁Davide	-7551
▁2015,	-7552
▁positivi	-7553
▁alcolismo	-7554
▁vecchi	-7555
bel	-7556
▁Team	-7557
anismi	-7558
▁rock	-7559
▁PS	-7560
▁194	-7561
▁Ponte	-7562
▁altamente	-7563
erva	-7564
▁Tale	-7565
▁ritiro	-7566
▁svolgerà	-7567
ruzzo	-7568
▁muro	-7569
dibili	-7570
▁logo	-7571
ttuale	-7572
innovazione	-7573
fero	-7574
▁Aff	-7575
obbligo	-7576
▁creando	-7577
▁riscontra	-7578
”:	-7579
▁Svizzera	-7580
▁Ani	-7581
▁nottu	-7582
▁Direttore	-7583
▁Francesca	-7584
▁vincitore	-7585
▁esclusiva	-7586
▁Mondo	-7587
aumento	-7588
resto	-7589
▁rall	-7590
gresso	-7591
▁portano	-7592
gliate	-7593
▁giudice	-7594
▁servono	-7595
inale	-7596
▁diretti	-7597
▁assoluta	-7598
▁Mel	-7599
▁fidanza	-7600
chestra	-7601
▁raggiunge	-7602
▁cominciare	-7603
tas	-7604
▁dotto	-7605
▁avventura	-7606
agenzia	-7607
▁sicuri	-7608
▁compagno	-7609
▁somma	-7610
▁celebre	-7611
letto	-7612
▁later	-7613
▁Chiara	-7614
ther	-7615
terraneo	-7616
▁esperto	-7617
▁combattere	-7618
chine	-7619
▁compresa	-7620
▁sportive	-7621
udo	-7622
▁trattati	-7623
▁7,	-7624
ditori	-7625
96	-7626
uiti	-7627
▁insomma	-7628
▁affascin	-7629
▁giornalisti	-7630
▁sfide	-7631
▁legata	-7632
▁elevato	-7633
▁colpa	-7634
▁Dipartimento	-7635
▁Ess	-7636
▁Attra	-7637
▁tocco	-7638
▁ricarica	-7639
▁dibattito	-7640
▁Raffa	-7641
▁cattura	-7642
▁disabili	-7643
▁installare	-7644
▁alberi	-7645
reak	-7646
▁accaduto	-7647
mula	-7648
▁Ved	-7649
archi	-7650
ccessi	-7651
core	-7652
canti	-7653
▁Alb	-7654
▁equipa	-7655
▁spettatori	-7656
▁pianeta	-7657
▁alluminio	-7658
utati	-7659
ongono	-7660
▁permetterà	-7661
▁certe	-7662
chiesta	-7663
erito	-7664
UE	-7665
▁Her	-7666
▁Castello	-7667
▁composizione	-7668
▁torneo	-7669
▁capitolo	-7670
▁Bio	-7671
▁moltep	-7672
▁puo	-7673
zzante	-7674
▁sicura	-7675
▁raccolto	-7676
▁chiaramente	-7677
▁Legge	-7678
▁operazione	-7679
▁mancano	-7680
▁Può	-7681
▁rial	-7682
▁stabile	-7683
▁componente	-7684
▁tasti	-7685
▁positiva	-7686
▁riconosciuto	-7687
occhio	-7688
▁cellule	-7689
▁Nuovo	-7690
▁nasc	-7691
▁location	-7692
Bay	-7693
▁Bur	-7694
TRA	-7695
ccati	-7696
▁2019,	-7697
malmente	-7698
lone	-7699
▁cera	-7700
▁coppie	-7701
▁600	-7702
vetta	-7703
▁partiti	-7704
▁manifestazioni	-7705
mmobile	-7706
▁chat	-7707
unciato	-7708
▁antichi	-7709
▁incredibile	-7710
▁inven	-7711
▁sento	-7712
▁restitui	-7713
▁complessivo	-7714
**	-7715
▁Ass	-7716
▁Classi	-7717
uolo	-7718
▁mandato	-7719
fon	-7720
▁Fal	-7721
▁narra	-7722
appartamento	-7723
▁Sette	-7724
▁Barcellona	-7725
erano	-7726
Da	-7727
▁alternative	-7728
▁ROM	-7729
▁abbond	-7730
▁sportivi	-7731
▁automatico	-7732
▁andando	-7733
▁scientifica	-7734
▁accel	-7735
▁poesia	-7736
▁rapida	-7737
▁spettacoli	-7738
▁art	-7739
▁Vuoi	-7740
▁Cari	-7741
38	-7742
▁ped	-7743
▁foglie	-7744
▁tracce	-7745
vecchia	-7746
▁Trova	-7747
-5	-7748
soria	-7749
OLO	-7750
▁lomb	-7751
▁tetto	-7752
▁emi	-7753
▁vedrà	-7754
mella	-7755
▁Diri	-7756
ustria	-7757
▁Confer	-7758
▁Bergamo	-7759
▁braccia	-7760
▁presid	-7761
▁equilibrio	-7762
▁cavo	-7763
▁tutt	-7764
▁Barba	-7765
▁avvicin	-7766
▁cure	-7767
▁commissa	-7768
▁fantasia	-7769
essori	-7770
bergo	-7771
state	-7772
▁americana	-7773
out	-7774
▁saputo	-7775
▁condotta	-7776
BILI	-7777
▁pomo	-7778
▁palestra	-7779
▁decisioni	-7780
▁Carabinieri	-7781
▁investimento	-7782
▁Glo	-7783
▁Cerca	-7784
▁diffon	-7785
ccademia	-7786
▁leggera	-7787
▁pacchetto	-7788
▁Ann	-7789
▁vul	-7790
▁trovo	-7791
▁origini	-7792
▁vite	-7793
▁superato	-7794
▁caratteristica	-7795
▁vedre	-7796
▁-.	-7797
kers	-7798
grado	-7799
▁pensieri	-7800
PO	-7801
▁vasca	-7802
▁rapido	-7803
▁guidata	-7804
▁classici	-7805
▁vettura	-7806
???	-7807
▁etiche	-7808
▁potenziale	-7809
▁impegnati	-7810
▁consu	-7811
▁blocco	-7812
▁convo	-7813
▁organizzazione	-7814
▁chiara	-7815
▁sai	-7816
▁presentano	-7817
▁Mauro	-7818
amb	-7819
▁satelli	-7820
viene	-7821
▁festi	-7822
nei	-7823
espon	-7824
▁membro	-7825
ERE	-7826
▁sente	-7827
▁punteggio	-7828
▁celebra	-7829
▁riposo	-7830
▁individ	-7831
2%	-7832
▁LE	-7833
onne	-7834
▁indispensabile	-7835
▁7.	-7836
▁Riccar	-7837
▁tensione	-7838
▁considerare	-7839
▁offri	-7840
▁spero	-7841
sura	-7842
▁specializzata	-7843
ub	-7844
▁dormi	-7845
onibile	-7846
▁ritardo	-7847
▁Movimento	-7848
▁igno	-7849
ventura	-7850
▁suono	-7851
▁intero	-7852
▁Moto	-7853
▁Sole	-7854
▁dirigente	-7855
denzi	-7856
▁materie	-7857
▁completare	-7858
▁55	-7859
reria	-7860
▁riescono	-7861
▁felici	-7862
▁privile	-7863
▁segnali	-7864
▁trasformazione	-7865
yn	-7866
▁800	-7867
▁SO	-7868
▁cala	-7869
▁vedi	-7870
▁coopera	-7871
▁impresa	-7872
▁diventata	-7873
NI	-7874
▁Trip	-7875
▁Generale	-7876
gricoltura	-7877
tage	-7878
mante	-7879
▁suppor	-7880
▁fla	-7881
▁dico	-7882
97	-7883
▁succede	-7884
▁Digi	-7885
▁scenario	-7886
▁converti	-7887
▁frui	-7888
▁terzi	-7889
▁Vittorio	-7890
▁raccolti	-7891
fran	-7892
▁troverai	-7893
fu	-7894
xel	-7895
▁Sì	-7896
tudini	-7897
▁digni	-7898
▁scrittore	-7899
▁aspettative	-7900
▁Vita	-7901
istica	-7902
▁caratterizzato	-7903
ama	-7904
▁caduta	-7905
▁sostiene	-7906
▁pellicola	-7907
▁Sotto	-7908
▁check	-7909
manu	-7910
anzitutto	-7911
▁Sele	-7912
tativo	-7913
▁sanitario	-7914
▁amiche	-7915
dentale	-7916
▁eccellente	-7917
cipe	-7918
▁definitiva	-7919
eld	-7920
onaco	-7921
▁generazioni	-7922
▁Bruno	-7923
soli	-7924
strada	-7925
▁esami	-7926
▁virtuale	-7927
▁rece	-7928
▁identità	-7929
▁promosso	-7930
▁Ricer	-7931
▁insegnanti	-7932
▁1000	-7933
▁schiena	-7934
▁he	-7935
▁triste	-7936
ggiano	-7937
▁sig	-7938
▁infort	-7939
▁eBay	-7940
▁intui	-7941
▁Allora	-7942
▁Romagna	-7943
▁paesaggi	-7944
▁Ada	-7945
▁lati	-7946
▁fotografie	-7947
▁ac	-7948
▁avesse	-7949
▁2006	-7950
▁aggiornati	-7951
▁SI	-7952
▁aperti	-7953
▁quaran	-7954
▁omaggio	-7955
▁petto	-7956
▁inviato	-7957
▁maestro	-7958
▁volontaria	-7959
▁Phi	-7960
▁Book	-7961
▁successiva	-7962
▁decine	-7963
▁Art	-7964
▁mole	-7965
▁incenti	-7966
MS	-7967
▁filosofia	-7968
▁Patri	-7969
ONA	-7970
▁compra	-7971
▁attacchi	-7972
▁prezioso	-7973
hion	-7974
▁attrezzature	-7975
▁talento	-7976
stati	-7977
▁risposto	-7978
▁uscito	-7979
gibile	-7980
▁tematiche	-7981
▁pubblicata	-7982
▁arro	-7983
▁quarta	-7984
▁elettrici	-7985
▁osteo	-7986
▁Procura	-7987
▁proprietari	-7988
▁farci	-7989
▁valida	-7990
vino	-7991
▁fuga	-7992
▁render	-7993
▁GI	-7994
gelo	-7995
▁Giunta	-7996
88	-7997
▁ministero	-7998
▁scal	-7999
▁Contra	-8000
▁Max	-8001
▁2016.	-8002
▁ospite	-8003
▁sosta	-8004
3%	-8005
lotto	-8006
▁Real	-8007
▁britanni	-8008
informazione	-8009
dosso	-8010
anagement	-8011
▁finanziaria	-8012
▁sur	-8013
darsi	-8014
▁esame	-8015
ficiale	-8016
ruzione	-8017
▁sugger	-8018
▁Tribunale	-8019
▁Rego	-8020
▁minimi	-8021
▁raccontato	-8022
licata	-8023
▁passata	-8024
▁appre	-8025
ziali	-8026
▁Mondiale	-8027
▁elenco	-8028
▁usando	-8029
▁maschile	-8030
even	-8031
▁innovazione	-8032
▁autobus	-8033
▁documentazione	-8034
▁togliere	-8035
mas	-8036
▁alunni	-8037
ricato	-8038
▁debole	-8039
▁energetica	-8040
▁isola	-8041
gomento	-8042
vanta	-8043
▁garantendo	-8044
▁collegamenti	-8045
foni	-8046
▁dedicate	-8047
▁tradizioni	-8048
▁rappresentare	-8049
▁promuo	-8050
sogna	-8051
▁stupi	-8052
▁marcia	-8053
▁delicato	-8054
iner	-8055
tions	-8056
cha	-8057
terne	-8058
▁Picco	-8059
▁ingegn	-8060
▁collezioni	-8061
Gi	-8062
▁dott	-8063
▁Campo	-8064
▁Cristi	-8065
rendimento	-8066
44	-8067
▁esercizio	-8068
▁dorsa	-8069
▁curato	-8070
▁PR	-8071
▁intenso	-8072
▁Calcio	-8073
▁consentito	-8074
atto	-8075
▁intenzione	-8076
▁igi	-8077
▁disegni	-8078
ffet	-8079
ring	-8080
▁antica	-8081
▁secoli	-8082
▁spiagge	-8083
esposizione	-8084
GB	-8085
mbro	-8086
▁Galaxy	-8087
▁preciso	-8088
▁sottile	-8089
▁racconti	-8090
▁essenziali	-8091
▁andre	-8092
▁sesso	-8093
▁mostrato	-8094
▁ripi	-8095
INA	-8096
▁anda	-8097
▁funzionale	-8098
mino	-8099
▁FI	-8100
▁Possi	-8101
▁Angelo	-8102
▁compresi	-8103
htt	-8104
▁fantastico	-8105
vori	-8106
▁competizione	-8107
▁effettuata	-8108
quo	-8109
▁aiuti	-8110
▁questioni	-8111
▁prevalentemente	-8112
▁prem	-8113
▁giudizia	-8114
▁continuano	-8115
velo	-8116
perto	-8117
cetta	-8118
▁seri	-8119
▁baga	-8120
▁incen	-8121
▁unici	-8122
impatto	-8123
▁10,	-8124
▁Group	-8125
▁alco	-8126
illu	-8127
▁More	-8128
cimento	-8129
▁partendo	-8130
▁assenza	-8131
▁your	-8132
▁usati	-8133
▁probabilità	-8134
▁finisce	-8135
▁terremo	-8136
▁certificazione	-8137
entare	-8138
▁generalmente	-8139
▁colonna	-8140
▁forniti	-8141
▁liberi	-8142
▁singola	-8143
armi	-8144
▁ospedale	-8145
▁continuità	-8146
ica	-8147
▁Comunque	-8148
▁International	-8149
▁cra	-8150
▁netto	-8151
▁monitoraggio	-8152
ettiamo	-8153
▁Messina	-8154
▁proseguire	-8155
▁Stan	-8156
▁Svilu	-8157
▁IM	-8158
gitto	-8159
▁antico	-8160
▁Sistema	-8161
▁canto	-8162
▁dotata	-8163
▁orario	-8164
▁Mini	-8165
▁Wa	-8166
▁difen	-8167
▁tocca	-8168
▁installazione	-8169
▁dovesse	-8170
▁75	-8171
▁Massa	-8172
▁credere	-8173
▁segreto	-8174
▁costituito	-8175
▁incidente	-8176
▁sostituzione	-8177
▁accumu	-8178
gire	-8179
tagne	-8180
▁Modena	-8181
▁commenta	-8182
viso	-8183
▁Off	-8184
▁fascino	-8185
▁Parte	-8186
▁Storia	-8187
▁veniva	-8188
▁accon	-8189
▁crista	-8190
▁annuale	-8191
sazioni	-8192
onalmente	-8193
▁opinioni	-8194
▁vince	-8195
▁39	-8196
▁USB	-8197
anato	-8198
▁altezza	-8199
▁Anti	-8200
▁Data	-8201
▁trama	-8202
duci	-8203
geno	-8204
pponese	-8205
▁rilasciato	-8206
pà	-8207
▁diso	-8208
▁esemp	-8209
▁glu	-8210
▁convegno	-8211
▁correttamente	-8212
ellini	-8213
▁persi	-8214
della	-8215
▁Ari	-8216
ERA	-8217
ttra	-8218
▁ordini	-8219
▁$	-8220
▁sfu	-8221
Ufficio	-8222
▁dovuta	-8223
ham	-8224
▁atmos	-8225
ara	-8226
intro	-8227
▁disc	-8228
▁soffi	-8229
▁dorsale	-8230
▁trascorrere	-8231
▁Temp	-8232
▁vendere	-8233
uncio	-8234
▁investire	-8235
▁esserci	-8236
▁comportamenti	-8237
aa	-8238
▁aperte	-8239
▁corto	-8240
▁Ministro	-8241
▁Bern	-8242
▁Pesca	-8243
▁criteri	-8244
▁elevata	-8245
▁avrei	-8246
▁molteplici	-8247
▁archeolo	-8248
affi	-8249
▁riconoscere	-8250
zer	-8251
ziare	-8252
astica	-8253
▁condizionata	-8254
▁trend	-8255
▁cornice	-8256
▁ster	-8257
▁determin	-8258
▁Vis	-8259
tuato	-8260
▁pasto	-8261
▁emissioni	-8262
atch	-8263
▁ES	-8264
▁birra	-8265
▁successivi	-8266
▁gel	-8267
▁ind	-8268
▁impegni	-8269
▁pratico	-8270
▁negativo	-8271
▁vedono	-8272
▁convinto	-8273
▁previsioni	-8274
iler	-8275
gnerà	-8276
osamente	-8277
▁spessore	-8278
py	-8279
▁preparato	-8280
redi	-8281
▁Lecce	-8282
▁episodio	-8283
▁coinvolto	-8284
▁incu	-8285
▁dintorni	-8286
bita	-8287
▁sonda	-8288
bino	-8289
37	-8290
▁escursioni	-8291
ologia	-8292
▁ecolo	-8293
▁65	-8294
▁regia	-8295
▁letteratura	-8296
edificio	-8297
▁metallo	-8298
▁misteri	-8299
▁sorriso	-8300
34	-8301
▁balcone	-8302
▁Segui	-8303
▁Salerno	-8304
trico	-8305
ttente	-8306
▁GB	-8307
ssio	-8308
▁designer	-8309
De	-8310
▁banda	-8311
▁sinte	-8312
▁frutti	-8313
vest	-8314
▁professione	-8315
▁Otto	-8316
▁Bella	-8317
▁sforzo	-8318
▁Fabrizio	-8319
▁sensibilità	-8320
cciare	-8321
▁terrazza	-8322
▁individuale	-8323
▁asc	-8324
▁ela	-8325
quila	-8326
▁tosc	-8327
▁dovere	-8328
▁Filippo	-8329
estione	-8330
▁sfondo	-8331
▁valorizzazione	-8332
▁News	-8333
▁http	-8334
arch	-8335
▁toni	-8336
▁batte	-8337
▁infor	-8338
▁accen	-8339
▁canta	-8340
Abbiamo	-8341
indagine	-8342
▁lettere	-8343
▁rossa	-8344
▁basato	-8345
colla	-8346
identità	-8347
▁piattaforme	-8348
▁prospettiva	-8349
zzina	-8350
▁Rice	-8351
▁ammirare	-8352
▁lampa	-8353
▁stretto	-8354
▁play	-8355
▁incluso	-8356
bis	-8357
▁odi	-8358
neuma	-8359
▁Paola	-8360
▁Segre	-8361
▁Ieri	-8362
ghezza	-8363
▁milione	-8364
▁prevenire	-8365
tory	-8366
▁Attu	-8367
▁coer	-8368
▁residenza	-8369
▁dorso	-8370
▁Attraverso	-8371
2020	-8372
▁Van	-8373
tualità	-8374
▁legame	-8375
29	-8376
▁sfuma	-8377
▁pollici	-8378
▁migranti	-8379
▁Monti	-8380
▁cervi	-8381
▁comando	-8382
▁Primo	-8383
▁valorizzare	-8384
▁CA	-8385
tane	-8386
▁medica	-8387
▁salire	-8388
▁adolesc	-8389
cciato	-8390
▁stabilità	-8391
inca	-8392
Siamo	-8393
ttorie	-8394
▁frase	-8395
▁shopping	-8396
▁integrato	-8397
▁patologie	-8398
cnico	-8399
▁condom	-8400
ggiornamento	-8401
▁riparazione	-8402
ban	-8403
ttini	-8404
▁confezione	-8405
goli	-8406
▁debito	-8407
▁intito	-8408
▁Costitu	-8409
▁efficiente	-8410
▁descrizione	-8411
▁conservazione	-8412
▁magne	-8413
▁preli	-8414
▁grosso	-8415
▁cervello	-8416
▁stima	-8417
▁raffred	-8418
▁campioni	-8419
▁certificato	-8420
▁This	-8421
▁Tran	-8422
▁Hanno	-8423
▁10.	-8424
met	-8425
▁Micha	-8426
▁guide	-8427
istiche	-8428
▁priorità	-8429
▁realmente	-8430
angolo	-8431
▁pesanti	-8432
▁efficaci	-8433
▁frazione	-8434
▁effettivamente	-8435
▁sintesi	-8436
pic	-8437
▁civili	-8438
▁diagnosi	-8439
bol	-8440
▁fermo	-8441
▁dinamica	-8442
▁diventano	-8443
▁svolgimento	-8444
▁pronos	-8445
ismo	-8446
▁profumo	-8447
▁contribuire	-8448
hanno	-8449
▁carro	-8450
esistenza	-8451
▁trimestre	-8452
▁registrare	-8453
▁perche	-8454
▁bisogni	-8455
▁attendere	-8456
▁associazione	-8457
▁agire	-8458
▁reazione	-8459
▁conveniente	-8460
▁provvi	-8461
▁Università	-8462
ronto	-8463
▁sbar	-8464
▁Batti	-8465
infanzia	-8466
▁aggiu	-8467
evoluzione	-8468
▁accettare	-8469
▁ridotto	-8470
▁Video	-8471
▁interne	-8472
▁altrettanto	-8473
▁ing	-8474
chezza	-8475
▁catena	-8476
tio	-8477
rich	-8478
▁2.0	-8479
▁Tar	-8480
tempo	-8481
▁torta	-8482
▁doveva	-8483
▁ricordato	-8484
ela	-8485
now	-8486
▁Riccardo	-8487
INI	-8488
zzar	-8489
importo	-8490
▁precipi	-8491
▁rispettare	-8492
▁carre	-8493
derci	-8494
▁napole	-8495
zziamo	-8496
▁ombre	-8497
▁premier	-8498
▁eccezionale	-8499
cing	-8500
▁impos	-8501
▁diffusa	-8502
gos	-8503
▁sana	-8504
▁cancro	-8505
▁deriva	-8506
▁gentile	-8507
▁dirigenti	-8508
▁Scarica	-8509
▁svilupp	-8510
▁concorrenza	-8511
▁ricostruzione	-8512
▁Smart	-8513
▁GRA	-8514
▁legali	-8515
ducazione	-8516
iscrizione	-8517
▁rinunciare	-8518
▁regolarmente	-8519
▁org	-8520
tanea	-8521
Advisor	-8522
▁commentato	-8523
▁Dai	-8524
▁AM	-8525
▁avrai	-8526
▁riper	-8527
cchiata	-8528
4%	-8529
▁that	-8530
▁disturbi	-8531
7%	-8532
▁st	-8533
▁esempi	-8534
▁specialmente	-8535
▁Mara	-8536
▁2014,	-8537
▁ebook	-8538
TTI	-8539
▁Mai	-8540
▁riunione	-8541
▁Out	-8542
CIETA	-8543
▁gira	-8544
▁correre	-8545
▁costituisce	-8546
por	-8547
▁9,	-8548
▁MO	-8549
▁incro	-8550
▁ospitare	-8551
ttedra	-8552
▁esce	-8553
▁lancia	-8554
▁coscienza	-8555
▁CD	-8556
didas	-8557
▁fresca	-8558
▁Rome	-8559
Au	-8560
▁Sui	-8561
▁scan	-8562
▁Forza	-8563
32	-8564
▁(5	-8565
versale	-8566
ospi	-8567
▁serio	-8568
▁rigore	-8569
▁ipotesi	-8570
▁certezza	-8571
▁conserva	-8572
▁Bat	-8573
▁stagioni	-8574
hoto	-8575
ficate	-8576
imposta	-8577
▁Giacomo	-8578
▁vertica	-8579
“,	-8580
▁remo	-8581
▁Nas	-8582
▁ruote	-8583
▁matrimoniale	-8584
chon	-8585
▁dotate	-8586
Mo	-8587
▁croni	-8588
▁Martin	-8589
▁domicilio	-8590
Ass	-8591
▁SS	-8592
▁calci	-8593
▁largo	-8594
▁over	-8595
▁selva	-8596
Roma	-8597
▁MI	-8598
▁hi	-8599
▁finita	-8600
▁passaggi	-8601
▁suggerimenti	-8602
▁flo	-8603
▁new	-8604
▁dimostrare	-8605
▁consultare	-8606
gel	-8607
mea	-8608
cane	-8609
▁artista	-8610
QU	-8611
zzetta	-8612
▁differenze	-8613
ministra	-8614
▁limone	-8615
▁Sanremo	-8616
▁istituti	-8617
▁visibile	-8618
ude	-8619
curi	-8620
▁gon	-8621
▁mister	-8622
▁costretto	-8623
▁Muni	-8624
▁concreti	-8625
sibile	-8626
inea	-8627
nota	-8628
vina	-8629
▁mancare	-8630
III	-8631
▁Feli	-8632
▁sostenibilità	-8633
▁Tras	-8634
▁Gianni	-8635
▁Salute	-8636
▁girone	-8637
▁rappresentato	-8638
▁RE	-8639
▁kit	-8640
▁Laura	-8641
ficando	-8642
osizione	-8643
▁Store	-8644
▁chiamate	-8645
▁giapponese	-8646
▁Basta	-8647
▁sanitari	-8648
anese	-8649
▁preghi	-8650
Ne	-8651
issà	-8652
carlo	-8653
▁Madri	-8654
▁mezza	-8655
▁Sembra	-8656
▁Perugia	-8657
ttoni	-8658
▁2015.	-8659
▁coinvolgimento	-8660
ag	-8661
▁riesco	-8662
▁condiviso	-8663
▁millimetri	-8664
mendo	-8665
▁Sare	-8666
endosi	-8667
oggi	-8668
▁Jack	-8669
▁vuoto	-8670
gnos	-8671
▁larga	-8672
▁clicca	-8673
▁00	-8674
▁iner	-8675
▁probabile	-8676
▁confortevole	-8677
▁aran	-8678
▁Senato	-8679
▁radici	-8680
ttenimento	-8681
tete	-8682
▁Como	-8683
▁avrete	-8684
▁permetter	-8685
▁sostituire	-8686
▁08	-8687
▁Michael	-8688
▁passeggeri	-8689
▁coi	-8690
▁Stazione	-8691
▁Ara	-8692
▁scientifico	-8693
mbria	-8694
tagna	-8695
pli	-8696
▁Caro	-8697
▁boni	-8698
▁Siena	-8699
▁mate	-8700
▁menu	-8701
▁capola	-8702
▁sinis	-8703
▁Unito	-8704
▁aggra	-8705
▁IT	-8706
▁Spor	-8707
▁letti	-8708
RL	-8709
▁assumere	-8710
▁evidenzi	-8711
▁assicurare	-8712
Po	-8713
▁posse	-8714
itali	-8715
▁rivolta	-8716
vet	-8717
esercizio	-8718
▁reato	-8719
▁fattore	-8720
▁destinati	-8721
▁redazione	-8722
▁innovativo	-8723
▁cus	-8724
opzione	-8725
▁trading	-8726
▁finestre	-8727
▁Atten	-8728
▁tassa	-8729
▁approfondire	-8730
▁eventualmente	-8731
▁ml	-8732
male	-8733
▁abbigliamento	-8734
avan	-8735
▁cere	-8736
▁sostenuto	-8737
tona	-8738
▁Ze	-8739
▁gover	-8740
▁riflettere	-8741
▁Domenico	-8742
inverno	-8743
▁itinera	-8744
▁darà	-8745
So	-8746
▁Dol	-8747
▁vicinanze	-8748
▁50%	-8749
▁servire	-8750
▁cresce	-8751
▁360	-8752
▁Donne	-8753
▁mostrare	-8754
ccano	-8755
▁avviso	-8756
nero	-8757
▁rilascio	-8758
▁addetti	-8759
▁iper	-8760
▁bravi	-8761
▁Center	-8762
▁merita	-8763
▁scomparsa	-8764
▁Num	-8765
▁apparen	-8766
▁trasporti	-8767
▁prolun	-8768
▁segnato	-8769
▁allenamento	-8770
▁integrazione	-8771
100	-8772
▁arriverà	-8773
▁parametri	-8774
lterra	-8775
▁pizza	-8776
UL	-8777
logio	-8778
▁offrendo	-8779
▁abitazione	-8780
BB	-8781
Tra	-8782
▁tornato	-8783
▁finanziari	-8784
▁TripAdvisor	-8785
ranto	-8786
▁Gas	-8787
▁Tech	-8788
▁scendere	-8789
▁Liv	-8790
▁americani	-8791
▁richiesti	-8792
smi	-8793
66	-8794
▁rotta	-8795
▁generi	-8796
▁ottime	-8797
▁stanze	-8798
▁Offi	-8799
▁documen	-8800
▁circolare	-8801
▁tariffa	-8802
9%	-8803
▁rigoro	-8804
▁cercano	-8805
▁combinazione	-8806
matiche	-8807
tea	-8808
▁Ore	-8809
▁disposizioni	-8810
cinio	-8811
▁bea	-8812
▁rivolu	-8813
▁sessione	-8814
▁lezione	-8815
▁volumi	-8816
pper	-8817
viare	-8818
▁catto	-8819
argomento	-8820
imm	-8821
▁turistico	-8822
▁trasparenza	-8823
▁avviare	-8824
▁degusta	-8825
scre	-8826
giudi	-8827
gela	-8828
ttina	-8829
▁rito	-8830
▁lenta	-8831
istituto	-8832
▁entrata	-8833
▁duro	-8834
matici	-8835
▁Rimini	-8836
▁grassi	-8837
▁perciò	-8838
▁castello	-8839
▁(201	-8840
▁lingue	-8841
larità	-8842
▁innamo	-8843
▁rinnovo	-8844
▁rispetta	-8845
▁Stelle	-8846
innastica	-8847
resse	-8848
▁generali	-8849
Una	-8850
▁confini	-8851
▁Slo	-8852
origine	-8853
▁esistenti	-8854
▁2020.	-8855
▁papà	-8856
▁Madrid	-8857
▁destino	-8858
cno	-8859
▁St	-8860
▁fredda	-8861
▁pubblicati	-8862
vre	-8863
sy	-8864
attacco	-8865
▁sapori	-8866
▁capoluogo	-8867
dget	-8868
▁fisso	-8869
enzialmente	-8870
▁centrali	-8871
▁definitivamente	-8872
▁PA	-8873
sate	-8874
▁Nello	-8875
▁flusso	-8876
▁seg	-8877
▁Soli	-8878
pati	-8879
▁Cali	-8880
▁dio	-8881
▁pneuma	-8882
▁preferiti	-8883
liam	-8884
▁fiera	-8885
▁chiusa	-8886
▁disagio	-8887
▁sentimenti	-8888
▁solitamente	-8889
▁ara	-8890
▁spendere	-8891
immobile	-8892
▁tantissimi	-8893
▁Rin	-8894
▁menù	-8895
albergo	-8896
▁Partito	-8897
Cer	-8898
gal	-8899
▁zo	-8900
▁Char	-8901
▁Turi	-8902
▁tipico	-8903
▁pensate	-8904
▁Cuo	-8905
▁Liguria	-8906
ulto	-8907
ZIONI	-8908
▁salvo	-8909
▁sceglie	-8910
fin	-8911
utica	-8912
▁ragi	-8913
▁cocco	-8914
▁disse	-8915
▁imple	-8916
▁robo	-8917
▁Green	-8918
ettivo	-8919
8%	-8920
base	-8921
▁neuro	-8922
▁spontan	-8923
▁concreto	-8924
▁effettuati	-8925
:4	-8926
▁fornitori	-8927
dol	-8928
▁Nova	-8929
▁impegnato	-8930
▁accer	-8931
▁esauri	-8932
▁42	-8933
very	-8934
ttimi	-8935
▁orizz	-8936
▁singole	-8937
▁Capitale	-8938
▁Carta	-8939
▁efficienza	-8940
▁eser	-8941
▁Bianco	-8942
▁possiede	-8943
wood	-8944
▁Resta	-8945
▁scienza	-8946
▁lavorano	-8947
▁quotidianamente	-8948
chel	-8949
▁Mediterraneo	-8950
▁inizialmente	-8951
▁curi	-8952
▁trattato	-8953
pina	-8954
▁biancon	-8955
▁portiere	-8956
▁appositamente	-8957
polo	-8958
▁rilievo	-8959
▁discutere	-8960
the	-8961
▁destro	-8962
euro	-8963
▁Juve	-8964
▁innovative	-8965
plo	-8966
unio	-8967
▁villaggio	-8968
▁differenzia	-8969
▁AD	-8970
▁inseriti	-8971
▁8.	-8972
▁inevi	-8973
▁46	-8974
▁Terme	-8975
▁lav	-8976
▁pausa	-8977
terebbe	-8978
▁Ir	-8979
▁metalli	-8980
▁aller	-8981
▁antiche	-8982
▁registrati	-8983
Sa	-8984
reste	-8985
▁trans	-8986
▁Eppure	-8987
▁sicili	-8988
cm	-8989
ings	-8990
▁verdi	-8991
▁Stiamo	-8992
▁mattinata	-8993
▁44	-8994
▁Fai	-8995
viato	-8996
▁aereo	-8997
▁definis	-8998
▁Forum	-8999
▁diminu	-9000
▁grasso	-9001
▁intrapren	-9002
▁0.	-9003
▁svaria	-9004
▁quegli	-9005
▁vicende	-9006
▁notato	-9007
▁faranno	-9008
▁vittorie	-9009
ireless	-9010
▁complimenti	-9011
▁8,	-9012
lire	-9013
▁insa	-9014
▁orto	-9015
▁stipen	-9016
▁password	-9017
▁accogliere	-9018
▁reci	-9019
▁ricre	-9020
riamente	-9021
▁Imma	-9022
giato	-9023
▁fragi	-9024
▁tesi	-9025
▁Musica	-9026
Fa	-9027
vita	-9028
▁moduli	-9029
▁Trieste	-9030
▁specializzato	-9031
▁indossare	-9032
▁passeggiata	-9033
▁Day	-9034
ption	-9035
▁smalti	-9036
▁clientela	-9037
integrazione	-9038
▁RES	-9039
▁inverno	-9040
▁Respon	-9041
▁spiegare	-9042
▁tè	-9043
ronaca	-9044
▁rub	-9045
eve	-9046
▁sonno	-9047
▁pavimento	-9048
▁LI	-9049
sani	-9050
ostro	-9051
vocati	-9052
grafiche	-9053
▁considerata	-9054
voce	-9055
ghilterra	-9056
▁indimenti	-9057
▁rimuovere	-9058
▁usi	-9059
▁assistere	-9060
▁apprezzato	-9061
▁esecu	-9062
ugu	-9063
▁Però	-9064
▁Cinema	-9065
▁store	-9066
▁petro	-9067
▁braccio	-9068
ulli	-9069
elles	-9070
▁monte	-9071
▁bambina	-9072
▁rimasta	-9073
▁galleria	-9074
▁osservare	-9075
▁;	-9076
stem	-9077
▁ciascuna	-9078
▁fornitura	-9079
▁raffi	-9080
▁Fas	-9081
▁Open	-9082
▁amma	-9083
▁2013,	-9084
▁Rete	-9085
▁scusa	-9086
▁War	-9087
▁....	-9088
▁rientro	-9089
▁Grecia	-9090
▁indicare	-9091
cosa	-9092
orge	-9093
▁Brasile	-9094
▁cominciato	-9095
▁coach	-9096
▁resistente	-9097
onio	-9098
▁Fis	-9099
▁mettono	-9100
▁segreti	-9101
▁Madonna	-9102
▁precedenza	-9103
gone	-9104
▁confine	-9105
album	-9106
▁annuncia	-9107
kin	-9108
ally	-9109
▁Pio	-9110
▁cami	-9111
▁Elisa	-9112
▁rimasti	-9113
▁Sti	-9114
▁viola	-9115
▁istruzioni	-9116
▁testimonianza	-9117
gola	-9118
▁MAR	-9119
▁Mani	-9120
▁romanti	-9121
▁attivare	-9122
▁EN	-9123
▁abilità	-9124
▁pannelli	-9125
ington	-9126
▁visti	-9127
▁accerta	-9128
LIA	-9129
▁campagne	-9130
▁maschera	-9131
▁presentati	-9132
▁Buona	-9133
▁low	-9134
▁Hotels	-9135
▁decenni	-9136
▁sembrava	-9137
tretto	-9138
▁Mobile	-9139
▁emerge	-9140
▁Trento	-9141
FA	-9142
▁Dott	-9143
attore	-9144
▁avviato	-9145
▁Fiorentina	-9146
▁sospensione	-9147
▁trasformare	-9148
▁abusi	-9149
sera	-9150
▁guidare	-9151
▁manifes	-9152
▁statunitense	-9153
▁bis	-9154
▁hard	-9155
ddistin	-9156
▁animale	-9157
▁esse	-9158
▁frigori	-9159
▁conversa	-9160
▁preoccup	-9161
▁fotocamera	-9162
▁dolori	-9163
▁accordi	-9164
ccellenza	-9165
▁territoriale	-9166
busti	-9167
▁panchina	-9168
zu	-9169
orario	-9170
▁ricostr	-9171
▁Flo	-9172
Io	-9173
▁onde	-9174
▁fatturato	-9175
65	-9176
/10	-9177
vese	-9178
▁vincente	-9179
asti	-9180
drosis	-9181
▁time	-9182
ors	-9183
▁sottolineare	-9184
ugh	-9185
▁pop	-9186
avanguardia	-9187
▁64	-9188
▁faceva	-9189
▁collaboratori	-9190
gnando	-9191
cap	-9192
contri	-9193
deria	-9194
▁Fort	-9195
▁sabbia	-9196
▁proie	-9197
▁Invece	-9198
▁selezionati	-9199
osten	-9200
▁gamba	-9201
▁Miglio	-9202
▁pulito	-9203
fetto	-9204
golare	-9205
ENTI	-9206
biti	-9207
desi	-9208
▁rigen	-9209
▁argomento	-9210
▁infrastrutture	-9211
unity	-9212
▁Ross	-9213
▁cardio	-9214
ustralia	-9215
endu	-9216
giamo	-9217
eva	-9218
▁PI	-9219
▁pittura	-9220
▁personalmente	-9221
vande	-9222
▁accogliente	-9223
▁RI	-9224
▁Medio	-9225
▁Altro	-9226
▁calcolo	-9227
▁ciascun	-9228
angelo	-9229
▁salita	-9230
▁Sw	-9231
▁click	-9232
▁futuri	-9233
▁neppure	-9234
▁contraddistin	-9235
▁LED	-9236
▁chef	-9237
▁under	-9238
▁vere	-9239
▁affitto	-9240
dese	-9241
▁DOC	-9242
arese	-9243
▁ROMA	-9244
▁testimonia	-9245
lon	-9246
▁allenatore	-9247
▁2012,	-9248
▁verti	-9249
▁terape	-9250
ficazioni	-9251
▁Ener	-9252
▁raddo	-9253
▁tenendo	-9254
▁vorrebbe	-9255
vito	-9256
▁Venerdì	-9257
▁coperto	-9258
▁moderne	-9259
▁fenomeni	-9260
▁meridi	-9261
annuncio	-9262
cheranno	-9263
▁inno	-9264
ttati	-9265
▁Sper	-9266
▁quinto	-9267
▁rinfor	-9268
▁critiche	-9269
▁armoni	-9270
▁consiglieri	-9271
▁meda	-9272
▁stabilito	-9273
goni	-9274
▁disposto	-9275
▁restano	-9276
▁eccellenza	-9277
▁2005	-9278
▁cavi	-9279
▁Mostra	-9280
▁rimborso	-9281
▁giovanile	-9282
cir	-9283
zato	-9284
▁Cur	-9285
▁lus	-9286
▁occhia	-9287
▁avversari	-9288
▁considerando	-9289
agg	-9290
etre	-9291
▁(200	-9292
▁vacc	-9293
▁Guarda	-9294
▁teatrale	-9295
▁reper	-9296
▁discre	-9297
▁avvenuta	-9298
▁Lago	-9299
▁Attualmente	-9300
▁Bamb	-9301
BA	-9302
▁Protezione	-9303
▁turistica	-9304
ggiati	-9305
▁quote	-9306
▁energie	-9307
-19	-9308
▁bisco	-9309
▁indicati	-9310
chondrosis	-9311
zionario	-9312
▁includono	-9313
uth	-9314
ennio	-9315
▁chiamare	-9316
onario	-9317
▁contribuito	-9318
▁Agri	-9319
▁Plus	-9320
ginale	-9321
▁gomma	-9322
▁mancato	-9323
▁progettato	-9324
▁fasci	-9325
assenza	-9326
▁evidenzia	-9327
▁traguardo	-9328
▁iOS	-9329
▁sano	-9330
▁sblo	-9331
▁incontrato	-9332
▁dolo	-9333
▁musei	-9334
▁eseguito	-9335
▁biblioteca	-9336
mbur	-9337
▁netta	-9338
▁PO	-9339
esito	-9340
▁puni	-9341
▁messe	-9342
clusione	-9343
▁respira	-9344
ICO	-9345
▁gastron	-9346
▁nave	-9347
▁Covid	-9348
▁ballo	-9349
▁felicità	-9350
▁intelle	-9351
▁home	-9352
▁iPad	-9353
▁ottimale	-9354
▁Valentino	-9355
fet	-9356
▁tira	-9357
▁capitano	-9358
▁gla	-9359
▁Messi	-9360
▁patro	-9361
▁formare	-9362
▁parlano	-9363
▁Hy	-9364
▁Libri	-9365
impasto	-9366
▁assume	-9367
▁immobiliare	-9368
▁riguardanti	-9369
▁delegato	-9370
▁ricordiamo	-9371
▁sistemazione	-9372
▁Sito	-9373
▁rispettivi	-9374
▁Clo	-9375
▁allun	-9376
▁Fun	-9377
▁suolo	-9378
▁ideali	-9379
▁piloti	-9380
▁volevo	-9381
▁Sviluppo	-9382
erita	-9383
▁Monaco	-9384
▁attrazioni	-9385
▁Pin	-9386
presidente	-9387
▁autonomia	-9388
cade	-9389
▁attento	-9390
▁puntare	-9391
▁meccanismo	-9392
▁43	-9393
weet	-9394
▁profili	-9395
eventuale	-9396
▁avevamo	-9397
▁crescente	-9398
▁cora	-9399
▁trage	-9400
▁giardini	-9401
6%	-9402
▁Sociale	-9403
▁merce	-9404
▁qualora	-9405
▁visibilità	-9406
fast	-9407
▁imbo	-9408
▁espressione	-9409
▁est	-9410
▁eva	-9411
▁into	-9412
ipotesi	-9413
▁rivoluzione	-9414
mocra	-9415
▁risal	-9416
77	-9417
ab	-9418
▁ritiene	-9419
▁Pren	-9420
▁2013.	-9421
▁salve	-9422
▁Marino	-9423
▁compleanno	-9424
RAN	-9425
rosso	-9426
▁Inte	-9427
turismo	-9428
▁conseguente	-9429
UM	-9430
▁intanto	-9431
68	-9432
▁CAL	-9433
prendo	-9434
▁bicicletta	-9435
toli	-9436
▁fiore	-9437
▁pon	-9438
avvio	-9439
minata	-9440
▁valle	-9441
▁Scienze	-9442
▁significativo	-9443
Chi	-9444
▁Santi	-9445
▁grammi	-9446
gino	-9447
tation	-9448
cuo	-9449
▁sorella	-9450
▁iniziata	-9451
ggiamenti	-9452
▁riservata	-9453
▁milan	-9454
▁ripos	-9455
▁crediti	-9456
▁mensile	-9457
VD	-9458
▁Allo	-9459
▁promozioni	-9460
any	-9461
▁PAR	-9462
▁puro	-9463
▁ridi	-9464
▁istitui	-9465
▁studiato	-9466
▁vai	-9467
▁riservato	-9468
▁segnalare	-9469
ille	-9470
▁Romano	-9471
fal	-9472
quet	-9473
▁2014.	-9474
▁scontro	-9475
▁proponiamo	-9476
bbo	-9477
gale	-9478
pefa	-9479
trerà	-9480
▁curva	-9481
▁porre	-9482
▁musicisti	-9483
▁specializzati	-9484
▁III	-9485
▁ricchi	-9486
▁esclusivo	-9487
vedi	-9488
▁logica	-9489
ii	-9490
▁09	-9491
manuele	-9492
▁deboli	-9493
▁scritte	-9494
▁consigliamo	-9495
▁affatto	-9496
▁Successi	-9497
▁contrastare	-9498
ranei	-9499
▁tassi	-9500
▁semplicità	-9501
sport	-9502
▁dignità	-9503
▁finanziario	-9504
▁sten	-9505
▁debba	-9506
▁tener	-9507
▁giri	-9508
▁fronti	-9509
▁cipol	-9510
▁morale	-9511
▁sensori	-9512
▁televisione	-9513
fone	-9514
zina	-9515
osser	-9516
vanza	-9517
▁cinqu	-9518
▁podio	-9519
▁vivi	-9520
▁Della	-9521
▁sbagliato	-9522
Na	-9523
▁scre	-9524
▁discesa	-9525
▁riprese	-9526
▁procedimento	-9527
lite	-9528
▁coda	-9529
nellate	-9530
▁umane	-9531
▁trasparente	-9532
▁cel	-9533
▁trovati	-9534
▁rec	-9535
▁contenere	-9536
▁Los	-9537
▁Qua	-9538
interpre	-9539
▁Ricerca	-9540
▁supermer	-9541
attesa	-9542
▁Paul	-9543
▁autonoma	-9544
▁disabilità	-9545
cela	-9546
▁Arte	-9547
▁Croce	-9548
han	-9549
▁barca	-9550
▁assegnato	-9551
▁diventando	-9552
▁Gal	-9553
▁STA	-9554
▁normali	-9555
▁pareggio	-9556
▁Trump	-9557
▁intelligente	-9558
erò	-9559
▁Cle	-9560
▁fiscali	-9561
▁operare	-9562
abitazione	-9563
▁professore	-9564
gil	-9565
lanta	-9566
▁pento	-9567
▁secco	-9568
▁finanziamenti	-9569
▁·	-9570
▁riceve	-9571
▁supple	-9572
▁Associazione	-9573
▁190	-9574
▁Rock	-9575
▁arrestato	-9576
▁elettronico	-9577
▁fumo	-9578
▁Estra	-9579
▁report	-9580
Imp	-9581
ges	-9582
▁conci	-9583
▁risorsa	-9584
PE	-9585
▁Dar	-9586
▁impostazioni	-9587
▁Set	-9588
▁deco	-9589
▁flui	-9590
▁Potete	-9591
introduzione	-9592
▁Fare	-9593
▁autunno	-9594
▁opportuno	-9595
dete	-9596
▁perno	-9597
▁cavallo	-9598
▁preziosi	-9599
▁sanzioni	-9600
antica	-9601
▁peda	-9602
▁mentale	-9603
▁padroni	-9604
▁entusiasmo	-9605
ject	-9606
▁What	-9607
▁Belli	-9608
▁color	-9609
▁immediato	-9610
▁consigliato	-9611
▁str	-9612
▁gestito	-9613
▁Continua	-9614
▁violazione	-9615
▁dotati	-9616
▁neu	-9617
libri	-9618
▁codi	-9619
▁calco	-9620
▁voleva	-9621
▁Giornata	-9622
▁Elena	-9623
▁Sopra	-9624
▁analizzare	-9625
Vo	-9626
inò	-9627
▁Spesso	-9628
▁cantiere	-9629
ak	-9630
▁Alta	-9631
▁prescri	-9632
▁Street	-9633
▁Bisogna	-9634
▁utilizzano	-9635
▁meraviglioso	-9636
pino	-9637
▁tradu	-9638
▁pagato	-9639
▁concentrazione	-9640
▁gino	-9641
▁appren	-9642
▁sessuale	-9643
▁IVA	-9644
▁alimentazione	-9645
▁racchi	-9646
▁SE	-9647
▁teoria	-9648
▁pensando	-9649
▁Consorzio	-9650
▁estrema	-9651
▁pagamenti	-9652
▁Padre	-9653
▁signora	-9654
▁stupefa	-9655
▁chitarra	-9656
▁risultano	-9657
ful	-9658
visi	-9659
▁omo	-9660
▁massimi	-9661
▁mettersi	-9662
▁cervicale	-9663
▁Net	-9664
▁Pon	-9665
▁affidabile	-9666
quadra	-9667
▁Am	-9668
posto	-9669
guendo	-9670
▁Prezzo	-9671
▁single	-9672
▁bianchi	-9673
ray	-9674
▁Ren	-9675
luenza	-9676
▁aerei	-9677
▁lenti	-9678
▁cuocere	-9679
▁trasmettere	-9680
ZZ	-9681
Ro	-9682
▁Commi	-9683
▁comoda	-9684
▁Responsa	-9685
aggiornamento	-9686
▁occu	-9687
▁Dalle	-9688
▁estivo	-9689
▁ove	-9690
▁Leggi	-9691
▁evidenza	-9692
dam	-9693
▁inclusi	-9694
▁frasi	-9695
▁vide	-9696
▁cantina	-9697
▁Fuo	-9698
▁pecu	-9699
▁Progetto	-9700
▁University	-9701
▁effettuate	-9702
▁installato	-9703
▁will	-9704
sica	-9705
accogli	-9706
▁mostre	-9707
▁dicendo	-9708
▁Sun	-9709
▁liquido	-9710
▁tedesca	-9711
▁Monza	-9712
▁romano	-9713
▁cast	-9714
▁stop	-9715
▁chiarezza	-9716
▁difensore	-9717
▁Berlino	-9718
▁debutto	-9719
ey	-9720
▁inutile	-9721
▁comparto	-9722
▁IS	-9723
riato	-9724
▁strato	-9725
▁conquista	-9726
▁concorrenti	-9727
▁riquali	-9728
▁Eu	-9729
▁Giar	-9730
nate	-9731
▁sli	-9732
investi	-9733
ENTO	-9734
para	-9735
▁Quella	-9736
▁garantito	-9737
riano	-9738
▁inta	-9739
▁Pescara	-9740
▁statistiche	-9741
cipio	-9742
▁William	-9743
▁esposizione	-9744
▁Liber	-9745
▁limitato	-9746
ual	-9747
▁Live	-9748
▁poca	-9749
ggiando	-9750
▁cresci	-9751
▁accolto	-9752
▁accoglienza	-9753
▁essenzialmente	-9754
▁onore	-9755
▁aggiunta	-9756
HE	-9757
cile	-9758
sico	-9759
disce	-9760
▁cost	-9761
▁occhio	-9762
▁Festa	-9763
omicidio	-9764
cera	-9765
▁isole	-9766
▁fretta	-9767
▁Lau	-9768
▁Capp	-9769
▁creata	-9770
▁frequenti	-9771
Ti	-9772
ssion	-9773
▁sanità	-9774
▁scambia	-9775
▁immaginare	-9776
▁provvedimenti	-9777
▁2004	-9778
▁Spero	-9779
▁trasferta	-9780
▁didattica	-9781
▁egli	-9782
▁colpisce	-9783
▁prendendo	-9784
▁affari	-9785
▁Insieme	-9786
entamento	-9787
FI	-9788
▁Scegli	-9789
,30	-9790
▁giù	-9791
▁tramon	-9792
▁Federazione	-9793
▁nucleo	-9794
?!	-9795
▁bron	-9796
▁amato	-9797
inserimento	-9798
effica	-9799
INO	-9800
sma	-9801
▁ruota	-9802
▁lumino	-9803
▁parenti	-9804
▁fondatore	-9805
▁ger	-9806
▁Condi	-9807
▁sinistro	-9808
▁richiedono	-9809
ox	-9810
inde	-9811
grafici	-9812
▁traduzione	-9813
▁raccoglie	-9814
zzeria	-9815
▁romana	-9816
▁relativamente	-9817
▁zi	-9818
▁Sia	-9819
ggono	-9820
wards	-9821
▁chiamati	-9822
▁raccolte	-9823
-6	-9824
▁guari	-9825
▁adatti	-9826
▁penale	-9827
veglianza	-9828
▁giornale	-9829
▁stia	-9830
▁veder	-9831
▁verdure	-9832
▁Pertanto	-9833
spa	-9834
play	-9835
▁basse	-9836
▁incora	-9837
▁amo	-9838
▁Pasqu	-9839
▁limitata	-9840
▁rivolgersi	-9841
▁cibi	-9842
TRO	-9843
▁Zu	-9844
▁raggi	-9845
inati	-9846
olino	-9847
▁invitati	-9848
▁dita	-9849
▁Credo	-9850
nando	-9851
▁Mosca	-9852
▁atteso	-9853
pet	-9854
▁id	-9855
▁rilan	-9856
▁risca	-9857
▁Km	-9858
gliati	-9859
▁ghiaccio	-9860
▁dipendente	-9861
pal	-9862
▁mobi	-9863
▁magni	-9864
▁ricchezza	-9865
▁Nin	-9866
cciono	-9867
▁Marzo	-9868
▁incer	-9869
▁preghiera	-9870
▁contemporaneo	-9871
pub	-9872
▁pulita	-9873
▁elevati	-9874
▁grafico	-9875
▁vincitori	-9876
▁cotone	-9877
85	-9878
▁2012.	-9879
▁osteochondrosis	-9880
▁Ol	-9881
▁immi	-9882
Gra	-9883
▁geom	-9884
▁allontana	-9885
Accademia	-9886
▁parziale	-9887
▁seno	-9888
▁budget	-9889
▁marche	-9890
▁console	-9891
▁operativa	-9892
▁Emanuele	-9893
▁edizioni	-9894
▁evitando	-9895
alizzazione	-9896
▁abitazioni	-9897
▁gr	-9898
▁rifu	-9899
▁invita	-9900
▁somministra	-9901
alimentazione	-9902
▁posa	-9903
▁fermata	-9904
▁specchio	-9905
▁af	-9906
▁guer	-9907
Ordine	-9908
▁volti	-9909
▁Ferrara	-9910
▁Giovani	-9911
▁mancata	-9912
▁guidato	-9913
▁ottiene	-9914
▁creativo	-9915
▁proposti	-9916
bby	-9917
▁Alber	-9918
minati	-9919
▁bevande	-9920
▁democrazia	-9921
▁attende	-9922
▁adottare	-9923
▁resp	-9924
▁divul	-9925
▁Note	-9926
▁abitudini	-9927
▁sceneggia	-9928
▁manti	-9929
gentina	-9930
▁conquistato	-9931
Arte	-9932
▁pru	-9933
arono	-9934
▁fece	-9935
▁ricic	-9936
▁vengano	-9937
▁milanese	-9938
▁determinazione	-9939
fun	-9940
chini	-9941
▁vario	-9942
▁giunto	-9943
▁coprire	-9944
▁comodità	-9945
▁Sony	-9946
▁Amici	-9947
▁fibra	-9948
▁orgoglio	-9949
ggire	-9950
▁cosme	-9951
▁compor	-9952
▁Beni	-9953
▁Prose	-9954
teriale	-9955
▁Business	-9956
ttone	-9957
▁poltr	-9958
▁Camere	-9959
▁sottili	-9960
▁miele	-9961
▁succo	-9962
▁usata	-9963
▁urbano	-9964
▁accessibile	-9965
▁Giulio	-9966
▁necessariamente	-9967
▁dici	-9968
▁dischi	-9969
▁restitu	-9970
▁conosciuta	-9971
▁logi	-9972
▁sorprese	-9973
▁AC	-9974
▁virtù	-9975
▁scaten	-9976
pani	-9977
▁Corpo	-9978
▁Latina	-9979
Is	-9980
▁laser	-9981
▁conflitto	-9982
Book	-9983
▁parliamo	-9984
▁intre	-9985
▁economia	-9986
▁rimozione	-9987
▁determinare	-9988
▁Mus	-9989
▁elettronici	-9990
evo	-9991
mali	-9992
▁Pass	-9993
gruppo	-9994
▁magia	-9995
▁coinci	-9996
bs	-9997
press	-9998
▁preca	-9999
▁basata	-10000
▁totali	-10001
▁esprime	-10002
▁riviste	-10003
esecuzione	-10004
▁tranquillità	-10005
ING	-10006
zzanti	-10007
▁abbat	-10008
▁silenzi	-10009
▁permettendo	-10010
ronta	-10011
.:	-10012
▁cifre	-10013
▁presenze	-10014
colto	-10015
▁Poste	-10016
▁veter	-10017
cultura	-10018
gamento	-10019
▁entrato	-10020
▁suoni	-10021
▁unisce	-10022
▁rimangono	-10023
▁41	-10024
▁vani	-10025
erto	-10026
▁cana	-10027
▁codici	-10028
▁sottra	-10029
oggetto	-10030
▁patate	-10031
▁pover	-10032
▁binarie	-10033
▁evoluzione	-10034
▁Fiat	-10035
▁sepp	-10036
▁Fondo	-10037
geranno	-10038
▁difendere	-10039
▁investiga	-10040
▁necessita	-10041
▁05	-10042
▁sara	-10043
31	-10044
ordin	-10045
▁centi	-10046
▁memori	-10047
▁comunicazioni	-10048
ind	-10049
▁CI	-10050
▁girare	-10051
▁tipica	-10052
▁Piero	-10053
▁acquisire	-10054
anchi	-10055
▁Risul	-10056
▁facilità	-10057
dette	-10058
▁rinas	-10059
▁brillante	-10060
feo	-10061
▁piaciuto	-10062
▁montaggio	-10063
Te	-10064
▁tasto	-10065
▁Regioni	-10066
▁edificio	-10067
▁rivelato	-10068
▁Scu	-10069
tarlo	-10070
utico	-10071
▁tendenze	-10072
raele	-10073
trica	-10074
▁regala	-10075
▁impegnata	-10076
▁estiva	-10077
NE	-10078
▁Saranno	-10079
▁Bia	-10080
ficano	-10081
▁fondata	-10082
▁Gabriele	-10083
▁eventuale	-10084
idi	-10085
istico	-10086
▁borgo	-10087
▁sereni	-10088
inate	-10089
GI	-10090
cho	-10091
oolrich	-10092
▁esecuzione	-10093
▁Civile	-10094
ror	-10095
fere	-10096
▁feed	-10097
▁offriamo	-10098
▁riprendere	-10099
▁reati	-10100
▁panoramica	-10101
▁comprensione	-10102
▁compiere	-10103
ccol	-10104
▁esal	-10105
▁Stampa	-10106
gnoli	-10107
▁Guida	-10108
▁tossi	-10109
▁dormire	-10110
▁anteriore	-10111
▁mito	-10112
▁strano	-10113
▁foresta	-10114
▁appropria	-10115
▁incremento	-10116
▁divani	-10117
▁formati	-10118
due	-10119
▁Cinque	-10120
▁importa	-10121
▁pregiudi	-10122
▁proteine	-10123
▁DO	-10124
▁IP	-10125
▁FOR	-10126
▁sha	-10127
▁bosco	-10128
▁arredi	-10129
itch	-10130
▁padella	-10131
estensione	-10132
▁istituzionale	-10133
▁metropolitana	-10134
nità	-10135
loghi	-10136
▁storiche	-10137
▁magazzino	-10138
▁colpe	-10139
▁dispia	-10140
▁Martino	-10141
▁protocollo	-10142
▁affascinante	-10143
▁EU	-10144
▁nuvolo	-10145
▁parteci	-10146
▁esterne	-10147
ERO	-10148
cologia	-10149
▁muscoli	-10150
▁frigorifero	-10151
▁letteralmente	-10152
0.	-10153
allar	-10154
orrei	-10155
▁Anzi	-10156
▁caratterizzata	-10157
mensi	-10158
▁cima	-10159
▁licen	-10160
▁salto	-10161
▁solari	-10162
▁Compagnia	-10163
▁capita	-10164
ctive	-10165
fortuna	-10166
artiene	-10167
▁mistero	-10168
architettura	-10169
▁revisione	-10170
miamo	-10171
varsi	-10172
▁scen	-10173
▁paradi	-10174
▁pubblicazioni	-10175
▁Niente	-10176
▁simboli	-10177
▁immediata	-10178
pad	-10179
bali	-10180
inse	-10181
ktop	-10182
tyle	-10183
▁Cra	-10184
▁Impre	-10185
▁situata	-10186
▁stabilire	-10187
▁settimanale	-10188
cione	-10189
▁Card	-10190
▁salone	-10191
▁XV	-10192
vana	-10193
▁morbido	-10194
▁operano	-10195
▁risarci	-10196
▁proveniente	-10197
▁Fol	-10198
▁Cesare	-10199
▁vicinanza	-10200
vidu	-10201
▁tol	-10202
▁razzi	-10203
▁lasciate	-10204
▁permanente	-10205
▁SA	-10206
esel	-10207
▁Mili	-10208
zzurro	-10209
▁amare	-10210
▁prete	-10211
▁clinica	-10212
lex	-10213
star	-10214
cerdo	-10215
▁risale	-10216
▁aiutano	-10217
▁tonalità	-10218
▁fossi	-10219
▁Sicuramente	-10220
▁fermato	-10221
università	-10222
erate	-10223
▁Muse	-10224
▁metal	-10225
zionalità	-10226
▁libreria	-10227
▁essersi	-10228
letter	-10229
ottica	-10230
▁agenzia	-10231
▁Centrale	-10232
▁continuato	-10233
67	-10234
phi	-10235
▁nati	-10236
▁droga	-10237
▁diagnos	-10238
▁capitali	-10239
bor	-10240
▁parl	-10241
▁indossa	-10242
cuno	-10243
▁James	-10244
▁bimbi	-10245
▁allievi	-10246
▁iscrizione	-10247
anico	-10248
▁rate	-10249
▁assai	-10250
andante	-10251
ologico	-10252
▁eleganti	-10253
ders	-10254
▁Fabb	-10255
▁sezioni	-10256
▁Comunità	-10257
▁abbondante	-10258
▁personalizzato	-10259
ENZA	-10260
▁DELLA	-10261
▁filtra	-10262
▁gioielli	-10263
▁evidenziato	-10264
▁roves	-10265
▁curare	-10266
▁Barbara	-10267
arvi	-10268
uela	-10269
▁pali	-10270
▁Music	-10271
▁ruoli	-10272
▁funzionare	-10273
ls	-10274
commerce	-10275
▁batterie	-10276
▁soddisfatto	-10277
tabili	-10278
▁pizzi	-10279
▁trenta	-10280
▁utilizz	-10281
inchiesta	-10282
▁splendido	-10283
▁consegnato	-10284
▁appari	-10285
▁emozion	-10286
ccome	-10287
▁Aprile	-10288
▁strategica	-10289
▁Altre	-10290
▁usate	-10291
▁persegui	-10292
ffo	-10293
▁AT	-10294
▁riass	-10295
gor	-10296
▁peraltro	-10297
▁dinamiche	-10298
▁fotografica	-10299
gomb	-10300
▁ple	-10301
▁impro	-10302
kes	-10303
▁9.	-10304
▁croci	-10305
viazione	-10306
▁chiedono	-10307
rima	-10308
▁portamento	-10309
▁diminuzione	-10310
▁notti	-10311
▁sentiero	-10312
▁polemiche	-10313
▁conquistare	-10314
▁Econ	-10315
▁scatola	-10316
▁auspi	-10317
▁target	-10318
▁vedremo	-10319
▁talvolta	-10320
▁lingu	-10321
soriasi	-10322
▁andranno	-10323
▁2020,	-10324
▁preparati	-10325
mministratore	-10326
▁Rocca	-10327
▁architettura	-10328
elet	-10329
▁Zi	-10330
onto	-10331
▁SER	-10332
▁invito	-10333
▁commercia	-10334
arca	-10335
bete	-10336
▁guadagnare	-10337
▁organizzati	-10338
▁partnership	-10339
▁aggressi	-10340
▁elettrodom	-10341
nello	-10342
tonda	-10343
▁Associa	-10344
▁potesse	-10345
▁venduto	-10346
PON	-10347
▁ato	-10348
▁promossa	-10349
▁sorge	-10350
▁Bianca	-10351
▁aiuterà	-10352
▁viti	-10353
▁fornite	-10354
più	-10355
▁festeggiare	-10356
▁jo	-10357
▁gom	-10358
▁secca	-10359
▁formaggio	-10360
▁raggiungimento	-10361
▁CR	-10362
retto	-10363
Gli	-10364
▁offi	-10365
▁Quale	-10366
▁Alcune	-10367
▁appello	-10368
▁protesta	-10369
▁vitamina	-10370
▁collegato	-10371
▁copertina	-10372
emi	-10373
▁fb	-10374
ceto	-10375
▁Sel	-10376
▁andati	-10377
▁equilib	-10378
▁ritenuto	-10379
▁mantenendo	-10380
ense	-10381
esor	-10382
fino	-10383
▁Top	-10384
▁auguri	-10385
▁wireless	-10386
▁47	-10387
talo	-10388
▁Are	-10389
▁aspettiamo	-10390
eco	-10391
urs	-10392
cons	-10393
vers	-10394
America	-10395
▁sembrare	-10396
▁Ph	-10397
▁Dice	-10398
▁vertici	-10399
▁lanciare	-10400
▁leggenda	-10401
94	-10402
ICE	-10403
▁Rosso	-10404
▁caute	-10405
▁resti	-10406
▁virtu	-10407
▁fro	-10408
venna	-10409
▁panta	-10410
▁saremo	-10411
reakfast	-10412
ming	-10413
erica	-10414
incre	-10415
avventura	-10416
▁compiuto	-10417
grafo	-10418
▁chiedo	-10419
▁rosson	-10420
▁rilassa	-10421
▁perdite	-10422
basti	-10423
▁università	-10424
▁sapi	-10425
▁soglia	-10426
▁stella	-10427
▁vestiti	-10428
▁riferito	-10429
▁competente	-10430
▁ribal	-10431
▁Canale	-10432
▁pienamente	-10433
▁gatto	-10434
▁pdf	-10435
▁traspor	-10436
sono	-10437
▁ossi	-10438
umanità	-10439
▁manovra	-10440
▁obbligatoria	-10441
▁wi	-10442
▁coinvolgere	-10443
km	-10444
▁simu	-10445
▁occidentale	-10446
▁Die	-10447
▁Nike	-10448
▁polizio	-10449
▁formazioni	-10450
enn	-10451
▁scul	-10452
▁morire	-10453
▁saluto	-10454
▁piacciono	-10455
▁valutazioni	-10456
fezione	-10457
▁Qualche	-10458
▁Pis	-10459
▁Augu	-10460
▁Citta	-10461
▁mesti	-10462
impiego	-10463
▁comitato	-10464
▁esigenza	-10465
▁tragedia	-10466
kea	-10467
ologica	-10468
▁dominio	-10469
▁gigante	-10470
schi	-10471
▁espressi	-10472
▁Cup	-10473
▁nipo	-10474
▁Saint	-10475
▁svolgono	-10476
oth	-10477
zzarsi	-10478
▁Genti	-10479
eratore	-10480
▁Africa	-10481
▁uguale	-10482
▁lontani	-10483
▁specialità	-10484
▁pm	-10485
▁esercita	-10486
▁serate	-10487
▁Vediamo	-10488
▁ville	-10489
▁stazioni	-10490
▁UE	-10491
▁ambiti	-10492
onoleggio	-10493
▁mantiene	-10494
▁normalmente	-10495
▁scende	-10496
zzazioni	-10497
▁licenza	-10498
▁furto	-10499
▁Uomini	-10500
▁vigili	-10501
hite	-10502
ttoli	-10503
▁Rapp	-10504
apposi	-10505
▁tribunale	-10506
▁innovativi	-10507
▁litri	-10508
▁ritrova	-10509
organismo	-10510
▁elettriche	-10511
avvocato	-10512
▁celebri	-10513
▁precedentemente	-10514
▁ITA	-10515
▁West	-10516
▁edili	-10517
▁06	-10518
solo	-10519
▁Dolo	-10520
▁melo	-10521
▁pepe	-10522
▁allen	-10523
Azienda	-10524
▁costituiscono	-10525
▁amministrazioni	-10526
▁successive	-10527
▁appartenenti	-10528
▁quinta	-10529
cht	-10530
cie	-10531
▁decre	-10532
▁segnala	-10533
▁apparire	-10534
/12	-10535
gol	-10536
▁Ue	-10537
▁Cami	-10538
▁portafo	-10539
▁potenti	-10540
▁giovanis	-10541
▁appartiene	-10542
Me	-10543
▁700	-10544
▁Cis	-10545
▁Pet	-10546
▁Shi	-10547
▁pluri	-10548
occhiata	-10549
▁sebbene	-10550
▁produzioni	-10551
.),	-10552
▁presu	-10553
▁introdotto	-10554
vs	-10555
off	-10556
▁uscite	-10557
▁intensi	-10558
▁regalare	-10559
▁individuali	-10560
rei	-10561
sea	-10562
xelles	-10563
▁gatti	-10564
▁prega	-10565
▁Pubblica	-10566
▁calciatore	-10567
▁infe	-10568
cchino	-10569
▁psoriasi	-10570
▁intensità	-10571
▁Manu	-10572
▁modella	-10573
vidi	-10574
▁turistiche	-10575
cea	-10576
pers	-10577
AD	-10578
LU	-10579
OO	-10580
ald	-10581
▁percepi	-10582
▁riferisce	-10583
ghese	-10584
ombra	-10585
▁Vedi	-10586
▁Dimen	-10587
▁cilin	-10588
cido	-10589
▁Power	-10590
▁chiare	-10591
▁ucciso	-10592
▁affetti	-10593
andamento	-10594
▁primaria	-10595
▁Bla	-10596
vallo	-10597
▁future	-10598
▁giudici	-10599
Bi	-10600
arsa	-10601
▁Pino	-10602
▁stretta	-10603
▁custodia	-10604
▁spettacolare	-10605
urce	-10606
▁pensioni	-10607
arle	-10608
mberto	-10609
▁Grand	-10610
▁ampie	-10611
Come	-10612
ttezza	-10613
ttedrale	-10614
▁integrale	-10615
On	-10616
ville	-10617
▁spinta	-10618
▁province	-10619
▁tonnellate	-10620
▁buro	-10621
▁epub	-10622
BILITA	-10623
▁Trasp	-10624
▁Cel	-10625
▁riduce	-10626
▁fissato	-10627
▁continuamente	-10628
For	-10629
▁2011,	-10630
▁Belle	-10631
▁redditi	-10632
▁montagne	-10633
▁sperimentazione	-10634
iora	-10635
▁aerop	-10636
▁massaggio	-10637
ones	-10638
▁Ron	-10639
endum	-10640
▁registro	-10641
cchini	-10642
▁inferiori	-10643
ARI	-10644
drome	-10645
Dis	-10646
▁dono	-10647
▁delibera	-10648
▁complessa	-10649
TC	-10650
aly	-10651
▁Istitu	-10652
▁destinata	-10653
▁incidenti	-10654
▁terremoto	-10655
▁delica	-10656
▁chiedendo	-10657
ugna	-10658
▁Silvia	-10659
▁gestisce	-10660
▁invernale	-10661
▁naso	-10662
▁assunto	-10663
▁testimonianze	-10664
TTO	-10665
▁merci	-10666
▁Pasqua	-10667
pio	-10668
Tube	-10669
venuti	-10670
▁Molte	-10671
▁poveri	-10672
▁confermare	-10673
▁parrocchia	-10674
dige	-10675
miti	-10676
▁esplorare	-10677
ENTE	-10678
ziose	-10679
▁amicizia	-10680
▁francesi	-10681
▁salvezza	-10682
▁Quad	-10683
▁Under	-10684
▁calza	-10685
▁benzina	-10686
▁pannello	-10687
▁07	-10688
▁pp	-10689
▁DVD	-10690
▁dig	-10691
corsi	-10692
▁prevedono	-10693
▁Pom	-10694
esplo	-10695
▁House	-10696
▁bensì	-10697
▁Dunque	-10698
▁Vicenza	-10699
▁1:	-10700
rete	-10701
▁dose	-10702
▁Diego	-10703
▁barra	-10704
▁scarsa	-10705
approvazione	-10706
▁CAS	-10707
▁foca	-10708
devole	-10709
▁recip	-10710
▁trion	-10711
▁avverti	-10712
▁compiti	-10713
▁peccato	-10714
inga	-10715
▁Mia	-10716
▁srl	-10717
rome	-10718
▁amplia	-10719
▁prodotta	-10720
▁sottoposto	-10721
▁assicurazione	-10722
▁open	-10723
▁venuto	-10724
▁aggiungendo	-10725
▁profondamente	-10726
olto	-10727
▁bei	-10728
arne	-10729
erosi	-10730
▁formativo	-10731
▁normative	-10732
▁comodamente	-10733
▁prospettive	-10734
▁2003	-10735
▁Guardia	-10736
▁minacce	-10737
▁vetture	-10738
▁By	-10739
▁Dy	-10740
spedale	-10741
▁Decreto	-10742
▁IV	-10743
▁LIM	-10744
essato	-10745
▁gradua	-10746
▁costretti	-10747
tipo	-10748
teche	-10749
▁Arre	-10750
▁pazienza	-10751
▁artigianale	-10752
▁ob	-10753
▁frigo	-10754
▁apparente	-10755
▁flessibilità	-10756
Su	-10757
▁Mark	-10758
▁Detta	-10759
▁stipu	-10760
▁boschi	-10761
▁margine	-10762
▁ispirato	-10763
invio	-10764
▁seguita	-10765
▁doppi	-10766
▁sindacati	-10767
▁ki	-10768
▁eccesso	-10769
▁investitori	-10770
nie	-10771
mbri	-10772
▁Conti	-10773
▁tumore	-10774
▁^	-10775
tum	-10776
▁-,	-10777
▁scanda	-10778
▁Bruxelles	-10779
ecce	-10780
inger	-10781
▁coe	-10782
▁avval	-10783
▁prati	-10784
▁concessi	-10785
▁restauro	-10786
▁integrata	-10787
▁ritrovare	-10788
▁spen	-10789
▁abita	-10790
▁indis	-10791
▁tavoli	-10792
luca	-10793
▁Canada	-10794
▁Salone	-10795
▁Novembre	-10796
▁Benedetto	-10797
▁Metro	-10798
▁fasce	-10799
tamento	-10800
▁chiese	-10801
▁aggiudica	-10802
▁accompagnati	-10803
utata	-10804
acquisi	-10805
▁tennis	-10806
estico	-10807
landia	-10808
stizia	-10809
▁Oppure	-10810
sch	-10811
▁Oro	-10812
rossi	-10813
urata	-10814
▁loco	-10815
▁Verde	-10816
▁Medicina	-10817
▁costituita	-10818
▁presentate	-10819
GA	-10820
ceano	-10821
onima	-10822
▁carto	-10823
▁definitivo	-10824
fit	-10825
▁Produ	-10826
▁cartel	-10827
▁recipro	-10828
▁videogio	-10829
iro	-10830
▁dovete	-10831
55	-10832
ORE	-10833
doni	-10834
▁Den	-10835
▁sofi	-10836
▁Utili	-10837
▁device	-10838
!!!!!!!!	-10839
BS	-10840
ju	-10841
▁ripeti	-10842
▁Vie	-10843
▁Sale	-10844
▁gode	-10845
▁uniche	-10846
▁ferroviaria	-10847
▁benvenuto	-10848
ulo	-10849
▁Lavo	-10850
CHE	-10851
agricoltura	-10852
▁Fiera	-10853
▁Trentino	-10854
▁workshop	-10855
VER	-10856
▁cogliere	-10857
▁scontato	-10858
▁(“	-10859
disi	-10860
▁Stef	-10861
▁teso	-10862
▁Laure	-10863
▁lieve	-10864
▁attore	-10865
▁entrate	-10866
▁<	-10867
▁Alto	-10868
▁multimedia	-10869
▁mega	-10870
▁reda	-10871
▁copri	-10872
▁troppi	-10873
▁ciotola	-10874
▁CHE	-10875
▁Ameri	-10876
▁casal	-10877
▁Raffaele	-10878
uita	-10879
opini	-10880
▁versi	-10881
▁sforzi	-10882
▁Voi	-10883
▁scru	-10884
accoglienza	-10885
ESS	-10886
gole	-10887
▁van	-10888
grati	-10889
viste	-10890
▁Fanta	-10891
▁farti	-10892
▁sottoval	-10893
omer	-10894
▁Merce	-10895
▁Commercio	-10896
▁derby	-10897
▁smettere	-10898
▁tempesti	-10899
▁cresciuto	-10900
▁riportare	-10901
INE	-10902
▁fame	-10903
▁pericoloso	-10904
dd	-10905
lor	-10906
▁Made	-10907
▁arbi	-10908
valente	-10909
▁climati	-10910
▁opinione	-10911
▁talmente	-10912
efficienza	-10913
▁avanzata	-10914
▁piacerebbe	-10915
▁risultare	-10916
▁sofferenza	-10917
adegua	-10918
▁Lucca	-10919
▁curata	-10920
assemblea	-10921
▁Thom	-10922
▁classiche	-10923
▁Bir	-10924
▁finché	-10925
▁rileva	-10926
▁Taranto	-10927
▁preferenze	-10928
▁istituzionali	-10929
▁12,	-10930
tivali	-10931
▁azzurro	-10932
ttenti	-10933
ken	-10934
▁poten	-10935
▁chiavi	-10936
▁arrivando	-10937
▁PRE	-10938
allery	-10939
▁sacerdo	-10940
▁estetica	-10941
▁Regolamento	-10942
▁cooperazione	-10943
00,	-10944
▁aggiungete	-10945
▁dipendenza	-10946
▁meravigliosa	-10947
▁organizzatori	-10948
erna	-10949
hen	-10950
▁FA	-10951
▁Maio	-10952
▁Multi	-10953
▁avvio	-10954
kipedia	-10955
▁esposti	-10956
▁individui	-10957
▁Free	-10958
▁nozze	-10959
▁raffigu	-10960
▁venivano	-10961
▁10%	-10962
▁fama	-10963
▁Tomma	-10964
▁sussi	-10965
▁giuria	-10966
▁tranquillo	-10967
▁gustare	-10968
▁acconten	-10969
▁celebrare	-10970
-10	-10971
▁morbida	-10972
▁parteciper	-10973
▁scatti	-10974
▁importo	-10975
▁estetico	-10976
▁Programma	-10977
▁coordinamento	-10978
zine	-10979
▁Disney	-10980
▁Manager	-10981
enziati	-10982
▁conosco	-10983
▁Naturalmente	-10984
wei	-10985
ggero	-10986
▁deva	-10987
▁eccezione	-10988
▁Sve	-10989
▁vergo	-10990
▁incentra	-10991
▁attraversa	-10992
▁Informazioni	-10993
▁Luna	-10994
▁Tempo	-10995
▁Turchia	-10996
▁diametro	-10997
▁amministratori	-10998
▁sfa	-10999
▁panni	-11000
▁verni	-11001
▁iscrizioni	-11002
▁rafforzare	-11003
pes	-11004
▁divieto	-11005
▁lavorativa	-11006
ath	-11007
▁farla	-11008
▁risco	-11009
▁fisiche	-11010
▁tutelare	-11011
▁Costituzione	-11012
▁tantissime	-11013
tipi	-11014
perta	-11015
▁Archi	-11016
▁Guerra	-11017
▁Estratto	-11018
▁trailer	-11019
▁adeguato	-11020
▁contenitore	-11021
▁conversione	-11022
.30,	-11023
onsor	-11024
▁Uffi	-11025
▁Borgo	-11026
▁produttivo	-11027
tran	-11028
conto	-11029
▁poker	-11030
▁collettivo	-11031
▁scolastici	-11032
osteni	-11033
▁causato	-11034
▁avremo	-11035
▁interessate	-11036
▁volontariato	-11037
▁rappresentanza	-11038
ments	-11039
▁dotazione	-11040
▁game	-11041
▁luna	-11042
mentata	-11043
▁riabili	-11044
▁segnalazione	-11045
▁adi	-11046
bbigliamento	-11047
CD	-11048
burg	-11049
▁cogn	-11050
▁temporale	-11051
▁approfondimento	-11052
▁NE	-11053
indice	-11054
▁conge	-11055
▁desiderato	-11056
▁fantastica	-11057
▁tono	-11058
▁Livorno	-11059
...)	-11060
gnor	-11061
▁Pay	-11062
▁elevate	-11063
▁facoltà	-11064
▁partono	-11065
▁prendono	-11066
’11	-11067
ish	-11068
▁buio	-11069
▁Manto	-11070
insieme	-11071
▁sfrutta	-11072
sciu	-11073
▁Serra	-11074
▁righe	-11075
▁pneumatici	-11076
▁kW	-11077
▁food	-11078
▁Beach	-11079
▁mondiali	-11080
Aquila	-11081
▁tornata	-11082
▁Biblioteca	-11083
▁preoccupazione	-11084
osis	-11085
arredo	-11086
▁Perchè	-11087
▁Abruzzo	-11088
▁burocra	-11089
▁garantiscono	-11090
▁sarai	-11091
▁costumi	-11092
fil	-11093
▁AI	-11094
▁sensibile	-11095
▁ringraziare	-11096
ziati	-11097
▁urbani	-11098
▁argento	-11099
▁associato	-11100
▁motivazioni	-11101
▁mantenimento	-11102
/2	-11103
genda	-11104
▁Quattro	-11105
▁applicata	-11106
▁configurazione	-11107
▁tranquillamente	-11108
!)	-11109
▁scritti	-11110
ku	-11111
ingo	-11112
▁Modi	-11113
▁Peter	-11114
▁Conser	-11115
▁Giugno	-11116
▁ideato	-11117
▁delicata	-11118
▁beneficio	-11119
ston	-11120
▁Lis	-11121
▁jazz	-11122
▁made	-11123
▁previsione	-11124
ZZA	-11125
▁esseri	-11126
incidente	-11127
▁portavoce	-11128
▁complessiva	-11129
OLA	-11130
mpere	-11131
▁ebbe	-11132
▁ottenuti	-11133
▁scolastica	-11134
tton	-11135
▁spunti	-11136
▁OS	-11137
ford	-11138
accusa	-11139
▁Ottimo	-11140
▁povertà	-11141
TS	-11142
Fran	-11143
▁Roy	-11144
forni	-11145
omica	-11146
▁russo	-11147
▁guardia	-11148
▁sentirsi	-11149
▁preferite	-11150
▁divertenti	-11151
ange	-11152
▁Direzione	-11153
sol	-11154
▁scoli	-11155
▁Friuli	-11156
▁muscolare	-11157
lis	-11158
trò	-11159
bano	-11160
▁Bona	-11161
▁Lucia	-11162
▁presie	-11163
▁Galleria	-11164
▁funzionali	-11165
74	-11166
▁trucco	-11167
▁cronaca	-11168
▁limitro	-11169
▁tagliare	-11170
▁selezionato	-11171
▁cinesi	-11172
▁rumore	-11173
▁CAR	-11174
▁pin	-11175
▁suon	-11176
▁Viene	-11177
▁ipoti	-11178
▁finanzi	-11179
▁trovata	-11180
▁occhiali	-11181
▁scommesse	-11182
▁illuminazione	-11183
Ex	-11184
PER	-11185
verse	-11186
▁last	-11187
▁tabella	-11188
sime	-11189
▁dodici	-11190
____	-11191
isse	-11192
tner	-11193
▁Cio	-11194
ggiante	-11195
▁introdu	-11196
▁replica	-11197
▁Settembre	-11198
asco	-11199
▁rad	-11200
▁comi	-11201
▁YouTube	-11202
▁arra	-11203
damenti	-11204
▁fotografico	-11205
▁Leo	-11206
▁Appro	-11207
▁lacri	-11208
▁venduti	-11209
▁bloccato	-11210
tribuzione	-11211
▁coste	-11212
▁viste	-11213
▁vivendo	-11214
▁fotovolta	-11215
▁scegliendo	-11216
▁interpretato	-11217
Questo	-11218
▁Setti	-11219
▁garage	-11220
▁anticipato	-11221
▁spirituale	-11222
▁rappresentante	-11223
ary	-11224
▁Zan	-11225
▁amministrativa	-11226
2)	-11227
▁vel	-11228
Isola	-11229
right	-11230
intento	-11231
▁parchi	-11232
▁schema	-11233
▁generare	-11234
▁consapevoli	-11235
iller	-11236
cciolo	-11237
▁quante	-11238
▁Campionato	-11239
▁coronavirus	-11240
▁corrisponde	-11241
▁Dati	-11242
▁pallone	-11243
▁Asia	-11244
▁conduce	-11245
▁favorevole	-11246
▁diversamente	-11247
▁semif	-11248
cellare	-11249
-8	-11250
▁esag	-11251
gibili	-11252
▁padrone	-11253
▁mostrano	-11254
educazione	-11255
amp	-11256
gus	-11257
▁Tanti	-11258
inglese	-11259
▁cadere	-11260
▁altrove	-11261
▁titolari	-11262
▁coinvolge	-11263
▁conosciuti	-11264
▁Sass	-11265
▁Feder	-11266
▁smenti	-11267
▁Sebasti	-11268
▁ampiamente	-11269
▁XI	-11270
dera	-11271
loso	-11272
stenzi	-11273
▁rivolge	-11274
▁Acquista	-11275
▁Successivamente	-11276
ies	-11277
▁fit	-11278
▁Gard	-11279
▁spera	-11280
▁assorbi	-11281
onore	-11282
▁Corriere	-11283
▁commedia	-11284
▁centrocamp	-11285
gallo	-11286
gogli	-11287
▁2001	-11288
▁insu	-11289
onomia	-11290
▁fedeli	-11291
▁innovativa	-11292
▁sensazioni	-11293
▁variazioni	-11294
essorato	-11295
▁sperimentare	-11296
celle	-11297
▁vent	-11298
▁Borsa	-11299
imprendi	-11300
essor	-11301
polare	-11302
▁visibili	-11303
▁residente	-11304
▁considerati	-11305
ME	-11306
▁pronuncia	-11307
▁orientale	-11308
▁consentirà	-11309
essante	-11310
▁Democra	-11311
occupazione	-11312
acquisizione	-11313
ball	-11314
▁costruita	-11315
▁Ferro	-11316
▁farmaco	-11317
ONO	-11318
bella	-11319
gressi	-11320
ata	-11321
php	-11322
▁scu	-11323
▁bottiglia	-11324
▁intervenuti	-11325
cciata	-11326
▁filtri	-11327
lita	-11328
stano	-11329
SOCIETA	-11330
▁Franci	-11331
▁applicato	-11332
▁bicchiere	-11333
oldi	-11334
▁Esi	-11335
▁rossi	-11336
ficante	-11337
▁Primavera	-11338
-20	-11339
stazione	-11340
▁ricovera	-11341
zionalmente	-11342
▁Oscar	-11343
▁infia	-11344
▁omogene	-11345
▁conoscer	-11346
▁consumatore	-11347
mbara	-11348
▁Raga	-11349
▁fasti	-11350
▁vecchie	-11351
▁liberamente	-11352
▁Srl	-11353
dinese	-11354
▁cover	-11355
▁didatti	-11356
▁Mercedes	-11357
▁colorati	-11358
▁lasciano	-11359
▁minerali	-11360
▁nominato	-11361
▁bravo	-11362
▁provoca	-11363
▁conclusa	-11364
glo	-11365
▁ascolto	-11366
▁commerci	-11367
▁sconosci	-11368
intesa	-11369
▁caldi	-11370
▁calib	-11371
▁muove	-11372
▁inserzioni	-11373
▁poste	-11374
▁disper	-11375
▁dovuti	-11376
▁RESPON	-11377
▁prescin	-11378
▁supporta	-11379
▁Rio	-11380
▁Bell	-11381
▁avvocati	-11382
▁divisione	-11383
DS	-11384
▁corse	-11385
▁prosp	-11386
▁Turismo	-11387
▁terreni	-11388
▁negativi	-11389
cò	-11390
▁appi	-11391
▁soggiorna	-11392
▁tecnologico	-11393
▁blocca	-11394
▁funghi	-11395
elp	-11396
▁campe	-11397
▁sanitarie	-11398
▁mt	-11399
uste	-11400
sserva	-11401
▁Potra	-11402
aspetta	-11403
mmobili	-11404
▁raramente	-11405
▁ringrazio	-11406
▁anniversario	-11407
64	-11408
retti	-11409
tures	-11410
attrice	-11411
▁Seconda	-11412
▁profumi	-11413
▁eno	-11414
▁ful	-11415
▁Fate	-11416
▁piste	-11417
▁vasto	-11418
mentando	-11419
▁Israele	-11420
▁Martina	-11421
▁RESPONSA	-11422
▁periferi	-11423
els	-11424
quio	-11425
▁!!!	-11426
carica	-11427
▁seppur	-11428
▁biscotti	-11429
▁King	-11430
▁cavalli	-11431
▁National	-11432
rolo	-11433
rocco	-11434
▁Visita	-11435
▁muoversi	-11436
▁prevedere	-11437
▁prossimità	-11438
▁strettamente	-11439
▁amministrativo	-11440
Ra	-11441
▁Mira	-11442
bate	-11443
rine	-11444
▁unire	-11445
▁patologia	-11446
mann	-11447
▁facebook	-11448
▁diffondere	-11449
▁causare	-11450
▁apprezzare	-11451
▁contenente	-11452
▁Hu	-11453
grante	-11454
▁Gianluca	-11455
▁stradali	-11456
Cam	-11457
ppato	-11458
▁Tito	-11459
▁collina	-11460
▁rafforza	-11461
00.	-11462
▁XX	-11463
entieri	-11464
▁cartella	-11465
fres	-11466
zzatore	-11467
▁fornendo	-11468
▁''	-11469
teno	-11470
▁abitua	-11471
▁cellulari	-11472
▁definisce	-11473
▁̈	-11474
▁AV	-11475
▁indo	-11476
▁attenti	-11477
▁critico	-11478
▁movi	-11479
▁pietre	-11480
entazione	-11481
▁commissario	-11482
iali	-11483
▁torre	-11484
▁mandor	-11485
▁esposto	-11486
▁20%	-11487
ascia	-11488
▁fuma	-11489
▁diffusi	-11490
▁riguardante	-11491
▁innanzitutto	-11492
riche	-11493
▁Acqua	-11494
▁nottur	-11495
▁mezz	-11496
tativi	-11497
▁Silvio	-11498
▁cardia	-11499
▁efficacia	-11500
▁pochis	-11501
▁Assistenza	-11502
▁Attenzione	-11503
▁consulente	-11504
▁Noti	-11505
▁Qualcuno	-11506
mus	-11507
▁Aut	-11508
▁sno	-11509
▁Treviso	-11510
▁Attività	-11511
opinione	-11512
▁attenta	-11513
▁sequestro	-11514
▁Rich	-11515
▁Guido	-11516
zionate	-11517
▁puntate	-11518
▁ripartire	-11519
▁Coronavirus	-11520
▁Zo	-11521
ander	-11522
▁Aldo	-11523
▁Comi	-11524
▁Vigi	-11525
▁Stori	-11526
allarme	-11527
▁Varese	-11528
▁anteprima	-11529
▁referendum	-11530
celo	-11531
board	-11532
fatto	-11533
▁morta	-11534
▁veste	-11535
▁Formula	-11536
▁differente	-11537
▁lontana	-11538
▁tentato	-11539
▁bancario	-11540
▁percorrere	-11541
▁pronostici	-11542
▁18,	-11543
▁termo	-11544
babilmente	-11545
enni	-11546
geli	-11547
tics	-11548
▁have	-11549
▁Luciano	-11550
▁annuncio	-11551
▁denunciato	-11552
▁Dona	-11553
▁Luglio	-11554
▁my	-11555
ervi	-11556
▁110	-11557
atten	-11558
▁pasticc	-11559
▁fotografo	-11560
zoni	-11561
servi	-11562
▁Pare	-11563
▁estratto	-11564
▁positive	-11565
▁trattativa	-11566
▁identificare	-11567
▁spar	-11568
▁tasca	-11569
▁quotidiani	-11570
neakers	-11571
▁regali	-11572
▁battuta	-11573
curazione	-11574
▁database	-11575
▁ginnastica	-11576
▁supportare	-11577
ac	-11578
▁Inizia	-11579
▁foglio	-11580
▁proget	-11581
▁termico	-11582
▁concludere	-11583
▁motivazione	-11584
▁Nessun	-11585
pto	-11586
▁Affi	-11587
▁spot	-11588
▁strati	-11589
▁machine	-11590
▁competenti	-11591
▁identifica	-11592
HI	-11593
asy	-11594
zan	-11595
ving	-11596
richi	-11597
finito	-11598
▁potenziali	-11599
▁candidatura	-11600
tech	-11601
attivo	-11602
▁chiusi	-11603
▁caratterizza	-11604
▁Pos	-11605
▁assor	-11606
▁pisto	-11607
▁vicine	-11608
ssemblea	-11609
▁sequestra	-11610
▁stabilimento	-11611
▁we	-11612
citi	-11613
▁amica	-11614
▁ampli	-11615
capelli	-11616
talanta	-11617
▁rimedi	-11618
▁percezione	-11619
sodio	-11620
▁Moda	-11621
chester	-11622
▁Ricevi	-11623
universo	-11624
▁toccare	-11625
▁contenute	-11626
nera	-11627
▁entry	-11628
▁Europeo	-11629
▁assum	-11630
▁operativi	-11631
dit	-11632
cendio	-11633
▁fibre	-11634
▁49	-11635
logy	-11636
▁carbu	-11637
▁giuridica	-11638
▁personalizzati	-11639
▁02	-11640
merà	-11641
ulum	-11642
▁Ana	-11643
▁gay	-11644
oniamo	-11645
▁averlo	-11646
esigenza	-11647
▁compatibile	-11648
▁difficilmente	-11649
▁Cy	-11650
eting	-11651
▁assur	-11652
▁marina	-11653
CIA	-11654
pare	-11655
▁passate	-11656
▁domestici	-11657
▁nole	-11658
▁riposare	-11659
▁risparmi	-11660
▁contengono	-11661
▁notevolmente	-11662
▁intraprendere	-11663
▁cliccare	-11664
▁monitorare	-11665
▁Wash	-11666
▁risve	-11667
esempio	-11668
umerevoli	-11669
▁affrontato	-11670
▁continuerà	-11671
▁Amministrazione	-11672
▁2)	-11673
▁baller	-11674
▁televisiva	-11675
▁consistenza	-11676
▁indipendenti	-11677
As	-11678
rado	-11679
▁COR	-11680
▁spun	-11681
adozione	-11682
▁desktop	-11683
▁lievito	-11684
▁aiutarti	-11685
▁circonda	-11686
▁immobiliari	-11687
▁ph	-11688
▁SAN	-11689
ghiamo	-11690
▁2010,	-11691
▁parati	-11692
..."	-11693
inghi	-11694
titudine	-11695
▁Maestro	-11696
▁variabile	-11697
untain	-11698
▁scuro	-11699
▁attimo	-11700
▁contento	-11701
▁speriamo	-11702
▁Unite	-11703
▁Vinci	-11704
argento	-11705
rindisi	-11706
▁pacchetti	-11707
▁meccanismi	-11708
▁Ala	-11709
trali	-11710
▁marmo	-11711
▁tornerà	-11712
ghia	-11713
▁Ken	-11714
▁roma	-11715
▁Dettagli	-11716
tilità	-11717
▁Udine	-11718
▁uniti	-11719
▁prostata	-11720
cure	-11721
dium	-11722
animo	-11723
▁Duomo	-11724
abbiamo	-11725
▁discri	-11726
franco	-11727
toriali	-11728
▁Angeles	-11729
▁seguono	-11730
▁Sicurezza	-11731
▁ispirazione	-11732
ccioli	-11733
entrata	-11734
▁arrivi	-11735
▁maturi	-11736
▁svolte	-11737
▁formata	-11738
formazione	-11739
▁corpi	-11740
▁filiera	-11741
▁inclusa	-11742
▁passano	-11743
BO	-11744
▁Tel	-11745
▁max	-11746
garsi	-11747
▁mamme	-11748
▁rassi	-11749
▁scelti	-11750
▁diploma	-11751
tain	-11752
▁esponenti	-11753
bout	-11754
esimo	-11755
▁Bagno	-11756
▁assun	-11757
ugurazione	-11758
troni	-11759
▁distra	-11760
▁Premium	-11761
▁serenità	-11762
▁aspettano	-11763
▁rinnovato	-11764
rex	-11765
▁seta	-11766
▁stasera	-11767
eccellenza	-11768
▁indimenticabile	-11769
MW	-11770
▁pens	-11771
ttuali	-11772
▁avventure	-11773
▁impiegati	-11774
▁lavoratore	-11775
ep	-11776
ttari	-11777
▁Cala	-11778
▁form	-11779
▁batti	-11780
▁lesioni	-11781
VID	-11782
▁01	-11783
▁Lar	-11784
▁Sur	-11785
colore	-11786
rosa	-11787
messe	-11788
▁Archite	-11789
▁civiltà	-11790
▁cucchiaio	-11791
terali	-11792
▁viale	-11793
▁informatica	-11794
voso	-11795
▁bandiera	-11796
▁variante	-11797
▁pubblicare	-11798
▁vado	-11799
▁cogni	-11800
assegna	-11801
▁assistito	-11802
▁religione	-11803
▁scoliosis	-11804
ters	-11805
burgo	-11806
▁make	-11807
grafie	-11808
▁casse	-11809
▁sping	-11810
▁peculiari	-11811
▁India	-11812
▁fondazione	-11813
▁Vil	-11814
▁talenti	-11815
▁raggiungibile	-11816
ml	-11817
ORI	-11818
vvio	-11819
▁Giovan	-11820
▁tavole	-11821
▁concreta	-11822
▁LU	-11823
▁130	-11824
tuazione	-11825
▁scarico	-11826
▁cliccando	-11827
mel	-11828
▁Fire	-11829
gastron	-11830
▁ridotta	-11831
▁luminoso	-11832
▁proven	-11833
▁inviata	-11834
▁potremo	-11835
▁avanzate	-11836
▁modificato	-11837
▁perfezione	-11838
▁eso	-11839
esordio	-11840
▁dimora	-11841
▁fondato	-11842
allenatore	-11843
▁pianificazione	-11844
”)	-11845
▁sbi	-11846
▁2002	-11847
▁bianche	-11848
▁varianti	-11849
▁tantissimo	-11850
▁circostante	-11851
ANI	-11852
https	-11853
▁Vice	-11854
▁alter	-11855
▁imparato	-11856
▁calciatori	-11857
▁cosiddetto	-11858
▁matematica	-11859
▁TO	-11860
roid	-11861
▁asi	-11862
▁Galli	-11863
▁vende	-11864
▁potremmo	-11865
pas	-11866
▁ciao	-11867
▁certificati	-11868
dabile	-11869
▁amano	-11870
▁associati	-11871
▁CE	-11872
▁terze	-11873
▁Cristina	-11874
▁appassionato	-11875
▁54	-11876
▁Jean	-11877
▁Dr	-11878
▁cha	-11879
▁liste	-11880
▁sorte	-11881
▁segnalazioni	-11882
▁q	-11883
▁LO	-11884
▁Catego	-11885
▁Social	-11886
▁Nessuno	-11887
▁Politiche	-11888
▁discipline	-11889
win	-11890
andone	-11891
▁altresì	-11892
▁processore	-11893
''	-11894
GLI	-11895
▁Cres	-11896
▁Rena	-11897
▁attu	-11898
▁Garda	-11899
chissimo	-11900
▁sponsor	-11901
▁conoscono	-11902
▁finanziarie	-11903
▁Appartamento	-11904
▁NA	-11905
▁Mur	-11906
tterà	-11907
▁pulire	-11908
▁papa	-11909
▁uguali	-11910
▁aggiungono	-11911
▁adolescenti	-11912
▁costruzioni	-11913
lix	-11914
▁nn	-11915
▁muta	-11916
▁declina	-11917
▁eleganza	-11918
▁infiamma	-11919
▁moltissimi	-11920
▁fram	-11921
▁telaio	-11922
bie	-11923
tube	-11924
▁deca	-11925
▁acido	-11926
▁scatto	-11927
▁infermi	-11928
▁disastro	-11929
▁Fan	-11930
erete	-11931
▁Moder	-11932
▁adeguata	-11933
▁TUT	-11934
▁ispira	-11935
▁truffa	-11936
▁Ravenna	-11937
▁presenterà	-11938
▁convenienti	-11939
▁Alpi	-11940
▁barba	-11941
als	-11942
tenne	-11943
▁nobile	-11944
▁agricole	-11945
▁tracciato	-11946
GO	-11947
▁saga	-11948
▁Dario	-11949
▁Terri	-11950
▁Giochi	-11951
▁imbotti	-11952
▁collegati	-11953
▁conservare	-11954
▁160	-11955
▁scenari	-11956
▁Mediaset	-11957
▁concessione	-11958
▁domi	-11959
▁noci	-11960
▁definita	-11961
▁indiscre	-11962
assunzione	-11963
ETTO	-11964
▁afri	-11965
▁intri	-11966
▁svizz	-11967
▁mill	-11968
▁tamp	-11969
▁Risto	-11970
▁botte	-11971
▁dovute	-11972
▁rabbia	-11973
▁CV	-11974
▁mela	-11975
▁Robert	-11976
▁opzione	-11977
▁Semplice	-11978
▁sfumature	-11979
▁tecnologica	-11980
.).	-11981
eth	-11982
▁consen	-11983
▁adottato	-11984
▁pericolosi	-11985
▁€.	-11986
▁Abb	-11987
dafone	-11988
ideale	-11989
▁fisici	-11990
▁diparti	-11991
▁vertice	-11992
▁flash	-11993
▁cemento	-11994
▁distribu	-11995
ust	-11996
▁Ricci	-11997
▁prele	-11998
▁ginocchio	-11999
▁trascorso	-12000
▁comprendono	-12001
▁dir	-12002
▁pull	-12003
▁touch	-12004
miliano	-12005
▁screen	-12006
▁votare	-12007
▁affetto	-12008
▁rifugio	-12009
▁sindaci	-12010
inelli	-12011
▁diceva	-12012
▁sonora	-12013
▁artificiale	-12014
erba	-12015
▁Sna	-12016
▁naviga	-12017
▁Ricordiamo	-12018
▁decorazione	-12019
▁innumerevoli	-12020
▁emerso	-12021
▁eppure	-12022
tichetta	-12023
▁respiro	-12024
▁limitare	-12025
▁sorprendente	-12026
Che	-12027
view	-12028
▁Xbox	-12029
appello	-12030
▁coinvolte	-12031
/11	-12032
orth	-12033
▁202	-12034
▁tun	-12035
▁Siria	-12036
▁aeree	-12037
▁distanze	-12038
▁sopratutto	-12039
uite	-12040
▁Tal	-12041
▁dito	-12042
albero	-12043
▁Vorrei	-12044
ennesima	-12045
▁derivanti	-12046
▁pura	-12047
▁bimbo	-12048
▁fedel	-12049
▁Giovedì	-12050
FOR	-12051
▁(6	-12052
erio	-12053
▁peper	-12054
▁fermare	-12055
▁mg	-12056
▁Ton	-12057
giata	-12058
▁isla	-12059
▁piazze	-12060
▁Potenza	-12061
▁basterà	-12062
▁ridotti	-12063
▁Giuliano	-12064
▁indicata	-12065
▁promozionale	-12066
▁difetto	-12067
strazione	-12068
▁sottoscritto	-12069
▁Eco	-12070
▁NUO	-12071
urare	-12072
autunno	-12073
▁Resort	-12074
▁Umberto	-12075
▁inserita	-12076
▁scambi	-12077
▁cessione	-12078
▁accettato	-12079
ule	-12080
▁Conos	-12081
▁Umbria	-12082
▁ricorrere	-12083
▁sindacali	-12084
mpre	-12085
tarne	-12086
▁chissà	-12087
▁distribuito	-12088
Mar	-12089
▁70%	-12090
▁bara	-12091
▁Carne	-12092
▁fallimento	-12093
▁eravamo	-12094
▁resistenti	-12095
upon	-12096
▁21,	-12097
▁Food	-12098
▁affidato	-12099
▁aggiuntivi	-12100
▁collaborare	-12101
▁vada	-12102
aggiun	-12103
▁Avete	-12104
▁11,	-12105
cze	-12106
mmer	-12107
▁assicurato	-12108
sApp	-12109
▁sov	-12110
▁criticità	-12111
iP	-12112
▁TRA	-12113
▁Vio	-12114
ronia	-12115
▁prede	-12116
▁telecamere	-12117
▁universale	-12118
▁provenienza	-12119
▁parlamentari	-12120
▁Isa	-12121
▁Tan	-12122
▁Vito	-12123
▁puri	-12124
▁culture	-12125
alia	-12126
▁Gennaio	-12127
▁attacca	-12128
▁nascosto	-12129
inone	-12130
▁care	-12131
▁LIMITA	-12132
▁accuse	-12133
▁Digital	-12134
▁diciamo	-12135
":	-12136
mpico	-12137
▁conduttore	-12138
▁RESPONSABILITA	-12139
TURE	-12140
▁ghi	-12141
baldi	-12142
▁patto	-12143
▁servita	-12144
▁quadrati	-12145
▁esistente	-12146
▁rivestimento	-12147
▁sviluppatori	-12148
▁Christi	-12149
▁capitato	-12150
▁medesimo	-12151
/05	-12152
▁MP	-12153
erei	-12154
priamo	-12155
▁ricevi	-12156
▁riproduzione	-12157
▁Coun	-12158
etooth	-12159
viglie	-12160
▁canna	-12161
▁cloud	-12162
▁autonomo	-12163
vy	-12164
mie	-12165
pea	-12166
cqua	-12167
▁telecom	-12168
▁pavimenti	-12169
▁campionati	-12170
▁gua	-12171
▁Presid	-12172
▁magico	-12173
▁parall	-12174
Autorità	-12175
▁1)	-12176
▁15,	-12177
▁Cater	-12178
ternità	-12179
▁dovrai	-12180
▁impostare	-12181
uis	-12182
▁win	-12183
▁sedie	-12184
▁master	-12185
▁Aggiorna	-12186
▁potevano	-12187
▁Tv	-12188
giati	-12189
▁brev	-12190
ghetti	-12191
▁Verdi	-12192
▁verticale	-12193
▁educazione	-12194
▁iscriversi	-12195
▁Hen	-12196
riculum	-12197
▁territoriali	-12198
.5	-12199
▁buffet	-12200
▁vapore	-12201
▁presupp	-12202
▁domicilia	-12203
tteri	-12204
▁vestito	-12205
▁conferenze	-12206
▁mais	-12207
▁Salve	-12208
▁copie	-12209
▁contattarci	-12210
▁prescindere	-12211
mide	-12212
▁Est	-12213
vendita	-12214
▁dimenticato	-12215
▁Enzo	-12216
▁banco	-12217
▁Ottobre	-12218
▁sospeso	-12219
▁federale	-12220
UTO	-12221
ZIA	-12222
imb	-12223
site	-12224
▁Prova	-12225
▁greco	-12226
▁comprese	-12227
▁Margh	-12228
terranea	-12229
▁dimostrazione	-12230
invito	-12231
▁Vendo	-12232
▁affidata	-12233
▁precisamente	-12234
gnola	-12235
viera	-12236
gliese	-12237
▁impegn	-12238
ordi	-12239
▁repli	-12240
Ambiente	-12241
▁tratten	-12242
▁acquista	-12243
▁concesso	-12244
ARA	-12245
Ente	-12246
▁Polo	-12247
▁orizzon	-12248
▁affronta	-12249
▁iscritto	-12250
▁trovando	-12251
▁scienziati	-12252
▁2011.	-12253
▁abbandonato	-12254
▁gradualmente	-12255
▁Dif	-12256
ziata	-12257
▁Veri	-12258
▁alza	-12259
▁rese	-12260
▁elimin	-12261
▁riprop	-12262
▁romanzi	-12263
efficacia	-12264
▁Gazzetta	-12265
▁salsa	-12266
▁Washington	-12267
▁rinnovabili	-12268
▁evidentemente	-12269
▁significativi	-12270
▁52	-12271
▁58	-12272
!!!!!	-12273
olini	-12274
▁vigilia	-12275
▁stavolta	-12276
▁indirizzi	-12277
inanti	-12278
▁Matti	-12279
▁vigne	-12280
▁sovrapp	-12281
ved	-12282
Assi	-12283
▁Cgil	-12284
▁croce	-12285
▁Ancona	-12286
▁compro	-12287
▁urbana	-12288
▁30%	-12289
▁Quo	-12290
▁bev	-12291
monta	-12292
▁black	-12293
▁susci	-12294
ciplina	-12295
▁spunto	-12296
ordinanza	-12297
▁arredamento	-12298
▁qualificato	-12299
▁Sanità	-12300
▁recita	-12301
▁separa	-12302
▁rottura	-12303
web	-12304
▁big	-12305
▁raccogli	-12306
ée	-12307
▁any	-12308
▁more	-12309
▁nasconde	-12310
▁occupano	-12311
GE	-12312
gratu	-12313
volto	-12314
▁scale	-12315
▁LIMITATA	-12316
▁permanenza	-12317
▁Subito	-12318
▁sapete	-12319
▁coperta	-12320
▁dovrete	-12321
▁metaboli	-12322
▁autonoleggio	-12323
TV	-12324
rerebbe	-12325
▁albero	-12326
▁accusato	-12327
▁chirurgia	-12328
▁COL	-12329
minate	-12330
▁restri	-12331
▁subire	-12332
▁Sarebbe	-12333
espressione	-12334
▁strategico	-12335
▁COS	-12336
▁orale	-12337
▁Lunedì	-12338
▁romani	-12339
▁spinto	-12340
▁flessibile	-12341
mono	-12342
derti	-12343
▁pizzico	-12344
▁Maggiore	-12345
▁segnalato	-12346
▁coro	-12347
critto	-12348
▁attive	-12349
▁Coopera	-12350
▁Australia	-12351
▁monumenti	-12352
▁spedizioni	-12353
1)	-12354
rs	-12355
▁Tecno	-12356
▁grano	-12357
tuario	-12358
▁abito	-12359
▁adatte	-12360
▁voluta	-12361
▁portatile	-12362
▁Formazione	-12363
▁stagionale	-12364
▁attentamente	-12365
▁amministratore	-12366
unior	-12367
vania	-12368
entata	-12369
▁share	-12370
▁Marcello	-12371
▁terribile	-12372
▁raccontano	-12373
▁parecchio	-12374
▁ottimizzare	-12375
▁900	-12376
▁Ped	-12377
▁Supp	-12378
▁erbe	-12379
▁parlamentare	-12380
Hz	-12381
▁azzurri	-12382
▁costituzione	-12383
▁Big	-12384
cordia	-12385
▁Compli	-12386
▁decina	-12387
'8	-12388
nal	-12389
▁Mir	-12390
vecchiamento	-12391
To	-12392
▁nè	-12393
▁creano	-12394
▁Network	-12395
ulso	-12396
ctory	-12397
▁Siete	-12398
sorio	-12399
▁Tali	-12400
▁rientrare	-12401
▁senz	-12402
ccabile	-12403
▁pertin	-12404
▁sinergia	-12405
▁qualificazione	-12406
tuo	-12407
vuo	-12408
▁Nato	-12409
▁abbraccio	-12410
▁codificazione	-12411
▁Uti	-12412
▁usc	-12413
▁unite	-12414
▁farmacia	-12415
▁verificato	-12416
▁informativo	-12417
-7	-12418
▁hoc	-12419
▁farne	-12420
▁leggendo	-12421
▁56	-12422
▁Dov	-12423
▁end	-12424
▁ubi	-12425
▁cross	-12426
▁ze	-12427
▁alcool	-12428
▁faremo	-12429
▁servito	-12430
▁meccanica	-12431
▁Dei	-12432
▁Evi	-12433
▁not	-12434
▁Gari	-12435
▁spet	-12436
cktail	-12437
inante	-12438
▁insedia	-12439
▁operatore	-12440
▁Cassazione	-12441
uss	-12442
▁https	-12443
▁aumentando	-12444
▁conformità	-12445
▁Psi	-12446
▁completato	-12447
▁personalizzare	-12448
XT	-12449
▁pessi	-12450
▁frontale	-12451
47	-12452
▁propa	-12453
▁imposte	-12454
▁combusti	-12455
▁diventerà	-12456
ttle	-12457
▁EUR	-12458
onari	-12459
▁Pale	-12460
▁bloccare	-12461
▁Alessandra	-12462
▁140	-12463
▁Cass	-12464
▁andiamo	-12465
istruzione	-12466
▁Massimiliano	-12467
▁Cru	-12468
▁Rie	-12469
▁Show	-12470
▁crono	-12471
▁invol	-12472
▁robot	-12473
▁Colore	-12474
▁Azienda	-12475
▁incorpo	-12476
▁profuma	-12477
▁rifugia	-12478
▁tramonto	-12479
interfaccia	-12480
▁centrocampista	-12481
clo	-12482
▁Gh	-12483
▁Ry	-12484
▁Tera	-12485
▁tubo	-12486
▁adempi	-12487
▁casino	-12488
▁individuato	-12489
bola	-12490
rotta	-12491
▁Tecni	-12492
▁Domani	-12493
▁auguro	-12494
▁famose	-12495
▁Dobbiamo	-12496
▁fastidio	-12497
mis	-12498
rent	-12499
▁Dri	-12500
▁Pes	-12501
▁creazioni	-12502
▁fornitore	-12503
▁dimostrano	-12504
/06	-12505
▁350	-12506
▁amati	-12507
▁chiuse	-12508
▁avvocato	-12509
▁tastiera	-12510
▁community	-12511
▁patrocinio	-12512
92	-12513
▁Ottima	-12514
▁nazione	-12515
▁esistenza	-12516
▁Inghilterra	-12517
▁complessità	-12518
El	-12519
fornia	-12520
▁feriti	-12521
▁perfetti	-12522
TURA	-12523
▁plan	-12524
ettiva	-12525
▁cortile	-12526
▁costume	-12527
▁ceramica	-12528
▁guardando	-12529
▁qualifica	-12530
bon	-12531
▁ottica	-12532
▁risolto	-12533
▁garanzie	-12534
▁invitato	-12535
inaugurazione	-12536
tereo	-12537
▁Museum	-12538
▁driver	-12539
▁correnti	-12540
▁Basilicata	-12541
BC	-12542
▁(8	-12543
▁Area	-12544
▁togli	-12545
▁rivedere	-12546
▁miracolo	-12547
▁vitamine	-12548
▁atteggiamento	-12549
sale	-12550
▁1,5	-12551
▁CAM	-12552
▁Post	-12553
ccanti	-12554
▁Clicca	-12555
▁soffre	-12556
▁vescovo	-12557
mag	-12558
oldid	-12559
▁Vati	-12560
▁enormi	-12561
▁domesti	-12562
▁Gold	-12563
▁fogli	-12564
▁Prodotto	-12565
▁Marketing	-12566
racu	-12567
▁inutili	-12568
▁je	-12569
utando	-12570
laborazione	-12571
▁And	-12572
▁Devi	-12573
▁usano	-12574
▁George	-12575
▁Up	-12576
▁pr	-12577
cire	-12578
rosi	-12579
rande	-12580
▁Dell	-12581
tecnico	-12582
enamento	-12583
▁battuto	-12584
▁perdono	-12585
▁disturbo	-12586
▁accessibili	-12587
fras	-12588
gior	-12589
▁rinoma	-12590
▁spalla	-12591
▁concetti	-12592
▁beneficia	-12593
▁larghezza	-12594
attivazione	-12595
▁specialisti	-12596
cei	-12597
mpoli	-12598
▁complica	-12599
▁rilevante	-12600
ullo	-12601
▁pacco	-12602
▁avveni	-12603
▁rifiuto	-12604
▁veterina	-12605
▁aumentano	-12606
▁contribuisce	-12607
brale	-12608
▁Enti	-12609
▁Angela	-12610
▁Fontana	-12611
▁abbandonare	-12612
▁residenziale	-12613
Ga	-12614
ben	-12615
▁suici	-12616
▁Miche	-12617
▁State	-12618
▁ammon	-12619
▁Cucina	-12620
glioni	-12621
teremo	-12622
▁Potrai	-12623
▁Commissa	-12624
▁cancellare	-12625
ties	-12626
▁add	-12627
▁Poco	-12628
▁colp	-12629
▁hardware	-12630
▁sentimento	-12631
zona	-12632
▁fio	-12633
zzola	-12634
▁impon	-12635
▁altern	-12636
▁batteri	-12637
▁bottiglie	-12638
▁riconosce	-12639
sito	-12640
stia	-12641
▁Rossa	-12642
▁cerco	-12643
▁moltissime	-12644
ining	-12645
▁Sani	-12646
▁agro	-12647
▁caus	-12648
▁fumetti	-12649
▁posizionamento	-12650
uty	-12651
ason	-12652
index	-12653
▁econom	-12654
▁futura	-12655
▁logico	-12656
▁finanza	-12657
▁tedeschi	-12658
equilibrio	-12659
----	-12660
▁Plan	-12661
▁dirette	-12662
▁fashion	-12663
▁indicate	-12664
▁iniziano	-12665
UA	-12666
bai	-12667
foro	-12668
amici	-12669
▁Samp	-12670
▁pattu	-12671
▁Italiani	-12672
▁connessi	-12673
/4	-12674
▁Situato	-12675
▁preziosa	-12676
▁corrispondenza	-12677
cao	-12678
▁Ese	-12679
oltre	-12680
▁ponti	-12681
▁procla	-12682
▁distingu	-12683
▁psicologico	-12684
ceri	-12685
▁pedia	-12686
▁tentare	-12687
▁depressione	-12688
▁It	-12689
prin	-12690
danno	-12691
▁colline	-12692
▁ritorna	-12693
▁trascina	-12694
alba	-12695
▁scompa	-12696
▁inizierà	-12697
stan	-12698
▁Teresa	-12699
▁Tommaso	-12700
▁esplici	-12701
blu	-12702
hol	-12703
▁tranne	-12704
▁accompagnare	-12705
▁documentario	-12706
▁genu	-12707
▁leva	-12708
zzetti	-12709
▁labbra	-12710
▁mascher	-12711
▁ostacoli	-12712
Av	-12713
▁Case	-12714
▁Nota	-12715
▁mala	-12716
▁antin	-12717
▁privo	-12718
accetta	-12719
▁monitor	-12720
▁navigare	-12721
torizzazione	-12722
Nel	-12723
▁19,	-12724
▁Cho	-12725
▁cab	-12726
▁Agosto	-12727
▁portate	-12728
▁indiffer	-12729
▁assessore	-12730
▁impiegato	-12731
▁invernali	-12732
dei	-12733
▁ibri	-12734
▁poteri	-12735
▁fusione	-12736
▁frequente	-12737
▁unicamente	-12738
▁accompagnata	-12739
ANA	-12740
gby	-12741
room	-12742
▁INTER	-12743
▁Possiamo	-12744
▁atmosferi	-12745
▁condannato	-12746
▁prestigioso	-12747
unge	-12748
▁agoni	-12749
▁ansia	-12750
▁Service	-12751
▁intensa	-12752
▁pullman	-12753
▁Fel	-12754
▁Magi	-12755
▁immobile	-12756
▁rilancio	-12757
▁intitolato	-12758
▁primis	-12759
▁rendimento	-12760
▁temporanea	-12761
▁24,	-12762
▁one	-12763
▁corti	-12764
▁legalità	-12765
▁riunioni	-12766
▁contraddi	-12767
▁leg	-12768
gnori	-12769
▁malati	-12770
▁votato	-12771
▁Nazioni	-12772
ziana	-12773
▁preten	-12774
▁riflessioni	-12775
lì	-12776
fora	-12777
improvvi	-12778
▁nazioni	-12779
▁riferimenti	-12780
▁04	-12781
originale	-12782
▁vegetale	-12783
▁95	-12784
▁baby	-12785
▁Penso	-12786
▁cabina	-12787
▁ripreso	-12788
▁medaglia	-12789
▁determinata	-12790
▁significativa	-12791
ttolo	-12792
▁rialzo	-12793
▁gestore	-12794
▁produttive	-12795
Go	-12796
boni	-12797
▁Tok	-12798
▁fel	-12799
▁Blue	-12800
gnante	-12801
▁Genoa	-12802
▁ovest	-12803
▁biblio	-12804
▁preser	-12805
▁sciopero	-12806
▁geno	-12807
▁attese	-12808
episodio	-12809
▁salotto	-12810
▁Ã	-12811
▁vetta	-12812
opposizione	-12813
▁centimetri	-12814
/07	-12815
tup	-12816
unda	-12817
ameri	-12818
▁clan	-12819
▁parità	-12820
▁capolavoro	-12821
▁determinati	-12822
▁ON	-12823
▁Vet	-12824
▁lis	-12825
relli	-12826
▁calma	-12827
▁vintage	-12828
▁Istituto	-12829
▁camminare	-12830
▁sostanzialmente	-12831
gete	-12832
▁URL	-12833
▁prefi	-12834
▁Michel	-12835
▁terres	-12836
▁sensore	-12837
▁soddisfatti	-12838
▁Sera	-12839
▁Foggia	-12840
▁stampo	-12841
300	-12842
limi	-12843
lise	-12844
▁Sav	-12845
esima	-12846
▁reazioni	-12847
▁salvaguardia	-12848
urato	-12849
▁anziché	-12850
▁implica	-12851
▁Ado	-12852
▁volare	-12853
vanderia	-12854
▁Dicembre	-12855
▁Valentina	-12856
▁televisivo	-12857
ID	-12858
fas	-12859
▁poeta	-12860
mentano	-12861
▁Caserta	-12862
▁scrittori	-12863
▁lentamente	-12864
▁percentuali	-12865
▁riconosciuta	-12866
inc	-12867
▁calorie	-12868
raeli	-12869
▁Love	-12870
▁Navi	-12871
mentazioni	-12872
▁Manchester	-12873
ronos	-12874
▁ferite	-12875
▁creativa	-12876
▁proiezione	-12877
▁conversazione	-12878
title	-12879
▁sesto	-12880
▁disagi	-12881
▁Professi	-12882
▁alloggio	-12883
▁attivato	-12884
▁chiediamo	-12885
EE	-12886
▁rov	-12887
▁Stai	-12888
▁nonna	-12889
▁validità	-12890
▁DIS	-12891
giani	-12892
▁aula	-12893
cheremo	-12894
▁finalizzato	-12895
▁affidabilità	-12896
▁(-	-12897
etano	-12898
zzetto	-12899
▁2009,	-12900
▁giunti	-12901
▁rubrica	-12902
▁porzione	-12903
▁ampi	-12904
▁dure	-12905
autrice	-12906
▁Messico	-12907
▁ribadito	-12908
▁rilevanza	-12909
▁pesa	-12910
arresto	-12911
▁estende	-12912
▁fitness	-12913
▁maestri	-12914
▁sperare	-12915
▁calcolare	-12916
terie	-12917
sservatorio	-12918
▁separazione	-12919
▁rappresentata	-12920
▁collaborazioni	-12921
▁13,	-12922
▁Vole	-12923
▁mossa	-12924
▁domestico	-12925
▁dimissioni	-12926
▁modificata	-12927
▁coltivazione	-12928
▁Forte	-12929
▁Frank	-12930
▁fiamma	-12931
▁accredi	-12932
▁Esistono	-12933
▁accoglie	-12934
▁avvenire	-12935
▁carrello	-12936
▁segreteria	-12937
▁GP	-12938
anello	-12939
▁filtro	-12940
▁girato	-12941
▁facilitare	-12942
ert	-12943
rani	-12944
▁Geo	-12945
▁Prato	-12946
▁decisivo	-12947
versione	-12948
▁cd	-12949
curo	-12950
ulta	-12951
tentri	-12952
▁Phili	-12953
▁mappe	-12954
intelli	-12955
▁sereno	-12956
▁venuta	-12957
▁trasformato	-12958
▁accertamenti	-12959
▁vicepresidente	-12960
▁Sum	-12961
ution	-12962
▁andate	-12963
▁spinge	-12964
▁sviluppi	-12965
▁attrezzata	-12966
▁apparentemente	-12967
eling	-12968
▁Certi	-12969
▁scopi	-12970
▁ordinaria	-12971
▁riservati	-12972
▁stipendio	-12973
RC	-12974
uild	-12975
cicli	-12976
verde	-12977
▁Pesa	-12978
▁full	-12979
▁calde	-12980
▁scopre	-12981
▁stando	-12982
▁stupen	-12983
▁cognome	-12984
▁85	-12985
cero	-12986
▁preco	-12987
▁	-12988
i	-12989
e	-12990
a	-12991
o	-12992
n	-12993
t	-12994
r	-12995
l	-12996
s	-12997
c	-12998
d	-12999
u	-13000
p	-13001
m	-13002
g	-13003
v	-13004
,	-13005
z	-13006
.	-13007
f	-13008
h	-13009
b	-13010
q	-13011
S	-13012
’	-13013
I	-13014
C	-13015
A	-13016
à	-13017
0	-13018
L	-13019
è	-13020
P	-13021
1	-13022
M	-13023
2	-13024
'	-13025
E	-13026
T	-13027
R	-13028
D	-13029
N	-13030
G	-13031
B	-13032
O	-13033
:	-13034
F	-13035
-	-13036
)	-13037
k	-13038
(	-13039
y	-13040
V	-13041
3	-13042
5	-13043
U	-13044
ù	-13045
"	-13046
4	-13047
w	-13048
9	-13049
!	-13050
“	-13051
”	-13052
8	-13053
6	-13054
7	-13055
?	-13056
ò	-13057
H	-13058
Q	-13059
x	-13060
/	-13061
ì	-13062
–	-13063
é	-13064
;	-13065
W	-13066
K	-13067
J	-13068
%	-13069
Z	-13070
»	-13071
j	-13072
«	-13073
X	-13074
Y	-13075
È	-13076
&	-13077
°	-13078
­	-13079
+	-13080
‘	-13081
€	-13082
*	-13083
_	-13084
#	-13085
=	-13086
>	-13087
[	-13088
|	-13089
]	-13090
@	-13091
′	-13092
á	-13093
•	-13094
́	-13095
$	-13096
®	-13097
Ã	-13098
^	-13099
—	-13100
ü	-13101
	-13102
\	-13103
ó	-13104
<	-13105
í	-13106
а	-13107
`	-13108
о	-13109
â	-13110
ö	-13111
е	-13112
и	-13113
·	-13114
ä	-13115
с	-13116
н	-13117
ç	-13118
©	-13119
р	-13120
ú	-13121
к	-13122
̈	-13123
т	-13124
ñ	-13125
É	-13126
À	-13127
в	-13128
×	-13129
л	-13130
м	-13131
у	-13132
ê	-13133
ô	-13134
ã	-13135
ë	-13136
д	-13137
й	-13138
	-13139
п	-13140
Г	-13141
~	-13142
	-13143
č	-13144
←	-13145
Â	-13146
š	-13147
›	-13148
ь	-13149
ā	-13150
я	-13151
£	-13152
⁄	-13153
Р	-13154
ß	-13155
ы	-13156
	-13157
г	-13158
б	-13159
з	-13160
ć	-13161
→	-13162
ł	-13163
ï	-13164
î	-13165
ø	-13166
å	-13167
ا	-13168
„	-13169
ă	-13170
α	-13171
י	-13172
¬	-13173
	-13174
μ	-13175
û	-13176
¿	-13177
🙂	-13178
Ø	-13179
ч	-13180
С	-13181
æ	-13182
	-13183
ʼ	-13184
ō	-13185
ο	-13186
Á	-13187
ι	-13188
Ö	-13189
●	-13190
ν	-13191
ş	-13192
ž	-13193
ш	-13194
х	-13195
ī	-13196
Ё	-13197
ı	-13198
ر	-13199
Ù	-13200
ר	-13201
Č	-13202
ε	-13203
τ	-13204
️	-13205
ل	-13206
Ì	-13207
ב	-13208
ж	-13209
	-13210
Š	-13211
‚	-13212
ו	-13213
В	-13214
λ	-13215
Ђ	-13216
œ	-13217
Ü	-13218
ת	-13219
ה	-13220
눇	-13221
【	-13222
ș	-13223
К	-13224
ρ	-13225
ц	-13226
】	-13227
😉	-13228
±	-13229
§	-13230
−	-13231
}	-13232
	-13233
	-13234
ū	-13235
♥	-13236
κ	-13237
↑	-13238
ς	-13239
✅	-13240
★	-13241
Ò	-13242
¡	-13243
א	-13244
ي	-13245
Б	-13246
ب	-13247
ę	-13248
σ	-13249
Ă	-13250
😀	-13251
π	-13252
‐	-13253
ý	-13254
̄	-13255
Ð	-13256
М	-13257
❤	-13258
ю	-13259
ל	-13260
ś	-13261
ی	-13262
‟	-13263
ń	-13264
ř	-13265
η	-13266
¢	-13267
ن	-13268
눉	-13269
Å	-13270
А	-13271
О	-13272
中	-13273
日	-13274
س	-13275
ğ	-13276
ة	-13277
ż	-13278
П	-13279
‡	-13280
У	-13281
م	-13282
Т	-13283
‬	-13284
β	-13285
本	-13286
►	-13287
の	-13288
ф	-13289
ف	-13290
ē	-13291
ț	-13292
̶	-13293
ά	-13294
و	-13295
‹	-13296
ד	-13297
ع	-13298
■	-13299
υ	-13300
√	-13301
✓	-13302
文	-13303
ש	-13304
語	-13305
ί	-13306
ą	-13307
Д	-13308
ě	-13309
Ä	-13310
ت	-13311
ע	-13312
Ç	-13313
נ	-13314
פ	-13315
ω	-13316
מ	-13317
Ñ	-13318
ð	-13319
ʿ	-13320
Н	-13321
◆	-13322
ό	-13323
	-13324
щ	-13325
	-13326
δ	-13327
د	-13328
ン	-13329
ー	-13330
õ	-13331
γ	-13332
Ž	-13333
Ó	-13334
Л	-13335
ס	-13336
і	-13337
ח	-13338
ᐅ	-13339
ƒ	-13340
ё	-13341
ї	-13342
÷	-13343
І	-13344
Ë	-13345
‪	-13346
‒	-13347
한	-13348
Ā	-13349
ḥ	-13350
🌟	-13351
ṣ	-13352
≥	-13353
¦	-13354
Í	-13355
İ	-13356
э	-13357
ק	-13358
†	-13359
ъ	-13360
국	-13361
	-13362
Ł	-13363
И	-13364
ן	-13365
ė	-13366
З	-13367
✔	-13368
¤	-13369
어	-13370
Ε	-13371
Е	-13372
כ	-13373
😂	-13374
χ	-13375
ه	-13376
‰	-13377
¥	-13378
Ú	-13379
̀	-13380
θ	-13381
ή	-13382
♦	-13383
φ	-13384
خ	-13385
έ	-13386
‭	-13387
▸	-13388
、	-13389
Ω	-13390
ṇ	-13391
▷	-13392
ţ	-13393
ص	-13394
ق	-13395
ṛ	-13396
⇒	-13397
Î	-13398
ə	-13399
ˆ	-13400
ệ	-13401
➡	-13402
	-13403
ύ	-13404
ế	-13405
ů	-13406
ų	-13407
ˈ	-13408
⭐	-13409
ź	-13410
̧	-13411
Х	-13412
ג	-13413
ท	-13414
ト	-13415
ش	-13416
Ш	-13417
▫	-13418
い	-13419
ッ	-13420
	-13421
↓	-13422
ĕ	-13423
Α	-13424
☆	-13425
イ	-13426
	-13427
ج	-13428
≤	-13429
▔	-13430
的	-13431
≈	-13432
😊	-13433
ő	-13434
Ч	-13435
ם	-13436
ň	-13437
Ś	-13438
ե	-13439
צ	-13440
▪	-13441
た	-13442
な	-13443
ス	-13444
国	-13445
油	-13446
ย	-13447
─	-13448
▶	-13449
に	-13450
ク	-13451
ル	-13452
ʻ	-13453
Φ	-13454
܀	-13455
်	-13456
‧	-13457
・	-13458
다	-13459
̃	-13460
Δ	-13461
ไ	-13462
で	-13463
と	-13464
Ş	-13465
ǎ	-13466
は	-13467
￼	-13468
😍	-13469
Σ	-13470
ξ	-13471
Э	-13472
Я	-13473
ز	-13474
া	-13475
ṁ	-13476
ќ	-13477
أ	-13478
☎	-13479
人	-13480
Æ	-13481
ˮ	-13482
Ι	-13483
ա	-13484
ז	-13485
し	-13486
る	-13487
大	-13488
̊	-13489
Π	-13490
Ф	-13491
ح	-13492
ک	-13493
◊	-13494
ラ	-13495
🔴	-13496
ώ	-13497
∴	-13498
コ	-13499
ド	-13500
는	-13501
Ō	-13502
Κ	-13503
Τ	-13504
њ	-13505
ט	-13506
フ	-13507
	-13508
Ė	-13509
ħ	-13510
ط	-13511
―	-13512
😛	-13513
	-13514
ÿ	-13515
Đ	-13516
Ÿ	-13517
ն	-13518
ั	-13519
て	-13520
스	-13521
🙁	-13522
Ġ	-13523
ἀ	-13524
ἐ	-13525
☺	-13526
す	-13527
を	-13528
カ	-13529
ロ	-13530
	-13531
	-13532
Ê	-13533
ġ	-13534
ɛ	-13535
Ж	-13536
ր	-13537
ذ	-13538
ा	-13539
ာ	-13540
▬	-13541
♡	-13542
シ	-13543
景	-13544
	-13545
Ô	-13546
đ	-13547
ĭ	-13548
ζ	-13549
Ц	-13550
յ	-13551
ง	-13552
ร	-13553
า	-13554
မ	-13555
ი	-13556
ṅ	-13557
《	-13558
》	-13559
リ	-13560
所	-13561
竪	-13562
니	-13563
🇮	-13564
🇹	-13565
🚫	-13566
	-13567
¶	-13568
ŕ	-13569
ŭ	-13570
Ż	-13571
Μ	-13572
Ρ	-13573
ў	-13574
غ	-13575
‍	-13576
あ	-13577
グ	-13578
パ	-13579
区	-13580
新	-13581
石	-13582
精	-13583
	-13584
👍	-13585
😁	-13586
😯	-13587
Þ	-13588
ŏ	-13589
̣	-13590
Ο	-13591
ى	-13592
پ	-13593
ी	-13594
∆	-13595
➖	-13596
➤	-13597
が	-13598
れ	-13599
二	-13600
市	-13601
自	-13602
	-13603
👉	-13604
👏	-13605
Ï	-13606
Ν	-13607
Қ	-13608
қ	-13609
Հ	-13610
՚	-13611
्	-13612
ব	-13613
ি	-13614
་	-13615
რ	-13616
❗	-13617
ま	-13618
り	-13619
タ	-13620
可	-13621
이	-13622
🏻	-13623
🔥	-13624
	-13625
ư	-13626
ǐ	-13627
ʾ	-13628
ψ	-13629
ك	-13630
र	-13631
น	-13632
ม	-13633
န	-13634
ა	-13635
ლ	-13636
∙	-13637
∞	-13638
⚽	-13639
✿	-13640
ん	-13641
ョ	-13642
愛	-13643
車	-13644
🎨	-13645
💯	-13646
🙄	-13647
Õ	-13648
ľ	-13649
ɑ	-13650
̆	-13651
Ь	-13652
ল	-13653
င	-13654
း	-13655
ြ	-13656
თ	-13657
უ	-13658
ქ	-13659
↔	-13660
◦	-13661
☞	-13662
❀	-13663
➥	-13664
。	-13665
っ	-13666
ア	-13667
ダ	-13668
作	-13669
十	-13670
夜	-13671
山	-13672
我	-13673
最	-13674
海	-13675
环	-13676
省	-13677
	-13678
💪	-13679
📌	-13680
	-13681
þ	-13682
ť	-13683
ː	-13684
̨	-13685
Υ	-13686
ئ	-13687
ہ	-13688
न	-13689
ว	-13690
Ḥ	-13691
ṭ	-13692
ố	-13693
ồ	-13694
‛	-13695
⃣	-13696
⋅	-13697
⚠	-13698
「	-13699
」	-13700
か	-13701
こ	-13702
ら	-13703
ウ	-13704
ザ	-13705
バ	-13706
プ	-13707
メ	-13708
一	-13709
入	-13710
出	-13711
县	-13712
로	-13713
에	-13714
	-13715
📲	-13716
ǔ	-13717
ɔ	-13718
Γ	-13719
ף	-13720
ि	-13721
র	-13722
த	-13723
ம	-13724
்	-13725
ఀ	-13726
ห	-13727
เ	-13728
ᄀ	-13729
∠	-13730
⏰	-13731
◀	-13732
♣	-13733
⟵	-13734
ⵣ	-13735
『	-13736
』	-13737
さ	-13738
オ	-13739
ズ	-13740
ナ	-13741
ブ	-13742
会	-13743
地	-13744
宝	-13745
布	-13746
支	-13747
月	-13748
船	-13749
行	-13750
고	-13751
구	-13752
리	-13753
습	-13754
을	-13755
	-13756
	-13757
🌸	-13758
🍻	-13759
😅	-13760
😦	-13761
	-13762
Ć	-13763
Œ	-13764
ɪ	-13765
ָ	-13766
প	-13767
্	-13768
ி	-13769
ు	-13770
ป	-13771
อ	-13772
ะ	-13773
ိ	-13774
ḍ	-13775
ạ	-13776
ῖ	-13777
∨	-13778
⌘	-13779
║	-13780
□	-13781
☕	-13782
❓	-13783
き	-13784
ケ	-13785
ソ	-13786
チ	-13787
ヒ	-13788
上	-13789
前	-13790
家	-13791
形	-13792
歯	-13793
私	-13794
그	-13795
드	-13796
우	-13797
의	-13798
	-13799
😘	-13800
ȓ	-13801
Λ	-13802
إ	-13803
ض	-13804
द	-13805
म	-13806
ह	-13807
ং	-13808
ণ	-13809
ু	-13810
ழ	-13811
ု	-13812
დ	-13813
ា	-13814
ờ	-13815
∼	-13816
≫	-13817
│	-13818
☀	-13819
✽	-13820
❌	-13821
❚	-13822
➢	-13823
く	-13824
そ	-13825
つ	-13826
め	-13827
ィ	-13828
ォ	-13829
ジ	-13830
ゼ	-13831
デ	-13832
ミ	-13833
モ	-13834
个	-13835
乡	-13836
力	-13837
合	-13838
年	-13839
是	-13840
有	-13841
法	-13842
用	-13843
粵	-13844
있	-13845
💰	-13846
💻	-13847
🔝	-13848
🕥	-13849
😄	-13850
😋	-13851
😱	-13852
	-13853
ņ	-13854
˗	-13855
Χ	-13856
Ѐ	-13857
Є	-13858
Ю	-13859
ѐ	-13860
۞	-13861
ర	-13862
ด	-13863
ล	-13864
ศ	-13865
ี	-13866
ར	-13867
ṡ	-13868
Ἀ	-13869
ἰ	-13870
ὶ	-13871
※	-13872
₺	-13873
≪	-13874
▹	-13875
♀	-13876
♰	-13877
❄	-13878
❯	-13879
だ	-13880
ど	-13881
も	-13882
ェ	-13883
キ	-13884
ポ	-13885
レ	-13886
们	-13887
分	-13888
場	-13889
夕	-13890
女	-13891
房	-13892
洲	-13893
相	-13894
立	-13895
財	-13896
金	-13897
가	-13898
대	-13899
운	-13900
지	-13901
하	-13902
호	-13903
	-13904
	-13905
🇧	-13906
📍	-13907
📱	-13908
😆	-13909
😎	-13910
🤣	-13911
🤩	-13912
	-13913
Ř	-13914
ű	-13915
ǧ	-13916
ʃ	-13917
ˋ	-13918
˳	-13919
̓	-13920
Ί	-13921
Η	-13922
Ы	-13923
ӑ	-13924
ठ	-13925
ल	-13926
े	-13927
য	-13928
ల	-13929
จ	-13930
พ	-13931
ํ	-13932
ས	-13933
ခ	-13934
ရ	-13935
្	-13936
Ṣ	-13937
ὑ	-13938
ὕ	-13939
ὰ	-13940
‽	-13941
℧	-13942
⇧	-13943
∧	-13944
≡	-13945
⊙	-13946
◇	-13947
☼	-13948
♂	-13949
♚	-13950
♫	-13951
❥	-13952
➠	-13953
え	-13954
お	-13955
け	-13956
み	-13957
サ	-13958
ツ	-13959
ハ	-13960
体	-13961
全	-13962
夷	-13963
小	-13964
彼	-13965
扣	-13966
棠	-13967
欧	-13968
武	-13969
治	-13970
炎	-13971
特	-13972
田	-13973
百	-13974
者	-13975
联	-13976
華	-13977
西	-13978
要	-13979
赛	-13980
道	-13981
醉	-13982
高	-13983
기	-13984
나	-13985
를	-13986
시	-13987
전	-13988
합	-13989
	-13990
	-13991
🌪	-13992
🌹	-13993
🍷	-13994
🔍	-13995
😜	-13996
🛒	-13997
􀂄	-13998
	-13999
ģ	-14000
Ǝ	-14001
Ƨ	-14002
ɡ	-14003
ʊ	-14004
̯	-14005
Θ	-14006
ϝ	-14007
Й	-14008
ј	-14009
स	-14010
ম	-14011
়	-14012
ী	-14013
ఎ	-14014
త	-14015
ీ	-14016
ം	-14017
മ	-14018
യ	-14019
ല	-14020
ള	-14021
ാ	-14022
บ	-14023
ุ	-14024
က	-14025
ည	-14026
တ	-14027
ပ	-14028
ယ	-14029
လ	-14030
ေ	-14031
ត	-14032
ḩ	-14033
ứ	-14034
ᾥ	-14035
ῶ	-14036
‖	-14037
⁃	-14038
∇	-14039
∫	-14040
⋆	-14041
▲	-14042
◄	-14043
☑	-14044
♪	-14045
✨	-14046
✮	-14047
✱	-14048
➜	-14049
➞	-14050
➷	-14051
ⴰ	-14052
ⴻ	-14053
ⵍ	-14054
ⵔ	-14055
ⵢ	-14056
う	-14057
テ	-14058
マ	-14059
ュ	-14060
ヴ	-14061
万	-14062
三	-14063
五	-14064
京	-14065
公	-14066
其	-14067
内	-14068
加	-14069
動	-14070
北	-14071
古	-14072
天	-14073
好	-14074
州	-14075
平	-14076
式	-14077
性	-14078
感	-14079
提	-14080
水	-14081
江	-14082
游	-14083
王	-14084
目	-14085
神	-14086
苏	-14087
見	-14088
设	-14089
语	-14090
车	-14091
这	-14092
都	-14093
里	-14094
銀	-14095
风	-14096
공	-14097
도	-14098
매	-14099
사	-14100
살	-14101
아	-14102
와	-14103
으	-14104
인	-14105
일	-14106
	-14107
	-14108
	-14109
	-14110
	-14111
🇪	-14112
🇬	-14113
🌍	-14114
🍃	-14115
🎤	-14116
📅	-14117
📝	-14118
📸	-14119
🔸	-14120
🛀	-14121
🥇	-14122
Û	-14123
Ē	-14124
Ī	-14125
ǜ	-14126
ǫ	-14127
̕	-14128
Έ	-14129
Β	-14130
Щ	-14131
џ	-14132
ҷ	-14133
ְ	-14134
ֹ	-14135
ּ	-14136
ך	-14137
ء	-14138
آ	-14139
ث	-14140
گ	-14141
۩	-14142
ज	-14143
त	-14144
प	-14145
भ	-14146
य	-14147
ষ	-14148
మ	-14149
్	-14150
ನ	-14151
฀	-14152
ก	-14153
฿	-14154
๑	-14155
ລ	-14156
າ	-14157
ང	-14158
သ	-14159
ព	-14160
រ	-14161
Ḩ	-14162
ẽ	-14163
ῆ	-14164
ῦ	-14165
⁠	-14166
℗	-14167
╮	-14168
╰	-14169
█	-14170
▻	-14171
◐	-14172
◾	-14173
✌	-14174
✒	-14175
✚	-14176
✪	-14177
➔	-14178
⤝	-14179
エ	-14180
ネ	-14181
ペ	-14182
ム	-14183
ャ	-14184
ヨ	-14185
㄀	-14186
主	-14187
了	-14188
住	-14189
信	-14190
光	-14191
净	-14192
利	-14193
南	-14194
友	-14195
受	-14196
名	-14197
和	-14198
园	-14199
國	-14200
在	-14201
太	-14202
学	-14203
安	-14204
宿	-14205
尔	-14206
干	-14207
当	-14208
很	-14209
投	-14210
折	-14211
振	-14212
服	-14213
机	-14214
楼	-14215
民	-14216
沙	-14217
注	-14218
猫	-14219
理	-14220
琛	-14221
生	-14222
癡	-14223
白	-14224
盆	-14225
知	-14226
社	-14227
稿	-14228
章	-14229
第	-14230
經	-14231
舒	-14232
草	-14233
计	-14234
通	-14235
阿	-14236
風	-14237
馃	-14238
뀐	-14239
미	-14240
박	-14241
산	-14242
수	-14243
신	-14244
자	-14245
제	-14246
주	-14247
집	-14248
톱	-14249
파	-14250
했	-14251
	-14252
	-14253
	-14254
	-14255
	-14256
🇸	-14257
🌱	-14258
🌺	-14259
🎁	-14260
🎮	-14261
🎯	-14262
🏆	-14263
👩	-14264
👶	-14265
💃	-14266
💙	-14267
💡	-14268
💥	-14269
💸	-14270
🔎	-14271
😈	-14272
😭	-14273
😮	-14274
😳	-14275
🤔	-14276
🤗	-14277
	-14278
ď	-14279
ĝ	-14280
ĺ	-14281
Ľ	-14282
ŋ	-14283
ŝ	-14284
Ź	-14285
ɒ	-14286
ɣ	-14287
ɲ	-14288
ʀ	-14289
ʒ	-14290
ʽ	-14291
ˇ	-14292
ˌ	-14293
̋	-14294
̸	-14295
͡	-14296
Ώ	-14297
ϋ	-14298
є	-14299
ћ	-14300
ҡ	-14301
ӣ	-14302
ַ	-14303
،	-14304
ّ	-14305
ु	-14306
ौ	-14307
শ	-14308
ে	-14309
ਜ	-14310
ਪ	-14311
ਬ	-14312
ਾ	-14313
ੀ	-14314
ੰ	-14315
గ	-14316
య	-14317
ా	-14318
ె	-14319
ഀ	-14320
ธ	-14321
ส	-14322
ู	-14323
่	-14324
ວ	-14325
ະ	-14326
ི	-14327
ོ	-14328
ྒ	-14329
ဘ	-14330
ီ	-14331
ᜀ	-14332
ក	-14333
ខ	-14334
ម	-14335
ᨀ	-14336
ṃ	-14337
ấ	-14338
ễ	-14339
ộ	-14340
ἄ	-14341
ἔ	-14342
ὀ	-14343
ὁ	-14344
⇑	-14345
∂	-14346
∪	-14347
☛	-14348
♋	-14349
♠	-14350
♭	-14351
⚡	-14352
⛔	-14353
➏	-14354
⟩	-14355
ぎ	-14356
ち	-14357
べ	-14358
よ	-14359
わ	-14360
ガ	-14361
セ	-14362
ノ	-14363
ビ	-14364
ヘ	-14365
ベ	-14366
ボ	-14367
东	-14368
事	-14369
交	-14370
代	-14371
你	-14372
便	-14373
停	-14374
傳	-14375
克	-14376
制	-14377
劇	-14378
化	-14379
卍	-14380
原	-14381
台	-14382
周	-14383
喜	-14384
回	-14385
城	-14386
外	-14387
央	-14388
子	-14389
完	-14390
宗	-14391
定	-14392
就	-14393
居	-14394
岩	-14395
工	-14396
巨	-14397
度	-14398
庫	-14399
徒	-14400
必	-14401
恋	-14402
您	-14403
拉	-14404
持	-14405
指	-14406
接	-14407
数	-14408
方	-14409
星	-14410
朋	-14411
木	-14412
来	-14413
杨	-14414
株	-14415
格	-14416
機	-14417
歌	-14418
浪	-14419
深	-14420
港	-14421
湖	-14422
火	-14423
热	-14424
焼	-14425
版	-14426
现	-14427
男	-14428
皇	-14429
示	-14430
禅	-14431
篇	-14432
編	-14433
红	-14434
羅	-14435
聖	-14436
能	-14437
興	-14438
色	-14439
花	-14440
茅	-14441
萌	-14442
蓮	-14443
藤	-14444
覺	-14445
走	-14446
輔	-14447
輪	-14448
钱	-14449
開	-14450
间	-14451
霉	-14452
面	-14453
音	-14454
餐	-14455
駅	-14456
게	-14457
과	-14458
꽃	-14459
녀	-14460
돌	-14461
러	-14462
려	-14463
마	-14464
무	-14465
문	-14466
바	-14467
부	-14468
비	-14469
서	-14470
세	-14471
소	-14472
심	-14473
안	-14474
여	-14475
은	-14476
장	-14477
조	-14478
친	-14479
해	-14480
히	-14481
	-14482
	-14483
	-14484
	-14485
	-14486
	-14487
	-14488
	-14489
🇦	-14490
🇷	-14491
🇺	-14492
🌷	-14493
🌻	-14494
🍁	-14495
🍂	-14496
🎐	-14497
🎬	-14498
🏋	-14499
🏖	-14500
🏼	-14501
💀	-14502
💐	-14503
💔	-14504
💝	-14505
💠	-14506
💲	-14507
📋	-14508
🖱	-14509
😃	-14510
😒	-14511
🛍	-14512
	-14513
	-14514
ĉ	-14515
ļ	-14516
Ń	-14517
Ő	-14518
Ť	-14519
Ƈ	-14520
Ɛ	-14521
ƚ	-14522
Ƭ	-14523
ȏ	-14524
ȗ	-14525
Ƞ	-14526
ɐ	-14527
ʌ	-14528
ʎ	-14529
̇	-14530
Ή	-14531
Ζ	-14532
ϊ	-14533
ϛ	-14534
ѕ	-14535
գ	-14536
ի	-14537
ո	-14538
տ	-14539
ւ	-14540
ִ	-14541
ץ	-14542
ظ	-14543
ـ	-14544
ٍ	-14545
ُ	-14546
چ	-14547
ډ	-14548
ے	-14549
ە	-14550
ܐ	-14551
ܘ	-14552
ं	-14553
ग	-14554
ब	-14555
व	-14556
ष	-14557
ो	-14558
জ	-14559
ভ	-14560
ய	-14561
ை	-14562
ం	-14563
ఆ	-14564
న	-14565
బ	-14566
ಕ	-14567
ಡ	-14568
್	-14569
ค	-14570
ช	-14571
ภ	-14572
ื	-14573
แ	-14574
้	-14575
ຊ	-14576
ເ	-14577
ໄ	-14578
ༀ	-14579
ཁ	-14580
མ	-14581
འ	-14582
ལ	-14583
ུ	-14584
ེ	-14585
ྫ	-14586
စ	-14587
္	-14588
ျ	-14589
ှ	-14590
გ	-14591
ო	-14592
ᄂ	-14593
ᄄ	-14594
ᑎ	-14595
ᒃ	-14596
ᔀ	-14597
ច	-14598
ជ	-14599
ស	-14600
េ	-14601
់	-14602
ᠡ	-14603
ᴇ	-14604
Ḕ	-14605
ḳ	-14606
ṯ	-14607
ậ	-14608
ắ	-14609
ẵ	-14610
ị	-14611
ἶ	-14612
Ἰ	-14613
ὐ	-14614
ῥ	-14615
ῷ	-14616
‣	-14617
‿	-14618
∅	-14619
∈	-14620
⊕	-14621
⏩	-14622
⏭	-14623
⏱	-14624
␍	-14625
○	-14626
◮	-14627
☊	-14628
☘	-14629
☝	-14630
☠	-14631
☽	-14632
☾	-14633
♐	-14634
♕	-14635
⚘	-14636
⛄	-14637
⛲	-14638
✎	-14639
✗	-14640
✦	-14641
✰	-14642
❖	-14643
❝	-14644
❱	-14645
➊	-14646
➋	-14647
➌	-14648
➍	-14649
➎	-14650
➐	-14651
➑	-14652
➒	-14653
➙	-14654
➽	-14655
⟨	-14656
⤑	-14657
⤽	-14658
Ⱄ	-14659
⸀	-14660
〈	-14661
〰	-14662
ご	-14663
じ	-14664
ず	-14665
せ	-14666
び	-14667
ぶ	-14668
ゃ	-14669
や	-14670
ろ	-14671
ゾ	-14672
ニ	-14673
ピ	-14674
ホ	-14675
ユ	-14676
ワ	-14677
㐀	-14678
㠀	-14679
丁	-14680
与	-14681
世	-14682
久	-14683
也	-14684
于	-14685
云	-14686
井	-14687
享	-14688
今	-14689
他	-14690
令	-14691
以	-14692
伝	-14693
位	-14694
佐	-14695
何	-14696
供	-14697
俺	-14698
值	-14699
僧	-14700
元	-14701
写	-14702
别	-14703
到	-14704
功	-14705
又	-14706
发	-14707
句	-14708
史	-14709
吵	-14710
吾	-14711
告	-14712
味	-14713
品	-14714
善	-14715
嘆	-14716
団	-14717
土	-14718
埃	-14719
塔	-14720
士	-14721
妙	-14722
妹	-14723
宅	-14724
实	-14725
実	-14726
客	-14727
察	-14728
对	-14729
寺	-14730
导	-14731
将	-14732
少	-14733
层	-14734
屋	-14735
屏	-14736
属	-14737
岛	-14738
川	-14739
己	-14740
巴	-14741
店	-14742
律	-14743
後	-14744
徐	-14745
得	-14746
志	-14747
悠	-14748
情	-14749
意	-14750
成	-14751
戦	-14752
手	-14753
才	-14754
搒	-14755
改	-14756
旗	-14757
早	-14758
昆	-14759
明	-14760
晚	-14761
普	-14762
智	-14763
曼	-14764
會	-14765
望	-14766
朝	-14767
李	-14768
村	-14769
松	-14770
栋	-14771
桜	-14772
梦	-14773
森	-14774
様	-14775
欢	-14776
氏	-14777
気	-14778
氣	-14779
汉	-14780
河	-14781
泉	-14782
济	-14783
温	-14784
灌	-14785
灰	-14786
煲	-14787
物	-14788
犬	-14789
現	-14790
疆	-14791
真	-14792
着	-14793
矇	-14794
碁	-14795
祁	-14796
祖	-14797
祠	-14798
秋	-14799
空	-14800
笍	-14801
简	-14802
素	-14803
継	-14804
繁	-14805
维	-14806
置	-14807
群	-14808
脿	-14809
良	-14810
茶	-14811
莎	-14812
菜	-14813
营	-14814
萬	-14815
蒙	-14816
藏	-14817
蘭	-14818
解	-14819
設	-14820
説	-14821
読	-14822
論	-14823
话	-14824
该	-14825
调	-14826
貌	-14827
転	-14828
農	-14829
过	-14830
近	-14831
适	-14832
那	-14833
部	-14834
重	-14835
野	-14836
鉄	-14837
鋤	-14838
鏤	-14839
链	-14840
镇	-14841
门	-14842
陈	-14843
隠	-14844
雅	-14845
静	-14846
项	-14847
香	-14848
體	-14849
鸡	-14850
麦	-14851
黄	-14852
개	-14853
경	-14854
골	-14855
교	-14856
근	-14857
까	-14858
년	-14859
노	-14860
님	-14861
되	-14862
라	-14863
류	-14864
르	-14865
명	-14866
버	-14867
베	-14868
변	-14869
보	-14870
삭	-14871
설	-14872
숙	-14873
순	-14874
었	-14875
연	-14876
왔	-14877
요	-14878
용	-14879
움	-14880
절	-14881
접	-14882
정	-14883
좋	-14884
처	-14885
천	-14886
첫	-14887
출	-14888
치	-14889
키	-14890
터	-14891
테	-14892
통	-14893
팅	-14894
폐	-14895
학	-14896
화	-14897
후	-14898
	-14899
	-14900
	-14901
	-14902
	-14903
	-14904
	-14905
	-14906
	-14907
	-14908
	-14909
	-14910
	-14911
︎	-14912
𒆠	-14913
𒋀	-14914
🇩	-14915
🇫	-14916
🌼	-14917
🍇	-14918
🍎	-14919
🍝	-14920
🍳	-14921
🎃	-14922
🎉	-14923
🎥	-14924
🏃	-14925
🏘	-14926
🏫	-14927
🐍	-14928
👨	-14929
👻	-14930
💊	-14931
💕	-14932
💜	-14933
💳	-14934
📊	-14935
📷	-14936
🔋	-14937
🔜	-14938
🔵	-14939
🔷	-14940
🖤	-14941
🗻	-14942
😇	-14943
😌	-14944
😑	-14945
😔	-14946
😙	-14947
😥	-14948
🙏	-14949
🚙	-14950
🚧	-14951
🤒	-14952
🤓	-14953
🥀	-14954
🥰	-14955
🥳	-14956
🦋	-14957
🧜	-14958
􀂃	-14959
	-14960
	-14961
	-14962
	-14963
Ę	-14964
Ě	-14965
Ğ	-14966
ĩ	-14967
Ĭ	-14968
ĵ	-14969
ķ	-14970
Ĺ	-14971
Ū	-14972
ŵ	-14973
Ə	-14974
ơ	-14975
ǒ	-14976
ǵ	-14977
ǻ	-14978
ȃ	-14979
Ș	-14980
Ʌ	-14981
ɘ	-14982
ɤ	-14983
ɫ	-14984
ɯ	-14985
ɴ	-14986
ʍ	-14987
ʏ	-14988
ʝ	-14989
ʦ	-14990
ʧ	-14991
ʹ	-14992
ˁ	-14993
̉	-14994
̎	-14995
̏	-14996
̔	-14997
̵	-14998
̷	-14999
͂	-15000
Ά	-15001
Ѓ	-15002
Ї	-15003
Љ	-15004
ѣ	-15005
ґ	-15006
Ү	-15007
ҳ	-15008
Ҷ	-15009
Ҹ	-15010
һ	-15011
Ӏ	-15012
ӧ	-15013
Ө	-15014
ӯ	-15015
Ԁ	-15016
ԉ	-15017
Ա	-15018
Ի	-15019
Կ	-15020
Ռ	-15021
Ս	-15022
Ք	-15023
զ	-15024
ը	-15025
թ	-15026
լ	-15027
խ	-15028
հ	-15029
չ	-15030
պ	-15031
վ	-15032
ք	-15033
֩	-15034
ֻ	-15035
ֽ	-15036
ׁ	-15037
ׂ	-15038
؟	-15039
ؤ	-15040
ً	-15041
َ	-15042
ِ	-15043
ْ	-15044
ٔ	-15045
٠	-15046
ڌ	-15047
ۊ	-15048
۴	-15049
܉	-15050
ܝ	-15051
ܡ	-15052
ܪ	-15053
ࠂ	-15054
ࠠ	-15055
ࠣ	-15056
आ	-15057
औ	-15058
क	-15059
ख	-15060
ध	-15061
फ	-15062
অ	-15063
উ	-15064
গ	-15065
চ	-15066
দ	-15067
ন	-15068
ফ	-15069
স	-15070
ো	-15071
ગ	-15072
જ	-15073
ત	-15074
ર	-15075
ા	-15076
ી	-15077
ુ	-15078
଀	-15079
ଆ	-15080
ଓ	-15081
ଡ	-15082
଼	-15083
ି	-15084
இ	-15085
ண	-15086
ல	-15087
ள	-15088
అ	-15089
ఖ	-15090
చ	-15091
ట	-15092
డ	-15093
ద	-15094
ప	-15095
వ	-15096
శ	-15097
ే	-15098
ై	-15099
ో	-15100
ข	-15101
ฉ	-15102
ฒ	-15103
ต	-15104
์	-15105
ງ	-15106
ຍ	-15107
ດ	-15108
ຖ	-15109
ທ	-15110
ນ	-15111
ບ	-15112
ປ	-15113
ມ	-15114
ສ	-15115
ອ	-15116
ີ	-15117
ື	-15118
ູ	-15119
ག	-15120
ད	-15121
བ	-15122
ཡ	-15123
ྩ	-15124
ဆ	-15125
ထ	-15126
ဖ	-15127
ဲ	-15128
ွ	-15129
ვ	-15130
ს	-15131
ტ	-15132
შ	-15133
ማ	-15134
ር	-15135
ኛ	-15136
አ	-15137
ᐃ	-15138
ᑐ	-15139
ᑦ	-15140
ᑲ	-15141
ᓄ	-15142
ᕕ	-15143
ᗚ	-15144
ង	-15145
ណ	-15146
ធ	-15147
ភ	-15148
ិ	-15149
ុ	-15150
ែ	-15151
ោ	-15152
ំ	-15153
ះ	-15154
៍	-15155
ᠬ	-15156
ᠯ	-15157
ᥙ	-15158
ᴀ	-15159
ᴅ	-15160
ᴏ	-15161
ᴢ	-15162
᷈	-15163
ḗ	-15164
ḫ	-15165
Ṃ	-15166
Ṗ	-15167
Ṭ	-15168
ẓ	-15169
ả	-15170
ẫ	-15171
ặ	-15172
ề	-15173
ỉ	-15174
ủ	-15175
ữ	-15176
ự	-15177
ỳ	-15178
ἃ	-15179
ἅ	-15180
Ἁ	-15181
Ἄ	-15182
Ἅ	-15183
ἑ	-15184
Ἔ	-15185
ἡ	-15186
ἣ	-15187
Ἠ	-15188
Ἡ	-15189
ἱ	-15190
ἷ	-15191
ὄ	-15192
Ὃ	-15193
Ὑ	-15194
ὠ	-15195
ὤ	-15196
ὴ	-15197
ὸ	-15198
ὼ	-15199
ᾶ	-15200
Ῥ	-15201
ῲ	-15202
⁦	-15203
⁩	-15204
₩	-15205
₭	-15206
₴	-15207
₹	-15208
₽	-15209
℮	-15210
⇨	-15211
∁	-15212
≠	-15213
⊥	-15214
⏬	-15215
⏳	-15216
⏺	-15217
├	-15218
╗	-15219
▭	-15220
▼	-15221
▾	-15222
◉	-15223
◎	-15224
◘	-15225
◙	-15226
☄	-15227
☔	-15228
☜	-15229
☮	-15230
☹	-15231
♈	-15232
♊	-15233
♖	-15234
♜	-15235
♤	-15236
♬	-15237
⚒	-15238
⚓	-15239
⚪	-15240
⚫	-15241
⛅	-15242
⛈	-15243
⛏	-15244
⛵	-15245
⛺	-15246
✇	-15247
✈	-15248
✋	-15249
✘	-15250
✝	-15251
✞	-15252
✤	-15253
✶	-15254
❎	-15255
❘	-15256
❶	-15257
❷	-15258
❸	-15259
❹	-15260
❺	-15261
➀	-15262
➁	-15263
➂	-15264
➓	-15265
➟	-15266
➨	-15267
⠀	-15268
⦁	-15269
⪚	-15270
⬅	-15271
Ⰲ	-15272
Ⰽ	-15273
Ⰾ	-15274
Ⱀ	-15275
Ⱁ	-15276
Ⱏ	-15277
Ⱐ	-15278
Ⱑ	-15279
々	-15280
〇	-15281
〉	-15282
ぐ	-15283
ぬ	-15284
ね	-15285
ば	-15286
ひ	-15287
ほ	-15288
む	-15289
ょ	-15290
゚	-15291
ァ	-15292
ゥ	-15293
ゴ	-15294
ヤ	-15295
ヵ	-15296
㒚	-15297
㞡	-15298
下	-15299
不	-15300
两	-15301
並	-15302
丰	-15303
为	-15304
丽	-15305
之	-15306
九	-15307
书	-15308
乳	-15309
予	-15310
争	-15311
亚	-15312
些	-15313
产	-15314
亲	-15315
从	-15316
付	-15317
价	-15318
伊	-15319
伎	-15320
休	-15321
伟	-15322
传	-15323
但	-15324
低	-15325
佛	-15326
來	-15327
例	-15328
侘	-15329
依	-15330
価	-15331
俗	-15332
保	-15333
俠	-15334
俳	-15335
偏	-15336
偵	-15337
偶	-15338
催	-15339
先	-15340
共	-15341
兵	-15342
具	-15343
典	-15344
册	-15345
准	-15346
几	-15347
刀	-15348
切	-15349
刑	-15350
划	-15351
则	-15352
刚	-15353
初	-15354
別	-15355
剎	-15356
剣	-15357
务	-15358
动	-15359
助	-15360
勝	-15361
包	-15362
區	-15363
千	-15364
半	-15365
协	-15366
卫	-15367
卷	-15368
历	-15369
参	-15370
叉	-15371
及	-15372
双	-15373
反	-15374
叔	-15375
取	-15376
口	-15377
只	-15378
叫	-15379
右	-15380
司	-15381
吉	-15382
同	-15383
后	-15384
含	-15385
吴	-15386
吹	-15387
呼	-15388
問	-15389
啤	-15390
嘉	-15391
嘘	-15392
器	-15393
噶	-15394
嚘	-15395
嚪	-15396
四	-15397
図	-15398
園	-15399
圣	-15400
圳	-15401
坡	-15402
垂	-15403
域	-15404
基	-15405
堅	-15406
增	-15407
壌	-15408
复	-15409
夏	-15410
多	-15411
夢	-15412
头	-15413
奇	-15414
奠	-15415
奪	-15416
她	-15417
始	-15418
威	-15419
娘	-15420
字	-15421
孝	-15422
宁	-15423
它	-15424
守	-15425
宋	-15426
宣	-15427
宪	-15428
害	-15429
宵	-15430
寂	-15431
寶	-15432
寻	-15433
対	-15434
將	-15435
尋	-15436
尝	-15437
展	-15438
屬	-15439
峡	-15440
嵐	-15441
巻	-15442
希	-15443
帕	-15444
帖	-15445
带	-15446
師	-15447
帮	-15448
帯	-15449
常	-15450
帽	-15451
幸	-15452
庁	-15453
広	-15454
床	-15455
库	-15456
应	-15457
底	-15458
庙	-15459
庚	-15460
府	-15461
座	-15462
庭	-15463
建	-15464
引	-15465
弫	-15466
弾	-15467
彦	-15468
彩	-15469
影	-15470
役	-15471
往	-15472
待	-15473
徹	-15474
心	-15475
快	-15476
念	-15477
态	-15478
思	-15479
急	-15480
怪	-15481
恥	-15482
恭	-15483
惊	-15484
惠	-15485
愉	-15486
慨	-15487
慷	-15488
戌	-15489
戏	-15490
户	-15491
戸	-15492
批	-15493
承	-15494
技	-15495
把	-15496
护	-15497
抦	-15498
抯	-15499
抲	-15500
拥	-15501
拼	-15502
按	-15503
掌	-15504
探	-15505
控	-15506
揃	-15507
揈	-15508
揌	-15509
揚	-15510
揟	-15511
搜	-15512
摘	-15513
撃	-15514
政	-15515
教	-15516
散	-15517
整	-15518
敵	-15519
料	-15520
斯	-15521
施	-15522
既	-15523
昉	-15524
易	-15525
暁	-15526
暦	-15527
暴	-15528
曲	-15529
更	-15530
朗	-15531
末	-15532
材	-15533
杞	-15534
条	-15535
杷	-15536
枇	-15537
林	-15538
果	-15539
栄	-15540
校	-15541
根	-15542
桂	-15543
案	-15544
梅	-15545
棒	-15546
楞	-15547
業	-15548
概	-15549
樂	-15550
樹	-15551
橋	-15552
檃	-15553
止	-15554
正	-15555
歧	-15556
歩	-15557
殺	-15558
母	-15559
毕	-15560
气	-15561
永	-15562
求	-15563
汐	-15564
決	-15565
沟	-15566
沢	-15567
沼	-15568
泊	-15569
波	-15570
泥	-15571
洁	-15572
洋	-15573
洹	-15574
流	-15575
涟	-15576
淮	-15577
測	-15578
湛	-15579
準	-15580
溪	-15581
漫	-15582
潟	-15583
[...]
